#version: 0.2
Ġ t
Ġ a
i n
o u
Ġ w
Ġ s
h e
r e
Ġ m
o n
Ġ c
. .
Ġ i
l l
Ġ y
Ġt o
Ġ I
h a
Ġ b
o r
in g
Ġ d
Ġy ou
e r
Ġ f
Ġ l
Ġ n
Ġ g
n d
Ġ p
Ġt he
Ġ u
a n
v e
o m
e s
a t
o w
e t
a y
a r
Ġ T
i t
Ġ S
s t
e d
e n
Ġ o
o t
.. .
Ġ H
Ġ ha
l e
Ġ in
Ġ W
i s
Ġ h
ha t
a ll
Ġm e
Ġ C
Ġ A
Ġ on
Ġa nd
l y
Ġ e
Ġi s
a s
Ġ re
Ġ Y
i c
Ġ 2
Ġi t
Ġt h
k e
Ġ N
0 0
Ġ M
Ġo f
Ġf or
a l
Ġb e
Ġ 1
i d
o o
Ġ D
g h
u t
Ġ U
a c
Ġw e
Ġ B
i ll
om e
Ġm y
r i
i m
Ġ O
Ġ he
Ġyou r
Ġs t
Ġ P
en t
a m
Ġ G
Ġs e
x t
a d
ou t
gh t
Ġt hat
Ġha ve
Ġ &
Ġ r
v er
o p
on e
Ġc all
Ġ F
u st
' s
Ġ k
Ġ j
Ġa n
Ġ 0
Ġg o
Ġd o
Ġl i
l d
Ġ L
Ġc an
s e
c h
Ġ or
it h
Ġ 4
Ġa re
Ġn e
r y
Ġa t
5 0
o b
Ġg et
l t
Ġn ot
Ġn ow
Ġs o
' m
he n
ĠY ou
Ġw ith
i on
p p
u n
an t
Ġt e
' t
es s
i r
on t
Ġw ill
Ġf r
i l
n t
i ght
c t
Ġl o
g t
Ġs h
Ġu r
Ġa s
u r
g e
c e
Ġu p
oo d
Ġ 8
d ay
Ġk n
Ġ R
a ke
Ġw or
he r
Ġb ut
Ġ out
Ġp l
ha n
# &
; #&
t h
e p
t er
ou r
at e
Ġkn ow
o re
Ġa l
a b
o l
Ġ J
Ġfr om
e a
in e
Ġp r
u m
i le
u s
ou ld
Ġ0 8
: )
Ġ .
Ġ v
Ġw h
Ġw hen
e l
ĠN o
Ġan y
o s
Ġ E
Ġj ust
k ing
e ar
Ġth is
i f
Ġi f
Ġa ll
im e
Ġli ke
ic e
Ġa b
Ġd ay
es t
Ġg ot
' ll
i ve
ver y
Ġ 3
Ġa m
E E
e nd
Ġw ant
ĠH a
Ġw as
ĠH e
re e
c k
Ġc ome
l a
ar t
ac k
Ġthe re
in k
Ġ ?
Ġwe e
9 0
Ġt ime
Ġc om
in d
ĠC all
ĠI t
Ġn o
ĠW e
Ġs ome
er s
r a
Ġs u
all y
00 0
Ġs p
is s
ĠO k
Ġw hat
ar d
u d
Ġf e
Ġon ly
ic k
Ġte xt
Ġ \
he re
Ġthe n
7 1
a re
Ġ 5
ĠH ow
Ġne ed
Ġl a
Ġ K
I N
o d
Ġlo ve
Ġ ...
it e
o y
Ġse nd
ob ile
Ġb y
Ġl or
Ġl at
s g
Ġh ome
Ġab out
is h
ĠF R
Ġg ood
e m
a in
b er
or ry
Ġ0 90
re at
Ġwee k
ou nd
re d
Ġon e
Ġp h
as e
a ge
Ġgo ing
O N
a it
o st
x x
Ġd a
Ġd id
am e
n ing
e ct
ĠD o
p t
ĠT he
Ġo k
Ġh ow
7 0
q u
on g
Ġb ack
i e
u y
Ġa r
Ġw at
Ġs m
Ġth ink
Ġse e
ad y
f f
Ġ _
Ġs a
: -
Ġm in
Ġst ill
e c
op e
Ġre p
Ġ V
\ "
i g
v ing
Ġm a
Ġof f
Ġas k
l s
re s
ĠI f
ĠB ut
Ġhe r
r ow
Ġa w
Ġs ay
Ġm u
ac t
Ġd on
ĠT h
le ase
Ġit s
ĠFR EE
n a
Ġ our
Ġto day
Ġte ll
Ġlat er
ĠT o
ri end
N T
Ġf ree
Ġ1 50
Ġ *
or t
ĠW hat
Ġto o
u b
Ġc o
Ġu s
ĠS o
Ġbe en
ac e
h ing
Ġa f
at ion
Ġha pp
Ġme et
la im
! !
k s
Ġha s
ri ght
ĠJ ust
f e
i a
Ġe very
w w
A L
A T
Ġ 6
Ġhe re
Ġ08 71
m m
Ġwh o
s o
z e
ĠS orry
Ġph one
Ġs he
am p
Ġm ess
E R
a nd
m or
Ġw on
Ġc l
Ġth ing
id e
u l
Ġne w
Ġn um
Ġh im
Ġe x
Ġm iss
Ġm obile
Ġn ight
ĠYou r
Ġl e
Ġu n
oo k
th ing
6 6
Ġmu ch
Ġ -
Ġf riend
Ġwor k
Ġ qu
Ġt xt
Ġt ake
Ġc ont
:- )
O U
Ġw ait
ĠM y
h i
Ġrep ly
l f
Ġw ay
Ġd ont
as s
c o
e e
Ġm an
ĠN O
Ġ 7
Ġa d
Ġthe y
ĠA nd
O R
Ġl ea
ĠS t
Ġg ive
ow n
t ing
Ġm ore
.. ..
Ġd e
ĠH i
Ġaf ter
V E
a g
c c
o ve
w ay
ĠHa ve
ĠHe y
3 0
Ġg reat
ri ze
ĠC an
as h
ĠG ood
Ġcom p
2 0
a st
re ady
Ġf in
' ve
u p
Ġt han
Ġa g
Ġm ake
Ġe ve
Ġfe el
mor row
Ġnum ber
' re
A R
o x
Ġ right
Ġt on
Ġw an
Ġc on
Ġb r
ĠT han
a p
c om
Ġ en
ĠS T
le ep
Ġr o
Ġal ready
Ġpr ob
a k
a il
Ġ ke
Ġm sg
w e
om et
ĠP O
a u
Ġs er
Ġto morrow
Ġst op
Ġdo ing
I T
i st
Ġt ry
ou gh
Ġi m
Ġb ab
ea h
Ġmess age
O P
Ġw ww
Ġthe m
ĠT hat
t her
Ġsh ould
d er
r u
Ġc he
Ġc laim
ĠT e
n y
ĠT xt
Ġha d
oo l
ĠU R
Ġsh ow
Ġsa id
2 2
4 0
X X
b e
n o
Ġc are
Ġp er
ĠT H
ĠA re
i al
o in
u ck
ĠO h
ĠTh is
ha r
or ning
ou nt
Ġs leep
Ġs omet
Ġp ick
ĠU r
8 0
E S
Ġ (
Ġa pp
Ġp rize
ĠN ot
ac h
Ġcont act
Ġw ould
Ġb l
Ġb et
Ġl et
ot her
Ġre ally
N D
Ġd own
ar y
ĠY es
g et
l p
Ġc ash
Ġb uy
1 0
G E
Ġw here
Ġd ear
an s
al k
one y
ĠIt s
Ġco ll
e w
ou s
Ġwe ll
ĠO r
ĠP ls
ĠG O
Ġ :)
Ġ very
Ġs ent
Ġg u
Ġsu re
Ġag ain
n er
Ġc ar
Ġf ind
ĠY OU
Ġ1 0
res s
2 3
v ice
it y
ic h
Ġbe f
ĠO n
Ġli fe
8 8
u k
ĠP lease
ĠST OP
Ġke ep
i es
l ine
m ent
o se
t s
Ġm orning
Ġc h
ust om
Ġaw ard
A S
u re
Ġc ould
Ġd is
Ġo ver
Ġo ther
ir st
Ġ090 6
Ġsomet hing
u ff
Ġ ent
Ġin t
Ġe nd
Ġlea ve
Ġbef ore
4 5
I S
L L
Ġc han
Ġg on
id ay
Ġst art
ĠF ree
Ġpl ay
ab le
Ġsp ec
Ġla st
Ġar ound
I M
Ġw in
Ġd r
Ġd at
Ġd un
Ġl ate
Ġg uy
Ġre m
Ġpl ace
Ġany thing
ers on
b le
Ġ !
Ġ '
ou ght
Ġy ear
Ġp lease
ĠS he
Ġh ope
ĠL ol
Ġne xt
Ġso on
Ġwor d
way s
ustom er
A N
Ġ 9
ĠT hen
Ġe ar
Ġton ight
au se
1 8
C s
k ia
Ġm ay
ĠI s
or m
ĠW h
ĠY eah
ĠD ear
Ġcan t
IN G
Ġfriend s
Ġgon na
1 50
r s
re n
Ġm oney
Ġc os
Ġl ot
ont h
Ġal so
1 2
i z
Ġa cc
Ġc har
ĠI n
Ġp e
ĠW hen
Ġ1 6
Ġwat ch
7 7
8 7
f t
o v
u ll
Ġ x
Ġw ent
Ġto ld
Ġwe re
pp y
Ġpl an
Ġman y
* *
a v
m in
Ġ X
ĠW at
ĠD id
ad e
Ġ8 00
ep ly
if e
Ġmin ut
Ġcoll ect
1 1
g g
m s
p er
s c
Ġm at
Ġf irst
Ġp art
is e
Ġh our
Ġre ce
Ġcom ing
ĠNO W
3 4
M S
u z
Ġt r
Ġb us
Ġd in
Ġe at
ion s
pp m
ĠR eply
ON E
Ġhapp en
Ġthing s
Ġser vice
Ġbab e
I C
a h
r o
u e
w or
he d
he s
Ġy et
Ġh is
op le
se lf
ĠNo kia
Ġla nd
O M
e ver
o ke
Ġs c
Ġs ch
re am
Ġp ay
Ġp erson
ĠS h
Ġe m
Ġ1 8
Ġhe lp
un ch
Ġsome one
A Y
e ed
l o
ou se
on d
Ġb oy
Ġp ic
ĠH ope
ĠA ny
Ġst uff
Ġan s
ĠHa ha
ĠHa ppy
Ġhapp y
Ġcl ass
ĠThan ks
Ġspec ial
Ġpe ople
2 4
E D
c ess
Ġt ri
Ġd ri
Ġl unch
Ġg ir
Ġp re
ĠA s
Ġre s
Ġget ting
Ġal ways
Ġwh y
Ġwh ich
od e
Ġro om
A NT
L Y
i re
l i
r at
Ġw ish
Ġm onth
ll o
Ġp o
ĠW here
ĠM obile
Ġ1 000
Ġse c
ĠF or
Ġdo es
ĠL O
Ġ08 70
os s
ĠTe xt
n g
p m
t y
w ard
Ġb it
Ġf ine
Ġl ine
Ġh i
Ġj ob
ol iday
Ġ090 5
Ġwait ing
Ġeve n
a o
j oy
o ll
t one
Ġs ha
Ġs at
Ġf un
nd s
ar k
ĠY up
ĠN ow
op p
ra w
Ġad d
Ġprob le
6 0
E C
O D
U S
ou c
Ġc ustomer
Ġl ong
Ġu se
an ce
Ġin f
Ġth ought
ĠG et
Ġfe w
Ġ5 00
Ġdid n
GE NT
3 9
O W
f ul
o ld
on es
Ġd one
Ġl ar
Ġg r
an ge
le ct
Ġre al
Ġbe ing
Ġday s
ĠWe ll
ĠTo day
Ġtry ing
sc ri
? ?
p le
p ort
Ġs orry
Ġb ig
Ġn ice
Ġn ame
Ġre ady
Ġth k
Ġbe c
Ġ1 2
Ġ1 00
Ġfin ish
i ly
i ous
o g
o ot
Ġt w
Ġa ct
Ġb at
Ġb ir
Ġb est
Ġf l
ĠS end
Ġha ving
ĠM e
ĠG ud
Ġr ing
Ġat t
Ġpl s
Ġwee ke
\" "
Ġmeet ing
we et
ĠUR GENT
Ġrece ive
g ot
k es
Ġ +
Ġt alk
Ġs ame
Ġm ind
Ġb ed
Ġd raw
ĠS p
ĠW ill
Ġ2 00
Ġli ve
ĠL ove
ound s
ouc her
' d
B ox
L E
X T
u ally
in s
Ġd ec
Ġl ook
ar ch
Ġh ouse
im es
Ġhe art
ĠR e
Ġ08 000
od y
Ġmin s
ide o
Ġproble m
O X
i x
m as
t e
t le
Ġ Q
or y
Ġn et
it s
ĠD ont
Ġli ao
ab ly
Ġpr in
ĠHe llo
ag es
Ġaward ed
1 6
5 5
7 8
d e
u v
Ġ :
on s
Ġc hat
er a
Ġl oo
Ġl ess
ĠA m
ĠM E
ĠO N
ea k
hi p
Ġbr ing
Ġche ck
Ġshow s
Ġbet ter
Ġdin ner
R E
p d
s ub
Ġs l
re nt
Ġd el
Ġd if
Ġf ace
Ġp a
an y
es ter
ĠA ll
as y
Ġst ay
Ġse lect
Ġ\ "
ĠThe y
ong rat
ĠV al
Ġint o
Ġguy s
3 8
c l
i v
r d
u lt
Ġc am
ĠP r
Ġse x
Ġan other
il es
ur n
ud e
em ber
AL L
AT E
Ġwon der
Ġqu est
3 6
A M
H AT
U T
g ent
k k
l et
Ġs et
Ġi ll
Ġy a
Ġh ur
ĠN ew
ĠD on
Ġr un
Ġne ver
Ġsh it
Ġpr o
ĠE x
Ġsm ile
opp ing
Ġbec ause
g ry
m r
m sg
Ġa h
Ġw r
Ġm ob
Ġc hi
Ġl it
nd er
Ġha lf
ĠC laim
ĠC ongrat
Ġe l
ĠM ay
ĠB ox
ĠG o
Ġcall ed
ol a
EE D
Ġsu pp
Ġapp ly
Ġ0906 1
Ġear ly
wor k
Ġweeke nd
1 5
2 6
c or
p l
u h
Ġ ,
Ġt a
Ġw k
Ġs w
Ġm ight
ĠI S
Ġp ut
Ġp ost
an k
Ġo p
ĠB A
Ġhe ar
ĠP l
xx x
we en
ĠTH E
Ġbet ween
Ġans w
Ġgir l
Ġbir th
1 4
A P
R I
T H
U C
Ġw ont
Ġm om
ĠI N
en ce
ĠC ost
ĠA l
Ġj oin
if t
Ġlat est
Ġdid nt
Ġoff ice
Ġle h
Ġgu ess
Ġchan ce
9 9
c king
h rs
i y
o ck
Ġt ra
Ġa v
in ce
Ġw if
Ġs un
Ġs weet
Ġi d
Ġb ad
Ġd et
Ġp oin
ĠS ee
Ġo h
ĠA ight
Ġe ver
Ġre ach
Ġfor got
Ġk iss
Ġli st
Ġv oucher
ation s
Ġle ft
Ġqu ite
Ġen ough
ail s
ĠWh y
Ġminut es
lo ad
Ġtw o
Ġselect ed
Ġlit tle
e ll
m e
t a
t t
w n
z y
Ġ :-)
Ġt ru
ou ble
Ġc ra
Ġc ool
er t
Ġp ain
Ġp ass
at her
ar ant
it ed
Ġin v
Ġme an
ĠC ALL
ĠG ot
ĠR E
Ġwor king
Ġ08 00
Ġ090 66
Ġma il
Ġland line
Ġprin cess
Ġloo king
4 4
a ve
i p
l es
u es
w here
y p
Ġ ..
Ġm r
Ġm ov
Ġm ade
Ġy eah
Ġto t
ĠI M
Ġb ook
Ġd en
Ġd ream
Ġl uv
an g
ĠS P
Ġe asy
Ġre g
ĠN E
ĠD un
Ġhe ad
Ġwith out
nt il
Ġwor ld
Ġwh ile
Ġevery thing
Ġ0871 87
Ġbab y
ĠTe ll
ĠOn ly
ĠLO VE
Ġel se
arant eed
0 8
2 1
6 9
K E
M ob
i er
n ow
r om
t xt
Ġ !!
Ġt v
Ġt one
Ġt est
re t
re ak
Ġc ost
Ġc ame
ĠI m
Ġf ull
Ġu ntil
ve n
Ġha v
Ġha ir
Ġbe l
Ġst ud
am es
Ġgo es
Ġlo g
ol our
Ġv al
Ġv ideo
Ġab le
Ġwant ed
Ġtext s
Ġask ed
Ġsay s
Ġthan ks
Ġwan na
Ġcon f
Ġgu aranteed
Ġcollect ion
Ġsch ool
Ġnet work
Ġansw er
Ġbirth day
Ġdet ails
2 8
A E
E LL
O T
n et
s s
Ġt imes
Ġt mr
Ġa c
Ġs it
Ġs im
Ġm ost
Ġd ad
Ġf am
an c
at es
ĠT here
it her
ĠS MS
as on
Ġre nt
Ġth ough
ĠM Y
ĠU P
ĠG U
Ġ8 70
Ġab t
Ġaw ay
Ġaw ait
ation al
Ġeve ning
Ġprob ably
no on
ĠGO OD
Ġent ry
Ġrem ember
Ġacc ount
Ġsex y
2 5
f ter
l ess
p r
p ect
t o
u nd
Ġa p
Ġs ur
Ġc le
Ġc red
Ġto m
Ġto wn
ĠI T
et s
ar l
ot h
ĠW ON
Ġh oliday
Ġme ans
Ġon ce
ĠY a
ĠY ES
ic al
Ġ2 000
Ġth ose
Ġsh opping
em pt
Ġen joy
ĠOr ange
Ġatt empt
D EC
S T
g s
m a
w k
Ġ XX
Ġt ill
Ġw alk
Ġs ince
Ġm ust
Ġc r
ĠI d
Ġl uck
Ġg ift
Ġu nder
it ion
Ġo so
ĠH mm
Ġha nd
Ġh ot
Ġon line
Ġ1 1
ĠU K
ĠB e
ĠG reat
ĠL I
Ġwor ry
ore d
are nt
ie ve
Ġle i
AR ANT
ĠPO Box
IM AL
Ġtri p
ire ct
port ant
ĠVal id
Ġquest ion
ĠGU ARANT
DEC IMAL
ĠGUARANT EED
/ /
3 2
b r
b ody
c v
c ent
e re
g ed
h y
i an
i very
p ls
s ide
u al
Ġt il
Ġt ak
in king
ou ch
Ġw id
Ġm on
Ġm ar
Ġc ur
Ġc olour
Ġd i
Ġf ood
Ġf ast
it al
en s
ĠW IN
ĠA T
ĠD el
ĠU n
ĠB l
ĠG od
Ġcall s
Ġk ind
Ġsu b
Ġ5 000
Ġweek ly
Ġsm s
Ġma kes
Ġafter noon
Ġwatch ing
** **
av a
Ġtri ed
Ġdri ving
Ġsl ow
Ġcam era
Ġop en
Ġfam ily
0 4
3 5
4 2
9 5
I D
I ON
a a
a ut
e red
f ic
i res
o h
t ime
u g
u ite
Ġ :-
in es
Ġw ake
Ġto p
Ġto get
at or
ĠS AE
ĠH A
ĠH oliday
Ġha f
ĠW as
Ġh un
Ġh old
ĠA t
ĠA cc
Ġe ither
Ġre ad
ĠY o
ĠB OX
Ġyour s
ent s
Ġr ate
Ġj us
il ing
Ġlo se
Ġas s
Ġv is
os ed
Ġwant s
Ġcom es
xx xx
ff er
Ġsa w
Ġma king
Ġfin is
Ġfeel ing
ĠThan k
ap er
IT E
Ġim portant
Ġyear s
Ġword s
Ġ800 7
Ġhour s
Ġpo ly
Ġ0905 80
Ġadd ress
scri be
Ġact ually
Ġring tone
ester day
ĠEx p
tt p
yp e
Ġtoget her
: //
E T
I A
I G
I R
M sg
U R
b ers
l im
v a
re et
Ġm o
Ġm ed
Ġc ha
Ġc ut
Ġy esterday
Ġf uck
Ġp ub
ĠT ake
ĠS O
ĠS ir
st and
ĠH ad
Ġin c
Ġh ttp
ĠC h
ĠC o
ĠC am
ĠC os
ĠA r
ĠA iy
ĠA fter
Ġre ac
Ġ2 0
Ġ2 50
al king
ĠB ab
ri ed
Ġyour self
Ġst r
Ġst ory
Ġse arch
Ġthat s
Ġhave n
Ġcall ing
um m
Ġno e
ig n
Ġsay ing
Ġ0871 2
ĠThan x
ist er
Ġdis c
Ġdr ink
Ġsec ond
kk u
9 8
E L
E ND
a id
d s
e y
g r
h ow
i ate
i ally
j ect
n joy
o k
o ice
p h
s h
u i
u ct
z ed
Ġ $
Ġ es
Ġt reat
in ess
Ġs ir
Ġb ored
Ġp ounds
ve l
es ome
ĠT s
it ing
ĠS m
ĠS ome
le as
ĠW ant
Ġh op
ĠC he
Ġre t
Ġfor get
ri st
ĠP rize
ad s
ĠF riend
Ġj uz
ch ing
Ġnot hing
ir t
Ġ8 66
th s
if ul
em ed
Ġoff er
Ġtoo k
Ġmess ages
Ġmiss ing
Ġmiss ed
co z
ĠNO K
Ġ7 50
Ġcomp let
Ġton es
ĠThat s
IM E
Ġchar ge
Ġminut e
ĠSh ould
Ġdri ve
Ġsha ll
Ġ08000 9
Ġhur t
Ġchi kku
Ġtra in
Ġlist en
Ġtru e
Ġmov ie
ĠNE W
Ġbel ieve
Ġtom o
ĠFriend s
Ġ866 88
' '
7 5
E N
H L
L A
c ome
d y
i red
i ble
m an
p ly
t d
y a
y m
Ġ |
Ġt ick
Ġw it
Ġs now
Ġm ur
on us
Ġc or
Ġc our
Ġd irect
Ġn orm
Ġg al
Ġg ame
ĠT E
ĠT XT
st op
ĠC l
ĠC ode
ic t
ic es
Ġth inking
id ed
ĠB r
ĠO F
ĠP RI
ver s
Ġan gry
Ġgo in
Ġor der
ir m
ate ment
Ġpr om
Ġpr ice
Ġsp eak
Ġaf t
and s
Ġex c
Ġlea ving
ail able
40 2
Ġstart ed
Ġmay be
ĠX mas
gg ing
Ġem ail
ious ly
sub scribe
Ġta king
ĠBA B
Ġvoucher s
Ġdream s
ĠDun no
cv d
Ġcur rent
ĠAcc ount
Ġfinis hed
1 00
3 1
5 1
8 39
a z
b i
b ut
e x
f r
f ull
h h
i ving
l ed
m ore
p s
y l
Ġ =
Ġ xxx
in a
Ġw ar
Ġs k
Ġs is
Ġs ort
re ct
on y
Ġc al
Ġc ard
ĠI nd
ing s
Ġd ist
Ġf ix
Ġg ud
Ġthe se
Ġo ld
Ġo pt
Ġin st
ĠW in
ĠW ish
Ġre st
oo se
ĠD O
ĠD ouble
ĠU pd
ent if
ĠG u
Ġse ll
Ġhave nt
Ġr ite
op t
Ġgo d
Ġli ght
ĠL td
Ġkn w
Ġwor th
Ġpl z
Ġal one
Ġany way
ĠE njoy
70 5
Ġsm oke
Ġsm iling
res ent
Ġevery one
Ġnew s
30 705
Ġsleep ing
ĠUr gent
Ġdown load
Ġchan ge
Ġbus y
Ġpre t
Ġres p
Ġsec ret
Ġinf orm
ĠQ u
Ġless on
ĠCongrat s
Ġpoin ts
Ġstud y
Ġconf irm
arent s
Ġvis it
ĠExp ires
IG H
ĠNOK IA
ĠPRI V
B P
B OX
b y
d ate
e ge
e emed
f er
o on
t oy
Ġ et
Ġt ype
Ġw ed
Ġw il
Ġs ing
Ġm id
Ġm ove
Ġc ause
Ġi mm
Ġb oth
or n
Ġd ru
Ġf ar
Ġn a
ve d
ĠT O
ĠS H
Ġo per
Ġha rd
ĠW H
ĠC ustomer
ĠC HAT
Ġe v
ĠM iss
ĠD ay
ĠB onus
Ġst and
ĠP o
Ġse m
ĠL at
ĠL et
ĠL ast
un e
Ġfr nds
ur day
us ic
Ġv i
Ġany one
ĠOk ie
Ġwhat ever
red i
red eemed
Ġsm th
ww w
ER E
Ġcl ose
Ġun c
ĠSt op
ĠSt atement
Ġbr other
IT H
Ġdr op
Ġdat ing
Ġhappen ed
OM E
Ġboy toy
Ġpic s
Ġdoes n
oll ow
Ġinf o
ĠToday s
Ġdel ivery
cor der
ĠId entif
Ġtak es
Ġ090580 9
Ġ080009 30705
ĠTE XT
opt out
ĠPRIV ATE
ĠIdentif ier
3 3
4 6
L D
O K
S uite
U pd
a ir
c har
i gh
j i
n ot
n ight
n ect
t he
w in
w hat
y s
Ġt er
Ġt ouch
in t
Ġs ad
Ġm ine
Ġc hen
Ġb ill
or s
or row
Ġd arl
er y
Ġf u
Ġf ollow
Ġn t
Ġn ite
Ġg one
Ġp oss
Ġp ark
Ġthe ir
at ing
at ed
at ive
ĠT en
ĠS ha
Ġo redi
ĠW ait
ĠW OR
ĠW ITH
Ġh it
ĠC D
ĠC ome
ĠA S
ĠA ct
ĠA ls
Ġth o
ĠN ope
ĠM ob
ĠM sg
Ġbe aut
oo oo
ut h
ĠB T
ĠO UT
ĠO ffer
ĠP h
Ġse a
Ġsh ort
Ġ8 0
Ġout side
ĠE ven
Ġ3 0
Ġneed s
od a
Ġweek s
na i
ul ations
Ġun subscribe
Ġlea st
ĠSt ill
Ġcomp ut
Ġcomp any
ĠTH AT
ĠNot hing
Ġ' '
Ġear li
Ġlot s
Ġmat es
34 2
IC E
ĠMobile Upd
US T
Ġdec ided
Ġ08000 839
Ġwonder ful
AM E
Ġpro ject
ĠCongrat ulations
ĠGo ing
Ġav ailable
Ġval u
ere st
Ġ:- (
ĠBab e
uct ion
Ġcomplet e
ĠUpd ate
Ġpret ty
IGH T
Ġoper ator
Ġchen nai
ĠAls o
Ġ08000839 402
- )
7 3
7 4
7 50
L V
L ands
W Q
d o
g n
i ze
v ices
y ou
Ġ @
Ġ ve
Ġ 50
Ġ own
ou n
Ġw is
Ġs ong
Ġs ister
Ġm en
Ġc ou
Ġc at
Ġc op
Ġc ine
Ġc um
Ġy o
Ġy r
Ġb t
or d
Ġf ore
Ġf ren
Ġl ect
Ġn i
Ġn y
Ġg d
Ġp m
ve al
at h
ĠT ONE
ot or
Ġin ter
ĠW an
ĠW ith
Ġme ant
ĠC H
ĠC R
ĠC AS
Ġe xt
Ġe ach
Ġre qu
ic s
id s
ĠO ur
ĠF rom
Ġ0 7
ĠL o
Ġsh op
ur b
ur s
ĠR em
us s
pt ion
Ġok ay
Ġoff ers
ĠTh ink
Ġtell ing
Ġus ed
Ġwho le
Ġex p
Ġex am
Ġfin al
AR D
AR T
Ġcoll ege
Ġint erest
Ġtr ans
Ġsc ream
ĠSp eak
Ġdif fic
Ġwr ong
Ġsupp ort
Ġ09066 36
08 71
ĠXX X
ava Mob
Ġret urn
Ġcour se
Ġearli er
ĠCAS H
Ġdiffic ult
0 3
1 9
9 1
C M
L O
S H
S LV
T T
Y L
b ook
c all
c are
c hes
g o
g y
g in
g er
l ing
m ber
m ost
m ths
u gh
v r
Ġ ;
Ġa ge
Ġw ot
Ġs ide
Ġm um
Ġc ode
.. :)
Ġb out
Ġb ra
Ġb reak
Ġd es
er ry
Ġf ri
Ġf il
Ġf ound
Ġf ig
Ġf av
Ġg ym
Ġp ar
Ġp aper
ve y
ow er
ar s
ĠT r
ĠS U
ĠS ub
ĠS ony
ĠS avaMob
ot e
ĠH I
ĠW ife
ĠC ool
ĠY ar
ĠY ear
Ġth r
al ance
ĠB SLV
ĠG r
ĠG ee
Ġr a
op s
ĠF OR
Ġan n
50 4
Ġwith in
Ġfr iday
Ġur gent
Ġpl us
el p
Ġany time
ĠE N
ĠE very
Ġ3 50
Ġwas n
Ġsp end
Ġfe lt
Ġph ones
ie w
Ġar d
Ġthink s
Ġsee ing
Ġma h
Ġma x
Ġhapp iness
fe ren
Ġnum bers
Ġcont ent
.... ....
Ġde al
Ġmsg s
Ġser vices
Ġim p
ĠYOU R
IS S
Ġplay er
Ġdun no
ĠWh o
ĠAny thing
Ġgir ls
ward s
oot h
Ġ200 3
ĠRE AL
anc y
Ġ870 66
Ġluck y
32 7
oh n
ĠHA VE
Ġhun gry
rist mas
Ġ| |
Ġcor rect
ĠBAB E
Ġcurrent ly
ĠGu ess
Ġet c
Ġfu cking
Ġbeaut iful
Ġcomput er
Ġcou ple
otor ola
ĠBSLV YL
2 00
6 1
6 8
8 6
C H
E Y
E NT
H ONE
I L
I P
I LL
R Y
S MS
U D
U N
b s
i ence
m p
n e
r ic
r act
t in
u se
v iew
Ġt alking
Ġa ff
Ġw en
Ġs ound
Ġs ign
Ġm od
Ġc a
Ġc ount
Ġi p
Ġto r
Ġb as
Ġb oo
Ġd ep
Ġd ate
Ġd ude
Ġf all
Ġf act
Ġf ather
Ġg l
Ġg as
Ġg ames
Ġp ri
Ġp ur
Ġp leas
et e
ay s
ar ren
it ions
ĠH M
ĠW or
Ġh or
ĠC r
ĠA ND
ĠA RE
Ġis n
Ġre f
Ġre ason
ĠM a
Ġfor ward
ĠD ad
ĠD AY
ĠU gh
ĠB y
ent ary
Ġse em
Ġr u
Ġr ain
Ġk ick
Ġj o
Ġli k
ĠL i
Ġ4 0
Ġare a
Ġne va
Ġget s
Ġlo c
ce pt
Ġkn ew
Ġal right
Ġal most
ĠJ us
if f
ĠHe e
ĠOk ay
Ġph ot
ĠDo es
Ġask d
!! !
Ġ6 9
Ġ0871 5
ER S
OR E
OR N
Ġcomp lim
Ġthan k
Ġcon nect
Ġro ck
ĠPO BOX
ĠTH IS
Ġbl ue
ĠOn e
Ġ0906 40
Ġend s
Ġwin ner
ĠWh ich
Ġfriends hip
Ġchar ged
ĠWat ching
Ġpic king
Ġ0905 00
60 3
Ġchi ld
ĠMay be
Ġsupp osed
Ġsw ing
Ġpoin t
Ġcra zy
Ġinv ited
Ġmr ng
Ġsim ple
Ġunder stand
ĠBl u
ĠCam era
gr ins
ĠSm ile
fr nd
full y
Ġdist urb
ĠQu iz
Ġsem ester
Ġthr ough
Ġcomplim entary
3 34
8 4
8 22
A D
C K
P O
S S
T ION
V ER
a i
b iz
c es
d on
e le
f ind
n ed
p ital
r ing
r ate
r oss
r cvd
Ġt ired
Ġa ir
Ġw a
Ġs y
Ġs en
Ġs al
Ġs il
Ġm ate
Ġc ase
.. !
Ġy es
Ġy og
ĠI F
ha s
Ġb ud
Ġd nt
er al
Ġl ink
Ġg ra
et t
ĠT IME
ĠS k
ĠS at
ĠS un
st er
ĠH G
ĠH uh
ĠH elp
ĠC hat
ĠC han
ĠC oll
ĠA bi
Ġe g
Ġe y
Ġ2 5
Ġ2 8
ke y
ĠN ICE
ĠM orning
ĠM otorola
al ity
id er
id ent
ĠD e
ĠD ude
ĠB E
ri es
Ġhe ard
Ġse en
ĠF ANT
Ġj ay
Ġ0 77
ĠL ife
Ġfr m
Ġlo l
Ġlo st
ur ing
ce ll
Ġup date
Ġpl ans
ol ice
Ġpr ay
Ġv oice
Ġwhen ever
os pital
Ġ3 6
la nd
ĠCall s
Ġsome where
Ġla pt
Ġla ugh
Ġsend ing
Ġsm all
Ġsa fe
Ġma g
Ġ0871 24
mor ning
Ġad m
Ġad v
Ġde f
Ġde ep
Ġfin ally
Ġag o
ĠPO LY
Ġche cking
Ġshow er
Ġch oose
Ġent ered
ĠFree Msg
Ġmay b
iz z
min s
Ġpart y
uz z
Ġbat h
te xt
de red
ĠON LY
ĠVal ent
Ġquest ions
Ġmob iles
ĠPl us
ĠAl right
Ġcra ve
Ġcle an
Ġcred it
ĠHmm m
char d
Ġvalu ed
Ġext ra
feren ce
ĠHM V
ĠAbi ola
ĠFANT AS
Ġlapt op
4 1
4 7
4 9
6 2
8 9
9 00
? !
C E
D AY
N O
N OW
O L
P Y
R A
T xt
d a
f one
h s
i b
l ove
n ess
n ite
n ational
t u
t hen
t ones
w h
w ee
w ise
Ġ ll
Ġ er
Ġ ed
Ġt en
Ġa uction
ou p
Ġw ife
Ġs ick
re r
re en
Ġm ad
Ġm ist
Ġm arch
Ġm usic
Ġc ud
Ġb ag
Ġb ank
Ġf ill
Ġf ight
Ġf la
Ġf oot
Ġg en
Ġg ap
Ġg ave
an e
om orrow
et ooth
ĠT C
ĠS K
ĠS W
ĠS er
ĠS ol
ĠS ounds
st d
ed iate
... !
Ġha nds
Ġin d
ĠW AS
Ġh o
ĠA G
ĠA h
ĠA LL
Ġre l
Ġre ward
Ġre cent
ĠN e
ĠN ah
ĠN AME
ĠN TT
ĠM O
ĠM m
ĠM ake
ĠM mm
ĠM US
al i
Ġbe ll
ut e
ĠU N
ĠB t
ĠO ther
ĠO ops
Ġse lf
out h
Ġr ates
Ġr ply
ĠF in
ĠF uck
Ġor chard
Ġne ar
ob ody
un t
Ġte l
Ġlo ving
Ġlo ads
Ġ8 50
Ġ8 22
ĠR ing
us h
Ġv ia
Ġgot ta
Ġ3 00
art ment
Ġcom m
ĠCall er
Ġlove d
Ġlove ly
ĠFR ND
pt y
Ġrep resent
ĠV ideo
Ġaw esome
ĠTh k
Ġco z
Ġus ual
fe rent
Ġcl ub
Ġex per
Ġqu ick
Ġtxt s
Ġtxt ing
ast e
up id
Ġthan x
Ġfeel s
Ġwan a
Ġcon s
au ght
get zed
Ġcar l
Ġent er
Ġleave s
Ġrem ove
12 1
Ġacc ess
ro om
hes h
Ġem pty
ĠAny way
ire r
Ġmonth s
Ġsat urday
scri ption
Ġbat he
Ġdif ferent
Ġwr ite
uh ui
Ġwk ly
UC K
ert une
ELL O
Ġac ross
ĠLI VE
Ġslow ly
ĠCo z
Ġreac hed
Ġ08712 40
Ġdisc ount
sh ine
ĠChe ck
ĠCl ub
Ġwar m
Ġfix ed
Ġdru gs
ĠLat est
ĠSha ll
ĠAct ually
ĠPh one
Ġrequ est
Ġfil m
Ġfig ure
ĠBlu etooth
ediate ly
ĠMUS IC
Ġrepresent ative
- -
. \""
2 50
2 20
9 7
; -)
> >
A KE
C HAT
I F
I X
I VE
T h
a ly
b o
b oy
c y
d ew
f l
g es
g ues
i j
i o
i ed
r it
s n
t ake
u x
w esome
z z
Ġ #
Ġ ....
Ġt urn
Ġs la
he ad
re c
Ġc ent
Ġc ele
.. \"
Ġi P
ĠI ll
ha m
Ġb b
Ġb ox
Ġd ie
Ġg ay
Ġg ent
Ġp ack
an u
ve nt
at er
at ar
ar a
ĠT one
ĠT OD
ĠS ame
ĠS weet
Ġo b
Ġo pp
ĠH ear
ĠH AP
le y
Ġin s
ĠW en
Ġh uh
Ġh ospital
Ġme h
ĠC s
ĠC ant
ĠA rd
ĠA wesome
Ġon es
Ġit self
Ġth t
ĠN et
ĠN ight
ĠN ever
ĠN eed
ĠM an
ĠM ess
ĠM ore
ĠM um
ĠM ins
ĠM UC
ĠD en
Ġwe ar
Ġwe ed
ĠB oy
ĠB ec
Ġmy self
ĠO f
ĠO m
ĠO pt
Ġhe ll
Ġst y
ĠP erson
ĠP IC
ĠP arents
Ġr ound
Ġr and
ĠF IN
Ġfr nd
ct or
Ġlo v
Ġlo ver
Ġas king
ur o
Ġ8 71
Ġ8 80
Ġwor ried
Ġwor ries
ol og
ea gues
Ġpr act
us ed
Ġ08 45
ĠE X
ĠE r
if y
ck s
Ġcom in
Ġno on
iss ed
ĠHow s
Ġla zy
ĠDo gging
Ġar ri
ĠV oucher
ĠV ery
ĠV oda
ig er
Ġoff ic
Ġus f
Ġus ing
Ġ0871 23
Ġex pect
OU T
ĠGood morning
Ġton ite
Ġcon d
ak hesh
Ġper f
Ġapp rec
Ġbl ess
Ġbl ack
Ġbuy ing
ĠGO D
ĠOn ce
Ġend ing
IS E
Ġspec ially
Ġmat ch
Ġres ult
Ġpo or
Ġdec ide
ĠRe ad
ĠRe ally
Ġ: (
Ġbring s
ĠPr ob
Ġpro f
Ġ09061 74
Ġop in
ĠPl ay
TH ING
UC TION
Ġ0800 2
Ġmr t
Ġbook ed
Ġreg ard
Ġrent al
Ġsur pr
Ġcred its
ĠIT S
Ġread ing
Ġreac hing
umm er
ĠSome one
Ġhop ing
ĠFriends hip
Ġprom ise
Ġinform ation
Ġunc le
Ġdarl in
Ġposs ible
Ġcop y
ĠWan na
ĠEN G
Ġbas ic
Ġseem s
ĠColl eagues
cell ent
Ġdef in
Ġcarl os
ĠTOD AY
ĠHAP PY
ĠMUC H
. :)
2 78
4 71
4 20
: :
B LE
C L
C OM
M B
N o
O S
P T
P HONE
R akhesh
T IME
U P
U Z
V D
W X
c ial
d n
e en
f a
g est
i ent
i lt
j a
l come
m y
m ad
m ail
m onth
n es
p ed
p ec
s ing
t en
v iously
w ill
w hen
Ġ Z
Ġ xx
Ġt im
Ġt amp
Ġa ha
Ġw he
Ġw all
Ġw ind
Ġw oke
re veal
Ġm et
Ġm is
Ġm al
Ġm ac
Ġm ir
Ġm ood
Ġm ode
Ġc ust
Ġc reat
Ġb c
Ġb ar
Ġb en
Ġb other
Ġb old
ing ers
Ġd ress
Ġd arren
Ġd uring
er m
Ġf at
Ġf one
Ġf ant
Ġf au
Ġl y
Ġl ear
Ġg iving
Ġp ie
Ġp izz
an o
ĠT n
ĠT ones
it ies
it led
ĠS im
ĠS up
st em
ĠH ur
ĠH OW
le x
Ġin cl
ĠW ould
is ed
is ion
ĠC om
ĠC AN
ĠA L
ĠA M
Ġe gg
Ġis s
Ġre c
Ġre cor
ĠY ep
Ġ2 4
Ġth row
Ġth ru
ĠN at
ĠM IN
ĠM erry
al s
ĠD A
ut ure
ĠU s
ac es
ac le
Ġwe ir
Ġwe ight
ĠB UT
ri ble
ĠO K
Ġhe av
Ġst e
Ġst ore
ĠP ress
ĠP ete
ent y
ent ly
ĠG ra
ĠG ET
ĠF r
ĠF irst
ĠF UCK
Ġj i
Ġdo g
Ġdo in
Ġdo or
Ġli br
ĠL ets
ch i
Ġ4 00
Ġget tin
un ity
ant a
ur ance
ce l
ĠR ow
Ġknow s
ĠJ oy
ĠJ UST
ĠJ ohn
um e
Ġv l
Ġv om
Ġany more
ĠE VE
EE T
la x
90 20
Ġsu cc
Ġsu per
Ġsp ent
Ġsp ort
Ġwhat s
Ġfe b
are d
ĠK ate
ĠFR OM
em me
Ġar g
Ġar m
Ġwat er
Ġthink in
ff ee
Ġsa ve
ig ital
act ion
ĠFREE PHONE
Ġ6 0
Ġex act
Ġun i
Ġwork in
Ġreply ing
ĠNO T
OR T
ĠSt art
Ġde ad
20 1
ast ic
Ġen g
Ġro ad
Ġser iously
ist ered
OP E
ru e
Ġche ap
uck s
Ġpick ed
ES S
Ġbl ood
Ġlet ter
Ġagain st
23 9
Ġother s
Ġent itled
Ġstart ing
Ġrem ind
Ġplan ning
Ġmat ches
Ġtr ust
ppm x
ah oo
wor d
Ġpay ing
24 68
Ġpre p
Ġroom m
Ġdoes nt
Ġ0905 000
oll a
opp ed
OW N
Ġact iv
Ġweeke nds
Ġ200 4
ons ms
Ġless ons
Ġstay ing
Ġwonder ing
Ġpro cess
ĠPl z
Ġmom ent
Ġjoin ed
Ġmean ing
ues day
Ġmov ies
Ġ087187 26
Ġlog o
Ġ870 77
Ġap artment
arl os
Ġhot el
Ġmon day
Ġkind a
35 8
lim ited
Ġmed ical
ĠCam corder
ok en
Ġtrain ing
Ġtick ets
Ġresp ond
Ġstudy ing
ĠPo Box
Ġ0905809 45
air s
Ġ30 30
Ġcomplete ly
Ġwis hes
Ġcat ch
Ġcine ma
Ġfore ver
Ġfren s
Ġny t
Ġmax im
ĠWor ld
ĠLi ke
Ġ08715 20
ORN ING
603 24
eral a
Ġ087124 60324
Ġadm irer
wee k
ĠSer vice
Ġexper ience
Ġsla ve
ĠiP od
Ġgent le
anu ary
ĠOm g
Ġsty le
Ġrand om
iger ia
ĠProb ably
Ġdefin ite
nes day
pec ially
Ġtamp a
Ġfau lt
Ġpizz a
Ġlibr ary
Ġsucc ess
1 70
2 9
2 70
3 23
5 2
5 3
5 00
7 2
9 46
A K
A IT
D N
F R
G B
G N
I ts
I END
L IN
L dew
M E
M aid
N ITE
O LL
P R
P ix
R ow
T ER
U L
W B
W ina
a ha
a pp
b ar
b all
b alance
c er
c ri
e k
e ep
g a
g le
g ive
h in
i est
i pt
l ic
l ish
l ife
n k
n at
n al
n ey
o kes
r ange
s ms
t f
t msg
u le
u red
u ation
v in
Ġ q
Ġ vers
Ġt i
Ġt m
Ġt at
Ġt ar
Ġt ir
Ġt ough
Ġa head
Ġw ine
Ġw iv
Ġw alking
Ġs ar
Ġs ight
Ġs outh
re k
re ad
on ly
Ġc ake
Ġc amp
Ġc ell
.. ...
.. !!
Ġi r
Ġi ce
Ġi gn
Ġy rs
Ġy ij
Ġto wards
ĠI B
Ġb x
Ġb or
Ġb ot
Ġb id
Ġb ur
Ġb are
Ġb ak
Ġb ucks
or ge
er ife
er gy
Ġf et
Ġf ancy
Ġn ational
Ġp an
Ġp at
Ġp age
Ġp res
Ġp ast
Ġp resent
Ġp arents
Ġp ower
ar ia
ĠS i
ĠS EE
ĠS omet
ĠS ure
ĠS UR
ĠS OME
st ant
ot s
ĠH al
Ġha m
le pt
Ġin side
ĠW R
ĠW ow
ĠW el
ĠW ANT
ĠW HAT
ĠW ELL
ĠW OT
Ġh w
all a
all is
Ġme mber
ĠC arlos
ĠA B
ĠA N
ĠA GE
ĠA ft
Ġe as
as ing
Ġre ference
Ġre lax
Ġ2 1
Ġth nk
ĠN im
ĠN ice
ĠN EED
00 220
ĠM at
ĠM AN
ĠM ISS
Ġfor m
al ty
Ġ1 327
id ing
ĠD r
ĠD ATE
ĠD VD
ac ter
Ġwe ak
Ġwe ather
Ġwe lcome
ĠB ea
ĠB IR
ri e
ri age
Ġst ar
Ġst ra
Ġst reet
ĠP olice
ent ion
ent ial
am n
ĠG ive
ĠG IR
ad a
Ġr s
Ġr ather
Ġr cvd
op h
op er
ĠF e
Ġk b
Ġk ill
Ġ0 2
Ġ0 20
Ġdo ll
Ġdo ctor
Ġli ft
ld ren
ĠL and
ĠL DN
Ġor ig
Ġnot ice
Ġso fa
un k
Ġte ac
il ity
Ġsh d
Ġur self
ce ment
Ġ8 33
ĠR a
ĠR ING
Ġwor se
ep end
ter y
ol ine
ĠJ oin
Ġ08 08
if ic
ive red
EE P
Ġsome body
Ġsu p
Ġsu cks
Ġsp ree
ud ing
ĠK NOW
oy don
ĠFR IEND
Ġhow ever
qu e
Ġ_ ...
Ġaw ake
Ġmu z
Ġ* ****
Ġus er
AL K
AT ION
mm a
ER V
Ġcl os
Ġle ad
Ġun limited
Ġqu ality
OU ND
hi ldren
ag ine
20 201
Ġcon vey
ap e
Ġen ergy
Ġke pt
IT ED
Ġshow ing
40 6
Ġlet s
ĠGO T
Ġchan ged
Ġplay ers
Ġrem ain
Ġ9 00
18 2
Ġchar ity
Ġchar acter
77 8
Ġplan ned
Ġmat ter
Ġrece ipt
Ġtr ouble
Ġtr uth
Ġeat ing
Ġhappen s
Ġhappen ing
Ġperson s
ĠSh opping
Ġsha re
Ġlong er
?? ?
Ġbat tery
ĠMe et
Ġbed room
de rer
Ġ: /
Ġpa id
cl uding
Ġcam corder
kk y
Ġrun ning
Ġ09061 70
ĠCost a
ĠAl ways
Ġid ea
Ġpass word
Ġreg istered
Ġlog in
ss on
Ġsit ting
und ay
Ġcle ar
Ġsub scri
ug is
ĠCh ristmas
umm y
Ġmur derer
Ġnorm al
Ġexc use
Ġwed nesday
Ġimm a
Ġimm ediately
Ġfollow ing
ĠTen erife
ĠAS AP
Ġmen u
Ġinter net
Ġinterest ed
0871 87
Ġfav our
ĠGee ee
Ġann oun
Ġmod el
Ġcount ry
Ġtor ch
Ġhor ny
ĠCr oydon
Ġlik ed
iff s
Ġphot o
Ġsy stem
Ġsen se
Ġyog a
Ġgra nd
ĠSun shine
Ġey es
Ġ36 504
ĠValent ines
Ġmist ake
Ġrecent ly
Ġ850 23
Ġ822 77
ĠRing tone
Th is
zz it
Ġins urance
Ġarri ve
Ġ087123 00220
Ġapprec iate
Ġopin ion
Ġmal aria
Ġmir acle
Ġcust care
Ġlear n
Ġheav y
Ġmaxim ize
FR EE
PR ISE
Ġyij ue
ĠSUR PRISE
ĠHal f
ĠWel come
ĠBea ut
ĠGIR L
ĠLand line
) .
. "
. ,
. ?
1 30
1 77
4 8
4 34
6 5
7 00
A UCTION
C laim
E ART
F L
F or
G BP
H P
H i
I AL
I ES
L IM
M AS
M ORNING
R O
R S
R W
S G
S P
S end
S ub
T he
U K
U U
U V
V A
W C
W ARD
b p
b ed
b and
c a
c le
c ade
d ing
d en
d le
e ad
f ing
g ar
h r
h ind
i i
i ant
i ans
j as
k a
k i
k y
k iss
m ar
m ob
m ao
m iles
n ew
o ver
r or
s unday
t c
t hat
t ment
w a
w t
w hy
x h
y i
y r
Ġ /
Ġ <
Ġ om
Ġ ri
Ġt al
Ġa at
in i
in ing
Ġw i
Ġw er
Ġw om
Ġw un
Ġw nt
Ġw aste
Ġs um
Ġs li
Ġs ounds
Ġs ory
Ġs lept
Ġm ark
Ġc oo
Ġc art
.. :-)
Ġy ahoo
Ġto Claim
ha ve
Ġb f
Ġb ow
Ġb reat
Ġb alance
Ġb ugis
or al
Ġd em
Ġd ark
er ie
er ms
Ġf b
Ġf ive
Ġf reak
Ġf ingers
Ġf uture
Ġl im
Ġl ady
Ġl emme
Ġn at
Ġn it
Ġn xt
Ġn one
Ġn aught
Ġg e
Ġg ar
Ġg reet
nd ay
Ġp os
Ġp uss
Ġthe at
et ter
ĠT w
ĠT ry
ĠT ime
ĠT ON
ĠS L
ĠS ay
ĠS leep
ĠS aid
st frnd
Ġo cc
ot ing
ĠH L
ĠH is
ĠH oney
ĠH old
ĠH OT
ĠH EY
ĠH ELLO
Ġha ng
ĠW k
ĠW ot
ĠW AP
ĠW ILL
is c
is es
Ġh ill
Ġh ost
Ġh ook
Ġh olla
ĠC C
ĠC on
ĠC ash
ĠC ute
ĠC OLL
ĠA C
ĠA b
ĠA c
ĠA n
Ġe c
Ġe h
Ġe ight
Ġis h
Ġre d
Ġre veal
Ġre view
ĠY E
ĠM ark
ĠM ESS
ĠM SG
ĠM oral
ĠD ON
ĠD AR
ĠD ONE
ĠD ID
ĠD igital
ac s
Ġwe bs
ĠB est
ĠB ack
ĠB coz
ill iant
ĠO ver
Ġhe llo
Ġst ation
Ġst ress
Ġst ock
ĠP A
ĠP re
ĠP ut
ent al
ĠG M
ĠF ancy
Ġk ano
Ġj e
Ġj oke
Ġ0 78
Ġdo c
ĠL oo
ĠL au
ĠL uck
ĠL dn
ĠL UV
Ġcan cel
Ġat e
50 22
Ġso ft
ion ate
pp ed
un s
Ġte a
Ġte m
Ġte ch
Ġwill ing
il ates
ight s
Ġlo an
Ġsh o
ur a
ur ity
Ġ8 3
Ġ8 5
Ġ8 9
Ġ8 88
Ġ8 60
day s
ĠR ight
Ġwor ks
Ġpl enty
th is
ol o
ĠJ ay
ĠJ uz
um p
um s
us ive
Ġv ar
Ġv ary
Ġany body
ĠE h
ĠE uro
Ġgot o
Ġ3 5
ĠHa v
Ġno kia
Ġsu nday
Ġsp ace
ĠHow z
ĠK eep
Ġda ily
Ġar range
ff ect
Ġsa le
Ġrep l
Ġrep li
ĠV ide
Ġask in
ĠTh ought
Ġco ver
Ġco ld
Ġ6 2468
Ġ0871 471
amp s
Ġwon d
Ġcl osed
ul ation
Ġle g
Ġun less
:-) ..
Ġman age
Ġ7 250
ĠSt ock
ĠHi ya
ag ed
ove d
ĠHave nt
Ġen vel
Ġro le
Ġshould n
22 10
XX XX
ĠTH ERE
oin tment
Ġwhere ver
88 8
Ġkeep ing
Ġch ill
Ġch ristmas
AS T
Ġcould n
Ġend ed
IS T
Ġstart s
12 8
87 6
ov able
Ġx y
ĠX MAS
Ġtr ack
Ġeat in
Ġperson al
Ġem bar
lo ving
ond on
Ġ0870 14
Ġ0870 750
ty l
oll y
Ġadd ed
Ġproble ms
Ġgr oup
Ġfl at
Ġfl irt
Ġatt end
ĠSp l
ĠON E
Ġcheck ed
Ġface book
38 2
ĠPr ice
36 504
Ġset ting
Ġhur ts
Ġ09061 2210
Ġpost ed
ĠBA CK
TH DAY
Ġav o
Ġsun ny
Ġinv iting
Ġ!! !
Ġfull onsms
Ġstud ents
28 100
Ġsit uation
ĠLI KE
Ġmar ry
Ġmar riage
Ġdi ed
ens ive
ĠDel ivery
Ġhold ing
Ġpoly s
ĠCh oose
ĠAr cade
ĠAiy o
ĠAiy ah
Ġstr ong
Ġdisc uss
ui ld
Ġes pecially
ĠTs Cs
LA ND
Ġtick et
Ġmur der
Ġdirect ly
ĠTXT AUCTION
ict ion
Ġexc iting
az ing
yl er
ĠInd ia
Ġinst ead
Ġinform ed
Ġdru g
Ġev ng
ĠMiss ing
Ġstand ard
ĠPo ly
ĠLat er
Ġvi kky
what s
Ġter ms
ĠWait ing
ĠWOR K
ĠMob iles
ĠLo ver
ĠRem ember
Ġexp ensive
Ġscream ing
Ġgl ad
Ġpleas ed
ĠMa x
Ġ090500 00
Ġ090500 900
Ġbud get
ĠSat urday
Ġadv ance
ĠAh mad
ĠUN LIM
Ġcele br
Ġ0845 28100
Ġoffic ial
Ġ08002 98
Ġcreat ed
Ġben e
Ġfant astic
ĠTn Cs
Ġweir d
Ġvom it
Ġ0871520 36
Ġdefinite ly
170 12
AIT ING
Ġvers ion
Ġtar iffs
Ġcamp us
Ġbare ly
Ġfet ch
ĠSi Pix
ĠNim ya
ĠBIR THDAY
Ġstra ight
Ġannoun cement
ĠBeaut iful
Ġom w
Ġaat hi
Ġnaught y
Ġpuss y
Ġtheat re
ĠDAR LIN
Ġwebs ite
Ġ860 21
Ġrepli ed
ĠStock port
Ġenvel ope
Ġ087014 17012
Ġ0870750 9020
Ġ090500900 44
ĠUNLIM ITED
) '
+ ?
, ''
. !
0 5
0 6
1 22
3 50
3 80
4 3
4 50
7 6
7 90
; )
? \""
A H
A IN
A VE
A GE
A MS
B e
E ric
I E
M obile
M OR
N A
N ER
O OK
P M
P ORT
Q U
R OW
S t
U B
V AL
Y ou
a le
c ha
c hat
c ode
d om
e xt
f o
f ort
f rom
g u
g am
g nt
g ood
h u
h ope
i ver
j ust
l ow
l ad
m l
m ay
m bers
o c
o ji
p o
p ot
p art
s et
s it
s ome
s igh
s wt
t il
t el
u o
u u
u ch
v m
v is
w at
y rs
z es
Ġ %
Ġ ow
Ġ ver
Ġ ess
Ġ zed
Ġt t
Ġt our
Ġt yler
Ġa ve
Ġa un
Ġa ud
in al
Ġw et
Ġs n
Ġs ed
Ġs ite
Ġs ummer
re st
Ġm other
Ġm ths
on a
on ed
Ġc ry
Ġc ab
Ġc ook
Ġc ru
Ġc ustom
Ġc uz
Ġi c
Ġi l
Ġi de
ll e
Ġy an
Ġy est
ĠI D
ĠI am
ha h
ha ust
Ġb o
Ġb ost
Ġb row
Ġb uff
Ġb ought
Ġb ody
Ġb uns
Ġd ed
Ġd ry
Ġd ue
er ally
Ġf ish
Ġf ail
Ġf ool
Ġl ad
Ġl one
Ġl ab
Ġl ick
Ġn obody
Ġn igeria
Ġn oline
Ġg row
Ġp ound
Ġp ong
Ġp ap
Ġp pm
Ġp ple
Ġp ix
Ġp issed
Ġp ilates
Ġu mma
an a
an es
an ade
es us
ow s
et h
et ition
ĠT el
ĠT ra
ĠT alk
ĠT mr
ĠT ELL
ĠT omorrow
ĠT rue
ĠT uesday
ĠT ALK
ĠT erms
ĠS c
ĠS ent
ĠS ad
ĠS ec
ĠS hi
ĠS ex
ĠS ERV
ĠH ome
ĠH UN
ĠH OPE
ĠH EART
Ġha te
ĠW E
ĠW K
ĠW ake
ĠW ah
ĠW ERE
is f
Ġh r
Ġh u
Ġh v
Ġh oney
Ġh rs
Ġme mbers
ĠC ON
ĠC AR
ĠC LA
ĠA D
ĠA d
ĠA pp
ĠA uction
Ġon to
Ġis nt
as ana
Ġre co
ĠY un
Ġ2 6
Ġth urs
ĠN ational
ĠN IGHT
ĠM P
ĠM r
ĠM in
ĠM ust
ĠM ON
ĠM any
ĠM oji
al ian
id ence
oo gle
ĠD load
ĠD RA
ĠD amn
ĠD epend
ĠU S
ĠB ad
ĠB ir
ĠB EE
ĠB uy
ĠB ook
ĠB oss
ĠB reak
ĠB LO
ĠB etter
ill age
ri l
ĠO R
Ġhe y
Ġst ep
Ġst upid
ĠP C
ĠP AR
ĠP ro
ĠG e
ĠG ames
ĠG BP
Ġse ason
Ġr d
Ġr an
Ġr ad
Ġr ays
Ġcall ertune
ĠF ONE
Ġk ids
Ġj u
Ġj oy
Ġj ava
Ġj az
Ġj ohn
Ġli on
ĠL S
ĠL ea
ĠL uv
ĠL mao
ĠL ondon
Ġor ange
Ġ4 7
Ġare n
Ġne cess
lt im
Ġnot e
Ġso cial
ant s
ant ic
Ġte am
Ġte ach
il os
ct ions
Ġlo y
Ġsh i
Ġsh uhui
Ġur gnt
Ġas leep
ur al
ce mber
Ġ8 90
Ġ8 55
Ġ8 41
ĠR s
ĠR EC
Ġpl aces
ate ly
ab e
ab ha
ol s
ĠJ ord
ĠJ anuary
um b
um ent
us es
ĠE ng
ĠE VER
ear s
Ġ3 1
Ġam t
Ġam ong
Ġam ount
la nds
90 6
ĠCall ers
ĠCall ertune
ĠWe re
Ġsu gg
Ġsp eed
Ġsp ell
ard en
ick et
Ġtext ing
Ġ5 30
Ġla w
Ġla id
ĠK ind
ĠK ids
IN K
Ġlat r
Ġ090 99
Ġar rest
ff ic
Ġrep ort
\" ...
Ġma nd
Ġask s
ĠTh urs
Ġtoday s
Ġtell s
ort unity
ĠWhat s
Ġco ffee
Ġ0871 78
mm m
so ld
Ġcl ick
Ġcl ock
ul ar
Ġex haust
Ġnight s
Ġun able
Ġun sold
Ġqu it
Ġqu oting
Ġcont ract
:-) .
OU S
OU BLE
ass ed
Ġad vice
Ġad ult
ĠSt yl
ĠSt upid
Ġgive s
Ġde rek
ĠHave n
Ġcomp etition
ast er
Ġcon stant
Ġbr o
com uk
Ġen em
Ġke y
Ġser ious
Ġstop ped
Ġim agine
Ġche aper
ĠTH AN
Ġapp r
Ġapp ointment
Ġcontact ed
Ġbl ank
Ġsure ly
Ġcar s
ment s
Ġch ick
Ġch oice
Ġ0906 5
Ġint ro
IS H
Ġplay ing
Ġdr opped
Ġdr unk
Ġear th
12 4
12 5
iz ed
Ġacc ident
Ġchar ges
Ġplan e
ĠX CHAT
Ġ800 62
Ġminut s
Ġpart ner
Ġdin t
IC ES
Ġsc ore
Ġpic tu
Ġpre fer
Ġroom s
ĠLO L
ward ed
Ġbit ch
Ġhi gh
Ġsat isf
Ġfun ny
EC T
EC IAL
OW ER
Ġbec ome
oot y
Ġtw ice
Ġbir ds
ĠLove s
ĠLove ly
Ġlook in
Ġlook ed
55 5
rent al
Ġselect ion
cl ub
ĠPr in
Ġset t
Ġ09061 790
15 1
Ġtru ly
ert ain
Ġ.. ...
ang er
Ġ087187 20201
69 6
Ġ!! ''
Ġval ent
Ġvideo chat
Ġrent l
Ġawait ing
ĠGOOD MORNING
und e
Ġap olog
Ġsur fing
Ġcr oss
Ġmar ried
Ġdi et
ĠDel ivered
ines e
xxxx xxx
Ġmo an
Ġmed s
ĠSO ON
Ġsearch ing
EL F
Ġes c
Ġlisten ing
'' ,
Ġgal s
stop txt
hh hh
ĠInd ian
ĠWish ing
Ġsell ing
Ġresp on
Ġsing le
ĠWH O
igh b
win ner
ĠWOR LD
ĠCD s
oun ge
Ġlect ure
Ġinter view
Ġinterest ing
0871 47
Ġreturn s
LO VE
SH IP
Ġdes p
Ġfav or
ĠSony Eric
200 4
Ġaff ect
Ġca fe
Ġforward ed
Ġrain ing
Ġjo king
Ġloc al
Ġloc ations
Ġphot os
Ġconnect ion
Ġ090640 1
Ġair port
Ġwa king
Ġsil ent
ĠChan ge
ĠChan ce
ĠDe cember
ĠFANTAS IES
ĠAG AIN
Ġbell y
ĠOther wise
Ġcons ider
Ġturn s
Ġopp ortunity
ĠHear t
Ġlov able
Ġlover boy
Ġcond itions
Ġresult s
Ġregard s
Ġsurpr ise
ĠENG LAND
Ġbasic ally
278 70
MB ER
Ġtim ing
Ġwhe ther
ĠCom p
Ġiss ues
Ġji u
Ġarm and
Ġexact ly
Ġroomm ate
Ġ08718726 270
Ġign ore
ĠIB H
oph ones
Ġdoll ars
Ġorig inal
Ġcart oon
ĠHold er
Ġhost el
Ġreveal ed
ĠMESS AGE
ura winner
Ġ35 10
ĠVide ophones
sigh s
Ġcab in
Ġbost on
Ġpong al
Ġjaz z
ĠJord an
Ġsugg est
Ġ09099 7
Ġarrest ed
Ġpictu res
Ġ!!'' .
ĠSonyEric sson
! ..
) ,
. :-)
1 23
2 7
3 45
4 40
4 23
4 28
5 124
6 3
6 906
7 239
9 6
9 10
9 18
: (
: \
; :(
A W
A IL
B CM
C O
C are
C LE
C ALL
C hildren
D Y
D ay
E F
E X
F A
F E
F ONE
F rom
G me
H G
H EY
H ELLO
J HL
K PO
M I
M e
M ar
M iss
M tmsg
N Y
O Y
O ut
O ur
P H
P lease
P LE
Q P
R ITE
S K
S O
S ELF
T o
T IC
T yr
U M
U n
U r
W P
W U
W e
W hat
\ '
_ ;
_ _
a fter
b l
b ack
b ox
b les
c he
c ed
c ost
d id
d ont
f u
f et
f ree
g ing
g bp
h w
h one
i w
i et
i ot
i us
i ola
j ith
k ed
k ts
l or
l er
l anta
m ing
m ess
m iss
m obile
m issed
n am
n ice
n ers
n ical
o z
o il
o king
p ic
p ose
q x
r m
r ut
r ol
r os
r man
s he
s en
s more
s miles
t i
t v
t ed
t ter
t ain
t ure
t imes
u ry
u ce
u res
u nder
u ition
u coz
u itions
u cy
v t
v y
v ia
v ity
v ious
w ith
w are
y t
y ar
Ġ [
Ġ z
Ġt re
Ġt ab
Ġt kts
Ġt uition
Ġa in
Ġa st
Ġa ut
Ġa ight
Ġa int
Ġa lex
in o
in st
in ation
in ts
in cluding
in fo
ou d
ou l
Ġw al
Ġw est
Ġw ap
Ġs om
Ġs am
Ġs our
Ġs ens
he art
he lp
re a
re m
re w
re y
re ep
Ġm c
Ġm as
Ġm ass
Ġm ach
Ġm orn
Ġm ummy
Ġc n
Ġc ast
Ġc up
Ġc ap
Ġc be
Ġc ream
Ġc reep
.. "
.. ?
Ġi ve
Ġi zzit
ll en
ll ex
Ġy er
Ġy uo
ĠI Q
ĠI NT
ĠI VE
ĠI biz
Ġb a
Ġb in
Ġb an
Ġb ay
Ġb day
Ġb la
Ġb oss
Ġb coz
Ġb uzz
Ġb uild
Ġb ooty
ing ly
Ġd ou
Ġd ub
Ġd ouble
Ġd anc
er ve
er nal
Ġf ly
Ġf ur
Ġf our
Ġf ile
Ġf if
Ġf lo
Ġf ire
Ġf iles
Ġf anc
Ġf yi
Ġn w
Ġn os
Ġn ag
Ġg t
Ġg reen
Ġp ot
Ġp op
Ġp end
Ġp red
Ġp ig
Ġp ress
Ġp ull
Ġp ages
Ġp pl
an wh
om ber
om antic
et ed
ar ry
ar ily
ĠT R
ĠT V
ĠT a
ĠT oo
ĠT ick
ĠT Cs
ĠT OWN
ĠT tyl
it les
it uitions
ĠS N
ĠS e
ĠS ing
ĠS il
ĠS OR
ĠS ince
ĠS anta
ĠS EX
st ers
ed y
en ny
Ġo v
ĠH ot
ĠH ouse
ĠH OME
Ġha i
Ġha ha
ĠW C
ĠW ed
ĠW ent
ĠW ine
ĠW EE
ĠW AN
is ing
is han
Ġh on
Ġh us
Ġh ug
all ing
Ġme al
ĠC L
ĠC W
ĠC a
ĠC ust
ĠC ont
ĠC ould
ĠC are
ĠC OM
ĠC AM
ĠC OME
Ġon i
Ġe ffect
as ure
as hed
as ons
Ġre b
Ġre se
Ġre leas
Ġre new
Ġre asons
ĠY M
ic ate
Ġth ree
Ġth ro
ke nd
ĠN t
ĠN ite
ĠN obody
ĠN AK
ĠM R
ĠM on
ĠM ind
ĠM OR
ĠM uz
ĠM oon
ĠM EET
Ġfor give
al am
Ġbe g
Ġ1 45
Ġ1 95
id z
id ge
oo f
oo o
oo p
ĠD arren
ĠD OWN
ĠD OUBLE
ĠU se
ĠU mm
ac he
ac em
Ġwe b
ĠB B
ĠB oth
ĠB CM
ĠB uzz
ill a
ĠO H
ĠO VER
Ġst ri
Ġst ick
ĠP e
ĠP ain
ĠP ound
ĠP ART
ĠP HONE
ĠP urity
am a
am ed
am ster
ĠG d
ĠG ift
ĠG lad
Ġr ow
Ġr ide
Ġr ude
Ġr ush
ĠF A
ĠF ine
ĠF ind
ĠF ound
ĠF LA
Ġk al
Ġk id
Ġk ett
Ġk allis
Ġj ack
Ġan ti
Ġ0 70
Ġgo ld
Ġgo vt
Ġdo gg
ĠL ine
ĠL oy
ĠL og
ĠL ovable
Ġcan n
Ġcan not
Ġcan cer
se x
se nd
Ġor dered
Ġ4 5
Ġne ck
ry ing
50 20
50 382
Ġso re
pp ing
un el
Ġte ar
Ġte eth
ess ion
il k
il Gme
nt h
Ġlo s
Ġlo ss
Ġlo sing
Ġsh out
Ġsh ld
Ġsh oot
Ġsh irt
Ġas ap
ur ch
Ġup load
Ġup to
Ġup gr
Ġup set
Ġ8 4
Ġ8 30
Ġ8 36
Ġ8 04
Ġ8 75
Ġ8 7239
ĠR ose
Ġbut t
Ġout ta
th in
th day
our ney
Ġal ong
ĠJ AN
ĠJ ada
Ġfrom m
Ġpr os
Ġpr oper
um an
um ber
us y
us rut
Ġ08 44
Ġv ry
Ġv ote
Ġwh ite
el s
ĠE v
ĠE ve
ĠE ver
ĠE NT
ĠE ND
ĠE asy
ĠE UR
Ġall ow
Ġab i
ĠHe re
ĠHe ight
la in
Ġcom b
Ġcom edy
ra id
Ġsp oke
Ġsp oken
Ġfe ll
Ġfe et
Ġfe ver
Ġtext ed
71 5124
are t
Ġ5 42
Ġneed ed
ĠK ing
ĠK ATE
ĠK erala
ĠK idz
ĠK usrut
ĠFR AN
ain tain
ber ry
Ġph ilos
ON G
xx xxx
ning s
pt ain
ĠThe se
ĠThe Mob
Ġhow s
70 3
70 5022
Ġar t
Ġwat s
Ġsm art
ff ff
Ġsa ved
ĠV IP
\" .
Ġma sters
ĠTh ose
Ġco ins
Ġus ually
Ġaf raid
Ġhapp end
Ġevery body
AL LY
AT CH
Ġ0871 98
Ġ0871 750
Ġ0871 918
ER A
and y
ul es
Ġex cept
Ġle ona
Ġun cl
Ġun redeemed
66 9
Ġqu ote
Ġtxt in
Ġcont in
Ġwait in
co llex
ĠNO THING
Ġ7 5
Ġ7 86
Ġad min
Ġde y
Ġde vel
VE AL
ĠGood night
20 50
Ġthan gam
Ġeve nt
Ġcon cent
Ġbr oke
ĠST ORE
Ġro se
ak es
ĠPO D
ĠPO ST
Ġser ies
IT Y
Ġim pr
Ġbab es
ru ary
ĠUR N
22 2
40 323
Ġcare fully
Ġsomet ime
Ġsomet hin
80 8
Ġwould n
Ġbl ow
ans action
ĠGO ING
ress ion
Ġbef or
Ġch urch
Ġother wise
Ġ0906 51
Ġplay ed
Ġwin s
Ġsoon er
AN CE
Ġacc ord
87 8
ov d
min Mob
11 1
11 51
Ġmat ured
Ġrece iving
hed ule
OM OR
Ġboy s
Ġans r
Ġdri vin
Ġres pect
li ke
Ġwish ing
ĠFor got
ĠLO T
ĠLO OK
Ġ0870 28
Ġhi p
Ġadd ict
Ġinf ernal
39 6
39 822
Ġlar gest
Ġgr am
Ġbig gest
Ġ12 5
Ġbat hing
Ġfl ow
ĠMe anwh
Ġring tones
Ġlive s
Ġdec ision
ĠRe f
ĠRe ason
ĠQ uite
Ġbring ing
RE AT
Ġdel iver
Ġdel eted
iv ate
let s
ĠEx cellent
26 3
pl ic
pl oy
pl ace
pl anade
Ġta unt
Ġsw im
Ġput ting
Ġansw ers
TH ER
Ġmom s
Ġtra vel
ta z
Ġpass ed
ĠRE VEAL
Ġ0800 19
Ġ09066 6
Ġtot ally
ĠIM PORT
ĠSP ECIAL
Ġanswer ing
Ġdad dy
pect s
Ġap ril
Ġsur a
Ġcred ited
Ġenjoy ed
ĠXX XX
Ġhand le
ĠBe er
ĠBe en
arent ly
Ġfast er
ens ion
ĠUn sub
ĠBl ack
**** **
aa a
ĠHA D
Ġass ume
Msg rcvd
Ġcha llen
Ġcut e
Ġpub lic
Ġinc hes
ĠAiy a
ĠAiy ar
ĠBab y
Ġ08712 778
ĠSome body
ĠChe ers
Ġmur dered
ĠBr it
ĠBr other
ĠBAB Y
yl ie
Ġsk ype
Ġresp ons
Ġsing les
Ġmid night
ĠSH IT
ĠSH OP
Ġvi ol
LD N
Ġter m
Ġdarl ing
Ġfollow ed
Ġnt wk
ĠTen ants
Ġshort ly
Ġsong s
Ġny c
ĠCH ANCE
Ġexam s
Ġtrans fer
Ġ0906636 22
91 80
go ing
Ġ; )
Ġ; _;
Ġbra in
Ġbra nd
ĠTr uth
ĠTr ansaction
ĠGr l
Ġra ise
ĠREAL LY
Ġdep end
Ġpri v
Ġpur cha
Ġpur pose
Ġpleas ure
ĠDad dy
Ġ08715 705022
Ġchild ish
Ġunderstand ing
PO Box
ring tones
Ġsal ary
Ġyog asana
ĠSk y
Ġmag ical
ĠValent ine
Ġclean ing
ĠFANTAS TIC
Ġfla g
Ġgap s
Ġhands et
Ġrel ation
ĠNe va
Ġ0871240 5020
bo ard
fl ights
Ġcent re
Ġcent er
Ġob viously
ĠNet collex
ĠMess age
ĠMum taz
Ġwear ing
Ġhell a
ĠPerson ality
ĠPIC K
Ġ871 21
Ġ871 31
Ġ880 39
ĠEX P
ĠVoda fone
Ġexpect ing
Ġperf ect
Ġblack berry
ĠRead ing
Ġprof it
Ġsurpr ised
Ġbc ums
ĠSim ple
ĠSup er
ĠHur ry
Ġincl usive
Ġrecor d
Ġrecor ds
ĠNat ure
ĠGra vity
Ġfeb ruary
Ġarg ue
Ġuni que
Ġeng lish
Ġletter s
Ġactiv ities
Wina wk
Ġti hs
Ġir rit
Ġbor ing
Ġpres cri
ĠSomet imes
ĠAB OUT
Ġeas ier
Ġ020 7
Ġteac hes
Ġ833 55
ĠRa j
Ġclos er
406 25
For warded
Sub scription
that s
Ġsli pp
Ġmark et
Ġcoo king
Ġbow l
ĠSL EEP
ĠWk ly
ĠCOLL ECT
ĠAc cept
ĠLoo ks
Ġtem ple
Ġwond ers
Ġleg al
Ġembar assed
Ġsetting s
Ġ090612210 66
iction ary
Ġcelebr ate
Ġ0800298 6906
380 6
St op
Ġess ential
Ġlad ies
Ġlone ly
ĠSERV ICES
Ġmembers hip
ĠDepend s
ĠBir thday
ĠBEE N
ĠBLO OD
Ġrad io
Ġ47 42
Ġ855 2
Ġ841 99
ĠEng land
Ġmand a
ĠStyl ish
Ġenem y
Ġchick en
Ġaccident ally
ĠPrin cess
Ġsett led
Ġvalent ine
Ġesc ape
087147 40323
Ġaffect ion
Ġconsider ing
Ġ090997 26
CLE AN
KPO BOX
Mtmsg rcvd
Tyr one
qx j
ucoz ade
Ġaut o
inst ituitions
ĠIbiz a
Ġfur ther
omber g
ĠSil ent
ĠSOR RY
ĠWEE K
ĠCAM ERA
Ġrese arch
Ġreleas ed
Ġthro at
ĠNAK ED
acem ent
ĠFLA G
Ġkett oda
ĠLoy alty
Ġ836 00
Ġ804 88
Ġ875 75
ĠEUR O
ĠKusrut hi
Ġuncl es
minMob smore
Ġ087028 40625
Ġaddict ed
ĠMeanwh ile
Ġtaunt on
Ġ080019 50382
ĠIMPORT ANT
Msgrcvd HG
Ġ08712778 10
Ġpurcha se
! "
! :
! \"
+ )
+ .
- ?
. :
0 9
0 87
1 39
1 327
2 30
3 876
5 6
5 000
6 34
7 69
8 2
8 5
8 23
8 130
9 4
9 80
? '
? \"
A C
A J
A re
A ge
B E
B T
B abe
C all
C ook
C over
D E
D irect
E IVE
F T
F W
F OR
F RI
F ORE
F TER
G T
G et
G ame
G ently
G arden
H is
H ouse
H ey
I O
I V
I m
K sub
L F
L AY
L OWER
L KPOBOX
M M
M W
M ell
M IX
M RW
N N
N e
N ow
N ING
N oon
N IGHT
O B
O ru
O LY
O ne
P ress
P LY
P OD
P olice
P PM
R s
R ing
R es
S W
S ent
T A
T ake
T ONE
T omorrow
U E
U ATION
U MBER
V IN
W W
W ait
W ife
W ars
W AITING
W Ksub
X Y
a x
a ur
a ff
b a
b t
b ing
b ol
b um
b ee
c m
c as
c ert
e b
e vr
f il
f irst
f its
g i
g hed
g ift
g ument
g aret
h m
h il
h ol
i k
i am
i ge
i um
i od
i vers
j or
j ay
k et
l ight
l ol
l ist
l ines
m on
m et
m it
m art
m ov
m usic
m tmsg
n r
n s
n el
o f
o en
o le
p out
p are
p ool
p aper
r nd
r st
r ant
r ite
r ong
r ation
s b
s u
s y
s ha
s is
s ol
s ack
s ong
t om
t here
t ec
t lp
t urn
t bo
t rue
u c
u ri
u ld
u ine
v ir
v our
v ary
v ble
v ailable
v ali
w all
w el
w ks
w the
w ys
y ing
y ond
y ears
z ing
Ġ )
Ġ 00
Ġt b
Ġt ay
Ġt is
Ġt ight
Ġt ur
Ġt ree
Ġt able
Ġt ouc
Ġt uesday
Ġt ape
Ġa y
Ġa lt
Ġa unt
in c
in un
in co
ou ri
Ġw o
Ġw s
Ġw t
Ġw ow
Ġw ud
Ġw ise
Ġw kend
Ġs qu
Ġs ig
Ġs we
Ġs ach
Ġs orrow
Ġs oooo
he ed
re g
re al
re aly
Ġm t
Ġm or
Ġm us
Ġm ention
Ġm ilk
on ic
on ment
on nect
Ġc it
Ġc her
Ġc ol
Ġc ertain
.. :-
Ġi b
Ġi z
Ġi ouri
ll ed
Ġy ay
Ġy ell
Ġto g
Ġto k
ĠI L
ĠI mm
ĠI ND
ĠI zzit
Ġb le
Ġb right
Ġb uz
Ġb orn
Ġb read
Ġb ishan
or ing
or ter
or rible
Ġd h
Ġd ent
Ġd ea
Ġd are
Ġd iv
Ġd ign
Ġd sn
er o
er ic
Ġf re
Ġf ake
Ġf ab
Ġf ul
Ġf ag
Ġf li
Ġf ave
Ġf ath
Ġf rying
Ġl ow
Ġl en
Ġl id
Ġl ous
Ġl ang
Ġl ines
Ġl acs
Ġl ounge
Ġl oud
Ġn d
Ġn on
Ġn or
Ġn an
Ġn ig
Ġn ap
Ġn ak
Ġn ames
Ġg p
Ġg aut
Ġg orge
Ġg oogle
Ġp c
Ġp g
Ġp in
Ġp en
Ġp un
Ġp ort
Ġp ence
Ġp opped
Ġu k
an ish
an na
an jith
ve st
om s
om es
om ach
om ps
es e
es h
at s
at ch
ow een
et ey
et unde
et Babe
ay ee
ar row
ar Wars
ĠT om
ĠT op
ĠT ess
ĠT ear
ĠT IT
ĠT RY
ĠT AKE
ĠT itles
ĠT OMOR
it ch
it ive
ĠS I
ĠS a
ĠS ar
ĠS ep
ĠS AT
ĠS IT
ĠS AM
ĠS ave
ĠS ug
ĠS ister
ĠS ym
ĠS ummer
ĠS wthe
st ill
st ood
st omps
ed s
en g
en ger
en cy
Ġo re
Ġo la
ot a
ot has
... "
ĠH m
ĠH o
ĠH all
ĠH as
ĠH ard
ĠH IM
ĠH EL
ĠH ARD
ĠH orrible
Ġha r
le be
le ph
le ys
Ġin nings
ĠW a
ĠW n
ĠW AY
ĠW KE
ĠW EN
ĠW ENT
is on
Ġh oo
Ġh und
Ġme l
Ġme mor
Ġme asure
ĠC ha
ĠC ra
ĠC ase
ĠC up
ĠC ity
ĠC ARD
ĠC hildren
ĠA g
ĠA VE
ĠA ah
ĠA LE
ĠA UCTION
ĠA FTER
ĠA WAITING
ĠA vailable
Ġon wards
Ġe la
Ġe lect
Ġe erie
as p
as am
Ġre char
Ġre aly
ĠY O
ĠY ay
ic y
ic ut
ic ine
ic ult
Ġ2 20
Ġth m
Ġth s
ke ys
ĠN ur
ĠN ear
ĠN orm
ĠN IC
ĠN ITE
ĠN igeria
ĠN vm
ĠN UMBER
00 9
ĠM et
ĠM ar
ĠM ac
ĠM ight
ĠM ur
ĠM ost
ĠM ATE
ĠM usic
ĠM UST
ĠM ORE
ĠM AD
ĠM uch
ĠM aintain
Ġof ten
al ous
Ġbe in
Ġbe coz
Ġbe gin
Ġbe hind
Ġbe have
Ġbe yond
Ġ1 14
Ġ1 500
Ġ1 450
oo h
oo ls
ĠD a
ĠD es
ĠD et
ĠD ie
ĠD IS
ĠD raw
ĠD RE
ĠD ave
ĠD ey
ĠD ai
ĠD isc
ĠD ictionary
ut ter
ut ive
ĠU p
ĠU nder
ac y
ac ing
ac king
ĠB oo
ĠB el
ĠB ra
ĠB ON
ĠB IT
ĠB ew
ĠB AN
ĠB lo
ĠB ED
ĠB ored
ĠB stfrnd
ĠB usy
ĠB MW
ill e
ill Game
ri x
ri via
im a
im al
im me
ĠO ic
ĠO UR
ĠO key
Ġhe n
Ġhe sit
Ġst uck
Ġst amps
Ġst omach
ĠP er
ĠP art
ĠP ass
ĠP oin
ĠP LE
ĠP ock
ĠP leas
ĠP ERS
ĠP ORN
ĠP IX
ĠP sy
ĠP tbo
ent er
am b
am ond
ĠG n
ĠG am
ĠG ary
ĠG IVE
ĠG erm
Ġse at
Ġse ven
Ġse emed
Ġr on
Ġr ob
Ġr ub
Ġr ail
Ġr ich
ver pool
op hy
Ġcall er
Ġcall back
ĠF M
ĠF ight
ĠF ace
ĠF LOWER
Ġk ing
Ġj an
Ġj st
Ġj esus
Ġj ourney
Ġ0 6
Ġ0 9
Ġ0 122
Ġdo b
Ġdo ors
Ġli e
Ġli ving
Ġli kes
Ġli fet
ĠL A
ĠL E
ĠL e
ĠL if
ĠL ive
ĠL ong
ĠL ET
ĠL acs
ĠL AST
ĠL ONG
ĠL vble
se y
ch in
ch less
Ġ4 50
Ġ4 34
Ġne g
Ġat m
50 406
lt d
Ġso l
pp erm
un am
un gu
ant ly
Ġte lp
Ġte mp
Ġte asing
ess Subscription
ir ts
ir ty
Ġfr ing
Ġfr ont
il a
nt ed
Ġsh ot
Ġsh ut
Ġsh orter
Ġsh irts
Ġ8 6
Ġ8 40
Ġ8 16
Ġ8 95
Ġ8 86
Ġ8 130
ĠR T
ĠR ed
ĠR ate
ĠR ain
ĠR og
ĠR ental
ĠR anjith
Ġout stand
han ks
our s
Ġknow ing
Ġal ive
Ġal co
Ġal ert
Ġal bum
ab es
ab les
ĠJ er
ĠJ US
ĠJ okes
ĠJ stfrnd
Ġpr ov
Ġpr og
Ġpr olly
Ġpr oof
us hes
:) .
Ġv ir
Ġv ava
Ġv illage
el ing
Ġany where
Ġany thin
ĠE m
ĠE s
ĠE y
ĠE at
ĠE ach
ĠE ner
if orn
if ied
Ġall ah
Ġ3 3
Ġam azing
EE L
EE SH
EE RS
Ġwant ing
ĠHa i
ĠHa iz
ĠHe ll
ink s
90 500
ĠIt alian
Ġsu ite
Ġsu gar
Ġsp l
Ġsp are
Ġsp ee
Ġsp oil
Ġfe es
Ġfe ma
71 1
are r
ĠK EEP
od ka
Ġlove s
Ġ... *
Ġby e
sg iving
em be
Ġ090 946
Ġ090 715124
reat s
Ġph ne
ON IC
ĠDo ing
ĠThe ory
Ġok ie
70 40
70 150
qu est
ie ld
Ġar ms
Ġar ng
Ġsm okes
Ġsm oking
Ġ_ .
Ġsa ucy
:- .
ec ause
ec utive
Ġrep e
ĠV i
ĠV ett
ĠV IO
ig ent
Ġma jor
ĠTo ll
Ġfree zing
ub by
Ġco ck
Ġus c
Ġmeet in
!! !!
Ġhas n
fe w
fe red
ia h
AL ES
Ġ6 99
Ġ6 98
Ġ0871 9180
mm ma
Ġshe ets
Ġmess enger
mor ro
Ġnew est
Ġex e
Ġex cellent
Ġex plic
Ġle gs
66 1
66 69
Ġqu iz
Ġcont ents
OU NT
lf rnd
ass y
Ġad ore
Ġad vent
ĠSt orm
ĠSt arWars
own ers
Ġde ath
30 1
Ġcomp la
20 946
up ur
Ġag es
Ġcon cert
Ġbr os
Ġbr ought
Ġbr illiant
Ġbr othas
Ġen uff
ĠST UD
ĠST UP
Ġro ast
Ġro ads
Ġke ys
Ġmsg ing
Ġstop s
ist s
ru ctions
Ġche chi
ĠTxt s
40 3
be ll
Ġcare er
Ġper iod
Ġsomet imes
80 1
ES T
Ġapp t
Ġapp arently
Ġbl o
Ġbl oo
Ġbl ur
Ġbl ake
Ġbl ame
get ables
10 1
GE T
Ġdear ly
ĠOr der
ĠGO IN
Ġsent ence
Ġgu ide
Ġgu ilt
Ġcar ing
Ġcar ry
ress ed
88 2
uk k
Ġch rist
Ġch ina
AS E
Ġdis li
Ġdis pl
Ġ0906 34
Ġ0906 345
Ġchan ges
Ġgon a
Ġdr inking
Ġdat es
Ġlate ly
Ġhope fully
12 661
iz en
Ġacc om
ĠIn f
ĠIn cluding
Ġpe ace
ĠWhen evr
Ġx mas
av ier
ĠX y
ade em
Ġ800 82
Ġcollect ing
Ġcollect ed
11 000
11 70150
gg ed
per cent
per WKsub
Ġpart ic
MS G
Ġbus iness
Ġeat en
ro ad
wor king
wor ds
Ġsc r
Ġsc reen
Ġsc ared
Ġpay oh
ĠSh it
ĠSh op
ĠSh ort
Ġboy e
Ġpic ture
ĠAny ways
ĠAny time
ĠHaha ha
24 8
Ġgir lfrnd
Ġpre m
Ġpre viously
Ġpre vious
ĠAs k
rat or
rat ed
Ġ0870 9
Ġ0870 24
oss ible
Ġline rental
Ġsha me
Ġsat hy
Ġadd ie
Ġgr oo
Ġgr ound
Ġreal ize
Ġreal ized
?? ??
?? ???
Ġbig ger
Ġ12 1
Ġfinish ing
Ġbat ch
Ġbir la
Ġfl ash
Ġfl ower
ĠSend er
ĠMe lle
ĠGud nite
Ġreceive d
Ġ200 5
LE T
LE AVE
te en
te asing
ĠQ ue
ons ider
Ġchat ting
Ġloo ks
ĠAm azing
Ġdel ay
Ġdif f
Ġdif icult
38 00
ĠPr om
ĠPr abha
urn s
UT ES
kk um
Ġset tle
Ġhur ry
ĠNew s
Ġrun s
Ġsupp ly
Ġ09061 20946
Ġta x
Ġpost code
ĠBA K
RI ED
TH IN
Ġmom ents
ĠIN FOR
ĠAl ready
Ġav atar
Ġsun tec
Ġid iot
ell igent
Ġpass ionate
Ġinv ite
Ġinv nted
Ġ09066 358
ĠSP OOK
Ġreg ister
Ġreg ular
Ġhead ache
Ġ087187 30
Ġ087187 3800
Ġelse where
69 8
Ġtest s
Ġcost s
Ġval id
Ġval ue
ss ss
Ġac he
Ġsim ply
Ġ870 21
pr ints
to day
Ġcle ared
Ġwalk ed
Ġcr icket
ĠId k
Ġunder stood
Ġhand ed
ĠBe hind
ĠLI FE
Ġquestion ed
Ġtak in
Ġtak en
Ġdi amond
ĠWIN NER
ĠUn less
ĠUn subscribe
ĠUn cle
Ġsub scription
42 80
ĠAt lanta
xxxx xxxxx
Ġfinis hes
UR L
Ġmo on
Ġmed icine
Ġcha in
Ġcha mp
Ġinc re
Ġinc ident
ĠCh inese
ĠAr gument
ĠAfter Noon
Ġstr anger
Ġ08712 402
Ġdrink s
Ġsecond s
98 9
ok in
ph ine
uct s
Ġes planade
ĠSm iling
Ġ080009 3876
ĠCl os
ĠBr ing
ĠBr illiant
Ġprom pt
Ġprom ises
Ġaft r
ex p
fr m
Ġsk y
Ġsort ing
Ġcal c
Ġcal icut
Ġcal iforn
ĠInd ians
Ġdist ance
Ġopt ion
Ġinst antly
Ġinst ructions
ĠDO IN
ĠDO ES
Ġdownload s
Ġconfirm ed
BP OLY
by e
Ġwed ding
Ġmid dle
Ġmove d
ĠSH OW
ĠWH EN
Ġev ry
Ġstand ing
Ġvi jay
Ġunc on
Ġ0905809 18
Ġter rible
Ġbill ed
Ġposs ession
Ġpark ed
ĠAct ivate
ĠMsg s
Ġshort age
Ġ80 182
Ġ80 878
Ġvalu able
Ġve getables
Ġwis dom
Ġfore ign
ĠCH AR
ĠLo an
ĠLo ving
ĠRem ind
Ġtrans fered
Ġreturn ed
gin te
Ġfil ms
Ġpar ag
ĠSU BPOLY
ĠSub scri
ĠYear s
Ġurgent ly
Ġspend ing
........ ..
........ ...
Ġimp ossible
UD I
UD DY
Ġaff airs
Ġip ad
Ġip od
Ġboo st
Ġboo king
Ġboo ks
Ġfall s
Ġpri zes
ĠCr ack
Ġref used
Ġru le
ĠLi verpool
ĠDoes n
Ġ69 888
Ġthank sgiving
Ġchild ren
822 28
CK S
Ġwa heed
Ġsal es
ĠSk ilGme
ĠSk illGame
Ġey e
ĠBE FORE
Ġpray ing
Ġvoice mail
Ġmag a
Ġadv ise
ĠPOLY PH
62 1170150
CE PT
RA ND
ib ility
tu ition
Ġed uc
Ġcud d
Ġcud dle
Ġbag s
Ġfill s
Ġfight ng
Ġfla ked
Ġfoot prints
Ġgen erally
Ġgen uine
ĠTC R
ĠSol ve
Ġind ia
ĠNe xt
ĠMO B
ĠMmm m
ĠMmm mm
ĠFin al
ĠFin ally
ĠFin ish
Ġnear ly
Ġ822 42
Ġ300 603
Ġcomm on
Ġcomm unity
Ġquick ly
>> >
ux ury
Ġcele b
Ġpack age
ara oke
ĠSweet est
ĠNet work
ĠMess ages
ĠBec ause
ĠPIC S
ĠFIN D
Ġ880 66
Ġpract ic
ĠEr m
ĠVoucher s
Ġperf orm
Ġbless ings
Ġregard ing
COM UK
ilt hy
month s
Ġwall s
Ġwall paper
Ġmac han
Ġdress er
Ġpie ces
ĠSim ply
ĠSup rman
Ġincl ude
ĠAL RITE
Ġegg s
Ġiss ue
Ġrec d
ĠNat al
ĠMIN UTES
Ġste am
ĠGra hm
ĠFr iday
ĠFUCK IN
Ġsuper vis
Ġsport s
ĠStart s
Ġblood y
Ġroomm ates
Ġactiv ate
Ġ08718726 9
358 5
Ġrespond ing
Ġgentle man
Ġrandom ly
Ġsuccess ful
Ġsuccess fully
Wina week
Ġq atar
Ġtir unel
Ġtir upur
Ġbot tle
Ġbot tom
ĠSomet hing
ĠSOME ONE
ĠSOME THING
ĠWR K
ĠAB TA
ĠAft r
ĠMat rix
ĠMAN EESH
Ġform at
ĠDr op
rie f
ĠFe b
ĠRa ji
ĠRING TONE
Ġ***** ******
Ġremain s
ĠMeet ing
Ġ0906170 14
Ġsubscri bed
087187 27870
Ġfavour ite
ki as
Ġtal ent
Ġwom an
Ġsory da
Ġgar age
ĠTw o
ĠTON ES
Ġocc up
ĠHoney bee
Ġhang ing
ĠCon vey
ĠCute frnd
ĠAC CEPT
ĠAb out
ĠAn other
ĠYE AR
ĠYE AH
ĠPre pare
Ġdoc s
ĠLau gh
ĠLau ghed
ĠLdn W
Ġsoft ware
Ġtech nical
Ġ83 222
Ġ89 555
Ġvar ious
ĠHav nt
Ġ0871471 23
Ġmanage ment
ĠMobiles Direct
Ġ084528100 73
part nr
Ġver ify
Ġaun ty
Ġaud ition
Ġsn ake
Ġcru ise
Ġcustom ers
Ġide as
Ġbo at
Ġfail ed
ĠShi jas
ĠHome owners
ĠHUN NY
ĠCAR E
ĠCLA IM
Ġreco gn
ĠMin nam
ĠDRA W
ĠPAR IS
Ġju icy
ĠLea ve
Ġloy alty
Ġshi pping
ĠREC EIVE
ĠEVER Y
ffic ient
ĠThurs day
Ġ087178 980
Ġexhaust ed
Ġconstant ly
ĠTHAN X
125 9
Ġsatisf ied
Ġ09061790 121
Ġapolog ise
ĠDelivered Tomorrow
Ġrespon ce
ighb our
Ġdesp ar
Ġ08718726270 1
ĠIBH ltd
423 5
Mar garet
mess ages
under stand
Ġtab lets
Ġwal mart
Ġsour ce
Ġmach o
Ġban ks
Ġbla h
Ġdub sack
Ġfif teen
Ġflo or
Ġfanc ies
Ġpot ential
Ġpend ing
ĠSing le
ĠWAN NA
Ġhus band
ĠCont ent
Ġreb oot
ĠMon day
ĠMOR AL
Ġ195 6669
ĠUmm mmma
ĠBB D
ĠPART Y
Ġ45 239
Ġlos es
Ġshout ed
Ġupgr ade
Ġ84 128
Ġpros pects
ĠENT ER
Ġphilos ophy
Ġ087198 99
Ġdevel op
Ġaccord ingly
Ġswim ming
Ġ090666 12661
Ġchallen ge
Ġ090663622 31
Ġdepend s
Ġpriv ate
Ġslipp ers
08714740323 1
minMobsmore LKPOBOX
087 00
FRI END
Garden er
Mell e
Ne ighbour
aur ant
pout s
vir onment
Ġtay lor
Ġtouc hed
inun ginte
Ġsach in
Ġmor phine
Ġcit izen
Ġcertain ly
ĠImm ediately
Ġbuz y
Ġdea rer
Ġdign ity
eric an
Ġfath ima
Ġlid o
Ġlous y
Ġnak ed
Ġgaut ham
Ġgorge ous
ĠTess y
ĠTIT LE
ĠSep t
ĠSIT UATION
ĠSwthe art
ĠHall oween
ĠHEL P
Ġhund red
ĠNur ungu
ĠMur dered
ĠBel ovd
ĠBON US
ĠBew are
ĠPoin ts
ĠPock etBabe
ĠPleas ure
ĠPERS ON
ĠGerm any
Ġrail way
ĠFight ing
Ġ0122 3585
Ġlifet ime
ĠLif partnr
ĠLvble frnd
pperm essSubscription
Ġtelp hone
Ġ840 25
Ġ816 18
Ġ895 45
Ġ886 00
Ġ8130 3
ĠRog er
Ġoutstand ing
Ġalco hol
ĠEner gy
90500 00
Ġspee chless
Ġfema le
embe red
7040 50406
ĠVett am
Ġexplic it
ĠStorm ing
ĠSTUP ID
Ġguilt y
Ġdisli kes
Ġdispl ay
Ġ0906345 8130
Ġ0906120946 5
ĠINFOR M
Ġ0800093876 7
Ġcaliforn ia
ĠPOLYPH ONIC
ĠGrahm bell
Ġsupervis or
ĠMANEESH A
ĠMinnam inunginte
Ġ087178980 35
ĠUmmmmma ah
! )
! \""
+ -
- (
0 35
0 778
0 1327
0 9050000
1 7
1 20
1 40
1 182
1 808
2 000
2 80
2 88
2 12
2 15
3 7
3 18
3 38
3 26
4 00
4 000
4 45
4 12
4 26
4 35
5 4
5 78
5 33
6 4
6 24
6 78
6 74
6 009
7 40
7 44
7 95
7 62
8 10
8 99
8 35
8 33
8 19
8 2050
8 1151
8 704050406
9 3
A Z
A t
A nd
A pp
A la
A com
A ND
A US
A UT
A ID
A CH
A VAL
B O
B oo
B ut
B est
B uy
B ook
B UT
B ank
B EL
B iola
B ecause
B UDDY
C A
C R
C T
C U
C l
C an
C om
C ir
C ED
C txt
C ARD
C CL
C IST
C OUNT
D A
D O
D X
D o
D is
D ont
D ate
D AMS
E H
E s
E x
E nd
E nt
E GE
E MS
E njoy
E AD
F F
F OUND
F rm
G O
G ood
G IN
G reet
G UD
H B
H O
H ow
H ope
H AM
H ERE
H OL
H OPE
H aha
H AVE
I Z
I LE
I RE
I EL
I dew
J UST
J OY
K I
K S
K ED
K UDI
L S
L OT
M T
M a
M u
M y
M ess
M ore
M IN
M AR
M ED
M OB
N G
N ame
N ED
N OT
N umber
O E
O h
O n
O r
O pt
O KE
P S
P r
P ls
P OWER
R R
R eply
R INK
S g
S o
S p
S up
S IM
S weet
S IVE
T D
T G
T Y
T s
T hat
T IN
T XT
T AKE
T ALK
T ext
T hanks
U G
U J
U nt
U ED
U ITE
V a
W A
W E
W in
W en
W AY
W IL
X E
X N
Y A
Y F
Y our
Y AR
Y EH
a hat
a ith
a us
a ud
a ie
b in
b ha
b at
b ay
b it
b el
b ud
b age
b uk
b reak
c on
c ing
c an
c ore
c ould
c red
c ongrat
c olour
c astic
d c
d i
d ge
d el
d ress
d den
d ison
d buk
e g
e h
e one
e llo
f c
f or
f ore
f ine
f ice
f ie
f riend
f ord
f idence
g or
g an
g ard
g ks
g ames
g ds
h on
h th
h od
h mm
h ough
h tu
h ley
h ja
i or
i ing
i ke
i ri
i king
i ary
i ated
j u
j st
j its
k n
k in
k er
k ara
l k
l ace
l ane
l Sup
m at
m ill
m ate
m od
m pt
m ark
m ates
m irer
m nth
n i
n u
n on
n ec
n na
n up
n orm
n eed
n ss
o ff
o ices
o fl
o ley
o anna
p H
p a
p w
p re
p on
p ing
p es
p ri
p un
p ers
p od
p lease
r c
r am
r ont
r ish
r cv
r ict
r rit
r Acom
s m
s on
s er
s ed
s ut
s hi
s omet
s lp
s let
s EMS
t ow
t ic
t ms
t omorrow
t illa
u ed
u ly
u age
u ls
u cc
u gs
u ches
v ad
v ous
v oice
v ision
v ille
v iking
w s
w y
w ant
w ood
w ear
w ive
w ick
w ait
w ave
w ater
w rc
x X
x st
x ahat
y an
y our
y de
z iest
z hth
Ġ ing
Ġ xxxx
Ġt c
Ġt all
Ġt ac
Ġt act
Ġt ag
Ġt ap
Ġt ank
Ġt ip
Ġt yp
Ġt aste
Ġt tyl
Ġt lk
Ġa er
Ġa pt
Ġa vent
in to
Ġw es
Ġw th
Ġw ate
Ġw ks
Ġw ast
Ġw ren
Ġw ah
Ġw oot
Ġw ip
Ġw oken
Ġw tf
Ġw ml
Ġw ylie
Ġw uld
Ġs d
Ġs ac
Ġs ake
Ġs han
Ġs ack
Ġs co
Ġs no
Ġs rs
Ġs ix
Ġs igh
Ġs ize
Ġs oup
he x
he st
he mat
he ws
re p
re es
Ġm b
Ġm i
Ġm j
Ġm p
Ġm es
Ġm ot
Ġm all
Ġm ut
Ġm ill
Ġm one
Ġm ite
Ġm ain
Ġm its
Ġm iles
Ġm otorola
Ġm outh
Ġm sn
Ġm ca
Ġm ental
on w
on ing
on aut
Ġc c
Ġc y
Ġc st
Ġc ld
Ġc ough
Ġc ous
Ġc ity
Ġc hip
Ġc me
Ġc ave
Ġc aught
Ġc uri
.. \""
Ġy m
Ġy un
Ġy ep
Ġy ck
Ġy ummy
Ġto a
Ġto ot
Ġto oo
Ġto morro
Ġto shi
ĠI K
ĠI c
ĠI nt
ĠI AS
ĠI LL
ĠI KE
ĠI rrit
ha y
ha nd
ha nt
ha la
ha ppy
ha ya
ha ps
ha ved
Ġb all
Ġb ree
Ġb ite
Ġb ase
Ġb and
Ġb ul
Ġb ang
Ġb onus
Ġb orrow
Ġb sn
Ġb rea
or ce
or ds
or rect
or ating
Ġd t
Ġd u
Ġd ime
Ġd est
Ġd ud
Ġd ick
Ġd ig
Ġd ough
Ġd ial
Ġd orm
Ġd ance
Ġd irt
Ġd urb
Ġd anger
Ġyou re
Ġyou ng
er g
er ing
er ies
er able
er min
er cial
er onaut
Ġf o
Ġf an
Ġf ow
Ġf it
Ġf le
Ġf al
Ġf ond
Ġf urn
Ġf ret
Ġf und
Ġf air
Ġf ield
Ġf ilthy
Ġf gks
Ġl t
Ġl v
Ġl in
Ġl ing
Ġl tt
Ġl ower
Ġl ays
Ġl ane
Ġl ucozade
Ġl amb
Ġl uxury
Ġn b
Ġn u
Ġn ed
Ġn ut
Ġn us
Ġn ort
Ġn ast
Ġn av
Ġn oun
Ġn urs
Ġn vm
Ġn amed
Ġg f
Ġg v
Ġg ain
Ġg ig
Ġg ving
Ġg ast
Ġg ist
Ġg iv
Ġg ang
Ġg arden
nd y
nd rst
Ġp im
Ġp ol
Ġp ool
Ġp eak
Ġp arent
Ġp ouch
Ġp uzz
Ġp ush
Ġp ours
Ġthe sis
Ġu re
Ġu ltim
Ġu tter
Ġu ndrst
an ite
an ag
an uman
at o
at he
at ic
at um
at us
at ient
at haya
et he
et rol
ay a
ay in
ay ing
ay ut
ay se
ay ment
ar m
ar ter
ar ish
ar ner
ar gg
ar full
ĠT ot
ĠT is
ĠT ee
ĠT ak
ĠT OP
ĠT OT
ĠT ouch
ĠT UL
ĠT ension
ĠT WIL
it t
it is
it ic
it ting
it ure
it ude
it ina
ĠS C
ĠS ac
ĠS ch
ĠS ear
ĠS qu
ĠS AY
ĠS cor
ĠS uite
ĠS END
ĠS AME
ĠS care
ĠS IX
ĠS ale
ĠS low
ĠS inco
ĠS AID
ĠS itting
st r
st one
st ery
st airs
st ini
ed u
ed om
ed ia
ed into
en al
en ry
en vironment
Ġo s
Ġo z
Ġo il
Ġo ts
Ġo di
ot ic
ot ch
ot ion
ot ter
ot ect
ot hi
ot hes
ot land
... ,
... !!
... !!!
ĠH ol
ĠH ER
ĠH OR
ĠH AR
ĠH IT
ĠH lp
ĠH IS
ĠH og
ĠH ang
ĠH ospital
ĠH OL
ĠH alla
ĠH ols
ĠH OUS
ĠH arry
ĠH ero
ĠH rish
ĠH ugs
Ġha ll
Ġin ch
Ġin vest
ĠW on
ĠW il
ĠW ood
ĠW est
ĠW ick
ĠW OU
ĠW OM
ĠW IF
ĠW AITING
ĠW ISH
ĠW ALES
is k
is ation
is ions
Ġh id
Ġh pp
Ġh um
Ġh ist
Ġh int
Ġh ols
Ġh mmm
Ġh ubby
all i
Ġme i
Ġme ow
Ġme lt
ĠC t
ĠC ard
ĠC AL
ĠC ER
ĠC har
ĠC uz
ĠC olour
ĠC orn
ĠC SH
ĠC ele
ĠC UP
ĠC tter
ĠC NN
ĠC orrect
ĠA P
ĠA ve
ĠA ud
ĠA co
ĠA rs
ĠA OM
ĠA ug
ĠA CL
ĠA lex
ĠA WARD
ĠA eronaut
Ġand ros
ly n
Ġe ps
Ġe bay
Ġis com
Ġis land
as u
as es
as da
as ota
Ġre ass
Ġre cess
ĠY A
ĠY OR
ĠY ahoo
ĠY etunde
ic ation
ic ated
ic ib
ic sson
Ġ2 7
Ġ2 9
Ġ2 18
Ġit em
Ġit wh
Ġit alian
Ġit could
Ġth in
Ġth ot
Ġth ous
Ġth ts
Ġth read
Ġth rew
ke ep
ke red
ke mpt
ĠN Y
ĠN an
ĠN ic
ĠN one
ĠN oooo
ĠN yt
ĠN umber
ĠN asda
00 60
ĠM om
ĠM en
ĠM is
ĠM id
ĠM nt
ĠM ine
ĠM and
ĠM AR
ĠM ap
ĠM ail
ĠM other
ĠM oney
ĠM onth
ĠM arch
ĠM UN
ĠM ORNING
ĠM UM
ĠM ATCH
ĠM MM
ĠM ila
ĠM TALK
Ġof ice
Ġfor ce
Ġfor um
Ġfor ms
Ġfor ums
al er
al so
al and
Ġbe ar
Ġbe gging
Ġ1 3
Ġ1 40
Ġ1 77
Ġ1 53
id al
id ual
ĠD at
ĠD is
ĠD one
ĠD nt
ĠD ream
ĠD OT
ĠD irect
ĠD IR
ĠD EF
ĠD uches
ut ly
ut ra
ĠU mma
ĠU ltim
ac ed
ac her
ac hing
ac hed
ac kered
Ġwe as
Ġwe lp
Ġwe igh
ĠB C
ĠB Y
ĠB x
ĠB it
ĠB all
ĠB ill
ĠB ur
ĠB ig
ĠB right
ĠB OR
ĠB US
ĠB RE
ĠB aa
ĠB ET
ĠB OUT
ĠB aha
ĠB RO
ĠB OY
ĠB RAND
ill s
ill ed
ri ver
ri fic
ri but
ri fice
im ent
im um
ĠO i
ĠO p
ĠO z
ĠO ld
ĠO ff
ĠO NT
ĠO oooo
ĠO PT
ĠO ooh
Ġhe e
Ġhe l
Ġhe s
Ġhe al
Ġhe ld
Ġhe ater
Ġst d
Ġst amp
Ġst ones
Ġst ret
Ġst atement
Ġst yl
Ġst ars
Ġst aff
Ġst atus
ĠP R
ĠP S
ĠP T
ĠP a
ĠP ink
ĠP ick
ĠP IN
ĠP res
ĠP ub
ĠP RE
ĠP ET
ĠP ics
ĠP HP
ĠP RO
ĠP olo
ĠP UB
ĠP LAY
ĠP ayee
ĠP otter
ent re
ent ry
am m
am ma
ĠG in
ĠG ay
ĠG ir
ĠG ON
ĠG ame
ĠG uy
ĠG END
ĠG ENT
ĠG oogle
ĠG AIL
ĠG REAT
ĠG IV
ĠG HO
Ġse ver
Ġse pt
Ġse eds
ad u
ad em
ad ays
Ġr c
Ġr id
Ġr um
Ġr ice
Ġr oy
Ġr ange
Ġr ang
Ġr cv
Ġr hy
Ġr omantic
Ġr acing
Ġr yan
ver b
op al
op ose
op lane
Ġcall d
Ġcall in
Ġcall cost
ĠF l
ĠF ri
ĠF un
ĠF ant
ĠF ore
ĠF ear
ĠF AR
ĠF oot
ĠF ails
ĠF IR
ĠF IF
ĠF ingers
ĠF uture
ĠF yi
ĠF ffff
ĠF EEL
ĠF oley
Ġk g
Ġk o
Ġk z
Ġk or
Ġk ar
Ġk od
Ġk erala
Ġk app
Ġk adeem
Ġk araoke
Ġk onw
Ġj ess
Ġj ason
Ġj une
Ġj anuary
Ġj ump
Ġj amster
Ġan j
Ġan ot
Ġan th
Ġan na
Ġ0 50
Ġ0 71
Ġ0 21
Ġ0 578
Ġgo al
Ġgo als
Ġdo gging
Ġdo key
Ġli b
Ġli p
ld est
ld ish
ld ew
ĠL ook
ĠL ions
ĠL ATE
ĠL UC
ĠL iving
ĠL UCK
ĠL emme
ĠL ots
ĠL IST
ĠL ucozade
ĠL CCL
Ġcan al
Ġcan cell
Ġ4 1
Ġ4 4
Ġ4 20
Ġ4 16
Ġ4 04
Ġ4 47
Ġ4 403
Ġ4 882
Ġare nt
Ġne ighb
50 69
Ġget stop
Ġnot xt
pp ucc
un na
un sub
un ga
un ately
ant h
ant ha
Ġte leph
ess ive
ess ors
ess arily
ir it
ir ting
Ġfr aud
il i
il on
il ities
ight ly
ct s
ct ion
Ġlo ck
Ġlo vers
Ġlo xahat
gt hr
Ġsh r
Ġsh u
Ġsh y
Ġsh ore
Ġsh opp
Ġsh ip
Ġsh ining
ur ope
ur gent
ge ment
Ġup stairs
ood y
Ġ8 10
Ġ8 31
Ġ8 61
Ġ8 822
Ġ8 2468
Ġ8 1151
Ġkn ackered
ĠR um
ĠR ally
ĠR od
ĠR ever
ĠR ST
ĠR ITE
ĠR IGHT
ĠR ALLY
ĠR ofl
Ġwor st
Ġout s
Ġpl m
Ġpl um
Ġpl az
Ġpl acement
th m
th ts
th reats
ter n
ter ror
Ġal i
Ġal rite
Ġal fie
ab out
ab sol
ol ate
ol ved
ĠJ D
ĠJ S
ĠJ e
ĠJ ack
ĠJ ia
ĠJ ap
ĠJ ames
ĠJ une
ĠJ erry
ĠJ ESS
ĠJ esus
ĠJ amster
ĠJ oanna
ĠJ sut
ĠJ uly
ea king
ea nds
Ġpr od
Ġpr ak
Ġpr ops
Ġpr isc
Ġpr abha
Ġpr otect
Ġpr opose
um ents
ile o
us ing
us ion
Ġ08 25
Ġ08 700
Ġv id
Ġv day
Ġv th
Ġv ive
Ġv ide
Ġv ag
Ġv aa
Ġv ict
Ġv oda
Ġv ale
Ġwh n
Ġwh om
Ġwh os
el ve
el ive
ĠNo kias
os h
os k
ĠE nd
ĠE ar
ĠE ire
ĠE vr
ĠE ek
ĠE erie
ĠE AST
ĠE dison
Ġlike ly
Ġab j
Ġab uro
Ġab ility
est ar
Ġgot ten
Ġ3 26
Ġ3 100
Ġ3 73
Ġam used
EE R
EE EE
ĠHa f
ĠHa nds
ĠHe ad
ck t
ck on
ck ed
la st
Ġthere s
90 1
90 2
90 60
90 14
ind ia
ind ex
ind gi
ĠCall FREE
ĠIt z
ĠWe ek
Ġsu ck
Ġsu its
Ġsu ffer
Ġsu fficient
Ġsu dden
Ġsp ot
Ġsp ile
Ġsp ark
Ġsp lle
Ġsp irit
ud y
Ġtext oper
71 6
71 14
71 65
Ġ5 4
Ġla g
Ġla und
ĠK L
ĠK R
ĠK ay
ĠK no
ĠK allis
ĠK AVAL
ĠK aie
IN E
IN T
oy ing
Ġgood night
Ġgood nite
em br
em ploy
ain s
Ġph oned
ect ions
ĠDo c
ĠDo ll
ĠDo ctor
pt on
Ġhow ard
70 6009
Ġar ts
Ġsm ell
Ġsm ashed
Ġsm eone
ff les
Ġ_ '
Ġ_ ?
Ġ_ __
Ġmin i
Ġmin or
ec ial
Ġrep air
ĠV E
ĠV U
ĠV ry
ĠV ij
ĠV illage
ĠV odka
\" ..
\" ."
ig ate
Ġma p
Ġma kin
Ġoff c
res so
Ġher self
act ice
Ġdon no
ĠTh y
ĠTh gt
ĠTh ts
ĠTh ings
ĠFREE FONE
Ġtell y
Ġfree fone
ort e
ub b
Ġco in
Ġco at
Ġco ast
Ġco chin
Ġus b
Ġaf ric
Ġhapp ily
Ġmeet s
fe at
Ġevery where
AT M
Ġ6 00
Ġ6 30
Ġ6 12
Ġ6 16
Ġwho se
so le
Ġshe lf
Ġmess y
Ġmess aged
and Cs
mor o
mor ow
Ġcl ar
Ġcl othes
ul ate
ul ian
Ġex mp
Ġmiss in
ĠYour s
ĠYour self
Ġun int
Ġun fort
Ġun kn
Ġun nec
Ġun employ
66 5
66 6
66 00
66 50
Ġqu een
Ġqu iet
Ġcont rol
:-) "
:-) :-)
Ġwait ed
ĠMy stery
ee e
Ġman aged
Ġ7 876
Ġad s
OR GE
OR CIST
ĠSt ud
ĠSt reet
ĠSt rong
Ġgive n
.... !!
Ġde g
Ġde us
Ġde hy
Ġde feat
ĠHi gh
ag ing
30 150
30 91
30 901
Ġgreat est
ĠCan ary
ĠCan cer
ĠGood o
Ġcomp are
20 55
Ġfin ance
Ġag ree
Ġeve B
AR Y
Ġright s
Ġright ly
Ġton s
Ġcon ver
Ġcon vin
Ġcon sole
Ġbr uv
Ġbr oken
Ġbr uce
com p
com es
Ġen gin
ĠST AR
ĠST ART
Ġprob s
ail a
Ġke gg
we ll
we red
Ġser ving
IT AL
ist rator
Ġbab ies
Ġche at
Ġche st
Ġche ating
Ġche ese
Ġclaim s
ĠTe am
ĠTe ase
ny t
ĠTxt NO
ĠUR E
ĠUR SELF
22 1
22 7
22 29
40 7165
be y
be haved
no g
no cent
Ġcare d
Ġcare s
Ġper cent
Ġper miss
ĠTH INK
har ing
Ġsleep y
Ġsleep in
Ġpick le
80 34
80 1259
ES IL
Ġapp s
Ġapp ro
Ġapp lic
Ġapp lebe
Ġcontact s
Ġwould a
Ġbl uff
Ġbl oke
Ġbl ond
Ġbl ock
ND AY
lp o
Ġcash to
10 30
10 18
ĠOr ang
ĠGO SS
Ġsent hil
Ġgu id
Ġcar oline
Ġ10 30
23 1
23 45
23 11
ich turn
88 88
Ġkeep s
Ġch uck
Ġch oc
Ġch inese
AS S
Ġdis ast
Ġdis cl
Ġdis app
Ġ0906 121
Ġ0906 5069
Ġent ire
Ġent ertain
Ġint elligent
45 89
45 53
Ġchan ces
Ġspec ific
Ġdr am
Ġdr ms
Ġdr pd
Ġrem ov
Ġrem embered
AN C
AN G
Ġ9 30
Ġear n
Ġtonight s
18 96
Cs BCM
ĠIs n
ĠIs lands
ĠWh om
ren e
Ġlot ta
Ġacc ent
ĠIn cred
ĠIn vad
Ġ16 9
77 9
77 97
77 63
87 2
ov ie
ov ided
Ġx in
Ġx avier
Ġplan et
min more
ĠX uhui
ĠX xX
ĠWat s
ĠWat ing
ĠWat ch
ĠDid n
Ġ800 86
11 4
11 7
gg y
gg les
per t
per ate
sc hedule
Ġmat h
Ġmat urity
Ġmat hemat
Ġpart ners
34 1
34 396
Ġtr ade
Ġbus es
ions ms
ro c
ro it
ro ach
ro enter
wor ks
Ġland lines
Ġsc en
Ġsc ra
Ġsc ary
Ġsc rat
Ġsc hedule
Ġsc otland
Ġpay ment
ĠSh uhui
ĠSh rAcom
Ġem ploy
ĠHope fully
Ġans wered
Ġclass es
24 50
24 22
24 78
24 14
24 0060
ED IT
Ġpre y
ĠAs king
Ġres er
Ġres ub
Ġres ume
Ġres erve
Ġwish in
Ġmonth ly
Ġpo le
Ġpo em
Ġpo ker
Ġsec s
ĠLO G
ĠLO ST
Ġ0870 60
Ġ0870 44
Ġ0870 75
Ġ0870 8034
Ġjob s
Ġ0905 624
tone king
Ġsha gged
Ġfun k
Ġfun eral
Ġfun ky
60 6
60 8
60 30
60 665
Ġuse ful
Ġinf ront
Ġinf ections
Ġthought s
Ġgr ace
lect ion
Ġ12 50
Ġtw enty
Ġtw elve
Ġact or
Ġact ed
Ġact ion
Ġact ual
Ġfl ight
Ġfl ame
Ġfl ies
Ġfl ights
Ġfl irting
ĠMe ans
Ġatt ract
Ġatt ached
Ġreceive a
Ġbed rm
ĠSp ace
ĠSp ook
ĠSp oke
ĠSp anish
ĠSp ecial
Ġ200 7
Ġlive d
ins ha
Ġdec iding
Ġdec imal
Ġdec isions
Ġhouse wive
ĠRe ach
Ġ08000 407165
Ġ08000 7763
te red
ĠQ ues
ĠQ atar
ĠQ UITE
Ġnet works
Ġprin t
Ġprin ce
Ġprin ted
16 5
16 2414
de ep
de vour
uv iri
era j
Ġloo se
ĠAm erican
ĠME MB
RE T
sub s
sub scription
Ġsl ice
Ġsl ots
Ġsl ightly
Ġdel ete
Ġdel ivered
Ġdif fer
Ġdif ference
Ġpa le
any way
ĠAll ah
Ġstay s
Ġstay in
Ġstay ed
38 3
38 5
38 2422
cl ark
cl usive
iv a
iv idual
ĠPr ay
ĠPr as
ĠPr ovided
kk a
Ġill ness
Ġhur ting
Ġhur ried
Ġshit load
ĠEx pect
ĠEx ecutive
mr w
Ġwr ote
Ġwr nog
Ġmob s
Ġmob y
Ġlit erally
Ġel ab
ĠMay b
EED CHAT
Ġsupp ose
Ġ09061 10
15 2
15 29
15 60665
cor n
cor rect
pl er
pl es
Ġta han
Ġwk g
Ġsw t
Ġsw iss
Ġsw oop
Ġsw atch
Ġpost s
ĠBA HAM
ĠTHE N
Ġbirth date
14 6
14 823
TH IS
ĠIN C
ĠIN R
ĠCost s
ĠAl gar
ĠAl wys
Ġjoin ing
Ġguess ing
99 801
iy ag
ock s
Ġtra ve
Ġtra ins
Ġwif i
Ġsun shine
Ġsun light
Ġsweet s
Ġsweet ie
Ġdet ail
Ġforgot ten
Ġkiss es
ell y
Ġ:-) :-)
Ġtru ck
Ġtru ffles
Ġcra p
Ġcra ziest
Ġpain ting
Ġpain ful
ĠRE WARD
ĠRE PLY
Ġ0800 634
Ġ09066 350
Ġ09066 3806
Ġ09066 382422
Ġmail s
44 47
44 7797
ave s
ip ayut
yp ed
Ġ.. "
Ġden is
Ġluv s
ang aly
ĠSP K
ĠSP ORT
ĠSP EEDCHAT
ĠNE VER
ĠNE VA
ĠNE FT
Ġhead s
Ġhead ing
Ġworld s
Ġ087187 278
Ġ087187 27870
Ġbaby sit
ĠLOVE ME
21 7
69 3
txt Stop
txt tow
Ġ!! !!
Ġtest ing
Ġcost ing
ĠIm portant
ĠIm agine
Ġhav in
Ġbel ive
Ġbel ong
Ġbel oved
Ġlog os
Ġconf orm
Ġconf used
Ġconf idence
Ġconf uses
28 93
Ġac cept
Ġac adem
Ġsit ll
Ġsim pler
Ġrent s
ĠGOOD NIGHT
ĠGOOD FRIEND
25 84
pr ov
pr actice
Ġap roach
Ġsur vey
Ġcle ver
Ġtom eands
ĠYES TER
ST ART
ST ERS
Ġmust hu
Ġcr ore
Ġcr ab
Ġcr ash
Ġcr amps
Ġgift ed
Ġunder wear
Ġ11 3
ĠUK s
ĠBe fore
ĠLI LY
Ġtrip s
Ġwid elive
Ġmon o
Ġmon keys
Ġcur ry
Ġcolour s
Ġdi pped
Ġfast est
ens us
ĠDel hi
ĠBl ind
ĠBl ank
ĠGod s
Ġsub s
Ġsub mit
Ġopen ing
35 1
ID E
ID AY
aa aaa
fic iary
ug u
Ġtop ic
ĠHA V
ĠAcc ident
Ġread ers
Ġvis ionsms
Ġpoly H
Ġpoly pH
Ġ090580 95
Ġ090580 99801
ĠExp ress
Ġmo ving
Ġmo kka
Ġcha p
Ġcha se
Ġcha sing
Ġcut ting
Ġinc onsider
ĠCo ffee
ĠAr gh
ĠAr un
Ġstr ange
Ġ08712 101
Ġdisc reet
Ġdrink in
END ERS
ph s
ph onic
sh op
Ġes e
Ġtreat ed
ĠTs unam
ĠTs andCs
ĠSm ith
Ġhop ed
ĠChe er
ĠChe ap
Ġret rie
irt el
Ġcomplet ed
EN CE
Ġsnow man
Ġcour t
Ġcour age
Ġnorm ally
Ġgal ileo
ĠTE X
stop sms
ĠCl ick
ĠCl ose
ĠBr ay
ĠOF F
vers ity
Ġexc uses
ĠAccount s
az ine
full onsms
hh h
more Frm
Ġwar ning
Ġwar rant
Ġsk ip
Ġsk yped
Ġsort ed
Ġdist ract
Ġinst all
Ġinst alling
ĠWin ning
Ġrest ock
Ġrest aurant
Ġrest rict
ĠGu ide
Ġsell s
Ġdownload ed
Ġsecret ly
Ġsecret ary
ĠQu est
Ġconfirm d
fer ably
Ġsing ing
Ġmid s
Ġmove s
Ġfar m
Ġna hi
ĠSH ESIL
Ġhard ly
ĠWH Y
Ġev n
ĠMiss ed
Ġsem i
Ġfrnds hip
Ġvi br
Ġ0905809 445
ĠTEXT POD
ĠTEXT BUDDY
46 899
Ġter rific
Ġbill s
Ġbill ion
Ġdarl ings
Ġfu jits
ative s
ĠSha mp
ĠSha hja
ĠWOR RY
ĠCD GT
ĠAS KED
ĠAct ive
ĠMob y
ĠPh oen
Ġ80 1
Ġ80 77
Ġ80 608
73 7
73 162414
Ġve wy
Ġown s
Ġwis key
Ġcat ching
Ġcop ing
Ġfore vr
Ġny dc
ĠCH OS
ĠCR EDIT
Ġrequ ire
Ġ07 80
Ġ07 808
ĠRem ove
Ġexp ired
Ġexp lain
Ġtrans port
Ġtrans fr
Ġscream ed
Ġ0906636 43
Ġ0906636 4589
0871 240060
Ġdifficult ies
91 795
LO SIVE
SH IT
care ers
Ġbra h
Ġdes ert
Ġdes cri
Ġdes perate
Ġfig ures
Ġpar king
Ġpar co
Ġpaper work
ĠTr ust
ĠSU M
ĠSU RE
ĠSU NDAY
ĠSub s
ĠSub scribe
ĠHI YA
ĠGr anite
Ġra ed
Ġra el
Ġann ivers
ĠEN JOY
ĠEvery thing
feren ces
Ġdeal ing
Ġdeal er
Ġimp ress
Ġimp atient
ISS CO
ĠREAL ITY
ĠHAVE NT
Ġcorrect ion
200 117
86 200117
CH EERS
ric ity
Ġaff air
Ġsign ific
Ġmod ule
Ġmod ules
Ġca ptain
Ġca ppucc
Ġca using
Ġcount in
Ġtor tilla
Ġbas ket
Ġdep os
Ġdep artment
Ġdep ressed
Ġfall ing
Ġpri or
Ġpur se
Ġhor rible
Ġref und
Ġref illed
Ġreason able
ĠMa le
ĠMa king
ĠDAY S
Ġru in
Ġru ining
Ġkick s
Ġkick off
Ġjo lt
Ġjo gging
Ġ40 533
Ġloc ation
Ġ69 696
Ġ69 669
Ġ69 698
Ġconnect ions
Ġrock s
Ġ090640 121
Ġ090640 11000
Ġdisturb ing
SS SS
ring toneking
Ġsal on
Ġsil ver
Ġsil ence
Ġsil ently
has ing
Ġgra ve
ĠHelp line
ĠColl ect
ĠDe eraj
ĠBE AUT
ĠBE GIN
Ġjay a
Ġ077 6
Ġ077 426
Ġ077 34396
Ġ077 86200117
Ġ36 50
Ġ36 80
Ġlaugh ing
Ġ087124 00
Ġadm it
Ġdeep ak
text bud
text pod
text comp
Ġmobiles vary
ĠFANTAS Y
41 9060
NO ON
ib bs
wh r
Ġer ror
Ġer icsson
Ġmad am
Ġmist akes
Ġfill ed
Ġfight ing
Ġfla ky
Ġfoot ball
ĠSW EET
...! ..!!
Ġind icate
Ġind ividual
ĠAG O
Ġrel atives
Ġreward ing
ĠMO ST
ĠMmm mmm
ĠUN I
ĠBt w
Ġtel ugu
Ġloving ly
Ġ850 69
Ġcomm ercial
ĠFRND S
ĠFRND SHIP
Ġremove d
121 318
Ġ0871240 5022
Ġ0871240 2050
Ġfixed line
Ġrequest s
IF UL
ham pton
Ġgay textbud
Ġpack s
ĠSweet heart
ĠNet working
ĠMess aging
ĠBoy s
ĠBec omes
ĠOpt out
ĠOpt Out
ĠFIN AL
ĠFIN ISH
Ġ880 88
olog ist
Ġpract ice
Ġpract ical
ĠEX ORCIST
Ġoffic ially
Ġ087123 17
Ġcond ition
Ġcond ucts
Ġapprec iated
Ġbless ing
Ġbless ed
Ġprof essors
Ġ0906174 38
Ġ0906174 3806
Ġ0906174 338
Ġ0906174 4553
Ġopin ions
ĠPlay er
Ġ08002 8888
:: :
:: :::
OS E
ĠZ OE
Ġwind ow
Ġwind ows
Ġmis behaved
Ġdress ed
Ġly f
Ġly fu
Ġpie ce
ĠTn C
ĠHur t
ĠHur ts
ĠHOW S
ĠAL WAY
ĠMIN E
ĠUs her
ĠUs ually
Ġste ve
Ġste al
ĠFr nd
ĠFUCK ING
Ġji ayin
chi ldish
Ġvom iting
ĠEVE NING
Ġsuper ior
Ġarg ument
Ġ60 31
Ġuni versity
Ġprep aid
Ġprep ared
Ġprep ayment
Ġ0905000 1808
Ġ0905000 3091
Ġ0905000 2311
Ġprocess ed
Ġhotel s
Ġ090580945 99
Ġ090580945 97
Ġ090580945 65
270 819
323 7
ME MBER
app ly
sms co
Ġsar castic
Ġsar asota
ĠIB N
Ġbor in
Ġbur ning
Ġpan ic
Ġpat ty
Ġpat tern
ots man
Ġham ster
ĠWR C
Ġeas ily
ĠDr inks
ĠDATE Box
Ġweak ness
Ġstar ing
ĠFe el
Ġkill s
Ġkill ing
Ġkill ed
Ġ020 73162414
Ġdoll ar
Ġteac her
Ġ0808 1560665
ĠKNOW S
ĠFRIEND SHIP
Ġclos es
Ġreceipt s
Ġ0906170 2893
Ġclear ing
Ġclear ly
Ġsubscri ber
087187 20201
087187 288
ĠGeeee e
ĠGIRL S
700 00
SP E
UU UU
ii ii
ki osk
kiss es
mar row
mob y
mob sEMS
wa xst
Ġri ver
Ġtal ks
Ġwi htu
Ġwom en
Ġsli p
Ġbreat h
Ġbreat he
Ġdem and
Ġlim iting
Ġnat ure
Ġnat ural
Ġnit ros
Ġgreet ings
Ġpos ition
ĠTON IGHT
ĠSL AP
ĠSleep ing
ĠSleep well
ĠCon fidence
ĠCOLL EGE
ĠAC TION
Ġec st
Ġeight h
Ġred uce
ĠDON T
ĠDID N
ĠPut ting
Ġje ans
Ġje alous
Ġ078 212
ĠLuck y
Ġsho es
Ġsho ving
Ġsho cking
Ġ83 383
Ġ89 693
Ġ888 88
Ġ888 77
ĠEuro Dis
Ġrepl ace
Ġrepl acement
Ġchill in
128 2
Ġ090612210 61
Ġavo id
Ġavo iding
Ġcelebr ation
Ġ084528100 75
Ġ0800298 6030
Ġbene ath
Ġbene fits
Ġbene ficiary
Ġweird est
Ġ08701417012 150
;) :
MOR O
MOR OW
OOK S
VAL UED
hu ag
Ġ% .
Ġver ified
Ġaun ts
Ġcook ed
Ġcook ies
Ġic icib
Ġide al
Ġbrow n
Ġbuff et
Ġded icate
Ġded icated
Ġlick s
Ġgrow ing
Ġpap ers
anes e
anes h
ĠTra v
ĠTra vel
ĠSc otch
ĠSc otsman
ĠSec ond
ĠSec ret
ĠSex y
Ġhu ge
ĠCON T
ĠCON VIN
ĠCLA IRE
ĠAD AM
ĠAD DAMS
ĠAd mirer
ĠApp ly
Ġreco very
ĠYun ny
Ġthurs day
ĠMON O
ĠMoji Biola
ĠDRA CU
ĠUS ER
ĠBook ed
ĠPro f
ĠPro verb
ĠGe orge
Ġju an
Ġlion m
Ġlion p
Ġnecess ary
Ġnecess arily
Ġloy al
Ġshi pped
Ġ890 70
Ġ890 80
umb ling
Ġamong st
Ġspeed ing
ĠWhats up
Ġbro ad
Ġappr ox
Ġ09065 39
Ġ09065 989
Ġdrunk en
Ġscore s
Ġprefer ably
Ġsatisf y
151 3
Ġrespon se
Ġdesp ite
Ġfavor ite
Ġ0906401 9014
ĠComp any
428 4
MI ER
Miss ing
SK Y
Un break
Un kempt
bl ood
che e
iet rivia
yar asu
Ġsens itive
Ġmc at
Ġmass ive
Ġcast or
Ġcap ital
Ġcreep y
Ġbuild ing
Ġdou bt
Ġdanc ing
Ġnag ar
Ġpred ict
ĠTR UE
ĠTick ets
Ġov ulation
Ġhon est
ĠCL UB
ĠCa RE
ĠCa ptain
ĠCust Care
ĠCare ful
ĠCOM IN
Ġeffect s
Ġrenew al
ĠMR NG
Ġforgive n
Ġstri ke
Ġstick y
ĠPe ace
ĠPe ople
Ġkid ding
Ġjack et
Ġdogg y
ĠLine rental
sex CM
Ġneck lace
Ġ830 49
Ġproper ty
ĠEv rey
Ġallow ed
Ġcomb ine
ĠKerala Cir
Ġ0871918 1513
Ġcontin ue
Ġadmin istrator
Ġconcent rate
ĠPOST CARD
Ġimpr ove
Ġimpr oved
Ġ090651 740
Ġ090651 7114
ĠLOT R
396 80
Ġflow ing
REAT H
ĠXXXX X
ĠBrit ish
ĠBrit ney
Ġrespons ibility
Ġviol ence
Ġviol ated
LDN W
board ing
ĠEXP LOSIVE
Ġirrit ating
Ġprescri ption
ĠSLEEP ING
Ġ0871277810 810
769 69
DE W
FW D
Ring tone
Res pect
SW EET
cas m
mov ietrivia
sha ll
wel comes
Ġ00 8704050406
Ġtur ning
Ġay n
Ġalt er
Ġsig ning
Ġsoooo o
reg ret
Ġcher ish
Ġcol or
Ġyell ing
ĠIND IA
Ġble h
Ġdh ina
Ġdiv ision
Ġfre edom
Ġfag gy
Ġfli p
Ġlen gt
Ġlang uage
Ġnan ny
Ġgp u
Ġpen is
Ġpun ish
ĠTom arrow
ĠTOMOR ROW
ĠSI B
ĠSym bol
Ġore o
ĠWKE NT
ĠCra zy
ĠAg ain
ĠALE X
Ġela ine
Ġelect ricity
Ġrechar ge
ĠNorm al
ĠNIC HOL
ĠDes ires
ĠDet roit
ĠDRE AMS
ĠDisc onnect
ĠBra ndy
ĠBlo omberg
Ġhen ce
ĠPass words
ĠPLE ASE
ĠPsy ch
ĠGam estar
ĠFM L
ĠFace book
Ġ09 11
Ġdob by
ĠLe ft
Ġsol ved
Ġfring e
Ġ86 888
Ġprog ram
Ġvir g
ĠEs pecially
ĠEy es
ĠHell oooo
Ġspoil ed
Ġ090946 46899
Ġ090715124 33
Ġrepe at
ĠVi Va
ĠVIO LET
Ġ698 66
Ġ08719180 248
Ġadvent ure
Ġcompla int
ĠSTUD ENT
Ġblo omberg
ukk al
Ġaccom od
ĠInf orm
Ġpartic ular
Ġscr ounge
Ġprem ium
Ġ08709 2229
Ġ087024 1182
Ġsathy a
Ġgroo vy
ĠQue en
ĠProm o
Ġtax i
Ġ09066358 152
Ġ08718730 666
Ġ0871873800 1
Ġcricket er
Ġdiamond s
4280 703
Ġincre ments
Ġprompt s
exp resso
Ġcalc ulation
Ġevry dy
Ġuncon sc
Ġ090580918 54
ĠCHAR ITY
Ġparag on
ĠSubscri ber
Ġeduc ational
Ġcudd ling
ĠMOB NO
ĠPICS FREE
Ġpractic ing
ĠNatal ja
Ġtirunel vali
Ġ090617014 61
Ġoccup y
ĠLaugh ing
Ġrecogn ise
Ġdespar ate
Ġ01223585 334
ĠINFORM ATION
035 30150
0778 14823
09050000 327
215 9
678 9
At Me
Ala ipayut
AUS E
Boo st
Cl ub
Es sexCM
Ex cellent
Ent ry
LOT S
MT msg
Ma angaly
Mu ah
Mess age
MAR RIED
Or Sg
Opt Out
SIM PLE
Unt amed
bha ji
del ious
hon i
lSup lt
mod ation
pre ferably
pri zes
slet ter
zhth ukkal
Ġtac os
Ġaer oplane
Ġwah t
Ġwip ro
Ġsac rifice
Ġsco ld
Ġsno gs
Ġmes ages
Ġmits ake
Ġcous in
Ġcuri ous
Ġtoshi ba
ĠIKE A
ĠIrrit ates
Ġbul bs
Ġdurb an
Ġfurn iture
Ġfgks lpo
Ġltt rs
Ġnut her
Ġnort hampton
Ġnast y
Ġgast roenter
Ġpim ples
Ġpol itic
Ġultim atum
Ġundrst nd
ayse er
ĠTot al
ĠTUL IP
ĠTWIL IGHT
itina DEW
ĠSear ch
ĠScor ing
ĠScare d
Ġots ide
ĠHOR O
ĠHAR RY
ĠHOL IDAY
ĠHalla q
ĠHOUS E
ĠHrish i
ĠWest life
ĠWick low
ĠWIF E
Ġhpp nss
Ġhist ory
ĠCard iff
ĠCorn wall
ĠArs enal
ĠAug ust
ĠAeronaut ics
Ġeps ilon
Ġiscom ing
Ġrecess ion
Ġ218 70000
Ġitem s
Ġitwh ichturn
Ġthous ands
ĠNasda q
ĠMid night
ĠMnt hs
ĠMand an
ĠMail box
ĠMonth ly
ĠMUN STERS
ĠDIR TY
ĠDuches s
ĠBur ger
ĠBRE AK
ĠBaha mas
ĠONT O
Ġstamp ed
Ġstret ch
ĠPRE MIER
ĠGEND ER
ĠGHO ST
Ġsever al
Ġrum our
Ġroy al
Ġrhy thm
ĠFant asy
ĠFoot ball
ĠFIR ST
Ġkapp a
Ġanth ony
Ġ050 703
Ġ071 2345
ĠLook AtMe
ĠLUC Y
ĠLUCK Y
ĠLIST EN
ĠLCCL TD
Ġcancell ed
Ġ416 85
Ġ447 801259
Ġteleph one
Ġfraud s
Ġloxahat chee
Ġshopp in
Ġ810 10
Ġ8822 2
ĠRever se
ĠRST M
Ġplaz a
terror ist
absol utly
ĠJack pot
ĠJap anese
Ġprak asam
Ġprops d
Ġprisc illa
Ġ08700 621170150
Ġvive k
Ġvide os
Ġvag ue
Ġvaa zhthukkal
Ġvoda fone
ĠEAST ENDERS
ĠHands et
ĠCallFREE FONE
ĠWeek ly
Ġsplle ing
Ġtextoper ator
Ġlaund ry
ĠKno ck
ĠKAVAL AN
ĠKaie z
Ġ___ _
ĠVij ay
Ġ612 00
Ġ616 10
Ġexmp el
Ġunint ention
Ġunkn own
Ġunnec essarily
Ġunemploy ed
Ġ7876 150
ORGE OUS
Ġdehy d
Ġconvin cing
Ġkegg er
Ġapplic ation
Ġapplebe es
Ġblond e
ĠOrang es
Ġchoc olate
Ġdiscl ose
Ġ0906121 3237
Ġremov al
ĠIncred ible
ĠInvad ers
minmore mobsEMS
Ġmathemat ics
Ġpartners hip
ĠShrAcom OrSg
Ġ087060 91795
Ġ087044 39680
Ġ08708034 412
Ġ0905624 2159
Ġhousewive s
Ġ080007763 20
devour ing
ĠMEMB ERS
ĠBAHAM AS
ĠAlgar ve
Ġ0800634 4447
Ġ09066350 750
Ġ090663806 11
447797 706009
Ġ087187278 68
txttow in
Ġacadem ic
2584 351
Ġtomeands aid
ĠYESTER DAY
Ġdipped itinaDEW
Ġinconsider ate
Ġ08712101 358
Ġretrie ve
moreFrm Mob
Ġwarrant y
Ġfujits u
ĠShamp ain
ĠShahja han
ĠPhoen ix
ĠCHOS EN
Ġ090663643 11
0871240060 2450
Ġannivers ary
Ġcappucc ino
Ġ090640121 60
ĠBEAUT IFUL
Ġ077426 76969
Ġ07734396 839
419060 4
121318 6
Ġgaytextbud dy
Ġ08712317 606
Ġ0906174338 6
Ġ080028888 12
ĠALWAY S
270819 80
087187288 76
waxst o
Ġwihtu ot
Ġ078212 30901
ĠEuroDis inc
Ġicicib ank
ĠCONVIN CED
ĠADDAMS FA
ĠDRACU LA
Ġ09065989 182
Unbreak able
ĠKeralaCir cle
Ġ090651740 42
Ġ0906517114 2
ĠNICHOL S
Ġ087092229 22
Ġ0870241182 716
expresso ffer
077814823 78
Alaipayut he
Maangaly am
Ġgastroenter itis
Ġpolitic ians
Ġitwhichturn edinto
Ġ0712345 6789
Ġ447801259 231
minmoremobsEMS POBox
ĠShrAcomOrSg lSuplt
