{
  "version": "1.0",
  "truncation": null,
  "padding": null,
  "added_tokens": [
    {
      "id": 0,
      "content": "<s>",
      "single_word": false,
      "lstrip": false,
      "rstrip": false,
      "normalized": false,
      "special": true
    },
    {
      "id": 1,
      "content": "<pad>",
      "single_word": false,
      "lstrip": false,
      "rstrip": false,
      "normalized": false,
      "special": true
    },
    {
      "id": 2,
      "content": "</s>",
      "single_word": false,
      "lstrip": false,
      "rstrip": false,
      "normalized": false,
      "special": true
    },
    {
      "id": 3,
      "content": "<unk>",
      "single_word": false,
      "lstrip": false,
      "rstrip": false,
      "normalized": false,
      "special": true
    },
    {
      "id": 4,
      "content": "<mask>",
      "single_word": false,
      "lstrip": false,
      "rstrip": false,
      "normalized": false,
      "special": true
    }
  ],
  "normalizer": null,
  "pre_tokenizer": {
    "type": "ByteLevel",
    "add_prefix_space": true,
    "trim_offsets": true,
    "use_regex": true
  },
  "post_processor": {
    "type": "ByteLevel",
    "add_prefix_space": true,
    "trim_offsets": false,
    "use_regex": true
  },
  "decoder": {
    "type": "ByteLevel",
    "add_prefix_space": true,
    "trim_offsets": true,
    "use_regex": true
  },
  "model": {
    "type": "BPE",
    "dropout": null,
    "unk_token": null,
    "continuing_subword_prefix": null,
    "end_of_word_suffix": null,
    "fuse_unk": false,
    "byte_fallback": false,
    "ignore_merges": false,
    "vocab": {
      "<s>": 0,
      "<pad>": 1,
      "</s>": 2,
      "<unk>": 3,
      "<mask>": 4,
      "!": 5,
      "\"": 6,
      "#": 7,
      "$": 8,
      "%": 9,
      "&": 10,
      "'": 11,
      "(": 12,
      ")": 13,
      "*": 14,
      "+": 15,
      ",": 16,
      "-": 17,
      ".": 18,
      "/": 19,
      "0": 20,
      "1": 21,
      "2": 22,
      "3": 23,
      "4": 24,
      "5": 25,
      "6": 26,
      "7": 27,
      "8": 28,
      "9": 29,
      ":": 30,
      ";": 31,
      "<": 32,
      "=": 33,
      ">": 34,
      "?": 35,
      "@": 36,
      "A": 37,
      "B": 38,
      "C": 39,
      "D": 40,
      "E": 41,
      "F": 42,
      "G": 43,
      "H": 44,
      "I": 45,
      "J": 46,
      "K": 47,
      "L": 48,
      "M": 49,
      "N": 50,
      "O": 51,
      "P": 52,
      "Q": 53,
      "R": 54,
      "S": 55,
      "T": 56,
      "U": 57,
      "V": 58,
      "W": 59,
      "X": 60,
      "Y": 61,
      "Z": 62,
      "[": 63,
      "\\": 64,
      "]": 65,
      "^": 66,
      "_": 67,
      "`": 68,
      "a": 69,
      "b": 70,
      "c": 71,
      "d": 72,
      "e": 73,
      "f": 74,
      "g": 75,
      "h": 76,
      "i": 77,
      "j": 78,
      "k": 79,
      "l": 80,
      "m": 81,
      "n": 82,
      "o": 83,
      "p": 84,
      "q": 85,
      "r": 86,
      "s": 87,
      "t": 88,
      "u": 89,
      "v": 90,
      "w": 91,
      "x": 92,
      "y": 93,
      "z": 94,
      "{": 95,
      "|": 96,
      "}": 97,
      "~": 98,
      "¡": 99,
      "¢": 100,
      "£": 101,
      "¤": 102,
      "¥": 103,
      "¦": 104,
      "§": 105,
      "¨": 106,
      "©": 107,
      "ª": 108,
      "«": 109,
      "¬": 110,
      "®": 111,
      "¯": 112,
      "°": 113,
      "±": 114,
      "²": 115,
      "³": 116,
      "´": 117,
      "µ": 118,
      "¶": 119,
      "·": 120,
      "¸": 121,
      "¹": 122,
      "º": 123,
      "»": 124,
      "¼": 125,
      "½": 126,
      "¾": 127,
      "¿": 128,
      "À": 129,
      "Á": 130,
      "Â": 131,
      "Ã": 132,
      "Ä": 133,
      "Å": 134,
      "Æ": 135,
      "Ç": 136,
      "È": 137,
      "É": 138,
      "Ê": 139,
      "Ë": 140,
      "Ì": 141,
      "Í": 142,
      "Î": 143,
      "Ï": 144,
      "Ð": 145,
      "Ñ": 146,
      "Ò": 147,
      "Ó": 148,
      "Ô": 149,
      "Õ": 150,
      "Ö": 151,
      "×": 152,
      "Ø": 153,
      "Ù": 154,
      "Ú": 155,
      "Û": 156,
      "Ü": 157,
      "Ý": 158,
      "Þ": 159,
      "ß": 160,
      "à": 161,
      "á": 162,
      "â": 163,
      "ã": 164,
      "ä": 165,
      "å": 166,
      "æ": 167,
      "ç": 168,
      "è": 169,
      "é": 170,
      "ê": 171,
      "ë": 172,
      "ì": 173,
      "í": 174,
      "î": 175,
      "ï": 176,
      "ð": 177,
      "ñ": 178,
      "ò": 179,
      "ó": 180,
      "ô": 181,
      "õ": 182,
      "ö": 183,
      "÷": 184,
      "ø": 185,
      "ù": 186,
      "ú": 187,
      "û": 188,
      "ü": 189,
      "ý": 190,
      "þ": 191,
      "ÿ": 192,
      "Ā": 193,
      "ā": 194,
      "Ă": 195,
      "ă": 196,
      "Ą": 197,
      "ą": 198,
      "Ć": 199,
      "ć": 200,
      "Ĉ": 201,
      "ĉ": 202,
      "Ċ": 203,
      "ċ": 204,
      "Č": 205,
      "č": 206,
      "Ď": 207,
      "ď": 208,
      "Đ": 209,
      "đ": 210,
      "Ē": 211,
      "ē": 212,
      "Ĕ": 213,
      "ĕ": 214,
      "Ė": 215,
      "ė": 216,
      "Ę": 217,
      "ę": 218,
      "Ě": 219,
      "ě": 220,
      "Ĝ": 221,
      "ĝ": 222,
      "Ğ": 223,
      "ğ": 224,
      "Ġ": 225,
      "ġ": 226,
      "Ģ": 227,
      "ģ": 228,
      "Ĥ": 229,
      "ĥ": 230,
      "Ħ": 231,
      "ħ": 232,
      "Ĩ": 233,
      "ĩ": 234,
      "Ī": 235,
      "ī": 236,
      "Ĭ": 237,
      "ĭ": 238,
      "Į": 239,
      "į": 240,
      "İ": 241,
      "ı": 242,
      "Ĳ": 243,
      "ĳ": 244,
      "Ĵ": 245,
      "ĵ": 246,
      "Ķ": 247,
      "ķ": 248,
      "ĸ": 249,
      "Ĺ": 250,
      "ĺ": 251,
      "Ļ": 252,
      "ļ": 253,
      "Ľ": 254,
      "ľ": 255,
      "Ŀ": 256,
      "ŀ": 257,
      "Ł": 258,
      "ł": 259,
      "Ń": 260,
      "Ġt": 261,
      "Ġa": 262,
      "in": 263,
      "ou": 264,
      "Ġw": 265,
      "Ġs": 266,
      "he": 267,
      "re": 268,
      "Ġm": 269,
      "on": 270,
      "Ġc": 271,
      "..": 272,
      "Ġi": 273,
      "ll": 274,
      "Ġy": 275,
      "Ġto": 276,
      "ĠI": 277,
      "ha": 278,
      "Ġb": 279,
      "or": 280,
      "ing": 281,
      "Ġd": 282,
      "Ġyou": 283,
      "er": 284,
      "Ġf": 285,
      "Ġl": 286,
      "Ġn": 287,
      "Ġg": 288,
      "nd": 289,
      "Ġp": 290,
      "Ġthe": 291,
      "Ġu": 292,
      "an": 293,
      "ve": 294,
      "om": 295,
      "es": 296,
      "at": 297,
      "ow": 298,
      "et": 299,
      "ay": 300,
      "ar": 301,
      "ĠT": 302,
      "it": 303,
      "ĠS": 304,
      "st": 305,
      "ed": 306,
      "en": 307,
      "Ġo": 308,
      "ot": 309,
      "...": 310,
      "ĠH": 311,
      "Ġha": 312,
      "le": 313,
      "Ġin": 314,
      "ĠW": 315,
      "is": 316,
      "Ġh": 317,
      "hat": 318,
      "all": 319,
      "Ġme": 320,
      "ĠC": 321,
      "ĠA": 322,
      "Ġon": 323,
      "Ġand": 324,
      "ly": 325,
      "Ġe": 326,
      "Ġis": 327,
      "as": 328,
      "Ġre": 329,
      "ĠY": 330,
      "ic": 331,
      "Ġ2": 332,
      "Ġit": 333,
      "Ġth": 334,
      "ke": 335,
      "ĠN": 336,
      "00": 337,
      "ĠM": 338,
      "Ġof": 339,
      "Ġfor": 340,
      "al": 341,
      "Ġbe": 342,
      "Ġ1": 343,
      "id": 344,
      "oo": 345,
      "ĠD": 346,
      "gh": 347,
      "ut": 348,
      "ĠU": 349,
      "ac": 350,
      "Ġwe": 351,
      "ĠB": 352,
      "ill": 353,
      "ome": 354,
      "Ġmy": 355,
      "ri": 356,
      "im": 357,
      "ĠO": 358,
      "Ġhe": 359,
      "Ġyour": 360,
      "Ġst": 361,
      "ĠP": 362,
      "ent": 363,
      "am": 364,
      "ĠG": 365,
      "Ġse": 366,
      "xt": 367,
      "ad": 368,
      "out": 369,
      "ght": 370,
      "Ġthat": 371,
      "Ġhave": 372,
      "Ġ&": 373,
      "Ġr": 374,
      "ver": 375,
      "op": 376,
      "one": 377,
      "Ġcall": 378,
      "ĠF": 379,
      "ust": 380,
      "'s": 381,
      "Ġk": 382,
      "Ġj": 383,
      "Ġan": 384,
      "Ġ0": 385,
      "Ġgo": 386,
      "Ġdo": 387,
      "Ġli": 388,
      "ld": 389,
      "ĠL": 390,
      "Ġcan": 391,
      "se": 392,
      "ch": 393,
      "Ġor": 394,
      "ith": 395,
      "Ġ4": 396,
      "Ġare": 397,
      "Ġne": 398,
      "ry": 399,
      "Ġat": 400,
      "50": 401,
      "ob": 402,
      "Ġget": 403,
      "lt": 404,
      "Ġnot": 405,
      "Ġnow": 406,
      "Ġso": 407,
      "'m": 408,
      "hen": 409,
      "ĠYou": 410,
      "Ġwith": 411,
      "ion": 412,
      "pp": 413,
      "un": 414,
      "ant": 415,
      "Ġte": 416,
      "'t": 417,
      "ess": 418,
      "ir": 419,
      "ont": 420,
      "Ġwill": 421,
      "Ġfr": 422,
      "il": 423,
      "nt": 424,
      "ight": 425,
      "ct": 426,
      "Ġlo": 427,
      "gt": 428,
      "Ġsh": 429,
      "Ġur": 430,
      "Ġas": 431,
      "ur": 432,
      "ge": 433,
      "ce": 434,
      "Ġup": 435,
      "ood": 436,
      "Ġ8": 437,
      "day": 438,
      "Ġkn": 439,
      "ĠR": 440,
      "ake": 441,
      "Ġwor": 442,
      "her": 443,
      "Ġbut": 444,
      "Ġout": 445,
      "Ġpl": 446,
      "han": 447,
      "#&": 448,
      ";#&": 449,
      "th": 450,
      "ep": 451,
      "ter": 452,
      "our": 453,
      "ate": 454,
      "Ġknow": 455,
      "ore": 456,
      "Ġal": 457,
      "ab": 458,
      "ol": 459,
      "ĠJ": 460,
      "Ġfrom": 461,
      "ea": 462,
      "ine": 463,
      "Ġpr": 464,
      "um": 465,
      "ile": 466,
      "us": 467,
      "ould": 468,
      "Ġ08": 469,
      ":)": 470,
      "Ġ.": 471,
      "Ġv": 472,
      "Ġwh": 473,
      "Ġwhen": 474,
      "el": 475,
      "ĠNo": 476,
      "Ġany": 477,
      "os": 478,
      "ĠE": 479,
      "Ġjust": 480,
      "king": 481,
      "ear": 482,
      "Ġthis": 483,
      "if": 484,
      "Ġif": 485,
      "Ġall": 486,
      "ime": 487,
      "Ġlike": 488,
      "ice": 489,
      "Ġab": 490,
      "Ġday": 491,
      "est": 492,
      "Ġgot": 493,
      "'ll": 494,
      "ive": 495,
      "very": 496,
      "Ġ3": 497,
      "Ġam": 498,
      "EE": 499,
      "end": 500,
      "Ġwant": 501,
      "ĠHa": 502,
      "Ġwas": 503,
      "ĠHe": 504,
      "ree": 505,
      "ck": 506,
      "Ġcome": 507,
      "la": 508,
      "art": 509,
      "ack": 510,
      "Ġthere": 511,
      "ink": 512,
      "Ġ?": 513,
      "Ġwee": 514,
      "90": 515,
      "Ġtime": 516,
      "Ġcom": 517,
      "ind": 518,
      "ĠCall": 519,
      "ĠIt": 520,
      "Ġno": 521,
      "ĠWe": 522,
      "Ġsome": 523,
      "ers": 524,
      "ra": 525,
      "Ġsu": 526,
      "ally": 527,
      "000": 528,
      "Ġsp": 529,
      "iss": 530,
      "ĠOk": 531,
      "Ġwhat": 532,
      "ard": 533,
      "ud": 534,
      "Ġfe": 535,
      "Ġonly": 536,
      "ick": 537,
      "Ġtext": 538,
      "Ġ\\": 539,
      "here": 540,
      "Ġthen": 541,
      "71": 542,
      "are": 543,
      "Ġ5": 544,
      "ĠHow": 545,
      "Ġneed": 546,
      "Ġla": 547,
      "ĠK": 548,
      "IN": 549,
      "od": 550,
      "Ġlove": 551,
      "Ġ...": 552,
      "ite": 553,
      "oy": 554,
      "Ġsend": 555,
      "obile": 556,
      "Ġby": 557,
      "Ġlor": 558,
      "Ġlat": 559,
      "sg": 560,
      "Ġhome": 561,
      "Ġabout": 562,
      "ish": 563,
      "ĠFR": 564,
      "Ġgood": 565,
      "em": 566,
      "ain": 567,
      "ber": 568,
      "orry": 569,
      "Ġ090": 570,
      "reat": 571,
      "Ġweek": 572,
      "ound": 573,
      "red": 574,
      "Ġone": 575,
      "Ġph": 576,
      "ase": 577,
      "age": 578,
      "Ġgoing": 579,
      "ON": 580,
      "ait": 581,
      "ost": 582,
      "xx": 583,
      "Ġda": 584,
      "Ġdid": 585,
      "ame": 586,
      "ning": 587,
      "ect": 588,
      "ĠDo": 589,
      "pt": 590,
      "ĠThe": 591,
      "Ġok": 592,
      "Ġhow": 593,
      "70": 594,
      "qu": 595,
      "ong": 596,
      "Ġback": 597,
      "ie": 598,
      "uy": 599,
      "Ġar": 600,
      "Ġwat": 601,
      "Ġsm": 602,
      "Ġthink": 603,
      "Ġsee": 604,
      "ady": 605,
      "ff": 606,
      "Ġ_": 607,
      "Ġsa": 608,
      ":-": 609,
      "Ġmin": 610,
      "Ġstill": 611,
      "ec": 612,
      "ope": 613,
      "Ġrep": 614,
      "ĠV": 615,
      "\\\"": 616,
      "ig": 617,
      "ving": 618,
      "Ġma": 619,
      "Ġoff": 620,
      "Ġask": 621,
      "ls": 622,
      "res": 623,
      "ĠIf": 624,
      "ĠBut": 625,
      "Ġher": 626,
      "row": 627,
      "Ġaw": 628,
      "Ġsay": 629,
      "Ġmu": 630,
      "act": 631,
      "Ġdon": 632,
      "ĠTh": 633,
      "lease": 634,
      "Ġits": 635,
      "ĠFREE": 636,
      "na": 637,
      "Ġour": 638,
      "Ġtoday": 639,
      "Ġtell": 640,
      "Ġlater": 641,
      "ĠTo": 642,
      "riend": 643,
      "NT": 644,
      "Ġfree": 645,
      "Ġ150": 646,
      "Ġ*": 647,
      "ort": 648,
      "ĠWhat": 649,
      "Ġtoo": 650,
      "ub": 651,
      "Ġco": 652,
      "Ġus": 653,
      "ĠSo": 654,
      "Ġbeen": 655,
      "ace": 656,
      "hing": 657,
      "Ġaf": 658,
      "ation": 659,
      "Ġhapp": 660,
      "Ġmeet": 661,
      "laim": 662,
      "!!": 663,
      "ks": 664,
      "Ġhas": 665,
      "right": 666,
      "ĠJust": 667,
      "fe": 668,
      "ia": 669,
      "Ġevery": 670,
      "ww": 671,
      "AL": 672,
      "AT": 673,
      "Ġ6": 674,
      "Ġhere": 675,
      "Ġ0871": 676,
      "mm": 677,
      "Ġwho": 678,
      "so": 679,
      "ze": 680,
      "ĠSorry": 681,
      "Ġphone": 682,
      "Ġshe": 683,
      "amp": 684,
      "Ġmess": 685,
      "ER": 686,
      "and": 687,
      "mor": 688,
      "Ġwon": 689,
      "Ġcl": 690,
      "Ġthing": 691,
      "ide": 692,
      "ul": 693,
      "Ġnew": 694,
      "Ġnum": 695,
      "Ġhim": 696,
      "Ġex": 697,
      "Ġmiss": 698,
      "Ġmobile": 699,
      "Ġnight": 700,
      "ĠYour": 701,
      "Ġle": 702,
      "Ġun": 703,
      "ook": 704,
      "thing": 705,
      "66": 706,
      "Ġmuch": 707,
      "Ġ-": 708,
      "Ġfriend": 709,
      "Ġwork": 710,
      "Ġqu": 711,
      "Ġtxt": 712,
      "Ġtake": 713,
      "Ġcont": 714,
      ":-)": 715,
      "OU": 716,
      "Ġwait": 717,
      "ĠMy": 718,
      "hi": 719,
      "Ġreply": 720,
      "lf": 721,
      "Ġway": 722,
      "Ġdont": 723,
      "ass": 724,
      "co": 725,
      "ee": 726,
      "Ġman": 727,
      "ĠNO": 728,
      "Ġ7": 729,
      "Ġad": 730,
      "Ġthey": 731,
      "ĠAnd": 732,
      "OR": 733,
      "Ġlea": 734,
      "ĠSt": 735,
      "Ġgive": 736,
      "own": 737,
      "ting": 738,
      "Ġmore": 739,
      "....": 740,
      "Ġde": 741,
      "ĠHi": 742,
      "Ġafter": 743,
      "VE": 744,
      "ag": 745,
      "cc": 746,
      "ove": 747,
      "way": 748,
      "ĠHave": 749,
      "ĠHey": 750,
      "30": 751,
      "Ġgreat": 752,
      "rize": 753,
      "ĠCan": 754,
      "ash": 755,
      "ĠGood": 756,
      "Ġcomp": 757,
      "20": 758,
      "ast": 759,
      "ready": 760,
      "Ġfin": 761,
      "'ve": 762,
      "up": 763,
      "Ġthan": 764,
      "Ġag": 765,
      "Ġmake": 766,
      "Ġeve": 767,
      "Ġfeel": 768,
      "morrow": 769,
      "Ġnumber": 770,
      "'re": 771,
      "AR": 772,
      "ox": 773,
      "Ġright": 774,
      "Ġton": 775,
      "Ġwan": 776,
      "Ġcon": 777,
      "Ġbr": 778,
      "ĠThan": 779,
      "ap": 780,
      "com": 781,
      "Ġen": 782,
      "ĠST": 783,
      "leep": 784,
      "Ġro": 785,
      "Ġalready": 786,
      "Ġprob": 787,
      "ak": 788,
      "ail": 789,
      "Ġke": 790,
      "Ġmsg": 791,
      "we": 792,
      "omet": 793,
      "ĠPO": 794,
      "au": 795,
      "Ġser": 796,
      "Ġtomorrow": 797,
      "Ġstop": 798,
      "Ġdoing": 799,
      "IT": 800,
      "ist": 801,
      "Ġtry": 802,
      "ough": 803,
      "Ġim": 804,
      "Ġbab": 805,
      "eah": 806,
      "Ġmessage": 807,
      "OP": 808,
      "Ġwww": 809,
      "Ġthem": 810,
      "ĠThat": 811,
      "ther": 812,
      "Ġshould": 813,
      "der": 814,
      "ru": 815,
      "Ġche": 816,
      "Ġclaim": 817,
      "ĠTe": 818,
      "ny": 819,
      "ĠTxt": 820,
      "Ġhad": 821,
      "ool": 822,
      "ĠUR": 823,
      "Ġshow": 824,
      "Ġsaid": 825,
      "22": 826,
      "40": 827,
      "XX": 828,
      "be": 829,
      "no": 830,
      "Ġcare": 831,
      "Ġper": 832,
      "ĠTH": 833,
      "ĠAre": 834,
      "ial": 835,
      "oin": 836,
      "uck": 837,
      "ĠOh": 838,
      "ĠThis": 839,
      "har": 840,
      "orning": 841,
      "ount": 842,
      "Ġsleep": 843,
      "Ġsomet": 844,
      "Ġpick": 845,
      "ĠUr": 846,
      "80": 847,
      "ES": 848,
      "Ġ(": 849,
      "Ġapp": 850,
      "Ġprize": 851,
      "ĠNot": 852,
      "ach": 853,
      "Ġcontact": 854,
      "Ġwould": 855,
      "Ġbl": 856,
      "Ġbet": 857,
      "Ġlet": 858,
      "other": 859,
      "Ġreally": 860,
      "ND": 861,
      "Ġdown": 862,
      "ary": 863,
      "ĠYes": 864,
      "get": 865,
      "lp": 866,
      "Ġcash": 867,
      "Ġbuy": 868,
      "10": 869,
      "GE": 870,
      "Ġwhere": 871,
      "Ġdear": 872,
      "ans": 873,
      "alk": 874,
      "oney": 875,
      "ĠIts": 876,
      "Ġcoll": 877,
      "ew": 878,
      "ous": 879,
      "Ġwell": 880,
      "ĠOr": 881,
      "ĠPls": 882,
      "ĠGO": 883,
      "Ġ:)": 884,
      "Ġvery": 885,
      "Ġsent": 886,
      "Ġgu": 887,
      "Ġsure": 888,
      "Ġagain": 889,
      "ner": 890,
      "Ġcar": 891,
      "Ġfind": 892,
      "ĠYOU": 893,
      "Ġ10": 894,
      "ress": 895,
      "23": 896,
      "vice": 897,
      "ity": 898,
      "ich": 899,
      "Ġbef": 900,
      "ĠOn": 901,
      "Ġlife": 902,
      "88": 903,
      "uk": 904,
      "ĠPlease": 905,
      "ĠSTOP": 906,
      "Ġkeep": 907,
      "ies": 908,
      "line": 909,
      "ment": 910,
      "ose": 911,
      "ts": 912,
      "Ġmorning": 913,
      "Ġch": 914,
      "ustom": 915,
      "Ġaward": 916,
      "AS": 917,
      "ure": 918,
      "Ġcould": 919,
      "Ġdis": 920,
      "Ġover": 921,
      "Ġother": 922,
      "irst": 923,
      "Ġ0906": 924,
      "Ġsomething": 925,
      "uff": 926,
      "Ġent": 927,
      "Ġint": 928,
      "Ġend": 929,
      "Ġleave": 930,
      "Ġbefore": 931,
      "45": 932,
      "IS": 933,
      "LL": 934,
      "Ġchan": 935,
      "Ġgon": 936,
      "iday": 937,
      "Ġstart": 938,
      "ĠFree": 939,
      "Ġplay": 940,
      "able": 941,
      "Ġspec": 942,
      "Ġlast": 943,
      "Ġaround": 944,
      "IM": 945,
      "Ġwin": 946,
      "Ġdr": 947,
      "Ġdat": 948,
      "Ġdun": 949,
      "Ġlate": 950,
      "Ġguy": 951,
      "Ġrem": 952,
      "Ġplace": 953,
      "Ġanything": 954,
      "erson": 955,
      "ble": 956,
      "Ġ!": 957,
      "Ġ'": 958,
      "ought": 959,
      "Ġyear": 960,
      "Ġplease": 961,
      "ĠShe": 962,
      "Ġhope": 963,
      "ĠLol": 964,
      "Ġnext": 965,
      "Ġsoon": 966,
      "Ġword": 967,
      "ways": 968,
      "ustomer": 969,
      "AN": 970,
      "Ġ9": 971,
      "ĠThen": 972,
      "Ġear": 973,
      "Ġtonight": 974,
      "ause": 975,
      "18": 976,
      "Cs": 977,
      "kia": 978,
      "Ġmay": 979,
      "ĠIs": 980,
      "orm": 981,
      "ĠWh": 982,
      "ĠYeah": 983,
      "ĠDear": 984,
      "Ġcant": 985,
      "ING": 986,
      "Ġfriends": 987,
      "Ġgonna": 988,
      "150": 989,
      "rs": 990,
      "ren": 991,
      "Ġmoney": 992,
      "Ġcos": 993,
      "Ġlot": 994,
      "onth": 995,
      "Ġalso": 996,
      "12": 997,
      "iz": 998,
      "Ġacc": 999,
      "Ġchar": 1000,
      "ĠIn": 1001,
      "Ġpe": 1002,
      "ĠWhen": 1003,
      "Ġ16": 1004,
      "Ġwatch": 1005,
      "77": 1006,
      "87": 1007,
      "ft": 1008,
      "ov": 1009,
      "ull": 1010,
      "Ġx": 1011,
      "Ġwent": 1012,
      "Ġtold": 1013,
      "Ġwere": 1014,
      "ppy": 1015,
      "Ġplan": 1016,
      "Ġmany": 1017,
      "**": 1018,
      "av": 1019,
      "min": 1020,
      "ĠX": 1021,
      "ĠWat": 1022,
      "ĠDid": 1023,
      "ade": 1024,
      "Ġ800": 1025,
      "eply": 1026,
      "ife": 1027,
      "Ġminut": 1028,
      "Ġcollect": 1029,
      "11": 1030,
      "gg": 1031,
      "ms": 1032,
      "per": 1033,
      "sc": 1034,
      "Ġmat": 1035,
      "Ġfirst": 1036,
      "Ġpart": 1037,
      "ise": 1038,
      "Ġhour": 1039,
      "Ġrece": 1040,
      "Ġcoming": 1041,
      "ĠNOW": 1042,
      "34": 1043,
      "MS": 1044,
      "uz": 1045,
      "Ġtr": 1046,
      "Ġbus": 1047,
      "Ġdin": 1048,
      "Ġeat": 1049,
      "ions": 1050,
      "ppm": 1051,
      "ĠReply": 1052,
      "ONE": 1053,
      "Ġhappen": 1054,
      "Ġthings": 1055,
      "Ġservice": 1056,
      "Ġbabe": 1057,
      "IC": 1058,
      "ah": 1059,
      "ro": 1060,
      "ue": 1061,
      "wor": 1062,
      "hed": 1063,
      "hes": 1064,
      "Ġyet": 1065,
      "Ġhis": 1066,
      "ople": 1067,
      "self": 1068,
      "ĠNokia": 1069,
      "Ġland": 1070,
      "OM": 1071,
      "ever": 1072,
      "oke": 1073,
      "Ġsc": 1074,
      "Ġsch": 1075,
      "ream": 1076,
      "Ġpay": 1077,
      "Ġperson": 1078,
      "ĠSh": 1079,
      "Ġem": 1080,
      "Ġ18": 1081,
      "Ġhelp": 1082,
      "unch": 1083,
      "Ġsomeone": 1084,
      "AY": 1085,
      "eed": 1086,
      "lo": 1087,
      "ouse": 1088,
      "ond": 1089,
      "Ġboy": 1090,
      "Ġpic": 1091,
      "ĠHope": 1092,
      "ĠAny": 1093,
      "Ġstuff": 1094,
      "Ġans": 1095,
      "ĠHaha": 1096,
      "ĠHappy": 1097,
      "Ġhappy": 1098,
      "Ġclass": 1099,
      "ĠThanks": 1100,
      "Ġspecial": 1101,
      "Ġpeople": 1102,
      "24": 1103,
      "ED": 1104,
      "cess": 1105,
      "Ġtri": 1106,
      "Ġdri": 1107,
      "Ġlunch": 1108,
      "Ġgir": 1109,
      "Ġpre": 1110,
      "ĠAs": 1111,
      "Ġres": 1112,
      "Ġgetting": 1113,
      "Ġalways": 1114,
      "Ġwhy": 1115,
      "Ġwhich": 1116,
      "ode": 1117,
      "Ġroom": 1118,
      "ANT": 1119,
      "LY": 1120,
      "ire": 1121,
      "li": 1122,
      "rat": 1123,
      "Ġwish": 1124,
      "Ġmonth": 1125,
      "llo": 1126,
      "Ġpo": 1127,
      "ĠWhere": 1128,
      "ĠMobile": 1129,
      "Ġ1000": 1130,
      "Ġsec": 1131,
      "ĠFor": 1132,
      "Ġdoes": 1133,
      "ĠLO": 1134,
      "Ġ0870": 1135,
      "oss": 1136,
      "ĠText": 1137,
      "ng": 1138,
      "pm": 1139,
      "ty": 1140,
      "ward": 1141,
      "Ġbit": 1142,
      "Ġfine": 1143,
      "Ġline": 1144,
      "Ġhi": 1145,
      "Ġjob": 1146,
      "oliday": 1147,
      "Ġ0905": 1148,
      "Ġwaiting": 1149,
      "Ġeven": 1150,
      "ao": 1151,
      "joy": 1152,
      "oll": 1153,
      "tone": 1154,
      "Ġsha": 1155,
      "Ġsat": 1156,
      "Ġfun": 1157,
      "nds": 1158,
      "ark": 1159,
      "ĠYup": 1160,
      "ĠNow": 1161,
      "opp": 1162,
      "raw": 1163,
      "Ġadd": 1164,
      "Ġproble": 1165,
      "60": 1166,
      "EC": 1167,
      "OD": 1168,
      "US": 1169,
      "ouc": 1170,
      "Ġcustomer": 1171,
      "Ġlong": 1172,
      "Ġuse": 1173,
      "ance": 1174,
      "Ġinf": 1175,
      "Ġthought": 1176,
      "ĠGet": 1177,
      "Ġfew": 1178,
      "Ġ500": 1179,
      "Ġdidn": 1180,
      "GENT": 1181,
      "39": 1182,
      "OW": 1183,
      "ful": 1184,
      "old": 1185,
      "ones": 1186,
      "Ġdone": 1187,
      "Ġlar": 1188,
      "Ġgr": 1189,
      "ange": 1190,
      "lect": 1191,
      "Ġreal": 1192,
      "Ġbeing": 1193,
      "Ġdays": 1194,
      "ĠWell": 1195,
      "ĠToday": 1196,
      "Ġtrying": 1197,
      "scri": 1198,
      "??": 1199,
      "ple": 1200,
      "port": 1201,
      "Ġsorry": 1202,
      "Ġbig": 1203,
      "Ġnice": 1204,
      "Ġname": 1205,
      "Ġready": 1206,
      "Ġthk": 1207,
      "Ġbec": 1208,
      "Ġ12": 1209,
      "Ġ100": 1210,
      "Ġfinish": 1211,
      "ily": 1212,
      "ious": 1213,
      "og": 1214,
      "oot": 1215,
      "Ġtw": 1216,
      "Ġact": 1217,
      "Ġbat": 1218,
      "Ġbir": 1219,
      "Ġbest": 1220,
      "Ġfl": 1221,
      "ĠSend": 1222,
      "Ġhaving": 1223,
      "ĠMe": 1224,
      "ĠGud": 1225,
      "Ġring": 1226,
      "Ġatt": 1227,
      "Ġpls": 1228,
      "Ġweeke": 1229,
      "\\\"\"": 1230,
      "Ġmeeting": 1231,
      "weet": 1232,
      "ĠURGENT": 1233,
      "Ġreceive": 1234,
      "got": 1235,
      "kes": 1236,
      "Ġ+": 1237,
      "Ġtalk": 1238,
      "Ġsame": 1239,
      "Ġmind": 1240,
      "Ġbed": 1241,
      "Ġdraw": 1242,
      "ĠSp": 1243,
      "ĠWill": 1244,
      "Ġ200": 1245,
      "Ġlive": 1246,
      "ĠLove": 1247,
      "ounds": 1248,
      "oucher": 1249,
      "'d": 1250,
      "Box": 1251,
      "LE": 1252,
      "XT": 1253,
      "ually": 1254,
      "ins": 1255,
      "Ġdec": 1256,
      "Ġlook": 1257,
      "arch": 1258,
      "Ġhouse": 1259,
      "imes": 1260,
      "Ġheart": 1261,
      "ĠRe": 1262,
      "Ġ08000": 1263,
      "ody": 1264,
      "Ġmins": 1265,
      "ideo": 1266,
      "Ġproblem": 1267,
      "OX": 1268,
      "ix": 1269,
      "mas": 1270,
      "te": 1271,
      "tle": 1272,
      "ĠQ": 1273,
      "ory": 1274,
      "Ġnet": 1275,
      "its": 1276,
      "ĠDont": 1277,
      "Ġliao": 1278,
      "ably": 1279,
      "Ġprin": 1280,
      "ĠHello": 1281,
      "ages": 1282,
      "Ġawarded": 1283,
      "16": 1284,
      "55": 1285,
      "78": 1286,
      "de": 1287,
      "uv": 1288,
      "Ġ:": 1289,
      "ons": 1290,
      "Ġchat": 1291,
      "era": 1292,
      "Ġloo": 1293,
      "Ġless": 1294,
      "ĠAm": 1295,
      "ĠME": 1296,
      "ĠON": 1297,
      "eak": 1298,
      "hip": 1299,
      "Ġbring": 1300,
      "Ġcheck": 1301,
      "Ġshows": 1302,
      "Ġbetter": 1303,
      "Ġdinner": 1304,
      "RE": 1305,
      "pd": 1306,
      "sub": 1307,
      "Ġsl": 1308,
      "rent": 1309,
      "Ġdel": 1310,
      "Ġdif": 1311,
      "Ġface": 1312,
      "Ġpa": 1313,
      "any": 1314,
      "ester": 1315,
      "ĠAll": 1316,
      "asy": 1317,
      "Ġstay": 1318,
      "Ġselect": 1319,
      "Ġ\\\"": 1320,
      "ĠThey": 1321,
      "ongrat": 1322,
      "ĠVal": 1323,
      "Ġinto": 1324,
      "Ġguys": 1325,
      "38": 1326,
      "cl": 1327,
      "iv": 1328,
      "rd": 1329,
      "ult": 1330,
      "Ġcam": 1331,
      "ĠPr": 1332,
      "Ġsex": 1333,
      "Ġanother": 1334,
      "iles": 1335,
      "urn": 1336,
      "ude": 1337,
      "ember": 1338,
      "ALL": 1339,
      "ATE": 1340,
      "Ġwonder": 1341,
      "Ġquest": 1342,
      "36": 1343,
      "AM": 1344,
      "HAT": 1345,
      "UT": 1346,
      "gent": 1347,
      "kk": 1348,
      "let": 1349,
      "Ġset": 1350,
      "Ġill": 1351,
      "Ġya": 1352,
      "Ġhur": 1353,
      "ĠNew": 1354,
      "ĠDon": 1355,
      "Ġrun": 1356,
      "Ġnever": 1357,
      "Ġshit": 1358,
      "Ġpro": 1359,
      "ĠEx": 1360,
      "Ġsmile": 1361,
      "opping": 1362,
      "Ġbecause": 1363,
      "gry": 1364,
      "mr": 1365,
      "msg": 1366,
      "Ġah": 1367,
      "Ġwr": 1368,
      "Ġmob": 1369,
      "Ġchi": 1370,
      "Ġlit": 1371,
      "nder": 1372,
      "Ġhalf": 1373,
      "ĠClaim": 1374,
      "ĠCongrat": 1375,
      "Ġel": 1376,
      "ĠMay": 1377,
      "ĠBox": 1378,
      "ĠGo": 1379,
      "Ġcalled": 1380,
      "ola": 1381,
      "EED": 1382,
      "Ġsupp": 1383,
      "Ġapply": 1384,
      "Ġ09061": 1385,
      "Ġearly": 1386,
      "work": 1387,
      "Ġweekend": 1388,
      "15": 1389,
      "26": 1390,
      "cor": 1391,
      "pl": 1392,
      "uh": 1393,
      "Ġ,": 1394,
      "Ġta": 1395,
      "Ġwk": 1396,
      "Ġsw": 1397,
      "Ġmight": 1398,
      "ĠIS": 1399,
      "Ġput": 1400,
      "Ġpost": 1401,
      "ank": 1402,
      "Ġop": 1403,
      "ĠBA": 1404,
      "Ġhear": 1405,
      "ĠPl": 1406,
      "xxx": 1407,
      "ween": 1408,
      "ĠTHE": 1409,
      "Ġbetween": 1410,
      "Ġansw": 1411,
      "Ġgirl": 1412,
      "Ġbirth": 1413,
      "14": 1414,
      "AP": 1415,
      "RI": 1416,
      "TH": 1417,
      "UC": 1418,
      "Ġwont": 1419,
      "Ġmom": 1420,
      "ĠIN": 1421,
      "ence": 1422,
      "ĠCost": 1423,
      "ĠAl": 1424,
      "Ġjoin": 1425,
      "ift": 1426,
      "Ġlatest": 1427,
      "Ġdidnt": 1428,
      "Ġoffice": 1429,
      "Ġleh": 1430,
      "Ġguess": 1431,
      "Ġchance": 1432,
      "99": 1433,
      "cking": 1434,
      "hrs": 1435,
      "iy": 1436,
      "ock": 1437,
      "Ġtra": 1438,
      "Ġav": 1439,
      "ince": 1440,
      "Ġwif": 1441,
      "Ġsun": 1442,
      "Ġsweet": 1443,
      "Ġid": 1444,
      "Ġbad": 1445,
      "Ġdet": 1446,
      "Ġpoin": 1447,
      "ĠSee": 1448,
      "Ġoh": 1449,
      "ĠAight": 1450,
      "Ġever": 1451,
      "Ġreach": 1452,
      "Ġforgot": 1453,
      "Ġkiss": 1454,
      "Ġlist": 1455,
      "Ġvoucher": 1456,
      "ations": 1457,
      "Ġleft": 1458,
      "Ġquite": 1459,
      "Ġenough": 1460,
      "ails": 1461,
      "ĠWhy": 1462,
      "Ġminutes": 1463,
      "load": 1464,
      "Ġtwo": 1465,
      "Ġselected": 1466,
      "Ġlittle": 1467,
      "ell": 1468,
      "me": 1469,
      "ta": 1470,
      "tt": 1471,
      "wn": 1472,
      "zy": 1473,
      "Ġ:-)": 1474,
      "Ġtru": 1475,
      "ouble": 1476,
      "Ġcra": 1477,
      "Ġcool": 1478,
      "ert": 1479,
      "Ġpain": 1480,
      "Ġpass": 1481,
      "ather": 1482,
      "arant": 1483,
      "ited": 1484,
      "Ġinv": 1485,
      "Ġmean": 1486,
      "ĠCALL": 1487,
      "ĠGot": 1488,
      "ĠRE": 1489,
      "Ġworking": 1490,
      "Ġ0800": 1491,
      "Ġ09066": 1492,
      "Ġmail": 1493,
      "Ġlandline": 1494,
      "Ġprincess": 1495,
      "Ġlooking": 1496,
      "44": 1497,
      "ave": 1498,
      "ip": 1499,
      "les": 1500,
      "ues": 1501,
      "where": 1502,
      "yp": 1503,
      "Ġ..": 1504,
      "Ġmr": 1505,
      "Ġmov": 1506,
      "Ġmade": 1507,
      "Ġyeah": 1508,
      "Ġtot": 1509,
      "ĠIM": 1510,
      "Ġbook": 1511,
      "Ġden": 1512,
      "Ġdream": 1513,
      "Ġluv": 1514,
      "ang": 1515,
      "ĠSP": 1516,
      "Ġeasy": 1517,
      "Ġreg": 1518,
      "ĠNE": 1519,
      "ĠDun": 1520,
      "Ġhead": 1521,
      "Ġwithout": 1522,
      "ntil": 1523,
      "Ġworld": 1524,
      "Ġwhile": 1525,
      "Ġeverything": 1526,
      "Ġ087187": 1527,
      "Ġbaby": 1528,
      "ĠTell": 1529,
      "ĠOnly": 1530,
      "ĠLOVE": 1531,
      "Ġelse": 1532,
      "aranteed": 1533,
      "08": 1534,
      "21": 1535,
      "69": 1536,
      "KE": 1537,
      "Mob": 1538,
      "ier": 1539,
      "now": 1540,
      "rom": 1541,
      "txt": 1542,
      "Ġ!!": 1543,
      "Ġtv": 1544,
      "Ġtone": 1545,
      "Ġtest": 1546,
      "ret": 1547,
      "reak": 1548,
      "Ġcost": 1549,
      "Ġcame": 1550,
      "ĠIm": 1551,
      "Ġfull": 1552,
      "Ġuntil": 1553,
      "ven": 1554,
      "Ġhav": 1555,
      "Ġhair": 1556,
      "Ġbel": 1557,
      "Ġstud": 1558,
      "ames": 1559,
      "Ġgoes": 1560,
      "Ġlog": 1561,
      "olour": 1562,
      "Ġval": 1563,
      "Ġvideo": 1564,
      "Ġable": 1565,
      "Ġwanted": 1566,
      "Ġtexts": 1567,
      "Ġasked": 1568,
      "Ġsays": 1569,
      "Ġthanks": 1570,
      "Ġwanna": 1571,
      "Ġconf": 1572,
      "Ġguaranteed": 1573,
      "Ġcollection": 1574,
      "Ġschool": 1575,
      "Ġnetwork": 1576,
      "Ġanswer": 1577,
      "Ġbirthday": 1578,
      "Ġdetails": 1579,
      "28": 1580,
      "AE": 1581,
      "ELL": 1582,
      "OT": 1583,
      "net": 1584,
      "ss": 1585,
      "Ġtimes": 1586,
      "Ġtmr": 1587,
      "Ġac": 1588,
      "Ġsit": 1589,
      "Ġsim": 1590,
      "Ġmost": 1591,
      "Ġdad": 1592,
      "Ġfam": 1593,
      "anc": 1594,
      "ates": 1595,
      "ĠThere": 1596,
      "ither": 1597,
      "ĠSMS": 1598,
      "ason": 1599,
      "Ġrent": 1600,
      "Ġthough": 1601,
      "ĠMY": 1602,
      "ĠUP": 1603,
      "ĠGU": 1604,
      "Ġ870": 1605,
      "Ġabt": 1606,
      "Ġaway": 1607,
      "Ġawait": 1608,
      "ational": 1609,
      "Ġevening": 1610,
      "Ġprobably": 1611,
      "noon": 1612,
      "ĠGOOD": 1613,
      "Ġentry": 1614,
      "Ġremember": 1615,
      "Ġaccount": 1616,
      "Ġsexy": 1617,
      "25": 1618,
      "fter": 1619,
      "less": 1620,
      "pr": 1621,
      "pect": 1622,
      "to": 1623,
      "und": 1624,
      "Ġap": 1625,
      "Ġsur": 1626,
      "Ġcle": 1627,
      "Ġcred": 1628,
      "Ġtom": 1629,
      "Ġtown": 1630,
      "ĠIT": 1631,
      "ets": 1632,
      "arl": 1633,
      "oth": 1634,
      "ĠWON": 1635,
      "Ġholiday": 1636,
      "Ġmeans": 1637,
      "Ġonce": 1638,
      "ĠYa": 1639,
      "ĠYES": 1640,
      "ical": 1641,
      "Ġ2000": 1642,
      "Ġthose": 1643,
      "Ġshopping": 1644,
      "empt": 1645,
      "Ġenjoy": 1646,
      "ĠOrange": 1647,
      "Ġattempt": 1648,
      "DEC": 1649,
      "ST": 1650,
      "gs": 1651,
      "ma": 1652,
      "wk": 1653,
      "ĠXX": 1654,
      "Ġtill": 1655,
      "Ġwalk": 1656,
      "Ġsince": 1657,
      "Ġmust": 1658,
      "Ġcr": 1659,
      "ĠId": 1660,
      "Ġluck": 1661,
      "Ġgift": 1662,
      "Ġunder": 1663,
      "ition": 1664,
      "Ġoso": 1665,
      "ĠHmm": 1666,
      "Ġhand": 1667,
      "Ġhot": 1668,
      "Ġonline": 1669,
      "Ġ11": 1670,
      "ĠUK": 1671,
      "ĠBe": 1672,
      "ĠGreat": 1673,
      "ĠLI": 1674,
      "Ġworry": 1675,
      "ored": 1676,
      "arent": 1677,
      "ieve": 1678,
      "Ġlei": 1679,
      "ARANT": 1680,
      "ĠPOBox": 1681,
      "IMAL": 1682,
      "Ġtrip": 1683,
      "irect": 1684,
      "portant": 1685,
      "ĠValid": 1686,
      "Ġquestion": 1687,
      "ĠGUARANT": 1688,
      "DECIMAL": 1689,
      "ĠGUARANTEED": 1690,
      "//": 1691,
      "32": 1692,
      "br": 1693,
      "body": 1694,
      "cv": 1695,
      "cent": 1696,
      "ere": 1697,
      "ged": 1698,
      "hy": 1699,
      "ian": 1700,
      "ivery": 1701,
      "pls": 1702,
      "side": 1703,
      "ual": 1704,
      "Ġtil": 1705,
      "Ġtak": 1706,
      "inking": 1707,
      "ouch": 1708,
      "Ġwid": 1709,
      "Ġmon": 1710,
      "Ġmar": 1711,
      "Ġcur": 1712,
      "Ġcolour": 1713,
      "Ġdi": 1714,
      "Ġfood": 1715,
      "Ġfast": 1716,
      "ital": 1717,
      "ens": 1718,
      "ĠWIN": 1719,
      "ĠAT": 1720,
      "ĠDel": 1721,
      "ĠUn": 1722,
      "ĠBl": 1723,
      "ĠGod": 1724,
      "Ġcalls": 1725,
      "Ġkind": 1726,
      "Ġsub": 1727,
      "Ġ5000": 1728,
      "Ġweekly": 1729,
      "Ġsms": 1730,
      "Ġmakes": 1731,
      "Ġafternoon": 1732,
      "Ġwatching": 1733,
      "****": 1734,
      "ava": 1735,
      "Ġtried": 1736,
      "Ġdriving": 1737,
      "Ġslow": 1738,
      "Ġcamera": 1739,
      "Ġopen": 1740,
      "Ġfamily": 1741,
      "04": 1742,
      "35": 1743,
      "42": 1744,
      "95": 1745,
      "ID": 1746,
      "ION": 1747,
      "aa": 1748,
      "aut": 1749,
      "ered": 1750,
      "fic": 1751,
      "ires": 1752,
      "oh": 1753,
      "time": 1754,
      "ug": 1755,
      "uite": 1756,
      "Ġ:-": 1757,
      "ines": 1758,
      "Ġwake": 1759,
      "Ġtop": 1760,
      "Ġtoget": 1761,
      "ator": 1762,
      "ĠSAE": 1763,
      "ĠHA": 1764,
      "ĠHoliday": 1765,
      "Ġhaf": 1766,
      "ĠWas": 1767,
      "Ġhun": 1768,
      "Ġhold": 1769,
      "ĠAt": 1770,
      "ĠAcc": 1771,
      "Ġeither": 1772,
      "Ġread": 1773,
      "ĠYo": 1774,
      "ĠBOX": 1775,
      "Ġyours": 1776,
      "ents": 1777,
      "Ġrate": 1778,
      "Ġjus": 1779,
      "iling": 1780,
      "Ġlose": 1781,
      "Ġass": 1782,
      "Ġvis": 1783,
      "osed": 1784,
      "Ġwants": 1785,
      "Ġcomes": 1786,
      "xxxx": 1787,
      "ffer": 1788,
      "Ġsaw": 1789,
      "Ġmaking": 1790,
      "Ġfinis": 1791,
      "Ġfeeling": 1792,
      "ĠThank": 1793,
      "aper": 1794,
      "ITE": 1795,
      "Ġimportant": 1796,
      "Ġyears": 1797,
      "Ġwords": 1798,
      "Ġ8007": 1799,
      "Ġhours": 1800,
      "Ġpoly": 1801,
      "Ġ090580": 1802,
      "Ġaddress": 1803,
      "scribe": 1804,
      "Ġactually": 1805,
      "Ġringtone": 1806,
      "esterday": 1807,
      "ĠExp": 1808,
      "ttp": 1809,
      "ype": 1810,
      "Ġtogether": 1811,
      "://": 1812,
      "ET": 1813,
      "IA": 1814,
      "IG": 1815,
      "IR": 1816,
      "Msg": 1817,
      "UR": 1818,
      "bers": 1819,
      "lim": 1820,
      "va": 1821,
      "reet": 1822,
      "Ġmo": 1823,
      "Ġmed": 1824,
      "Ġcha": 1825,
      "Ġcut": 1826,
      "Ġyesterday": 1827,
      "Ġfuck": 1828,
      "Ġpub": 1829,
      "ĠTake": 1830,
      "ĠSO": 1831,
      "ĠSir": 1832,
      "stand": 1833,
      "ĠHad": 1834,
      "Ġinc": 1835,
      "Ġhttp": 1836,
      "ĠCh": 1837,
      "ĠCo": 1838,
      "ĠCam": 1839,
      "ĠCos": 1840,
      "ĠAr": 1841,
      "ĠAiy": 1842,
      "ĠAfter": 1843,
      "Ġreac": 1844,
      "Ġ20": 1845,
      "Ġ250": 1846,
      "alking": 1847,
      "ĠBab": 1848,
      "ried": 1849,
      "Ġyourself": 1850,
      "Ġstr": 1851,
      "Ġstory": 1852,
      "Ġsearch": 1853,
      "Ġthats": 1854,
      "Ġhaven": 1855,
      "Ġcalling": 1856,
      "umm": 1857,
      "Ġnoe": 1858,
      "ign": 1859,
      "Ġsaying": 1860,
      "Ġ08712": 1861,
      "ĠThanx": 1862,
      "ister": 1863,
      "Ġdisc": 1864,
      "Ġdrink": 1865,
      "Ġsecond": 1866,
      "kku": 1867,
      "98": 1868,
      "EL": 1869,
      "END": 1870,
      "aid": 1871,
      "ds": 1872,
      "ey": 1873,
      "gr": 1874,
      "how": 1875,
      "iate": 1876,
      "ially": 1877,
      "ject": 1878,
      "njoy": 1879,
      "ok": 1880,
      "oice": 1881,
      "ph": 1882,
      "sh": 1883,
      "ui": 1884,
      "uct": 1885,
      "zed": 1886,
      "Ġ$": 1887,
      "Ġes": 1888,
      "Ġtreat": 1889,
      "iness": 1890,
      "Ġsir": 1891,
      "Ġbored": 1892,
      "Ġpounds": 1893,
      "vel": 1894,
      "esome": 1895,
      "ĠTs": 1896,
      "iting": 1897,
      "ĠSm": 1898,
      "ĠSome": 1899,
      "leas": 1900,
      "ĠWant": 1901,
      "Ġhop": 1902,
      "ĠChe": 1903,
      "Ġret": 1904,
      "Ġforget": 1905,
      "rist": 1906,
      "ĠPrize": 1907,
      "ads": 1908,
      "ĠFriend": 1909,
      "Ġjuz": 1910,
      "ching": 1911,
      "Ġnothing": 1912,
      "irt": 1913,
      "Ġ866": 1914,
      "ths": 1915,
      "iful": 1916,
      "emed": 1917,
      "Ġoffer": 1918,
      "Ġtook": 1919,
      "Ġmessages": 1920,
      "Ġmissing": 1921,
      "Ġmissed": 1922,
      "coz": 1923,
      "ĠNOK": 1924,
      "Ġ750": 1925,
      "Ġcomplet": 1926,
      "Ġtones": 1927,
      "ĠThats": 1928,
      "IME": 1929,
      "Ġcharge": 1930,
      "Ġminute": 1931,
      "ĠShould": 1932,
      "Ġdrive": 1933,
      "Ġshall": 1934,
      "Ġ080009": 1935,
      "Ġhurt": 1936,
      "Ġchikku": 1937,
      "Ġtrain": 1938,
      "Ġlisten": 1939,
      "Ġtrue": 1940,
      "Ġmovie": 1941,
      "ĠNEW": 1942,
      "Ġbelieve": 1943,
      "Ġtomo": 1944,
      "ĠFriends": 1945,
      "Ġ86688": 1946,
      "''": 1947,
      "75": 1948,
      "EN": 1949,
      "HL": 1950,
      "LA": 1951,
      "come": 1952,
      "dy": 1953,
      "ired": 1954,
      "ible": 1955,
      "man": 1956,
      "ply": 1957,
      "td": 1958,
      "ya": 1959,
      "ym": 1960,
      "Ġ|": 1961,
      "Ġtick": 1962,
      "Ġwit": 1963,
      "Ġsnow": 1964,
      "Ġmur": 1965,
      "onus": 1966,
      "Ġcor": 1967,
      "Ġcour": 1968,
      "Ġdirect": 1969,
      "Ġnorm": 1970,
      "Ġgal": 1971,
      "Ġgame": 1972,
      "ĠTE": 1973,
      "ĠTXT": 1974,
      "stop": 1975,
      "ĠCl": 1976,
      "ĠCode": 1977,
      "ict": 1978,
      "ices": 1979,
      "Ġthinking": 1980,
      "ided": 1981,
      "ĠBr": 1982,
      "ĠOF": 1983,
      "ĠPRI": 1984,
      "vers": 1985,
      "Ġangry": 1986,
      "Ġgoin": 1987,
      "Ġorder": 1988,
      "irm": 1989,
      "atement": 1990,
      "Ġprom": 1991,
      "Ġprice": 1992,
      "Ġspeak": 1993,
      "Ġaft": 1994,
      "ands": 1995,
      "Ġexc": 1996,
      "Ġleaving": 1997,
      "ailable": 1998,
      "402": 1999,
      "Ġstarted": 2000,
      "Ġmaybe": 2001,
      "ĠXmas": 2002,
      "gging": 2003,
      "Ġemail": 2004,
      "iously": 2005,
      "subscribe": 2006,
      "Ġtaking": 2007,
      "ĠBAB": 2008,
      "Ġvouchers": 2009,
      "Ġdreams": 2010,
      "ĠDunno": 2011,
      "cvd": 2012,
      "Ġcurrent": 2013,
      "ĠAccount": 2014,
      "Ġfinished": 2015,
      "100": 2016,
      "31": 2017,
      "51": 2018,
      "839": 2019,
      "az": 2020,
      "bi": 2021,
      "but": 2022,
      "ex": 2023,
      "fr": 2024,
      "full": 2025,
      "hh": 2026,
      "iving": 2027,
      "led": 2028,
      "more": 2029,
      "ps": 2030,
      "yl": 2031,
      "Ġ=": 2032,
      "Ġxxx": 2033,
      "ina": 2034,
      "Ġwar": 2035,
      "Ġsk": 2036,
      "Ġsis": 2037,
      "Ġsort": 2038,
      "rect": 2039,
      "ony": 2040,
      "Ġcal": 2041,
      "Ġcard": 2042,
      "ĠInd": 2043,
      "ings": 2044,
      "Ġdist": 2045,
      "Ġfix": 2046,
      "Ġgud": 2047,
      "Ġthese": 2048,
      "Ġold": 2049,
      "Ġopt": 2050,
      "Ġinst": 2051,
      "ĠWin": 2052,
      "ĠWish": 2053,
      "Ġrest": 2054,
      "oose": 2055,
      "ĠDO": 2056,
      "ĠDouble": 2057,
      "ĠUpd": 2058,
      "entif": 2059,
      "ĠGu": 2060,
      "Ġsell": 2061,
      "Ġhavent": 2062,
      "Ġrite": 2063,
      "opt": 2064,
      "Ġgod": 2065,
      "Ġlight": 2066,
      "ĠLtd": 2067,
      "Ġknw": 2068,
      "Ġworth": 2069,
      "Ġplz": 2070,
      "Ġalone": 2071,
      "Ġanyway": 2072,
      "ĠEnjoy": 2073,
      "705": 2074,
      "Ġsmoke": 2075,
      "Ġsmiling": 2076,
      "resent": 2077,
      "Ġeveryone": 2078,
      "Ġnews": 2079,
      "30705": 2080,
      "Ġsleeping": 2081,
      "ĠUrgent": 2082,
      "Ġdownload": 2083,
      "Ġchange": 2084,
      "Ġbusy": 2085,
      "Ġpret": 2086,
      "Ġresp": 2087,
      "Ġsecret": 2088,
      "Ġinform": 2089,
      "ĠQu": 2090,
      "Ġlesson": 2091,
      "ĠCongrats": 2092,
      "Ġpoints": 2093,
      "Ġstudy": 2094,
      "Ġconfirm": 2095,
      "arents": 2096,
      "Ġvisit": 2097,
      "ĠExpires": 2098,
      "IGH": 2099,
      "ĠNOKIA": 2100,
      "ĠPRIV": 2101,
      "BP": 2102,
      "BOX": 2103,
      "by": 2104,
      "date": 2105,
      "ege": 2106,
      "eemed": 2107,
      "fer": 2108,
      "oon": 2109,
      "toy": 2110,
      "Ġet": 2111,
      "Ġtype": 2112,
      "Ġwed": 2113,
      "Ġwil": 2114,
      "Ġsing": 2115,
      "Ġmid": 2116,
      "Ġmove": 2117,
      "Ġcause": 2118,
      "Ġimm": 2119,
      "Ġboth": 2120,
      "orn": 2121,
      "Ġdru": 2122,
      "Ġfar": 2123,
      "Ġna": 2124,
      "ved": 2125,
      "ĠTO": 2126,
      "ĠSH": 2127,
      "Ġoper": 2128,
      "Ġhard": 2129,
      "ĠWH": 2130,
      "ĠCustomer": 2131,
      "ĠCHAT": 2132,
      "Ġev": 2133,
      "ĠMiss": 2134,
      "ĠDay": 2135,
      "ĠBonus": 2136,
      "Ġstand": 2137,
      "ĠPo": 2138,
      "Ġsem": 2139,
      "ĠLat": 2140,
      "ĠLet": 2141,
      "ĠLast": 2142,
      "une": 2143,
      "Ġfrnds": 2144,
      "urday": 2145,
      "usic": 2146,
      "Ġvi": 2147,
      "Ġanyone": 2148,
      "ĠOkie": 2149,
      "Ġwhatever": 2150,
      "redi": 2151,
      "redeemed": 2152,
      "Ġsmth": 2153,
      "www": 2154,
      "ERE": 2155,
      "Ġclose": 2156,
      "Ġunc": 2157,
      "ĠStop": 2158,
      "ĠStatement": 2159,
      "Ġbrother": 2160,
      "ITH": 2161,
      "Ġdrop": 2162,
      "Ġdating": 2163,
      "Ġhappened": 2164,
      "OME": 2165,
      "Ġboytoy": 2166,
      "Ġpics": 2167,
      "Ġdoesn": 2168,
      "ollow": 2169,
      "Ġinfo": 2170,
      "ĠTodays": 2171,
      "Ġdelivery": 2172,
      "corder": 2173,
      "ĠIdentif": 2174,
      "Ġtakes": 2175,
      "Ġ0905809": 2176,
      "Ġ08000930705": 2177,
      "ĠTEXT": 2178,
      "optout": 2179,
      "ĠPRIVATE": 2180,
      "ĠIdentifier": 2181,
      "33": 2182,
      "46": 2183,
      "LD": 2184,
      "OK": 2185,
      "Suite": 2186,
      "Upd": 2187,
      "air": 2188,
      "char": 2189,
      "igh": 2190,
      "ji": 2191,
      "not": 2192,
      "night": 2193,
      "nect": 2194,
      "the": 2195,
      "win": 2196,
      "what": 2197,
      "ys": 2198,
      "Ġter": 2199,
      "Ġtouch": 2200,
      "int": 2201,
      "Ġsad": 2202,
      "Ġmine": 2203,
      "Ġchen": 2204,
      "Ġbill": 2205,
      "ors": 2206,
      "orrow": 2207,
      "Ġdarl": 2208,
      "ery": 2209,
      "Ġfu": 2210,
      "Ġfollow": 2211,
      "Ġnt": 2212,
      "Ġnite": 2213,
      "Ġgone": 2214,
      "Ġposs": 2215,
      "Ġpark": 2216,
      "Ġtheir": 2217,
      "ating": 2218,
      "ated": 2219,
      "ative": 2220,
      "ĠTen": 2221,
      "ĠSha": 2222,
      "Ġoredi": 2223,
      "ĠWait": 2224,
      "ĠWOR": 2225,
      "ĠWITH": 2226,
      "Ġhit": 2227,
      "ĠCD": 2228,
      "ĠCome": 2229,
      "ĠAS": 2230,
      "ĠAct": 2231,
      "ĠAls": 2232,
      "Ġtho": 2233,
      "ĠNope": 2234,
      "ĠMob": 2235,
      "ĠMsg": 2236,
      "Ġbeaut": 2237,
      "oooo": 2238,
      "uth": 2239,
      "ĠBT": 2240,
      "ĠOUT": 2241,
      "ĠOffer": 2242,
      "ĠPh": 2243,
      "Ġsea": 2244,
      "Ġshort": 2245,
      "Ġ80": 2246,
      "Ġoutside": 2247,
      "ĠEven": 2248,
      "Ġ30": 2249,
      "Ġneeds": 2250,
      "oda": 2251,
      "Ġweeks": 2252,
      "nai": 2253,
      "ulations": 2254,
      "Ġunsubscribe": 2255,
      "Ġleast": 2256,
      "ĠStill": 2257,
      "Ġcomput": 2258,
      "Ġcompany": 2259,
      "ĠTHAT": 2260,
      "ĠNothing": 2261,
      "Ġ''": 2262,
      "Ġearli": 2263,
      "Ġlots": 2264,
      "Ġmates": 2265,
      "342": 2266,
      "ICE": 2267,
      "ĠMobileUpd": 2268,
      "UST": 2269,
      "Ġdecided": 2270,
      "Ġ08000839": 2271,
      "Ġwonderful": 2272,
      "AME": 2273,
      "Ġproject": 2274,
      "ĠCongratulations": 2275,
      "ĠGoing": 2276,
      "Ġavailable": 2277,
      "Ġvalu": 2278,
      "erest": 2279,
      "Ġ:-(": 2280,
      "ĠBabe": 2281,
      "uction": 2282,
      "Ġcomplete": 2283,
      "ĠUpdate": 2284,
      "Ġpretty": 2285,
      "IGHT": 2286,
      "Ġoperator": 2287,
      "Ġchennai": 2288,
      "ĠAlso": 2289,
      "Ġ08000839402": 2290,
      "-)": 2291,
      "73": 2292,
      "74": 2293,
      "750": 2294,
      "LV": 2295,
      "Lands": 2296,
      "WQ": 2297,
      "do": 2298,
      "gn": 2299,
      "ize": 2300,
      "vices": 2301,
      "you": 2302,
      "Ġ@": 2303,
      "Ġve": 2304,
      "Ġ50": 2305,
      "Ġown": 2306,
      "oun": 2307,
      "Ġwis": 2308,
      "Ġsong": 2309,
      "Ġsister": 2310,
      "Ġmen": 2311,
      "Ġcou": 2312,
      "Ġcat": 2313,
      "Ġcop": 2314,
      "Ġcine": 2315,
      "Ġcum": 2316,
      "Ġyo": 2317,
      "Ġyr": 2318,
      "Ġbt": 2319,
      "ord": 2320,
      "Ġfore": 2321,
      "Ġfren": 2322,
      "Ġlect": 2323,
      "Ġni": 2324,
      "Ġny": 2325,
      "Ġgd": 2326,
      "Ġpm": 2327,
      "veal": 2328,
      "ath": 2329,
      "ĠTONE": 2330,
      "otor": 2331,
      "Ġinter": 2332,
      "ĠWan": 2333,
      "ĠWith": 2334,
      "Ġmeant": 2335,
      "ĠCH": 2336,
      "ĠCR": 2337,
      "ĠCAS": 2338,
      "Ġext": 2339,
      "Ġeach": 2340,
      "Ġrequ": 2341,
      "ics": 2342,
      "ids": 2343,
      "ĠOur": 2344,
      "ĠFrom": 2345,
      "Ġ07": 2346,
      "ĠLo": 2347,
      "Ġshop": 2348,
      "urb": 2349,
      "urs": 2350,
      "ĠRem": 2351,
      "uss": 2352,
      "ption": 2353,
      "Ġokay": 2354,
      "Ġoffers": 2355,
      "ĠThink": 2356,
      "Ġtelling": 2357,
      "Ġused": 2358,
      "Ġwhole": 2359,
      "Ġexp": 2360,
      "Ġexam": 2361,
      "Ġfinal": 2362,
      "ARD": 2363,
      "ART": 2364,
      "Ġcollege": 2365,
      "Ġinterest": 2366,
      "Ġtrans": 2367,
      "Ġscream": 2368,
      "ĠSpeak": 2369,
      "Ġdiffic": 2370,
      "Ġwrong": 2371,
      "Ġsupport": 2372,
      "Ġ0906636": 2373,
      "0871": 2374,
      "ĠXXX": 2375,
      "avaMob": 2376,
      "Ġreturn": 2377,
      "Ġcourse": 2378,
      "Ġearlier": 2379,
      "ĠCASH": 2380,
      "Ġdifficult": 2381,
      "03": 2382,
      "19": 2383,
      "91": 2384,
      "CM": 2385,
      "LO": 2386,
      "SH": 2387,
      "SLV": 2388,
      "TT": 2389,
      "YL": 2390,
      "book": 2391,
      "call": 2392,
      "care": 2393,
      "ches": 2394,
      "go": 2395,
      "gy": 2396,
      "gin": 2397,
      "ger": 2398,
      "ling": 2399,
      "mber": 2400,
      "most": 2401,
      "mths": 2402,
      "ugh": 2403,
      "vr": 2404,
      "Ġ;": 2405,
      "Ġage": 2406,
      "Ġwot": 2407,
      "Ġside": 2408,
      "Ġmum": 2409,
      "Ġcode": 2410,
      "..:)": 2411,
      "Ġbout": 2412,
      "Ġbra": 2413,
      "Ġbreak": 2414,
      "Ġdes": 2415,
      "erry": 2416,
      "Ġfri": 2417,
      "Ġfil": 2418,
      "Ġfound": 2419,
      "Ġfig": 2420,
      "Ġfav": 2421,
      "Ġgym": 2422,
      "Ġpar": 2423,
      "Ġpaper": 2424,
      "vey": 2425,
      "ower": 2426,
      "ars": 2427,
      "ĠTr": 2428,
      "ĠSU": 2429,
      "ĠSub": 2430,
      "ĠSony": 2431,
      "ĠSavaMob": 2432,
      "ote": 2433,
      "ĠHI": 2434,
      "ĠWife": 2435,
      "ĠCool": 2436,
      "ĠYar": 2437,
      "ĠYear": 2438,
      "Ġthr": 2439,
      "alance": 2440,
      "ĠBSLV": 2441,
      "ĠGr": 2442,
      "ĠGee": 2443,
      "Ġra": 2444,
      "ops": 2445,
      "ĠFOR": 2446,
      "Ġann": 2447,
      "504": 2448,
      "Ġwithin": 2449,
      "Ġfriday": 2450,
      "Ġurgent": 2451,
      "Ġplus": 2452,
      "elp": 2453,
      "Ġanytime": 2454,
      "ĠEN": 2455,
      "ĠEvery": 2456,
      "Ġ350": 2457,
      "Ġwasn": 2458,
      "Ġspend": 2459,
      "Ġfelt": 2460,
      "Ġphones": 2461,
      "iew": 2462,
      "Ġard": 2463,
      "Ġthinks": 2464,
      "Ġseeing": 2465,
      "Ġmah": 2466,
      "Ġmax": 2467,
      "Ġhappiness": 2468,
      "feren": 2469,
      "Ġnumbers": 2470,
      "Ġcontent": 2471,
      "........": 2472,
      "Ġdeal": 2473,
      "Ġmsgs": 2474,
      "Ġservices": 2475,
      "Ġimp": 2476,
      "ĠYOUR": 2477,
      "ISS": 2478,
      "Ġplayer": 2479,
      "Ġdunno": 2480,
      "ĠWho": 2481,
      "ĠAnything": 2482,
      "Ġgirls": 2483,
      "wards": 2484,
      "ooth": 2485,
      "Ġ2003": 2486,
      "ĠREAL": 2487,
      "ancy": 2488,
      "Ġ87066": 2489,
      "Ġlucky": 2490,
      "327": 2491,
      "ohn": 2492,
      "ĠHAVE": 2493,
      "Ġhungry": 2494,
      "ristmas": 2495,
      "Ġ||": 2496,
      "Ġcorrect": 2497,
      "ĠBABE": 2498,
      "Ġcurrently": 2499,
      "ĠGuess": 2500,
      "Ġetc": 2501,
      "Ġfucking": 2502,
      "Ġbeautiful": 2503,
      "Ġcomputer": 2504,
      "Ġcouple": 2505,
      "otorola": 2506,
      "ĠBSLVYL": 2507,
      "200": 2508,
      "61": 2509,
      "68": 2510,
      "86": 2511,
      "CH": 2512,
      "EY": 2513,
      "ENT": 2514,
      "HONE": 2515,
      "IL": 2516,
      "IP": 2517,
      "ILL": 2518,
      "RY": 2519,
      "SMS": 2520,
      "UD": 2521,
      "UN": 2522,
      "bs": 2523,
      "ience": 2524,
      "mp": 2525,
      "ne": 2526,
      "ric": 2527,
      "ract": 2528,
      "tin": 2529,
      "use": 2530,
      "view": 2531,
      "Ġtalking": 2532,
      "Ġaff": 2533,
      "Ġwen": 2534,
      "Ġsound": 2535,
      "Ġsign": 2536,
      "Ġmod": 2537,
      "Ġca": 2538,
      "Ġcount": 2539,
      "Ġip": 2540,
      "Ġtor": 2541,
      "Ġbas": 2542,
      "Ġboo": 2543,
      "Ġdep": 2544,
      "Ġdate": 2545,
      "Ġdude": 2546,
      "Ġfall": 2547,
      "Ġfact": 2548,
      "Ġfather": 2549,
      "Ġgl": 2550,
      "Ġgas": 2551,
      "Ġgames": 2552,
      "Ġpri": 2553,
      "Ġpur": 2554,
      "Ġpleas": 2555,
      "ete": 2556,
      "ays": 2557,
      "arren": 2558,
      "itions": 2559,
      "ĠHM": 2560,
      "ĠWor": 2561,
      "Ġhor": 2562,
      "ĠCr": 2563,
      "ĠAND": 2564,
      "ĠARE": 2565,
      "Ġisn": 2566,
      "Ġref": 2567,
      "Ġreason": 2568,
      "ĠMa": 2569,
      "Ġforward": 2570,
      "ĠDad": 2571,
      "ĠDAY": 2572,
      "ĠUgh": 2573,
      "ĠBy": 2574,
      "entary": 2575,
      "Ġseem": 2576,
      "Ġru": 2577,
      "Ġrain": 2578,
      "Ġkick": 2579,
      "Ġjo": 2580,
      "Ġlik": 2581,
      "ĠLi": 2582,
      "Ġ40": 2583,
      "Ġarea": 2584,
      "Ġneva": 2585,
      "Ġgets": 2586,
      "Ġloc": 2587,
      "cept": 2588,
      "Ġknew": 2589,
      "Ġalright": 2590,
      "Ġalmost": 2591,
      "ĠJus": 2592,
      "iff": 2593,
      "ĠHee": 2594,
      "ĠOkay": 2595,
      "Ġphot": 2596,
      "ĠDoes": 2597,
      "Ġaskd": 2598,
      "!!!": 2599,
      "Ġ69": 2600,
      "Ġ08715": 2601,
      "ERS": 2602,
      "ORE": 2603,
      "ORN": 2604,
      "Ġcomplim": 2605,
      "Ġthank": 2606,
      "Ġconnect": 2607,
      "Ġrock": 2608,
      "ĠPOBOX": 2609,
      "ĠTHIS": 2610,
      "Ġblue": 2611,
      "ĠOne": 2612,
      "Ġ090640": 2613,
      "Ġends": 2614,
      "Ġwinner": 2615,
      "ĠWhich": 2616,
      "Ġfriendship": 2617,
      "Ġcharged": 2618,
      "ĠWatching": 2619,
      "Ġpicking": 2620,
      "Ġ090500": 2621,
      "603": 2622,
      "Ġchild": 2623,
      "ĠMaybe": 2624,
      "Ġsupposed": 2625,
      "Ġswing": 2626,
      "Ġpoint": 2627,
      "Ġcrazy": 2628,
      "Ġinvited": 2629,
      "Ġmrng": 2630,
      "Ġsimple": 2631,
      "Ġunderstand": 2632,
      "ĠBlu": 2633,
      "ĠCamera": 2634,
      "grins": 2635,
      "ĠSmile": 2636,
      "frnd": 2637,
      "fully": 2638,
      "Ġdisturb": 2639,
      "ĠQuiz": 2640,
      "Ġsemester": 2641,
      "Ġthrough": 2642,
      "Ġcomplimentary": 2643,
      "334": 2644,
      "84": 2645,
      "822": 2646,
      "AD": 2647,
      "CK": 2648,
      "PO": 2649,
      "SS": 2650,
      "TION": 2651,
      "VER": 2652,
      "ai": 2653,
      "biz": 2654,
      "ces": 2655,
      "don": 2656,
      "ele": 2657,
      "find": 2658,
      "ned": 2659,
      "pital": 2660,
      "ring": 2661,
      "rate": 2662,
      "ross": 2663,
      "rcvd": 2664,
      "Ġtired": 2665,
      "Ġair": 2666,
      "Ġwa": 2667,
      "Ġsy": 2668,
      "Ġsen": 2669,
      "Ġsal": 2670,
      "Ġsil": 2671,
      "Ġmate": 2672,
      "Ġcase": 2673,
      "..!": 2674,
      "Ġyes": 2675,
      "Ġyog": 2676,
      "ĠIF": 2677,
      "has": 2678,
      "Ġbud": 2679,
      "Ġdnt": 2680,
      "eral": 2681,
      "Ġlink": 2682,
      "Ġgra": 2683,
      "ett": 2684,
      "ĠTIME": 2685,
      "ĠSk": 2686,
      "ĠSat": 2687,
      "ĠSun": 2688,
      "ster": 2689,
      "ĠHG": 2690,
      "ĠHuh": 2691,
      "ĠHelp": 2692,
      "ĠChat": 2693,
      "ĠChan": 2694,
      "ĠColl": 2695,
      "ĠAbi": 2696,
      "Ġeg": 2697,
      "Ġey": 2698,
      "Ġ25": 2699,
      "Ġ28": 2700,
      "key": 2701,
      "ĠNICE": 2702,
      "ĠMorning": 2703,
      "ĠMotorola": 2704,
      "ality": 2705,
      "ider": 2706,
      "ident": 2707,
      "ĠDe": 2708,
      "ĠDude": 2709,
      "ĠBE": 2710,
      "ries": 2711,
      "Ġheard": 2712,
      "Ġseen": 2713,
      "ĠFANT": 2714,
      "Ġjay": 2715,
      "Ġ077": 2716,
      "ĠLife": 2717,
      "Ġfrm": 2718,
      "Ġlol": 2719,
      "Ġlost": 2720,
      "uring": 2721,
      "cell": 2722,
      "Ġupdate": 2723,
      "Ġplans": 2724,
      "olice": 2725,
      "Ġpray": 2726,
      "Ġvoice": 2727,
      "Ġwhenever": 2728,
      "ospital": 2729,
      "Ġ36": 2730,
      "land": 2731,
      "ĠCalls": 2732,
      "Ġsomewhere": 2733,
      "Ġlapt": 2734,
      "Ġlaugh": 2735,
      "Ġsending": 2736,
      "Ġsmall": 2737,
      "Ġsafe": 2738,
      "Ġmag": 2739,
      "Ġ087124": 2740,
      "morning": 2741,
      "Ġadm": 2742,
      "Ġadv": 2743,
      "Ġdef": 2744,
      "Ġdeep": 2745,
      "Ġfinally": 2746,
      "Ġago": 2747,
      "ĠPOLY": 2748,
      "Ġchecking": 2749,
      "Ġshower": 2750,
      "Ġchoose": 2751,
      "Ġentered": 2752,
      "ĠFreeMsg": 2753,
      "Ġmayb": 2754,
      "izz": 2755,
      "mins": 2756,
      "Ġparty": 2757,
      "uzz": 2758,
      "Ġbath": 2759,
      "text": 2760,
      "dered": 2761,
      "ĠONLY": 2762,
      "ĠValent": 2763,
      "Ġquestions": 2764,
      "Ġmobiles": 2765,
      "ĠPlus": 2766,
      "ĠAlright": 2767,
      "Ġcrave": 2768,
      "Ġclean": 2769,
      "Ġcredit": 2770,
      "ĠHmmm": 2771,
      "chard": 2772,
      "Ġvalued": 2773,
      "Ġextra": 2774,
      "ference": 2775,
      "ĠHMV": 2776,
      "ĠAbiola": 2777,
      "ĠFANTAS": 2778,
      "Ġlaptop": 2779,
      "41": 2780,
      "47": 2781,
      "49": 2782,
      "62": 2783,
      "89": 2784,
      "900": 2785,
      "?!": 2786,
      "CE": 2787,
      "DAY": 2788,
      "NO": 2789,
      "NOW": 2790,
      "OL": 2791,
      "PY": 2792,
      "RA": 2793,
      "Txt": 2794,
      "da": 2795,
      "fone": 2796,
      "hs": 2797,
      "ib": 2798,
      "love": 2799,
      "ness": 2800,
      "nite": 2801,
      "national": 2802,
      "tu": 2803,
      "then": 2804,
      "tones": 2805,
      "wh": 2806,
      "wee": 2807,
      "wise": 2808,
      "Ġll": 2809,
      "Ġer": 2810,
      "Ġed": 2811,
      "Ġten": 2812,
      "Ġauction": 2813,
      "oup": 2814,
      "Ġwife": 2815,
      "Ġsick": 2816,
      "rer": 2817,
      "reen": 2818,
      "Ġmad": 2819,
      "Ġmist": 2820,
      "Ġmarch": 2821,
      "Ġmusic": 2822,
      "Ġcud": 2823,
      "Ġbag": 2824,
      "Ġbank": 2825,
      "Ġfill": 2826,
      "Ġfight": 2827,
      "Ġfla": 2828,
      "Ġfoot": 2829,
      "Ġgen": 2830,
      "Ġgap": 2831,
      "Ġgave": 2832,
      "ane": 2833,
      "omorrow": 2834,
      "etooth": 2835,
      "ĠTC": 2836,
      "ĠSK": 2837,
      "ĠSW": 2838,
      "ĠSer": 2839,
      "ĠSol": 2840,
      "ĠSounds": 2841,
      "std": 2842,
      "ediate": 2843,
      "...!": 2844,
      "Ġhands": 2845,
      "Ġind": 2846,
      "ĠWAS": 2847,
      "Ġho": 2848,
      "ĠAG": 2849,
      "ĠAh": 2850,
      "ĠALL": 2851,
      "Ġrel": 2852,
      "Ġreward": 2853,
      "Ġrecent": 2854,
      "ĠNe": 2855,
      "ĠNah": 2856,
      "ĠNAME": 2857,
      "ĠNTT": 2858,
      "ĠMO": 2859,
      "ĠMm": 2860,
      "ĠMake": 2861,
      "ĠMmm": 2862,
      "ĠMUS": 2863,
      "ali": 2864,
      "Ġbell": 2865,
      "ute": 2866,
      "ĠUN": 2867,
      "ĠBt": 2868,
      "ĠOther": 2869,
      "ĠOops": 2870,
      "Ġself": 2871,
      "outh": 2872,
      "Ġrates": 2873,
      "Ġrply": 2874,
      "ĠFin": 2875,
      "ĠFuck": 2876,
      "Ġorchard": 2877,
      "Ġnear": 2878,
      "obody": 2879,
      "unt": 2880,
      "Ġtel": 2881,
      "Ġloving": 2882,
      "Ġloads": 2883,
      "Ġ850": 2884,
      "Ġ822": 2885,
      "ĠRing": 2886,
      "ush": 2887,
      "Ġvia": 2888,
      "Ġgotta": 2889,
      "Ġ300": 2890,
      "artment": 2891,
      "Ġcomm": 2892,
      "ĠCaller": 2893,
      "Ġloved": 2894,
      "Ġlovely": 2895,
      "ĠFRND": 2896,
      "pty": 2897,
      "Ġrepresent": 2898,
      "ĠVideo": 2899,
      "Ġawesome": 2900,
      "ĠThk": 2901,
      "Ġcoz": 2902,
      "Ġusual": 2903,
      "ferent": 2904,
      "Ġclub": 2905,
      "Ġexper": 2906,
      "Ġquick": 2907,
      "Ġtxts": 2908,
      "Ġtxting": 2909,
      "aste": 2910,
      "upid": 2911,
      "Ġthanx": 2912,
      "Ġfeels": 2913,
      "Ġwana": 2914,
      "Ġcons": 2915,
      "aught": 2916,
      "getzed": 2917,
      "Ġcarl": 2918,
      "Ġenter": 2919,
      "Ġleaves": 2920,
      "Ġremove": 2921,
      "121": 2922,
      "Ġaccess": 2923,
      "room": 2924,
      "hesh": 2925,
      "Ġempty": 2926,
      "ĠAnyway": 2927,
      "irer": 2928,
      "Ġmonths": 2929,
      "Ġsaturday": 2930,
      "scription": 2931,
      "Ġbathe": 2932,
      "Ġdifferent": 2933,
      "Ġwrite": 2934,
      "uhui": 2935,
      "Ġwkly": 2936,
      "UCK": 2937,
      "ertune": 2938,
      "ELLO": 2939,
      "Ġacross": 2940,
      "ĠLIVE": 2941,
      "Ġslowly": 2942,
      "ĠCoz": 2943,
      "Ġreached": 2944,
      "Ġ0871240": 2945,
      "Ġdiscount": 2946,
      "shine": 2947,
      "ĠCheck": 2948,
      "ĠClub": 2949,
      "Ġwarm": 2950,
      "Ġfixed": 2951,
      "Ġdrugs": 2952,
      "ĠLatest": 2953,
      "ĠShall": 2954,
      "ĠActually": 2955,
      "ĠPhone": 2956,
      "Ġrequest": 2957,
      "Ġfilm": 2958,
      "Ġfigure": 2959,
      "ĠBluetooth": 2960,
      "ediately": 2961,
      "ĠMUSIC": 2962,
      "Ġrepresentative": 2963,
      "--": 2964,
      ".\\\"\"": 2965,
      "250": 2966,
      "220": 2967,
      "97": 2968,
      ";-)": 2969,
      ">>": 2970,
      "AKE": 2971,
      "CHAT": 2972,
      "IF": 2973,
      "IX": 2974,
      "IVE": 2975,
      "Th": 2976,
      "aly": 2977,
      "bo": 2978,
      "boy": 2979,
      "cy": 2980,
      "dew": 2981,
      "fl": 2982,
      "ges": 2983,
      "gues": 2984,
      "ij": 2985,
      "io": 2986,
      "ied": 2987,
      "rit": 2988,
      "sn": 2989,
      "take": 2990,
      "ux": 2991,
      "wesome": 2992,
      "zz": 2993,
      "Ġ#": 2994,
      "Ġ....": 2995,
      "Ġturn": 2996,
      "Ġsla": 2997,
      "head": 2998,
      "rec": 2999,
      "Ġcent": 3000,
      "Ġcele": 3001,
      "..\\\"": 3002,
      "ĠiP": 3003,
      "ĠIll": 3004,
      "ham": 3005,
      "Ġbb": 3006,
      "Ġbox": 3007,
      "Ġdie": 3008,
      "Ġgay": 3009,
      "Ġgent": 3010,
      "Ġpack": 3011,
      "anu": 3012,
      "vent": 3013,
      "ater": 3014,
      "atar": 3015,
      "ara": 3016,
      "ĠTone": 3017,
      "ĠTOD": 3018,
      "ĠSame": 3019,
      "ĠSweet": 3020,
      "Ġob": 3021,
      "Ġopp": 3022,
      "ĠHear": 3023,
      "ĠHAP": 3024,
      "ley": 3025,
      "Ġins": 3026,
      "ĠWen": 3027,
      "Ġhuh": 3028,
      "Ġhospital": 3029,
      "Ġmeh": 3030,
      "ĠCs": 3031,
      "ĠCant": 3032,
      "ĠArd": 3033,
      "ĠAwesome": 3034,
      "Ġones": 3035,
      "Ġitself": 3036,
      "Ġtht": 3037,
      "ĠNet": 3038,
      "ĠNight": 3039,
      "ĠNever": 3040,
      "ĠNeed": 3041,
      "ĠMan": 3042,
      "ĠMess": 3043,
      "ĠMore": 3044,
      "ĠMum": 3045,
      "ĠMins": 3046,
      "ĠMUC": 3047,
      "ĠDen": 3048,
      "Ġwear": 3049,
      "Ġweed": 3050,
      "ĠBoy": 3051,
      "ĠBec": 3052,
      "Ġmyself": 3053,
      "ĠOf": 3054,
      "ĠOm": 3055,
      "ĠOpt": 3056,
      "Ġhell": 3057,
      "Ġsty": 3058,
      "ĠPerson": 3059,
      "ĠPIC": 3060,
      "ĠParents": 3061,
      "Ġround": 3062,
      "Ġrand": 3063,
      "ĠFIN": 3064,
      "Ġfrnd": 3065,
      "ctor": 3066,
      "Ġlov": 3067,
      "Ġlover": 3068,
      "Ġasking": 3069,
      "uro": 3070,
      "Ġ871": 3071,
      "Ġ880": 3072,
      "Ġworried": 3073,
      "Ġworries": 3074,
      "olog": 3075,
      "eagues": 3076,
      "Ġpract": 3077,
      "used": 3078,
      "Ġ0845": 3079,
      "ĠEX": 3080,
      "ĠEr": 3081,
      "ify": 3082,
      "cks": 3083,
      "Ġcomin": 3084,
      "Ġnoon": 3085,
      "issed": 3086,
      "ĠHows": 3087,
      "Ġlazy": 3088,
      "ĠDogging": 3089,
      "Ġarri": 3090,
      "ĠVoucher": 3091,
      "ĠVery": 3092,
      "ĠVoda": 3093,
      "iger": 3094,
      "Ġoffic": 3095,
      "Ġusf": 3096,
      "Ġusing": 3097,
      "Ġ087123": 3098,
      "Ġexpect": 3099,
      "OUT": 3100,
      "ĠGoodmorning": 3101,
      "Ġtonite": 3102,
      "Ġcond": 3103,
      "akhesh": 3104,
      "Ġperf": 3105,
      "Ġapprec": 3106,
      "Ġbless": 3107,
      "Ġblack": 3108,
      "Ġbuying": 3109,
      "ĠGOD": 3110,
      "ĠOnce": 3111,
      "Ġending": 3112,
      "ISE": 3113,
      "Ġspecially": 3114,
      "Ġmatch": 3115,
      "Ġresult": 3116,
      "Ġpoor": 3117,
      "Ġdecide": 3118,
      "ĠRead": 3119,
      "ĠReally": 3120,
      "Ġ:(": 3121,
      "Ġbrings": 3122,
      "ĠProb": 3123,
      "Ġprof": 3124,
      "Ġ0906174": 3125,
      "Ġopin": 3126,
      "ĠPlay": 3127,
      "THING": 3128,
      "UCTION": 3129,
      "Ġ08002": 3130,
      "Ġmrt": 3131,
      "Ġbooked": 3132,
      "Ġregard": 3133,
      "Ġrental": 3134,
      "Ġsurpr": 3135,
      "Ġcredits": 3136,
      "ĠITS": 3137,
      "Ġreading": 3138,
      "Ġreaching": 3139,
      "ummer": 3140,
      "ĠSomeone": 3141,
      "Ġhoping": 3142,
      "ĠFriendship": 3143,
      "Ġpromise": 3144,
      "Ġinformation": 3145,
      "Ġuncle": 3146,
      "Ġdarlin": 3147,
      "Ġpossible": 3148,
      "Ġcopy": 3149,
      "ĠWanna": 3150,
      "ĠENG": 3151,
      "Ġbasic": 3152,
      "Ġseems": 3153,
      "ĠColleagues": 3154,
      "cellent": 3155,
      "Ġdefin": 3156,
      "Ġcarlos": 3157,
      "ĠTODAY": 3158,
      "ĠHAPPY": 3159,
      "ĠMUCH": 3160,
      ".:)": 3161,
      "278": 3162,
      "471": 3163,
      "420": 3164,
      "::": 3165,
      "BLE": 3166,
      "CL": 3167,
      "COM": 3168,
      "MB": 3169,
      "No": 3170,
      "OS": 3171,
      "PT": 3172,
      "PHONE": 3173,
      "Rakhesh": 3174,
      "TIME": 3175,
      "UP": 3176,
      "UZ": 3177,
      "VD": 3178,
      "WX": 3179,
      "cial": 3180,
      "dn": 3181,
      "een": 3182,
      "fa": 3183,
      "gest": 3184,
      "ient": 3185,
      "ilt": 3186,
      "ja": 3187,
      "lcome": 3188,
      "my": 3189,
      "mad": 3190,
      "mail": 3191,
      "month": 3192,
      "nes": 3193,
      "ped": 3194,
      "pec": 3195,
      "sing": 3196,
      "ten": 3197,
      "viously": 3198,
      "will": 3199,
      "when": 3200,
      "ĠZ": 3201,
      "Ġxx": 3202,
      "Ġtim": 3203,
      "Ġtamp": 3204,
      "Ġaha": 3205,
      "Ġwhe": 3206,
      "Ġwall": 3207,
      "Ġwind": 3208,
      "Ġwoke": 3209,
      "reveal": 3210,
      "Ġmet": 3211,
      "Ġmis": 3212,
      "Ġmal": 3213,
      "Ġmac": 3214,
      "Ġmir": 3215,
      "Ġmood": 3216,
      "Ġmode": 3217,
      "Ġcust": 3218,
      "Ġcreat": 3219,
      "Ġbc": 3220,
      "Ġbar": 3221,
      "Ġben": 3222,
      "Ġbother": 3223,
      "Ġbold": 3224,
      "ingers": 3225,
      "Ġdress": 3226,
      "Ġdarren": 3227,
      "Ġduring": 3228,
      "erm": 3229,
      "Ġfat": 3230,
      "Ġfone": 3231,
      "Ġfant": 3232,
      "Ġfau": 3233,
      "Ġly": 3234,
      "Ġlear": 3235,
      "Ġgiving": 3236,
      "Ġpie": 3237,
      "Ġpizz": 3238,
      "ano": 3239,
      "ĠTn": 3240,
      "ĠTones": 3241,
      "ities": 3242,
      "itled": 3243,
      "ĠSim": 3244,
      "ĠSup": 3245,
      "stem": 3246,
      "ĠHur": 3247,
      "ĠHOW": 3248,
      "lex": 3249,
      "Ġincl": 3250,
      "ĠWould": 3251,
      "ised": 3252,
      "ision": 3253,
      "ĠCom": 3254,
      "ĠCAN": 3255,
      "ĠAL": 3256,
      "ĠAM": 3257,
      "Ġegg": 3258,
      "Ġiss": 3259,
      "Ġrec": 3260,
      "Ġrecor": 3261,
      "ĠYep": 3262,
      "Ġ24": 3263,
      "Ġthrow": 3264,
      "Ġthru": 3265,
      "ĠNat": 3266,
      "ĠMIN": 3267,
      "ĠMerry": 3268,
      "als": 3269,
      "ĠDA": 3270,
      "uture": 3271,
      "ĠUs": 3272,
      "aces": 3273,
      "acle": 3274,
      "Ġweir": 3275,
      "Ġweight": 3276,
      "ĠBUT": 3277,
      "rible": 3278,
      "ĠOK": 3279,
      "Ġheav": 3280,
      "Ġste": 3281,
      "Ġstore": 3282,
      "ĠPress": 3283,
      "ĠPete": 3284,
      "enty": 3285,
      "ently": 3286,
      "ĠGra": 3287,
      "ĠGET": 3288,
      "ĠFr": 3289,
      "ĠFirst": 3290,
      "ĠFUCK": 3291,
      "Ġji": 3292,
      "Ġdog": 3293,
      "Ġdoin": 3294,
      "Ġdoor": 3295,
      "Ġlibr": 3296,
      "ĠLets": 3297,
      "chi": 3298,
      "Ġ400": 3299,
      "Ġgettin": 3300,
      "unity": 3301,
      "anta": 3302,
      "urance": 3303,
      "cel": 3304,
      "ĠRow": 3305,
      "Ġknows": 3306,
      "ĠJoy": 3307,
      "ĠJUST": 3308,
      "ĠJohn": 3309,
      "ume": 3310,
      "Ġvl": 3311,
      "Ġvom": 3312,
      "Ġanymore": 3313,
      "ĠEVE": 3314,
      "EET": 3315,
      "lax": 3316,
      "9020": 3317,
      "Ġsucc": 3318,
      "Ġsuper": 3319,
      "Ġspent": 3320,
      "Ġsport": 3321,
      "Ġwhats": 3322,
      "Ġfeb": 3323,
      "ared": 3324,
      "ĠKate": 3325,
      "ĠFROM": 3326,
      "emme": 3327,
      "Ġarg": 3328,
      "Ġarm": 3329,
      "Ġwater": 3330,
      "Ġthinkin": 3331,
      "ffee": 3332,
      "Ġsave": 3333,
      "igital": 3334,
      "action": 3335,
      "ĠFREEPHONE": 3336,
      "Ġ60": 3337,
      "Ġexact": 3338,
      "Ġuni": 3339,
      "Ġworkin": 3340,
      "Ġreplying": 3341,
      "ĠNOT": 3342,
      "ORT": 3343,
      "ĠStart": 3344,
      "Ġdead": 3345,
      "201": 3346,
      "astic": 3347,
      "Ġeng": 3348,
      "Ġroad": 3349,
      "Ġseriously": 3350,
      "istered": 3351,
      "OPE": 3352,
      "rue": 3353,
      "Ġcheap": 3354,
      "ucks": 3355,
      "Ġpicked": 3356,
      "ESS": 3357,
      "Ġblood": 3358,
      "Ġletter": 3359,
      "Ġagainst": 3360,
      "239": 3361,
      "Ġothers": 3362,
      "Ġentitled": 3363,
      "Ġstarting": 3364,
      "Ġremind": 3365,
      "Ġplanning": 3366,
      "Ġmatches": 3367,
      "Ġtrust": 3368,
      "ppmx": 3369,
      "ahoo": 3370,
      "word": 3371,
      "Ġpaying": 3372,
      "2468": 3373,
      "Ġprep": 3374,
      "Ġroomm": 3375,
      "Ġdoesnt": 3376,
      "Ġ0905000": 3377,
      "olla": 3378,
      "opped": 3379,
      "OWN": 3380,
      "Ġactiv": 3381,
      "Ġweekends": 3382,
      "Ġ2004": 3383,
      "onsms": 3384,
      "Ġlessons": 3385,
      "Ġstaying": 3386,
      "Ġwondering": 3387,
      "Ġprocess": 3388,
      "ĠPlz": 3389,
      "Ġmoment": 3390,
      "Ġjoined": 3391,
      "Ġmeaning": 3392,
      "uesday": 3393,
      "Ġmovies": 3394,
      "Ġ08718726": 3395,
      "Ġlogo": 3396,
      "Ġ87077": 3397,
      "Ġapartment": 3398,
      "arlos": 3399,
      "Ġhotel": 3400,
      "Ġmonday": 3401,
      "Ġkinda": 3402,
      "358": 3403,
      "limited": 3404,
      "Ġmedical": 3405,
      "ĠCamcorder": 3406,
      "oken": 3407,
      "Ġtraining": 3408,
      "Ġtickets": 3409,
      "Ġrespond": 3410,
      "Ġstudying": 3411,
      "ĠPoBox": 3412,
      "Ġ090580945": 3413,
      "airs": 3414,
      "Ġ3030": 3415,
      "Ġcompletely": 3416,
      "Ġwishes": 3417,
      "Ġcatch": 3418,
      "Ġcinema": 3419,
      "Ġforever": 3420,
      "Ġfrens": 3421,
      "Ġnyt": 3422,
      "Ġmaxim": 3423,
      "ĠWorld": 3424,
      "ĠLike": 3425,
      "Ġ0871520": 3426,
      "ORNING": 3427,
      "60324": 3428,
      "erala": 3429,
      "Ġ08712460324": 3430,
      "Ġadmirer": 3431,
      "week": 3432,
      "ĠService": 3433,
      "Ġexperience": 3434,
      "Ġslave": 3435,
      "ĠiPod": 3436,
      "Ġgentle": 3437,
      "anuary": 3438,
      "ĠOmg": 3439,
      "Ġstyle": 3440,
      "Ġrandom": 3441,
      "igeria": 3442,
      "ĠProbably": 3443,
      "Ġdefinite": 3444,
      "nesday": 3445,
      "pecially": 3446,
      "Ġtampa": 3447,
      "Ġfault": 3448,
      "Ġpizza": 3449,
      "Ġlibrary": 3450,
      "Ġsuccess": 3451,
      "170": 3452,
      "29": 3453,
      "270": 3454,
      "323": 3455,
      "52": 3456,
      "53": 3457,
      "500": 3458,
      "72": 3459,
      "946": 3460,
      "AK": 3461,
      "AIT": 3462,
      "DN": 3463,
      "FR": 3464,
      "GB": 3465,
      "GN": 3466,
      "Its": 3467,
      "IEND": 3468,
      "LIN": 3469,
      "Ldew": 3470,
      "ME": 3471,
      "Maid": 3472,
      "NITE": 3473,
      "OLL": 3474,
      "PR": 3475,
      "Pix": 3476,
      "Row": 3477,
      "TER": 3478,
      "UL": 3479,
      "WB": 3480,
      "Wina": 3481,
      "aha": 3482,
      "app": 3483,
      "bar": 3484,
      "ball": 3485,
      "balance": 3486,
      "cer": 3487,
      "cri": 3488,
      "ek": 3489,
      "eep": 3490,
      "ga": 3491,
      "gle": 3492,
      "give": 3493,
      "hin": 3494,
      "iest": 3495,
      "ipt": 3496,
      "lic": 3497,
      "lish": 3498,
      "life": 3499,
      "nk": 3500,
      "nat": 3501,
      "nal": 3502,
      "ney": 3503,
      "okes": 3504,
      "range": 3505,
      "sms": 3506,
      "tf": 3507,
      "tmsg": 3508,
      "ule": 3509,
      "ured": 3510,
      "uation": 3511,
      "vin": 3512,
      "Ġq": 3513,
      "Ġvers": 3514,
      "Ġti": 3515,
      "Ġtm": 3516,
      "Ġtat": 3517,
      "Ġtar": 3518,
      "Ġtir": 3519,
      "Ġtough": 3520,
      "Ġahead": 3521,
      "Ġwine": 3522,
      "Ġwiv": 3523,
      "Ġwalking": 3524,
      "Ġsar": 3525,
      "Ġsight": 3526,
      "Ġsouth": 3527,
      "rek": 3528,
      "read": 3529,
      "only": 3530,
      "Ġcake": 3531,
      "Ġcamp": 3532,
      "Ġcell": 3533,
      ".....": 3534,
      "..!!": 3535,
      "Ġir": 3536,
      "Ġice": 3537,
      "Ġign": 3538,
      "Ġyrs": 3539,
      "Ġyij": 3540,
      "Ġtowards": 3541,
      "ĠIB": 3542,
      "Ġbx": 3543,
      "Ġbor": 3544,
      "Ġbot": 3545,
      "Ġbid": 3546,
      "Ġbur": 3547,
      "Ġbare": 3548,
      "Ġbak": 3549,
      "Ġbucks": 3550,
      "orge": 3551,
      "erife": 3552,
      "ergy": 3553,
      "Ġfet": 3554,
      "Ġfancy": 3555,
      "Ġnational": 3556,
      "Ġpan": 3557,
      "Ġpat": 3558,
      "Ġpage": 3559,
      "Ġpres": 3560,
      "Ġpast": 3561,
      "Ġpresent": 3562,
      "Ġparents": 3563,
      "Ġpower": 3564,
      "aria": 3565,
      "ĠSi": 3566,
      "ĠSEE": 3567,
      "ĠSomet": 3568,
      "ĠSure": 3569,
      "ĠSUR": 3570,
      "ĠSOME": 3571,
      "stant": 3572,
      "ots": 3573,
      "ĠHal": 3574,
      "Ġham": 3575,
      "lept": 3576,
      "Ġinside": 3577,
      "ĠWR": 3578,
      "ĠWow": 3579,
      "ĠWel": 3580,
      "ĠWANT": 3581,
      "ĠWHAT": 3582,
      "ĠWELL": 3583,
      "ĠWOT": 3584,
      "Ġhw": 3585,
      "alla": 3586,
      "allis": 3587,
      "Ġmember": 3588,
      "ĠCarlos": 3589,
      "ĠAB": 3590,
      "ĠAN": 3591,
      "ĠAGE": 3592,
      "ĠAft": 3593,
      "Ġeas": 3594,
      "asing": 3595,
      "Ġreference": 3596,
      "Ġrelax": 3597,
      "Ġ21": 3598,
      "Ġthnk": 3599,
      "ĠNim": 3600,
      "ĠNice": 3601,
      "ĠNEED": 3602,
      "00220": 3603,
      "ĠMat": 3604,
      "ĠMAN": 3605,
      "ĠMISS": 3606,
      "Ġform": 3607,
      "alty": 3608,
      "Ġ1327": 3609,
      "iding": 3610,
      "ĠDr": 3611,
      "ĠDATE": 3612,
      "ĠDVD": 3613,
      "acter": 3614,
      "Ġweak": 3615,
      "Ġweather": 3616,
      "Ġwelcome": 3617,
      "ĠBea": 3618,
      "ĠBIR": 3619,
      "rie": 3620,
      "riage": 3621,
      "Ġstar": 3622,
      "Ġstra": 3623,
      "Ġstreet": 3624,
      "ĠPolice": 3625,
      "ention": 3626,
      "ential": 3627,
      "amn": 3628,
      "ĠGive": 3629,
      "ĠGIR": 3630,
      "ada": 3631,
      "Ġrs": 3632,
      "Ġrather": 3633,
      "Ġrcvd": 3634,
      "oph": 3635,
      "oper": 3636,
      "ĠFe": 3637,
      "Ġkb": 3638,
      "Ġkill": 3639,
      "Ġ02": 3640,
      "Ġ020": 3641,
      "Ġdoll": 3642,
      "Ġdoctor": 3643,
      "Ġlift": 3644,
      "ldren": 3645,
      "ĠLand": 3646,
      "ĠLDN": 3647,
      "Ġorig": 3648,
      "Ġnotice": 3649,
      "Ġsofa": 3650,
      "unk": 3651,
      "Ġteac": 3652,
      "ility": 3653,
      "Ġshd": 3654,
      "Ġurself": 3655,
      "cement": 3656,
      "Ġ833": 3657,
      "ĠRa": 3658,
      "ĠRING": 3659,
      "Ġworse": 3660,
      "epend": 3661,
      "tery": 3662,
      "oline": 3663,
      "ĠJoin": 3664,
      "Ġ0808": 3665,
      "ific": 3666,
      "ivered": 3667,
      "EEP": 3668,
      "Ġsomebody": 3669,
      "Ġsup": 3670,
      "Ġsucks": 3671,
      "Ġspree": 3672,
      "uding": 3673,
      "ĠKNOW": 3674,
      "oydon": 3675,
      "ĠFRIEND": 3676,
      "Ġhowever": 3677,
      "que": 3678,
      "Ġ_...": 3679,
      "Ġawake": 3680,
      "Ġmuz": 3681,
      "Ġ*****": 3682,
      "Ġuser": 3683,
      "ALK": 3684,
      "ATION": 3685,
      "mma": 3686,
      "ERV": 3687,
      "Ġclos": 3688,
      "Ġlead": 3689,
      "Ġunlimited": 3690,
      "Ġquality": 3691,
      "OUND": 3692,
      "hildren": 3693,
      "agine": 3694,
      "20201": 3695,
      "Ġconvey": 3696,
      "ape": 3697,
      "Ġenergy": 3698,
      "Ġkept": 3699,
      "ITED": 3700,
      "Ġshowing": 3701,
      "406": 3702,
      "Ġlets": 3703,
      "ĠGOT": 3704,
      "Ġchanged": 3705,
      "Ġplayers": 3706,
      "Ġremain": 3707,
      "Ġ900": 3708,
      "182": 3709,
      "Ġcharity": 3710,
      "Ġcharacter": 3711,
      "778": 3712,
      "Ġplanned": 3713,
      "Ġmatter": 3714,
      "Ġreceipt": 3715,
      "Ġtrouble": 3716,
      "Ġtruth": 3717,
      "Ġeating": 3718,
      "Ġhappens": 3719,
      "Ġhappening": 3720,
      "Ġpersons": 3721,
      "ĠShopping": 3722,
      "Ġshare": 3723,
      "Ġlonger": 3724,
      "???": 3725,
      "Ġbattery": 3726,
      "ĠMeet": 3727,
      "Ġbedroom": 3728,
      "derer": 3729,
      "Ġ:/": 3730,
      "Ġpaid": 3731,
      "cluding": 3732,
      "Ġcamcorder": 3733,
      "kky": 3734,
      "Ġrunning": 3735,
      "Ġ0906170": 3736,
      "ĠCosta": 3737,
      "ĠAlways": 3738,
      "Ġidea": 3739,
      "Ġpassword": 3740,
      "Ġregistered": 3741,
      "Ġlogin": 3742,
      "sson": 3743,
      "Ġsitting": 3744,
      "unday": 3745,
      "Ġclear": 3746,
      "Ġsubscri": 3747,
      "ugis": 3748,
      "ĠChristmas": 3749,
      "ummy": 3750,
      "Ġmurderer": 3751,
      "Ġnormal": 3752,
      "Ġexcuse": 3753,
      "Ġwednesday": 3754,
      "Ġimma": 3755,
      "Ġimmediately": 3756,
      "Ġfollowing": 3757,
      "ĠTenerife": 3758,
      "ĠASAP": 3759,
      "Ġmenu": 3760,
      "Ġinternet": 3761,
      "Ġinterested": 3762,
      "087187": 3763,
      "Ġfavour": 3764,
      "ĠGeeee": 3765,
      "Ġannoun": 3766,
      "Ġmodel": 3767,
      "Ġcountry": 3768,
      "Ġtorch": 3769,
      "Ġhorny": 3770,
      "ĠCroydon": 3771,
      "Ġliked": 3772,
      "iffs": 3773,
      "Ġphoto": 3774,
      "Ġsystem": 3775,
      "Ġsense": 3776,
      "Ġyoga": 3777,
      "Ġgrand": 3778,
      "ĠSunshine": 3779,
      "Ġeyes": 3780,
      "Ġ36504": 3781,
      "ĠValentines": 3782,
      "Ġmistake": 3783,
      "Ġrecently": 3784,
      "Ġ85023": 3785,
      "Ġ82277": 3786,
      "ĠRingtone": 3787,
      "This": 3788,
      "zzit": 3789,
      "Ġinsurance": 3790,
      "Ġarrive": 3791,
      "Ġ08712300220": 3792,
      "Ġappreciate": 3793,
      "Ġopinion": 3794,
      "Ġmalaria": 3795,
      "Ġmiracle": 3796,
      "Ġcustcare": 3797,
      "Ġlearn": 3798,
      "Ġheavy": 3799,
      "Ġmaximize": 3800,
      "FREE": 3801,
      "PRISE": 3802,
      "Ġyijue": 3803,
      "ĠSURPRISE": 3804,
      "ĠHalf": 3805,
      "ĠWelcome": 3806,
      "ĠBeaut": 3807,
      "ĠGIRL": 3808,
      "ĠLandline": 3809,
      ").": 3810,
      ".\"": 3811,
      ".,": 3812,
      ".?": 3813,
      "130": 3814,
      "177": 3815,
      "48": 3816,
      "434": 3817,
      "65": 3818,
      "700": 3819,
      "AUCTION": 3820,
      "Claim": 3821,
      "EART": 3822,
      "FL": 3823,
      "For": 3824,
      "GBP": 3825,
      "HP": 3826,
      "Hi": 3827,
      "IAL": 3828,
      "IES": 3829,
      "LIM": 3830,
      "MAS": 3831,
      "MORNING": 3832,
      "RO": 3833,
      "RS": 3834,
      "RW": 3835,
      "SG": 3836,
      "SP": 3837,
      "Send": 3838,
      "Sub": 3839,
      "The": 3840,
      "UK": 3841,
      "UU": 3842,
      "UV": 3843,
      "VA": 3844,
      "WC": 3845,
      "WARD": 3846,
      "bp": 3847,
      "bed": 3848,
      "band": 3849,
      "ca": 3850,
      "cle": 3851,
      "cade": 3852,
      "ding": 3853,
      "den": 3854,
      "dle": 3855,
      "ead": 3856,
      "fing": 3857,
      "gar": 3858,
      "hr": 3859,
      "hind": 3860,
      "ii": 3861,
      "iant": 3862,
      "ians": 3863,
      "jas": 3864,
      "ka": 3865,
      "ki": 3866,
      "ky": 3867,
      "kiss": 3868,
      "mar": 3869,
      "mob": 3870,
      "mao": 3871,
      "miles": 3872,
      "new": 3873,
      "over": 3874,
      "ror": 3875,
      "sunday": 3876,
      "tc": 3877,
      "that": 3878,
      "tment": 3879,
      "wa": 3880,
      "wt": 3881,
      "why": 3882,
      "xh": 3883,
      "yi": 3884,
      "yr": 3885,
      "Ġ/": 3886,
      "Ġ<": 3887,
      "Ġom": 3888,
      "Ġri": 3889,
      "Ġtal": 3890,
      "Ġaat": 3891,
      "ini": 3892,
      "ining": 3893,
      "Ġwi": 3894,
      "Ġwer": 3895,
      "Ġwom": 3896,
      "Ġwun": 3897,
      "Ġwnt": 3898,
      "Ġwaste": 3899,
      "Ġsum": 3900,
      "Ġsli": 3901,
      "Ġsounds": 3902,
      "Ġsory": 3903,
      "Ġslept": 3904,
      "Ġmark": 3905,
      "Ġcoo": 3906,
      "Ġcart": 3907,
      "..:-)": 3908,
      "Ġyahoo": 3909,
      "ĠtoClaim": 3910,
      "have": 3911,
      "Ġbf": 3912,
      "Ġbow": 3913,
      "Ġbreat": 3914,
      "Ġbalance": 3915,
      "Ġbugis": 3916,
      "oral": 3917,
      "Ġdem": 3918,
      "Ġdark": 3919,
      "erie": 3920,
      "erms": 3921,
      "Ġfb": 3922,
      "Ġfive": 3923,
      "Ġfreak": 3924,
      "Ġfingers": 3925,
      "Ġfuture": 3926,
      "Ġlim": 3927,
      "Ġlady": 3928,
      "Ġlemme": 3929,
      "Ġnat": 3930,
      "Ġnit": 3931,
      "Ġnxt": 3932,
      "Ġnone": 3933,
      "Ġnaught": 3934,
      "Ġge": 3935,
      "Ġgar": 3936,
      "Ġgreet": 3937,
      "nday": 3938,
      "Ġpos": 3939,
      "Ġpuss": 3940,
      "Ġtheat": 3941,
      "etter": 3942,
      "ĠTw": 3943,
      "ĠTry": 3944,
      "ĠTime": 3945,
      "ĠTON": 3946,
      "ĠSL": 3947,
      "ĠSay": 3948,
      "ĠSleep": 3949,
      "ĠSaid": 3950,
      "stfrnd": 3951,
      "Ġocc": 3952,
      "oting": 3953,
      "ĠHL": 3954,
      "ĠHis": 3955,
      "ĠHoney": 3956,
      "ĠHold": 3957,
      "ĠHOT": 3958,
      "ĠHEY": 3959,
      "ĠHELLO": 3960,
      "Ġhang": 3961,
      "ĠWk": 3962,
      "ĠWot": 3963,
      "ĠWAP": 3964,
      "ĠWILL": 3965,
      "isc": 3966,
      "ises": 3967,
      "Ġhill": 3968,
      "Ġhost": 3969,
      "Ġhook": 3970,
      "Ġholla": 3971,
      "ĠCC": 3972,
      "ĠCon": 3973,
      "ĠCash": 3974,
      "ĠCute": 3975,
      "ĠCOLL": 3976,
      "ĠAC": 3977,
      "ĠAb": 3978,
      "ĠAc": 3979,
      "ĠAn": 3980,
      "Ġec": 3981,
      "Ġeh": 3982,
      "Ġeight": 3983,
      "Ġish": 3984,
      "Ġred": 3985,
      "Ġreveal": 3986,
      "Ġreview": 3987,
      "ĠYE": 3988,
      "ĠMark": 3989,
      "ĠMESS": 3990,
      "ĠMSG": 3991,
      "ĠMoral": 3992,
      "ĠDON": 3993,
      "ĠDAR": 3994,
      "ĠDONE": 3995,
      "ĠDID": 3996,
      "ĠDigital": 3997,
      "acs": 3998,
      "Ġwebs": 3999,
      "ĠBest": 4000,
      "ĠBack": 4001,
      "ĠBcoz": 4002,
      "illiant": 4003,
      "ĠOver": 4004,
      "Ġhello": 4005,
      "Ġstation": 4006,
      "Ġstress": 4007,
      "Ġstock": 4008,
      "ĠPA": 4009,
      "ĠPre": 4010,
      "ĠPut": 4011,
      "ental": 4012,
      "ĠGM": 4013,
      "ĠFancy": 4014,
      "Ġkano": 4015,
      "Ġje": 4016,
      "Ġjoke": 4017,
      "Ġ078": 4018,
      "Ġdoc": 4019,
      "ĠLoo": 4020,
      "ĠLau": 4021,
      "ĠLuck": 4022,
      "ĠLdn": 4023,
      "ĠLUV": 4024,
      "Ġcancel": 4025,
      "Ġate": 4026,
      "5022": 4027,
      "Ġsoft": 4028,
      "ionate": 4029,
      "pped": 4030,
      "uns": 4031,
      "Ġtea": 4032,
      "Ġtem": 4033,
      "Ġtech": 4034,
      "Ġwilling": 4035,
      "ilates": 4036,
      "ights": 4037,
      "Ġloan": 4038,
      "Ġsho": 4039,
      "ura": 4040,
      "urity": 4041,
      "Ġ83": 4042,
      "Ġ85": 4043,
      "Ġ89": 4044,
      "Ġ888": 4045,
      "Ġ860": 4046,
      "days": 4047,
      "ĠRight": 4048,
      "Ġworks": 4049,
      "Ġplenty": 4050,
      "this": 4051,
      "olo": 4052,
      "ĠJay": 4053,
      "ĠJuz": 4054,
      "ump": 4055,
      "ums": 4056,
      "usive": 4057,
      "Ġvar": 4058,
      "Ġvary": 4059,
      "Ġanybody": 4060,
      "ĠEh": 4061,
      "ĠEuro": 4062,
      "Ġgoto": 4063,
      "Ġ35": 4064,
      "ĠHav": 4065,
      "Ġnokia": 4066,
      "Ġsunday": 4067,
      "Ġspace": 4068,
      "ĠHowz": 4069,
      "ĠKeep": 4070,
      "Ġdaily": 4071,
      "Ġarrange": 4072,
      "ffect": 4073,
      "Ġsale": 4074,
      "Ġrepl": 4075,
      "Ġrepli": 4076,
      "ĠVide": 4077,
      "Ġaskin": 4078,
      "ĠThought": 4079,
      "Ġcover": 4080,
      "Ġcold": 4081,
      "Ġ62468": 4082,
      "Ġ0871471": 4083,
      "amps": 4084,
      "Ġwond": 4085,
      "Ġclosed": 4086,
      "ulation": 4087,
      "Ġleg": 4088,
      "Ġunless": 4089,
      ":-)..": 4090,
      "Ġmanage": 4091,
      "Ġ7250": 4092,
      "ĠStock": 4093,
      "ĠHiya": 4094,
      "aged": 4095,
      "oved": 4096,
      "ĠHavent": 4097,
      "Ġenvel": 4098,
      "Ġrole": 4099,
      "Ġshouldn": 4100,
      "2210": 4101,
      "XXXX": 4102,
      "ĠTHERE": 4103,
      "ointment": 4104,
      "Ġwherever": 4105,
      "888": 4106,
      "Ġkeeping": 4107,
      "Ġchill": 4108,
      "Ġchristmas": 4109,
      "AST": 4110,
      "Ġcouldn": 4111,
      "Ġended": 4112,
      "IST": 4113,
      "Ġstarts": 4114,
      "128": 4115,
      "876": 4116,
      "ovable": 4117,
      "Ġxy": 4118,
      "ĠXMAS": 4119,
      "Ġtrack": 4120,
      "Ġeatin": 4121,
      "Ġpersonal": 4122,
      "Ġembar": 4123,
      "loving": 4124,
      "ondon": 4125,
      "Ġ087014": 4126,
      "Ġ0870750": 4127,
      "tyl": 4128,
      "olly": 4129,
      "Ġadded": 4130,
      "Ġproblems": 4131,
      "Ġgroup": 4132,
      "Ġflat": 4133,
      "Ġflirt": 4134,
      "Ġattend": 4135,
      "ĠSpl": 4136,
      "ĠONE": 4137,
      "Ġchecked": 4138,
      "Ġfacebook": 4139,
      "382": 4140,
      "ĠPrice": 4141,
      "36504": 4142,
      "Ġsetting": 4143,
      "Ġhurts": 4144,
      "Ġ090612210": 4145,
      "Ġposted": 4146,
      "ĠBACK": 4147,
      "THDAY": 4148,
      "Ġavo": 4149,
      "Ġsunny": 4150,
      "Ġinviting": 4151,
      "Ġ!!!": 4152,
      "Ġfullonsms": 4153,
      "Ġstudents": 4154,
      "28100": 4155,
      "Ġsituation": 4156,
      "ĠLIKE": 4157,
      "Ġmarry": 4158,
      "Ġmarriage": 4159,
      "Ġdied": 4160,
      "ensive": 4161,
      "ĠDelivery": 4162,
      "Ġholding": 4163,
      "Ġpolys": 4164,
      "ĠChoose": 4165,
      "ĠArcade": 4166,
      "ĠAiyo": 4167,
      "ĠAiyah": 4168,
      "Ġstrong": 4169,
      "Ġdiscuss": 4170,
      "uild": 4171,
      "Ġespecially": 4172,
      "ĠTsCs": 4173,
      "LAND": 4174,
      "Ġticket": 4175,
      "Ġmurder": 4176,
      "Ġdirectly": 4177,
      "ĠTXTAUCTION": 4178,
      "iction": 4179,
      "Ġexciting": 4180,
      "azing": 4181,
      "yler": 4182,
      "ĠIndia": 4183,
      "Ġinstead": 4184,
      "Ġinformed": 4185,
      "Ġdrug": 4186,
      "Ġevng": 4187,
      "ĠMissing": 4188,
      "Ġstandard": 4189,
      "ĠPoly": 4190,
      "ĠLater": 4191,
      "Ġvikky": 4192,
      "whats": 4193,
      "Ġterms": 4194,
      "ĠWaiting": 4195,
      "ĠWORK": 4196,
      "ĠMobiles": 4197,
      "ĠLover": 4198,
      "ĠRemember": 4199,
      "Ġexpensive": 4200,
      "Ġscreaming": 4201,
      "Ġglad": 4202,
      "Ġpleased": 4203,
      "ĠMax": 4204,
      "Ġ09050000": 4205,
      "Ġ090500900": 4206,
      "Ġbudget": 4207,
      "ĠSaturday": 4208,
      "Ġadvance": 4209,
      "ĠAhmad": 4210,
      "ĠUNLIM": 4211,
      "Ġcelebr": 4212,
      "Ġ084528100": 4213,
      "Ġofficial": 4214,
      "Ġ0800298": 4215,
      "Ġcreated": 4216,
      "Ġbene": 4217,
      "Ġfantastic": 4218,
      "ĠTnCs": 4219,
      "Ġweird": 4220,
      "Ġvomit": 4221,
      "Ġ087152036": 4222,
      "Ġdefinitely": 4223,
      "17012": 4224,
      "AITING": 4225,
      "Ġversion": 4226,
      "Ġtariffs": 4227,
      "Ġcampus": 4228,
      "Ġbarely": 4229,
      "Ġfetch": 4230,
      "ĠSiPix": 4231,
      "ĠNimya": 4232,
      "ĠBIRTHDAY": 4233,
      "Ġstraight": 4234,
      "Ġannouncement": 4235,
      "ĠBeautiful": 4236,
      "Ġomw": 4237,
      "Ġaathi": 4238,
      "Ġnaughty": 4239,
      "Ġpussy": 4240,
      "Ġtheatre": 4241,
      "ĠDARLIN": 4242,
      "Ġwebsite": 4243,
      "Ġ86021": 4244,
      "Ġreplied": 4245,
      "ĠStockport": 4246,
      "Ġenvelope": 4247,
      "Ġ08701417012": 4248,
      "Ġ08707509020": 4249,
      "Ġ09050090044": 4250,
      "ĠUNLIMITED": 4251,
      ")'": 4252,
      "+?": 4253,
      ",''": 4254,
      ".!": 4255,
      "05": 4256,
      "06": 4257,
      "122": 4258,
      "350": 4259,
      "380": 4260,
      "43": 4261,
      "450": 4262,
      "76": 4263,
      "790": 4264,
      ";)": 4265,
      "?\\\"\"": 4266,
      "AH": 4267,
      "AIN": 4268,
      "AVE": 4269,
      "AGE": 4270,
      "AMS": 4271,
      "Be": 4272,
      "Eric": 4273,
      "IE": 4274,
      "Mobile": 4275,
      "MOR": 4276,
      "NA": 4277,
      "NER": 4278,
      "OOK": 4279,
      "PM": 4280,
      "PORT": 4281,
      "QU": 4282,
      "ROW": 4283,
      "St": 4284,
      "UB": 4285,
      "VAL": 4286,
      "You": 4287,
      "ale": 4288,
      "cha": 4289,
      "chat": 4290,
      "code": 4291,
      "dom": 4292,
      "ext": 4293,
      "fo": 4294,
      "fort": 4295,
      "from": 4296,
      "gu": 4297,
      "gam": 4298,
      "gnt": 4299,
      "good": 4300,
      "hu": 4301,
      "hope": 4302,
      "iver": 4303,
      "just": 4304,
      "low": 4305,
      "lad": 4306,
      "ml": 4307,
      "may": 4308,
      "mbers": 4309,
      "oc": 4310,
      "oji": 4311,
      "po": 4312,
      "pot": 4313,
      "part": 4314,
      "set": 4315,
      "sit": 4316,
      "some": 4317,
      "sigh": 4318,
      "swt": 4319,
      "til": 4320,
      "tel": 4321,
      "uo": 4322,
      "uu": 4323,
      "uch": 4324,
      "vm": 4325,
      "vis": 4326,
      "wat": 4327,
      "yrs": 4328,
      "zes": 4329,
      "Ġ%": 4330,
      "Ġow": 4331,
      "Ġver": 4332,
      "Ġess": 4333,
      "Ġzed": 4334,
      "Ġtt": 4335,
      "Ġtour": 4336,
      "Ġtyler": 4337,
      "Ġave": 4338,
      "Ġaun": 4339,
      "Ġaud": 4340,
      "inal": 4341,
      "Ġwet": 4342,
      "Ġsn": 4343,
      "Ġsed": 4344,
      "Ġsite": 4345,
      "Ġsummer": 4346,
      "rest": 4347,
      "Ġmother": 4348,
      "Ġmths": 4349,
      "ona": 4350,
      "oned": 4351,
      "Ġcry": 4352,
      "Ġcab": 4353,
      "Ġcook": 4354,
      "Ġcru": 4355,
      "Ġcustom": 4356,
      "Ġcuz": 4357,
      "Ġic": 4358,
      "Ġil": 4359,
      "Ġide": 4360,
      "lle": 4361,
      "Ġyan": 4362,
      "Ġyest": 4363,
      "ĠID": 4364,
      "ĠIam": 4365,
      "hah": 4366,
      "haust": 4367,
      "Ġbo": 4368,
      "Ġbost": 4369,
      "Ġbrow": 4370,
      "Ġbuff": 4371,
      "Ġbought": 4372,
      "Ġbody": 4373,
      "Ġbuns": 4374,
      "Ġded": 4375,
      "Ġdry": 4376,
      "Ġdue": 4377,
      "erally": 4378,
      "Ġfish": 4379,
      "Ġfail": 4380,
      "Ġfool": 4381,
      "Ġlad": 4382,
      "Ġlone": 4383,
      "Ġlab": 4384,
      "Ġlick": 4385,
      "Ġnobody": 4386,
      "Ġnigeria": 4387,
      "Ġnoline": 4388,
      "Ġgrow": 4389,
      "Ġpound": 4390,
      "Ġpong": 4391,
      "Ġpap": 4392,
      "Ġppm": 4393,
      "Ġpple": 4394,
      "Ġpix": 4395,
      "Ġpissed": 4396,
      "Ġpilates": 4397,
      "Ġumma": 4398,
      "ana": 4399,
      "anes": 4400,
      "anade": 4401,
      "esus": 4402,
      "ows": 4403,
      "eth": 4404,
      "etition": 4405,
      "ĠTel": 4406,
      "ĠTra": 4407,
      "ĠTalk": 4408,
      "ĠTmr": 4409,
      "ĠTELL": 4410,
      "ĠTomorrow": 4411,
      "ĠTrue": 4412,
      "ĠTuesday": 4413,
      "ĠTALK": 4414,
      "ĠTerms": 4415,
      "ĠSc": 4416,
      "ĠSent": 4417,
      "ĠSad": 4418,
      "ĠSec": 4419,
      "ĠShi": 4420,
      "ĠSex": 4421,
      "ĠSERV": 4422,
      "ĠHome": 4423,
      "ĠHUN": 4424,
      "ĠHOPE": 4425,
      "ĠHEART": 4426,
      "Ġhate": 4427,
      "ĠWE": 4428,
      "ĠWK": 4429,
      "ĠWake": 4430,
      "ĠWah": 4431,
      "ĠWERE": 4432,
      "isf": 4433,
      "Ġhr": 4434,
      "Ġhu": 4435,
      "Ġhv": 4436,
      "Ġhoney": 4437,
      "Ġhrs": 4438,
      "Ġmembers": 4439,
      "ĠCON": 4440,
      "ĠCAR": 4441,
      "ĠCLA": 4442,
      "ĠAD": 4443,
      "ĠAd": 4444,
      "ĠApp": 4445,
      "ĠAuction": 4446,
      "Ġonto": 4447,
      "Ġisnt": 4448,
      "asana": 4449,
      "Ġreco": 4450,
      "ĠYun": 4451,
      "Ġ26": 4452,
      "Ġthurs": 4453,
      "ĠNational": 4454,
      "ĠNIGHT": 4455,
      "ĠMP": 4456,
      "ĠMr": 4457,
      "ĠMin": 4458,
      "ĠMust": 4459,
      "ĠMON": 4460,
      "ĠMany": 4461,
      "ĠMoji": 4462,
      "alian": 4463,
      "idence": 4464,
      "oogle": 4465,
      "ĠDload": 4466,
      "ĠDRA": 4467,
      "ĠDamn": 4468,
      "ĠDepend": 4469,
      "ĠUS": 4470,
      "ĠBad": 4471,
      "ĠBir": 4472,
      "ĠBEE": 4473,
      "ĠBuy": 4474,
      "ĠBook": 4475,
      "ĠBoss": 4476,
      "ĠBreak": 4477,
      "ĠBLO": 4478,
      "ĠBetter": 4479,
      "illage": 4480,
      "ril": 4481,
      "ĠOR": 4482,
      "Ġhey": 4483,
      "Ġstep": 4484,
      "Ġstupid": 4485,
      "ĠPC": 4486,
      "ĠPAR": 4487,
      "ĠPro": 4488,
      "ĠGe": 4489,
      "ĠGames": 4490,
      "ĠGBP": 4491,
      "Ġseason": 4492,
      "Ġrd": 4493,
      "Ġran": 4494,
      "Ġrad": 4495,
      "Ġrays": 4496,
      "Ġcallertune": 4497,
      "ĠFONE": 4498,
      "Ġkids": 4499,
      "Ġju": 4500,
      "Ġjoy": 4501,
      "Ġjava": 4502,
      "Ġjaz": 4503,
      "Ġjohn": 4504,
      "Ġlion": 4505,
      "ĠLS": 4506,
      "ĠLea": 4507,
      "ĠLuv": 4508,
      "ĠLmao": 4509,
      "ĠLondon": 4510,
      "Ġorange": 4511,
      "Ġ47": 4512,
      "Ġaren": 4513,
      "Ġnecess": 4514,
      "ltim": 4515,
      "Ġnote": 4516,
      "Ġsocial": 4517,
      "ants": 4518,
      "antic": 4519,
      "Ġteam": 4520,
      "Ġteach": 4521,
      "ilos": 4522,
      "ctions": 4523,
      "Ġloy": 4524,
      "Ġshi": 4525,
      "Ġshuhui": 4526,
      "Ġurgnt": 4527,
      "Ġasleep": 4528,
      "ural": 4529,
      "cember": 4530,
      "Ġ890": 4531,
      "Ġ855": 4532,
      "Ġ841": 4533,
      "ĠRs": 4534,
      "ĠREC": 4535,
      "Ġplaces": 4536,
      "ately": 4537,
      "abe": 4538,
      "abha": 4539,
      "ols": 4540,
      "ĠJord": 4541,
      "ĠJanuary": 4542,
      "umb": 4543,
      "ument": 4544,
      "uses": 4545,
      "ĠEng": 4546,
      "ĠEVER": 4547,
      "ears": 4548,
      "Ġ31": 4549,
      "Ġamt": 4550,
      "Ġamong": 4551,
      "Ġamount": 4552,
      "lands": 4553,
      "906": 4554,
      "ĠCallers": 4555,
      "ĠCallertune": 4556,
      "ĠWere": 4557,
      "Ġsugg": 4558,
      "Ġspeed": 4559,
      "Ġspell": 4560,
      "arden": 4561,
      "icket": 4562,
      "Ġtexting": 4563,
      "Ġ530": 4564,
      "Ġlaw": 4565,
      "Ġlaid": 4566,
      "ĠKind": 4567,
      "ĠKids": 4568,
      "INK": 4569,
      "Ġlatr": 4570,
      "Ġ09099": 4571,
      "Ġarrest": 4572,
      "ffic": 4573,
      "Ġreport": 4574,
      "\\\"...": 4575,
      "Ġmand": 4576,
      "Ġasks": 4577,
      "ĠThurs": 4578,
      "Ġtodays": 4579,
      "Ġtells": 4580,
      "ortunity": 4581,
      "ĠWhats": 4582,
      "Ġcoffee": 4583,
      "Ġ087178": 4584,
      "mmm": 4585,
      "sold": 4586,
      "Ġclick": 4587,
      "Ġclock": 4588,
      "ular": 4589,
      "Ġexhaust": 4590,
      "Ġnights": 4591,
      "Ġunable": 4592,
      "Ġunsold": 4593,
      "Ġquit": 4594,
      "Ġquoting": 4595,
      "Ġcontract": 4596,
      ":-).": 4597,
      "OUS": 4598,
      "OUBLE": 4599,
      "assed": 4600,
      "Ġadvice": 4601,
      "Ġadult": 4602,
      "ĠStyl": 4603,
      "ĠStupid": 4604,
      "Ġgives": 4605,
      "Ġderek": 4606,
      "ĠHaven": 4607,
      "Ġcompetition": 4608,
      "aster": 4609,
      "Ġconstant": 4610,
      "Ġbro": 4611,
      "comuk": 4612,
      "Ġenem": 4613,
      "Ġkey": 4614,
      "Ġserious": 4615,
      "Ġstopped": 4616,
      "Ġimagine": 4617,
      "Ġcheaper": 4618,
      "ĠTHAN": 4619,
      "Ġappr": 4620,
      "Ġappointment": 4621,
      "Ġcontacted": 4622,
      "Ġblank": 4623,
      "Ġsurely": 4624,
      "Ġcars": 4625,
      "ments": 4626,
      "Ġchick": 4627,
      "Ġchoice": 4628,
      "Ġ09065": 4629,
      "Ġintro": 4630,
      "ISH": 4631,
      "Ġplaying": 4632,
      "Ġdropped": 4633,
      "Ġdrunk": 4634,
      "Ġearth": 4635,
      "124": 4636,
      "125": 4637,
      "ized": 4638,
      "Ġaccident": 4639,
      "Ġcharges": 4640,
      "Ġplane": 4641,
      "ĠXCHAT": 4642,
      "Ġ80062": 4643,
      "Ġminuts": 4644,
      "Ġpartner": 4645,
      "Ġdint": 4646,
      "ICES": 4647,
      "Ġscore": 4648,
      "Ġpictu": 4649,
      "Ġprefer": 4650,
      "Ġrooms": 4651,
      "ĠLOL": 4652,
      "warded": 4653,
      "Ġbitch": 4654,
      "Ġhigh": 4655,
      "Ġsatisf": 4656,
      "Ġfunny": 4657,
      "ECT": 4658,
      "ECIAL": 4659,
      "OWER": 4660,
      "Ġbecome": 4661,
      "ooty": 4662,
      "Ġtwice": 4663,
      "Ġbirds": 4664,
      "ĠLoves": 4665,
      "ĠLovely": 4666,
      "Ġlookin": 4667,
      "Ġlooked": 4668,
      "555": 4669,
      "rental": 4670,
      "Ġselection": 4671,
      "club": 4672,
      "ĠPrin": 4673,
      "Ġsett": 4674,
      "Ġ09061790": 4675,
      "151": 4676,
      "Ġtruly": 4677,
      "ertain": 4678,
      "Ġ.....": 4679,
      "anger": 4680,
      "Ġ08718720201": 4681,
      "696": 4682,
      "Ġ!!''": 4683,
      "Ġvalent": 4684,
      "Ġvideochat": 4685,
      "Ġrentl": 4686,
      "Ġawaiting": 4687,
      "ĠGOODMORNING": 4688,
      "unde": 4689,
      "Ġapolog": 4690,
      "Ġsurfing": 4691,
      "Ġcross": 4692,
      "Ġmarried": 4693,
      "Ġdiet": 4694,
      "ĠDelivered": 4695,
      "inese": 4696,
      "xxxxxxx": 4697,
      "Ġmoan": 4698,
      "Ġmeds": 4699,
      "ĠSOON": 4700,
      "Ġsearching": 4701,
      "ELF": 4702,
      "Ġesc": 4703,
      "Ġlistening": 4704,
      "'',": 4705,
      "Ġgals": 4706,
      "stoptxt": 4707,
      "hhhh": 4708,
      "ĠIndian": 4709,
      "ĠWishing": 4710,
      "Ġselling": 4711,
      "Ġrespon": 4712,
      "Ġsingle": 4713,
      "ĠWHO": 4714,
      "ighb": 4715,
      "winner": 4716,
      "ĠWORLD": 4717,
      "ĠCDs": 4718,
      "ounge": 4719,
      "Ġlecture": 4720,
      "Ġinterview": 4721,
      "Ġinteresting": 4722,
      "087147": 4723,
      "Ġreturns": 4724,
      "LOVE": 4725,
      "SHIP": 4726,
      "Ġdesp": 4727,
      "Ġfavor": 4728,
      "ĠSonyEric": 4729,
      "2004": 4730,
      "Ġaffect": 4731,
      "Ġcafe": 4732,
      "Ġforwarded": 4733,
      "Ġraining": 4734,
      "Ġjoking": 4735,
      "Ġlocal": 4736,
      "Ġlocations": 4737,
      "Ġphotos": 4738,
      "Ġconnection": 4739,
      "Ġ0906401": 4740,
      "Ġairport": 4741,
      "Ġwaking": 4742,
      "Ġsilent": 4743,
      "ĠChange": 4744,
      "ĠChance": 4745,
      "ĠDecember": 4746,
      "ĠFANTASIES": 4747,
      "ĠAGAIN": 4748,
      "Ġbelly": 4749,
      "ĠOtherwise": 4750,
      "Ġconsider": 4751,
      "Ġturns": 4752,
      "Ġopportunity": 4753,
      "ĠHeart": 4754,
      "Ġlovable": 4755,
      "Ġloverboy": 4756,
      "Ġconditions": 4757,
      "Ġresults": 4758,
      "Ġregards": 4759,
      "Ġsurprise": 4760,
      "ĠENGLAND": 4761,
      "Ġbasically": 4762,
      "27870": 4763,
      "MBER": 4764,
      "Ġtiming": 4765,
      "Ġwhether": 4766,
      "ĠComp": 4767,
      "Ġissues": 4768,
      "Ġjiu": 4769,
      "Ġarmand": 4770,
      "Ġexactly": 4771,
      "Ġroommate": 4772,
      "Ġ08718726270": 4773,
      "Ġignore": 4774,
      "ĠIBH": 4775,
      "ophones": 4776,
      "Ġdollars": 4777,
      "Ġoriginal": 4778,
      "Ġcartoon": 4779,
      "ĠHolder": 4780,
      "Ġhostel": 4781,
      "Ġrevealed": 4782,
      "ĠMESSAGE": 4783,
      "urawinner": 4784,
      "Ġ3510": 4785,
      "ĠVideophones": 4786,
      "sighs": 4787,
      "Ġcabin": 4788,
      "Ġboston": 4789,
      "Ġpongal": 4790,
      "Ġjazz": 4791,
      "ĠJordan": 4792,
      "Ġsuggest": 4793,
      "Ġ090997": 4794,
      "Ġarrested": 4795,
      "Ġpictures": 4796,
      "Ġ!!''.": 4797,
      "ĠSonyEricsson": 4798,
      "!..": 4799,
      "),": 4800,
      ".:-)": 4801,
      "123": 4802,
      "27": 4803,
      "345": 4804,
      "440": 4805,
      "423": 4806,
      "428": 4807,
      "5124": 4808,
      "63": 4809,
      "6906": 4810,
      "7239": 4811,
      "96": 4812,
      "910": 4813,
      "918": 4814,
      ":(": 4815,
      ":\\": 4816,
      ";:(": 4817,
      "AW": 4818,
      "AIL": 4819,
      "BCM": 4820,
      "CO": 4821,
      "Care": 4822,
      "CLE": 4823,
      "CALL": 4824,
      "Children": 4825,
      "DY": 4826,
      "Day": 4827,
      "EF": 4828,
      "EX": 4829,
      "FA": 4830,
      "FE": 4831,
      "FONE": 4832,
      "From": 4833,
      "Gme": 4834,
      "HG": 4835,
      "HEY": 4836,
      "HELLO": 4837,
      "JHL": 4838,
      "KPO": 4839,
      "MI": 4840,
      "Me": 4841,
      "Mar": 4842,
      "Miss": 4843,
      "Mtmsg": 4844,
      "NY": 4845,
      "OY": 4846,
      "Out": 4847,
      "Our": 4848,
      "PH": 4849,
      "Please": 4850,
      "PLE": 4851,
      "QP": 4852,
      "RITE": 4853,
      "SK": 4854,
      "SO": 4855,
      "SELF": 4856,
      "To": 4857,
      "TIC": 4858,
      "Tyr": 4859,
      "UM": 4860,
      "Un": 4861,
      "Ur": 4862,
      "WP": 4863,
      "WU": 4864,
      "We": 4865,
      "What": 4866,
      "\\'": 4867,
      "_;": 4868,
      "__": 4869,
      "after": 4870,
      "bl": 4871,
      "back": 4872,
      "box": 4873,
      "bles": 4874,
      "che": 4875,
      "ced": 4876,
      "cost": 4877,
      "did": 4878,
      "dont": 4879,
      "fu": 4880,
      "fet": 4881,
      "free": 4882,
      "ging": 4883,
      "gbp": 4884,
      "hw": 4885,
      "hone": 4886,
      "iw": 4887,
      "iet": 4888,
      "iot": 4889,
      "ius": 4890,
      "iola": 4891,
      "jith": 4892,
      "ked": 4893,
      "kts": 4894,
      "lor": 4895,
      "ler": 4896,
      "lanta": 4897,
      "ming": 4898,
      "mess": 4899,
      "miss": 4900,
      "mobile": 4901,
      "missed": 4902,
      "nam": 4903,
      "nice": 4904,
      "ners": 4905,
      "nical": 4906,
      "oz": 4907,
      "oil": 4908,
      "oking": 4909,
      "pic": 4910,
      "pose": 4911,
      "qx": 4912,
      "rm": 4913,
      "rut": 4914,
      "rol": 4915,
      "ros": 4916,
      "rman": 4917,
      "she": 4918,
      "sen": 4919,
      "smore": 4920,
      "smiles": 4921,
      "ti": 4922,
      "tv": 4923,
      "ted": 4924,
      "tter": 4925,
      "tain": 4926,
      "ture": 4927,
      "times": 4928,
      "ury": 4929,
      "uce": 4930,
      "ures": 4931,
      "under": 4932,
      "uition": 4933,
      "ucoz": 4934,
      "uitions": 4935,
      "ucy": 4936,
      "vt": 4937,
      "vy": 4938,
      "via": 4939,
      "vity": 4940,
      "vious": 4941,
      "with": 4942,
      "ware": 4943,
      "yt": 4944,
      "yar": 4945,
      "Ġ[": 4946,
      "Ġz": 4947,
      "Ġtre": 4948,
      "Ġtab": 4949,
      "Ġtkts": 4950,
      "Ġtuition": 4951,
      "Ġain": 4952,
      "Ġast": 4953,
      "Ġaut": 4954,
      "Ġaight": 4955,
      "Ġaint": 4956,
      "Ġalex": 4957,
      "ino": 4958,
      "inst": 4959,
      "ination": 4960,
      "ints": 4961,
      "including": 4962,
      "info": 4963,
      "oud": 4964,
      "oul": 4965,
      "Ġwal": 4966,
      "Ġwest": 4967,
      "Ġwap": 4968,
      "Ġsom": 4969,
      "Ġsam": 4970,
      "Ġsour": 4971,
      "Ġsens": 4972,
      "heart": 4973,
      "help": 4974,
      "rea": 4975,
      "rem": 4976,
      "rew": 4977,
      "rey": 4978,
      "reep": 4979,
      "Ġmc": 4980,
      "Ġmas": 4981,
      "Ġmass": 4982,
      "Ġmach": 4983,
      "Ġmorn": 4984,
      "Ġmummy": 4985,
      "Ġcn": 4986,
      "Ġcast": 4987,
      "Ġcup": 4988,
      "Ġcap": 4989,
      "Ġcbe": 4990,
      "Ġcream": 4991,
      "Ġcreep": 4992,
      "..\"": 4993,
      "..?": 4994,
      "Ġive": 4995,
      "Ġizzit": 4996,
      "llen": 4997,
      "llex": 4998,
      "Ġyer": 4999,
      "Ġyuo": 5000,
      "ĠIQ": 5001,
      "ĠINT": 5002,
      "ĠIVE": 5003,
      "ĠIbiz": 5004,
      "Ġba": 5005,
      "Ġbin": 5006,
      "Ġban": 5007,
      "Ġbay": 5008,
      "Ġbday": 5009,
      "Ġbla": 5010,
      "Ġboss": 5011,
      "Ġbcoz": 5012,
      "Ġbuzz": 5013,
      "Ġbuild": 5014,
      "Ġbooty": 5015,
      "ingly": 5016,
      "Ġdou": 5017,
      "Ġdub": 5018,
      "Ġdouble": 5019,
      "Ġdanc": 5020,
      "erve": 5021,
      "ernal": 5022,
      "Ġfly": 5023,
      "Ġfur": 5024,
      "Ġfour": 5025,
      "Ġfile": 5026,
      "Ġfif": 5027,
      "Ġflo": 5028,
      "Ġfire": 5029,
      "Ġfiles": 5030,
      "Ġfanc": 5031,
      "Ġfyi": 5032,
      "Ġnw": 5033,
      "Ġnos": 5034,
      "Ġnag": 5035,
      "Ġgt": 5036,
      "Ġgreen": 5037,
      "Ġpot": 5038,
      "Ġpop": 5039,
      "Ġpend": 5040,
      "Ġpred": 5041,
      "Ġpig": 5042,
      "Ġpress": 5043,
      "Ġpull": 5044,
      "Ġpages": 5045,
      "Ġppl": 5046,
      "anwh": 5047,
      "omber": 5048,
      "omantic": 5049,
      "eted": 5050,
      "arry": 5051,
      "arily": 5052,
      "ĠTR": 5053,
      "ĠTV": 5054,
      "ĠTa": 5055,
      "ĠToo": 5056,
      "ĠTick": 5057,
      "ĠTCs": 5058,
      "ĠTOWN": 5059,
      "ĠTtyl": 5060,
      "itles": 5061,
      "ituitions": 5062,
      "ĠSN": 5063,
      "ĠSe": 5064,
      "ĠSing": 5065,
      "ĠSil": 5066,
      "ĠSOR": 5067,
      "ĠSince": 5068,
      "ĠSanta": 5069,
      "ĠSEX": 5070,
      "sters": 5071,
      "edy": 5072,
      "enny": 5073,
      "Ġov": 5074,
      "ĠHot": 5075,
      "ĠHouse": 5076,
      "ĠHOME": 5077,
      "Ġhai": 5078,
      "Ġhaha": 5079,
      "ĠWC": 5080,
      "ĠWed": 5081,
      "ĠWent": 5082,
      "ĠWine": 5083,
      "ĠWEE": 5084,
      "ĠWAN": 5085,
      "ising": 5086,
      "ishan": 5087,
      "Ġhon": 5088,
      "Ġhus": 5089,
      "Ġhug": 5090,
      "alling": 5091,
      "Ġmeal": 5092,
      "ĠCL": 5093,
      "ĠCW": 5094,
      "ĠCa": 5095,
      "ĠCust": 5096,
      "ĠCont": 5097,
      "ĠCould": 5098,
      "ĠCare": 5099,
      "ĠCOM": 5100,
      "ĠCAM": 5101,
      "ĠCOME": 5102,
      "Ġoni": 5103,
      "Ġeffect": 5104,
      "asure": 5105,
      "ashed": 5106,
      "asons": 5107,
      "Ġreb": 5108,
      "Ġrese": 5109,
      "Ġreleas": 5110,
      "Ġrenew": 5111,
      "Ġreasons": 5112,
      "ĠYM": 5113,
      "icate": 5114,
      "Ġthree": 5115,
      "Ġthro": 5116,
      "kend": 5117,
      "ĠNt": 5118,
      "ĠNite": 5119,
      "ĠNobody": 5120,
      "ĠNAK": 5121,
      "ĠMR": 5122,
      "ĠMon": 5123,
      "ĠMind": 5124,
      "ĠMOR": 5125,
      "ĠMuz": 5126,
      "ĠMoon": 5127,
      "ĠMEET": 5128,
      "Ġforgive": 5129,
      "alam": 5130,
      "Ġbeg": 5131,
      "Ġ145": 5132,
      "Ġ195": 5133,
      "idz": 5134,
      "idge": 5135,
      "oof": 5136,
      "ooo": 5137,
      "oop": 5138,
      "ĠDarren": 5139,
      "ĠDOWN": 5140,
      "ĠDOUBLE": 5141,
      "ĠUse": 5142,
      "ĠUmm": 5143,
      "ache": 5144,
      "acem": 5145,
      "Ġweb": 5146,
      "ĠBB": 5147,
      "ĠBoth": 5148,
      "ĠBCM": 5149,
      "ĠBuzz": 5150,
      "illa": 5151,
      "ĠOH": 5152,
      "ĠOVER": 5153,
      "Ġstri": 5154,
      "Ġstick": 5155,
      "ĠPe": 5156,
      "ĠPain": 5157,
      "ĠPound": 5158,
      "ĠPART": 5159,
      "ĠPHONE": 5160,
      "ĠPurity": 5161,
      "ama": 5162,
      "amed": 5163,
      "amster": 5164,
      "ĠGd": 5165,
      "ĠGift": 5166,
      "ĠGlad": 5167,
      "Ġrow": 5168,
      "Ġride": 5169,
      "Ġrude": 5170,
      "Ġrush": 5171,
      "ĠFA": 5172,
      "ĠFine": 5173,
      "ĠFind": 5174,
      "ĠFound": 5175,
      "ĠFLA": 5176,
      "Ġkal": 5177,
      "Ġkid": 5178,
      "Ġkett": 5179,
      "Ġkallis": 5180,
      "Ġjack": 5181,
      "Ġanti": 5182,
      "Ġ070": 5183,
      "Ġgold": 5184,
      "Ġgovt": 5185,
      "Ġdogg": 5186,
      "ĠLine": 5187,
      "ĠLoy": 5188,
      "ĠLog": 5189,
      "ĠLovable": 5190,
      "Ġcann": 5191,
      "Ġcannot": 5192,
      "Ġcancer": 5193,
      "sex": 5194,
      "send": 5195,
      "Ġordered": 5196,
      "Ġ45": 5197,
      "Ġneck": 5198,
      "rying": 5199,
      "5020": 5200,
      "50382": 5201,
      "Ġsore": 5202,
      "pping": 5203,
      "unel": 5204,
      "Ġtear": 5205,
      "Ġteeth": 5206,
      "ession": 5207,
      "ilk": 5208,
      "ilGme": 5209,
      "nth": 5210,
      "Ġlos": 5211,
      "Ġloss": 5212,
      "Ġlosing": 5213,
      "Ġshout": 5214,
      "Ġshld": 5215,
      "Ġshoot": 5216,
      "Ġshirt": 5217,
      "Ġasap": 5218,
      "urch": 5219,
      "Ġupload": 5220,
      "Ġupto": 5221,
      "Ġupgr": 5222,
      "Ġupset": 5223,
      "Ġ84": 5224,
      "Ġ830": 5225,
      "Ġ836": 5226,
      "Ġ804": 5227,
      "Ġ875": 5228,
      "Ġ87239": 5229,
      "ĠRose": 5230,
      "Ġbutt": 5231,
      "Ġoutta": 5232,
      "thin": 5233,
      "thday": 5234,
      "ourney": 5235,
      "Ġalong": 5236,
      "ĠJAN": 5237,
      "ĠJada": 5238,
      "Ġfromm": 5239,
      "Ġpros": 5240,
      "Ġproper": 5241,
      "uman": 5242,
      "umber": 5243,
      "usy": 5244,
      "usrut": 5245,
      "Ġ0844": 5246,
      "Ġvry": 5247,
      "Ġvote": 5248,
      "Ġwhite": 5249,
      "els": 5250,
      "ĠEv": 5251,
      "ĠEve": 5252,
      "ĠEver": 5253,
      "ĠENT": 5254,
      "ĠEND": 5255,
      "ĠEasy": 5256,
      "ĠEUR": 5257,
      "Ġallow": 5258,
      "Ġabi": 5259,
      "ĠHere": 5260,
      "ĠHeight": 5261,
      "lain": 5262,
      "Ġcomb": 5263,
      "Ġcomedy": 5264,
      "raid": 5265,
      "Ġspoke": 5266,
      "Ġspoken": 5267,
      "Ġfell": 5268,
      "Ġfeet": 5269,
      "Ġfever": 5270,
      "Ġtexted": 5271,
      "715124": 5272,
      "aret": 5273,
      "Ġ542": 5274,
      "Ġneeded": 5275,
      "ĠKing": 5276,
      "ĠKATE": 5277,
      "ĠKerala": 5278,
      "ĠKidz": 5279,
      "ĠKusrut": 5280,
      "ĠFRAN": 5281,
      "aintain": 5282,
      "berry": 5283,
      "Ġphilos": 5284,
      "ONG": 5285,
      "xxxxx": 5286,
      "nings": 5287,
      "ptain": 5288,
      "ĠThese": 5289,
      "ĠTheMob": 5290,
      "Ġhows": 5291,
      "703": 5292,
      "705022": 5293,
      "Ġart": 5294,
      "Ġwats": 5295,
      "Ġsmart": 5296,
      "ffff": 5297,
      "Ġsaved": 5298,
      "ĠVIP": 5299,
      "\\\".": 5300,
      "Ġmasters": 5301,
      "ĠThose": 5302,
      "Ġcoins": 5303,
      "Ġusually": 5304,
      "Ġafraid": 5305,
      "Ġhappend": 5306,
      "Ġeverybody": 5307,
      "ALLY": 5308,
      "ATCH": 5309,
      "Ġ087198": 5310,
      "Ġ0871750": 5311,
      "Ġ0871918": 5312,
      "ERA": 5313,
      "andy": 5314,
      "ules": 5315,
      "Ġexcept": 5316,
      "Ġleona": 5317,
      "Ġuncl": 5318,
      "Ġunredeemed": 5319,
      "669": 5320,
      "Ġquote": 5321,
      "Ġtxtin": 5322,
      "Ġcontin": 5323,
      "Ġwaitin": 5324,
      "collex": 5325,
      "ĠNOTHING": 5326,
      "Ġ75": 5327,
      "Ġ786": 5328,
      "Ġadmin": 5329,
      "Ġdey": 5330,
      "Ġdevel": 5331,
      "VEAL": 5332,
      "ĠGoodnight": 5333,
      "2050": 5334,
      "Ġthangam": 5335,
      "Ġevent": 5336,
      "Ġconcent": 5337,
      "Ġbroke": 5338,
      "ĠSTORE": 5339,
      "Ġrose": 5340,
      "akes": 5341,
      "ĠPOD": 5342,
      "ĠPOST": 5343,
      "Ġseries": 5344,
      "ITY": 5345,
      "Ġimpr": 5346,
      "Ġbabes": 5347,
      "ruary": 5348,
      "ĠURN": 5349,
      "222": 5350,
      "40323": 5351,
      "Ġcarefully": 5352,
      "Ġsometime": 5353,
      "Ġsomethin": 5354,
      "808": 5355,
      "Ġwouldn": 5356,
      "Ġblow": 5357,
      "ansaction": 5358,
      "ĠGOING": 5359,
      "ression": 5360,
      "Ġbefor": 5361,
      "Ġchurch": 5362,
      "Ġotherwise": 5363,
      "Ġ090651": 5364,
      "Ġplayed": 5365,
      "Ġwins": 5366,
      "Ġsooner": 5367,
      "ANCE": 5368,
      "Ġaccord": 5369,
      "878": 5370,
      "ovd": 5371,
      "minMob": 5372,
      "111": 5373,
      "1151": 5374,
      "Ġmatured": 5375,
      "Ġreceiving": 5376,
      "hedule": 5377,
      "OMOR": 5378,
      "Ġboys": 5379,
      "Ġansr": 5380,
      "Ġdrivin": 5381,
      "Ġrespect": 5382,
      "like": 5383,
      "Ġwishing": 5384,
      "ĠForgot": 5385,
      "ĠLOT": 5386,
      "ĠLOOK": 5387,
      "Ġ087028": 5388,
      "Ġhip": 5389,
      "Ġaddict": 5390,
      "Ġinfernal": 5391,
      "396": 5392,
      "39822": 5393,
      "Ġlargest": 5394,
      "Ġgram": 5395,
      "Ġbiggest": 5396,
      "Ġ125": 5397,
      "Ġbathing": 5398,
      "Ġflow": 5399,
      "ĠMeanwh": 5400,
      "Ġringtones": 5401,
      "Ġlives": 5402,
      "Ġdecision": 5403,
      "ĠRef": 5404,
      "ĠReason": 5405,
      "ĠQuite": 5406,
      "Ġbringing": 5407,
      "REAT": 5408,
      "Ġdeliver": 5409,
      "Ġdeleted": 5410,
      "ivate": 5411,
      "lets": 5412,
      "ĠExcellent": 5413,
      "263": 5414,
      "plic": 5415,
      "ploy": 5416,
      "place": 5417,
      "planade": 5418,
      "Ġtaunt": 5419,
      "Ġswim": 5420,
      "Ġputting": 5421,
      "Ġanswers": 5422,
      "THER": 5423,
      "Ġmoms": 5424,
      "Ġtravel": 5425,
      "taz": 5426,
      "Ġpassed": 5427,
      "ĠREVEAL": 5428,
      "Ġ080019": 5429,
      "Ġ090666": 5430,
      "Ġtotally": 5431,
      "ĠIMPORT": 5432,
      "ĠSPECIAL": 5433,
      "Ġanswering": 5434,
      "Ġdaddy": 5435,
      "pects": 5436,
      "Ġapril": 5437,
      "Ġsura": 5438,
      "Ġcredited": 5439,
      "Ġenjoyed": 5440,
      "ĠXXXX": 5441,
      "Ġhandle": 5442,
      "ĠBeer": 5443,
      "ĠBeen": 5444,
      "arently": 5445,
      "Ġfaster": 5446,
      "ension": 5447,
      "ĠUnsub": 5448,
      "ĠBlack": 5449,
      "******": 5450,
      "aaa": 5451,
      "ĠHAD": 5452,
      "Ġassume": 5453,
      "Msgrcvd": 5454,
      "Ġchallen": 5455,
      "Ġcute": 5456,
      "Ġpublic": 5457,
      "Ġinches": 5458,
      "ĠAiya": 5459,
      "ĠAiyar": 5460,
      "ĠBaby": 5461,
      "Ġ08712778": 5462,
      "ĠSomebody": 5463,
      "ĠCheers": 5464,
      "Ġmurdered": 5465,
      "ĠBrit": 5466,
      "ĠBrother": 5467,
      "ĠBABY": 5468,
      "ylie": 5469,
      "Ġskype": 5470,
      "Ġrespons": 5471,
      "Ġsingles": 5472,
      "Ġmidnight": 5473,
      "ĠSHIT": 5474,
      "ĠSHOP": 5475,
      "Ġviol": 5476,
      "LDN": 5477,
      "Ġterm": 5478,
      "Ġdarling": 5479,
      "Ġfollowed": 5480,
      "Ġntwk": 5481,
      "ĠTenants": 5482,
      "Ġshortly": 5483,
      "Ġsongs": 5484,
      "Ġnyc": 5485,
      "ĠCHANCE": 5486,
      "Ġexams": 5487,
      "Ġtransfer": 5488,
      "Ġ090663622": 5489,
      "9180": 5490,
      "going": 5491,
      "Ġ;)": 5492,
      "Ġ;_;": 5493,
      "Ġbrain": 5494,
      "Ġbrand": 5495,
      "ĠTruth": 5496,
      "ĠTransaction": 5497,
      "ĠGrl": 5498,
      "Ġraise": 5499,
      "ĠREALLY": 5500,
      "Ġdepend": 5501,
      "Ġpriv": 5502,
      "Ġpurcha": 5503,
      "Ġpurpose": 5504,
      "Ġpleasure": 5505,
      "ĠDaddy": 5506,
      "Ġ08715705022": 5507,
      "Ġchildish": 5508,
      "Ġunderstanding": 5509,
      "POBox": 5510,
      "ringtones": 5511,
      "Ġsalary": 5512,
      "Ġyogasana": 5513,
      "ĠSky": 5514,
      "Ġmagical": 5515,
      "ĠValentine": 5516,
      "Ġcleaning": 5517,
      "ĠFANTASTIC": 5518,
      "Ġflag": 5519,
      "Ġgaps": 5520,
      "Ġhandset": 5521,
      "Ġrelation": 5522,
      "ĠNeva": 5523,
      "Ġ08712405020": 5524,
      "board": 5525,
      "flights": 5526,
      "Ġcentre": 5527,
      "Ġcenter": 5528,
      "Ġobviously": 5529,
      "ĠNetcollex": 5530,
      "ĠMessage": 5531,
      "ĠMumtaz": 5532,
      "Ġwearing": 5533,
      "Ġhella": 5534,
      "ĠPersonality": 5535,
      "ĠPICK": 5536,
      "Ġ87121": 5537,
      "Ġ87131": 5538,
      "Ġ88039": 5539,
      "ĠEXP": 5540,
      "ĠVodafone": 5541,
      "Ġexpecting": 5542,
      "Ġperfect": 5543,
      "Ġblackberry": 5544,
      "ĠReading": 5545,
      "Ġprofit": 5546,
      "Ġsurprised": 5547,
      "Ġbcums": 5548,
      "ĠSimple": 5549,
      "ĠSuper": 5550,
      "ĠHurry": 5551,
      "Ġinclusive": 5552,
      "Ġrecord": 5553,
      "Ġrecords": 5554,
      "ĠNature": 5555,
      "ĠGravity": 5556,
      "Ġfebruary": 5557,
      "Ġargue": 5558,
      "Ġunique": 5559,
      "Ġenglish": 5560,
      "Ġletters": 5561,
      "Ġactivities": 5562,
      "Winawk": 5563,
      "Ġtihs": 5564,
      "Ġirrit": 5565,
      "Ġboring": 5566,
      "Ġprescri": 5567,
      "ĠSometimes": 5568,
      "ĠABOUT": 5569,
      "Ġeasier": 5570,
      "Ġ0207": 5571,
      "Ġteaches": 5572,
      "Ġ83355": 5573,
      "ĠRaj": 5574,
      "Ġcloser": 5575,
      "40625": 5576,
      "Forwarded": 5577,
      "Subscription": 5578,
      "thats": 5579,
      "Ġslipp": 5580,
      "Ġmarket": 5581,
      "Ġcooking": 5582,
      "Ġbowl": 5583,
      "ĠSLEEP": 5584,
      "ĠWkly": 5585,
      "ĠCOLLECT": 5586,
      "ĠAccept": 5587,
      "ĠLooks": 5588,
      "Ġtemple": 5589,
      "Ġwonders": 5590,
      "Ġlegal": 5591,
      "Ġembarassed": 5592,
      "Ġsettings": 5593,
      "Ġ09061221066": 5594,
      "ictionary": 5595,
      "Ġcelebrate": 5596,
      "Ġ08002986906": 5597,
      "3806": 5598,
      "Stop": 5599,
      "Ġessential": 5600,
      "Ġladies": 5601,
      "Ġlonely": 5602,
      "ĠSERVICES": 5603,
      "Ġmembership": 5604,
      "ĠDepends": 5605,
      "ĠBirthday": 5606,
      "ĠBEEN": 5607,
      "ĠBLOOD": 5608,
      "Ġradio": 5609,
      "Ġ4742": 5610,
      "Ġ8552": 5611,
      "Ġ84199": 5612,
      "ĠEngland": 5613,
      "Ġmanda": 5614,
      "ĠStylish": 5615,
      "Ġenemy": 5616,
      "Ġchicken": 5617,
      "Ġaccidentally": 5618,
      "ĠPrincess": 5619,
      "Ġsettled": 5620,
      "Ġvalentine": 5621,
      "Ġescape": 5622,
      "08714740323": 5623,
      "Ġaffection": 5624,
      "Ġconsidering": 5625,
      "Ġ09099726": 5626,
      "CLEAN": 5627,
      "KPOBOX": 5628,
      "Mtmsgrcvd": 5629,
      "Tyrone": 5630,
      "qxj": 5631,
      "ucozade": 5632,
      "Ġauto": 5633,
      "instituitions": 5634,
      "ĠIbiza": 5635,
      "Ġfurther": 5636,
      "omberg": 5637,
      "ĠSilent": 5638,
      "ĠSORRY": 5639,
      "ĠWEEK": 5640,
      "ĠCAMERA": 5641,
      "Ġresearch": 5642,
      "Ġreleased": 5643,
      "Ġthroat": 5644,
      "ĠNAKED": 5645,
      "acement": 5646,
      "ĠFLAG": 5647,
      "Ġkettoda": 5648,
      "ĠLoyalty": 5649,
      "Ġ83600": 5650,
      "Ġ80488": 5651,
      "Ġ87575": 5652,
      "ĠEURO": 5653,
      "ĠKusruthi": 5654,
      "Ġuncles": 5655,
      "minMobsmore": 5656,
      "Ġ08702840625": 5657,
      "Ġaddicted": 5658,
      "ĠMeanwhile": 5659,
      "Ġtaunton": 5660,
      "Ġ08001950382": 5661,
      "ĠIMPORTANT": 5662,
      "MsgrcvdHG": 5663,
      "Ġ0871277810": 5664,
      "Ġpurchase": 5665,
      "!\"": 5666,
      "!:": 5667,
      "!\\\"": 5668,
      "+)": 5669,
      "+.": 5670,
      "-?": 5671,
      ".:": 5672,
      "09": 5673,
      "087": 5674,
      "139": 5675,
      "1327": 5676,
      "230": 5677,
      "3876": 5678,
      "56": 5679,
      "5000": 5680,
      "634": 5681,
      "769": 5682,
      "82": 5683,
      "85": 5684,
      "823": 5685,
      "8130": 5686,
      "94": 5687,
      "980": 5688,
      "?'": 5689,
      "?\\\"": 5690,
      "AC": 5691,
      "AJ": 5692,
      "Are": 5693,
      "Age": 5694,
      "BE": 5695,
      "BT": 5696,
      "Babe": 5697,
      "Call": 5698,
      "Cook": 5699,
      "Cover": 5700,
      "DE": 5701,
      "Direct": 5702,
      "EIVE": 5703,
      "FT": 5704,
      "FW": 5705,
      "FOR": 5706,
      "FRI": 5707,
      "FORE": 5708,
      "FTER": 5709,
      "GT": 5710,
      "Get": 5711,
      "Game": 5712,
      "Gently": 5713,
      "Garden": 5714,
      "His": 5715,
      "House": 5716,
      "Hey": 5717,
      "IO": 5718,
      "IV": 5719,
      "Im": 5720,
      "Ksub": 5721,
      "LF": 5722,
      "LAY": 5723,
      "LOWER": 5724,
      "LKPOBOX": 5725,
      "MM": 5726,
      "MW": 5727,
      "Mell": 5728,
      "MIX": 5729,
      "MRW": 5730,
      "NN": 5731,
      "Ne": 5732,
      "Now": 5733,
      "NING": 5734,
      "Noon": 5735,
      "NIGHT": 5736,
      "OB": 5737,
      "Oru": 5738,
      "OLY": 5739,
      "One": 5740,
      "Press": 5741,
      "PLY": 5742,
      "POD": 5743,
      "Police": 5744,
      "PPM": 5745,
      "Rs": 5746,
      "Ring": 5747,
      "Res": 5748,
      "SW": 5749,
      "Sent": 5750,
      "TA": 5751,
      "Take": 5752,
      "TONE": 5753,
      "Tomorrow": 5754,
      "UE": 5755,
      "UATION": 5756,
      "UMBER": 5757,
      "VIN": 5758,
      "WW": 5759,
      "Wait": 5760,
      "Wife": 5761,
      "Wars": 5762,
      "WAITING": 5763,
      "WKsub": 5764,
      "XY": 5765,
      "ax": 5766,
      "aur": 5767,
      "aff": 5768,
      "ba": 5769,
      "bt": 5770,
      "bing": 5771,
      "bol": 5772,
      "bum": 5773,
      "bee": 5774,
      "cm": 5775,
      "cas": 5776,
      "cert": 5777,
      "eb": 5778,
      "evr": 5779,
      "fil": 5780,
      "first": 5781,
      "fits": 5782,
      "gi": 5783,
      "ghed": 5784,
      "gift": 5785,
      "gument": 5786,
      "garet": 5787,
      "hm": 5788,
      "hil": 5789,
      "hol": 5790,
      "ik": 5791,
      "iam": 5792,
      "ige": 5793,
      "ium": 5794,
      "iod": 5795,
      "ivers": 5796,
      "jor": 5797,
      "jay": 5798,
      "ket": 5799,
      "light": 5800,
      "lol": 5801,
      "list": 5802,
      "lines": 5803,
      "mon": 5804,
      "met": 5805,
      "mit": 5806,
      "mart": 5807,
      "mov": 5808,
      "music": 5809,
      "mtmsg": 5810,
      "nr": 5811,
      "ns": 5812,
      "nel": 5813,
      "of": 5814,
      "oen": 5815,
      "ole": 5816,
      "pout": 5817,
      "pare": 5818,
      "pool": 5819,
      "paper": 5820,
      "rnd": 5821,
      "rst": 5822,
      "rant": 5823,
      "rite": 5824,
      "rong": 5825,
      "ration": 5826,
      "sb": 5827,
      "su": 5828,
      "sy": 5829,
      "sha": 5830,
      "sis": 5831,
      "sol": 5832,
      "sack": 5833,
      "song": 5834,
      "tom": 5835,
      "there": 5836,
      "tec": 5837,
      "tlp": 5838,
      "turn": 5839,
      "tbo": 5840,
      "true": 5841,
      "uc": 5842,
      "uri": 5843,
      "uld": 5844,
      "uine": 5845,
      "vir": 5846,
      "vour": 5847,
      "vary": 5848,
      "vble": 5849,
      "vailable": 5850,
      "vali": 5851,
      "wall": 5852,
      "wel": 5853,
      "wks": 5854,
      "wthe": 5855,
      "wys": 5856,
      "ying": 5857,
      "yond": 5858,
      "years": 5859,
      "zing": 5860,
      "Ġ)": 5861,
      "Ġ00": 5862,
      "Ġtb": 5863,
      "Ġtay": 5864,
      "Ġtis": 5865,
      "Ġtight": 5866,
      "Ġtur": 5867,
      "Ġtree": 5868,
      "Ġtable": 5869,
      "Ġtouc": 5870,
      "Ġtuesday": 5871,
      "Ġtape": 5872,
      "Ġay": 5873,
      "Ġalt": 5874,
      "Ġaunt": 5875,
      "inc": 5876,
      "inun": 5877,
      "inco": 5878,
      "ouri": 5879,
      "Ġwo": 5880,
      "Ġws": 5881,
      "Ġwt": 5882,
      "Ġwow": 5883,
      "Ġwud": 5884,
      "Ġwise": 5885,
      "Ġwkend": 5886,
      "Ġsqu": 5887,
      "Ġsig": 5888,
      "Ġswe": 5889,
      "Ġsach": 5890,
      "Ġsorrow": 5891,
      "Ġsoooo": 5892,
      "heed": 5893,
      "reg": 5894,
      "real": 5895,
      "realy": 5896,
      "Ġmt": 5897,
      "Ġmor": 5898,
      "Ġmus": 5899,
      "Ġmention": 5900,
      "Ġmilk": 5901,
      "onic": 5902,
      "onment": 5903,
      "onnect": 5904,
      "Ġcit": 5905,
      "Ġcher": 5906,
      "Ġcol": 5907,
      "Ġcertain": 5908,
      "..:-": 5909,
      "Ġib": 5910,
      "Ġiz": 5911,
      "Ġiouri": 5912,
      "lled": 5913,
      "Ġyay": 5914,
      "Ġyell": 5915,
      "Ġtog": 5916,
      "Ġtok": 5917,
      "ĠIL": 5918,
      "ĠImm": 5919,
      "ĠIND": 5920,
      "ĠIzzit": 5921,
      "Ġble": 5922,
      "Ġbright": 5923,
      "Ġbuz": 5924,
      "Ġborn": 5925,
      "Ġbread": 5926,
      "Ġbishan": 5927,
      "oring": 5928,
      "orter": 5929,
      "orrible": 5930,
      "Ġdh": 5931,
      "Ġdent": 5932,
      "Ġdea": 5933,
      "Ġdare": 5934,
      "Ġdiv": 5935,
      "Ġdign": 5936,
      "Ġdsn": 5937,
      "ero": 5938,
      "eric": 5939,
      "Ġfre": 5940,
      "Ġfake": 5941,
      "Ġfab": 5942,
      "Ġful": 5943,
      "Ġfag": 5944,
      "Ġfli": 5945,
      "Ġfave": 5946,
      "Ġfath": 5947,
      "Ġfrying": 5948,
      "Ġlow": 5949,
      "Ġlen": 5950,
      "Ġlid": 5951,
      "Ġlous": 5952,
      "Ġlang": 5953,
      "Ġlines": 5954,
      "Ġlacs": 5955,
      "Ġlounge": 5956,
      "Ġloud": 5957,
      "Ġnd": 5958,
      "Ġnon": 5959,
      "Ġnor": 5960,
      "Ġnan": 5961,
      "Ġnig": 5962,
      "Ġnap": 5963,
      "Ġnak": 5964,
      "Ġnames": 5965,
      "Ġgp": 5966,
      "Ġgaut": 5967,
      "Ġgorge": 5968,
      "Ġgoogle": 5969,
      "Ġpc": 5970,
      "Ġpg": 5971,
      "Ġpin": 5972,
      "Ġpen": 5973,
      "Ġpun": 5974,
      "Ġport": 5975,
      "Ġpence": 5976,
      "Ġpopped": 5977,
      "Ġuk": 5978,
      "anish": 5979,
      "anna": 5980,
      "anjith": 5981,
      "vest": 5982,
      "oms": 5983,
      "omes": 5984,
      "omach": 5985,
      "omps": 5986,
      "ese": 5987,
      "esh": 5988,
      "ats": 5989,
      "atch": 5990,
      "oween": 5991,
      "etey": 5992,
      "etunde": 5993,
      "etBabe": 5994,
      "ayee": 5995,
      "arrow": 5996,
      "arWars": 5997,
      "ĠTom": 5998,
      "ĠTop": 5999,
      "ĠTess": 6000,
      "ĠTear": 6001,
      "ĠTIT": 6002,
      "ĠTRY": 6003,
      "ĠTAKE": 6004,
      "ĠTitles": 6005,
      "ĠTOMOR": 6006,
      "itch": 6007,
      "itive": 6008,
      "ĠSI": 6009,
      "ĠSa": 6010,
      "ĠSar": 6011,
      "ĠSep": 6012,
      "ĠSAT": 6013,
      "ĠSIT": 6014,
      "ĠSAM": 6015,
      "ĠSave": 6016,
      "ĠSug": 6017,
      "ĠSister": 6018,
      "ĠSym": 6019,
      "ĠSummer": 6020,
      "ĠSwthe": 6021,
      "still": 6022,
      "stood": 6023,
      "stomps": 6024,
      "eds": 6025,
      "eng": 6026,
      "enger": 6027,
      "ency": 6028,
      "Ġore": 6029,
      "Ġola": 6030,
      "ota": 6031,
      "othas": 6032,
      "...\"": 6033,
      "ĠHm": 6034,
      "ĠHo": 6035,
      "ĠHall": 6036,
      "ĠHas": 6037,
      "ĠHard": 6038,
      "ĠHIM": 6039,
      "ĠHEL": 6040,
      "ĠHARD": 6041,
      "ĠHorrible": 6042,
      "Ġhar": 6043,
      "lebe": 6044,
      "leph": 6045,
      "leys": 6046,
      "Ġinnings": 6047,
      "ĠWa": 6048,
      "ĠWn": 6049,
      "ĠWAY": 6050,
      "ĠWKE": 6051,
      "ĠWEN": 6052,
      "ĠWENT": 6053,
      "ison": 6054,
      "Ġhoo": 6055,
      "Ġhund": 6056,
      "Ġmel": 6057,
      "Ġmemor": 6058,
      "Ġmeasure": 6059,
      "ĠCha": 6060,
      "ĠCra": 6061,
      "ĠCase": 6062,
      "ĠCup": 6063,
      "ĠCity": 6064,
      "ĠCARD": 6065,
      "ĠChildren": 6066,
      "ĠAg": 6067,
      "ĠAVE": 6068,
      "ĠAah": 6069,
      "ĠALE": 6070,
      "ĠAUCTION": 6071,
      "ĠAFTER": 6072,
      "ĠAWAITING": 6073,
      "ĠAvailable": 6074,
      "Ġonwards": 6075,
      "Ġela": 6076,
      "Ġelect": 6077,
      "Ġeerie": 6078,
      "asp": 6079,
      "asam": 6080,
      "Ġrechar": 6081,
      "Ġrealy": 6082,
      "ĠYO": 6083,
      "ĠYay": 6084,
      "icy": 6085,
      "icut": 6086,
      "icine": 6087,
      "icult": 6088,
      "Ġ220": 6089,
      "Ġthm": 6090,
      "Ġths": 6091,
      "keys": 6092,
      "ĠNur": 6093,
      "ĠNear": 6094,
      "ĠNorm": 6095,
      "ĠNIC": 6096,
      "ĠNITE": 6097,
      "ĠNigeria": 6098,
      "ĠNvm": 6099,
      "ĠNUMBER": 6100,
      "009": 6101,
      "ĠMet": 6102,
      "ĠMar": 6103,
      "ĠMac": 6104,
      "ĠMight": 6105,
      "ĠMur": 6106,
      "ĠMost": 6107,
      "ĠMATE": 6108,
      "ĠMusic": 6109,
      "ĠMUST": 6110,
      "ĠMORE": 6111,
      "ĠMAD": 6112,
      "ĠMuch": 6113,
      "ĠMaintain": 6114,
      "Ġoften": 6115,
      "alous": 6116,
      "Ġbein": 6117,
      "Ġbecoz": 6118,
      "Ġbegin": 6119,
      "Ġbehind": 6120,
      "Ġbehave": 6121,
      "Ġbeyond": 6122,
      "Ġ114": 6123,
      "Ġ1500": 6124,
      "Ġ1450": 6125,
      "ooh": 6126,
      "ools": 6127,
      "ĠDa": 6128,
      "ĠDes": 6129,
      "ĠDet": 6130,
      "ĠDie": 6131,
      "ĠDIS": 6132,
      "ĠDraw": 6133,
      "ĠDRE": 6134,
      "ĠDave": 6135,
      "ĠDey": 6136,
      "ĠDai": 6137,
      "ĠDisc": 6138,
      "ĠDictionary": 6139,
      "utter": 6140,
      "utive": 6141,
      "ĠUp": 6142,
      "ĠUnder": 6143,
      "acy": 6144,
      "acing": 6145,
      "acking": 6146,
      "ĠBoo": 6147,
      "ĠBel": 6148,
      "ĠBra": 6149,
      "ĠBON": 6150,
      "ĠBIT": 6151,
      "ĠBew": 6152,
      "ĠBAN": 6153,
      "ĠBlo": 6154,
      "ĠBED": 6155,
      "ĠBored": 6156,
      "ĠBstfrnd": 6157,
      "ĠBusy": 6158,
      "ĠBMW": 6159,
      "ille": 6160,
      "illGame": 6161,
      "rix": 6162,
      "rivia": 6163,
      "ima": 6164,
      "imal": 6165,
      "imme": 6166,
      "ĠOic": 6167,
      "ĠOUR": 6168,
      "ĠOkey": 6169,
      "Ġhen": 6170,
      "Ġhesit": 6171,
      "Ġstuck": 6172,
      "Ġstamps": 6173,
      "Ġstomach": 6174,
      "ĠPer": 6175,
      "ĠPart": 6176,
      "ĠPass": 6177,
      "ĠPoin": 6178,
      "ĠPLE": 6179,
      "ĠPock": 6180,
      "ĠPleas": 6181,
      "ĠPERS": 6182,
      "ĠPORN": 6183,
      "ĠPIX": 6184,
      "ĠPsy": 6185,
      "ĠPtbo": 6186,
      "enter": 6187,
      "amb": 6188,
      "amond": 6189,
      "ĠGn": 6190,
      "ĠGam": 6191,
      "ĠGary": 6192,
      "ĠGIVE": 6193,
      "ĠGerm": 6194,
      "Ġseat": 6195,
      "Ġseven": 6196,
      "Ġseemed": 6197,
      "Ġron": 6198,
      "Ġrob": 6199,
      "Ġrub": 6200,
      "Ġrail": 6201,
      "Ġrich": 6202,
      "verpool": 6203,
      "ophy": 6204,
      "Ġcaller": 6205,
      "Ġcallback": 6206,
      "ĠFM": 6207,
      "ĠFight": 6208,
      "ĠFace": 6209,
      "ĠFLOWER": 6210,
      "Ġking": 6211,
      "Ġjan": 6212,
      "Ġjst": 6213,
      "Ġjesus": 6214,
      "Ġjourney": 6215,
      "Ġ06": 6216,
      "Ġ09": 6217,
      "Ġ0122": 6218,
      "Ġdob": 6219,
      "Ġdoors": 6220,
      "Ġlie": 6221,
      "Ġliving": 6222,
      "Ġlikes": 6223,
      "Ġlifet": 6224,
      "ĠLA": 6225,
      "ĠLE": 6226,
      "ĠLe": 6227,
      "ĠLif": 6228,
      "ĠLive": 6229,
      "ĠLong": 6230,
      "ĠLET": 6231,
      "ĠLacs": 6232,
      "ĠLAST": 6233,
      "ĠLONG": 6234,
      "ĠLvble": 6235,
      "sey": 6236,
      "chin": 6237,
      "chless": 6238,
      "Ġ450": 6239,
      "Ġ434": 6240,
      "Ġneg": 6241,
      "Ġatm": 6242,
      "50406": 6243,
      "ltd": 6244,
      "Ġsol": 6245,
      "pperm": 6246,
      "unam": 6247,
      "ungu": 6248,
      "antly": 6249,
      "Ġtelp": 6250,
      "Ġtemp": 6251,
      "Ġteasing": 6252,
      "essSubscription": 6253,
      "irts": 6254,
      "irty": 6255,
      "Ġfring": 6256,
      "Ġfront": 6257,
      "ila": 6258,
      "nted": 6259,
      "Ġshot": 6260,
      "Ġshut": 6261,
      "Ġshorter": 6262,
      "Ġshirts": 6263,
      "Ġ86": 6264,
      "Ġ840": 6265,
      "Ġ816": 6266,
      "Ġ895": 6267,
      "Ġ886": 6268,
      "Ġ8130": 6269,
      "ĠRT": 6270,
      "ĠRed": 6271,
      "ĠRate": 6272,
      "ĠRain": 6273,
      "ĠRog": 6274,
      "ĠRental": 6275,
      "ĠRanjith": 6276,
      "Ġoutstand": 6277,
      "hanks": 6278,
      "ours": 6279,
      "Ġknowing": 6280,
      "Ġalive": 6281,
      "Ġalco": 6282,
      "Ġalert": 6283,
      "Ġalbum": 6284,
      "abes": 6285,
      "ables": 6286,
      "ĠJer": 6287,
      "ĠJUS": 6288,
      "ĠJokes": 6289,
      "ĠJstfrnd": 6290,
      "Ġprov": 6291,
      "Ġprog": 6292,
      "Ġprolly": 6293,
      "Ġproof": 6294,
      "ushes": 6295,
      ":).": 6296,
      "Ġvir": 6297,
      "Ġvava": 6298,
      "Ġvillage": 6299,
      "eling": 6300,
      "Ġanywhere": 6301,
      "Ġanythin": 6302,
      "ĠEm": 6303,
      "ĠEs": 6304,
      "ĠEy": 6305,
      "ĠEat": 6306,
      "ĠEach": 6307,
      "ĠEner": 6308,
      "iforn": 6309,
      "ified": 6310,
      "Ġallah": 6311,
      "Ġ33": 6312,
      "Ġamazing": 6313,
      "EEL": 6314,
      "EESH": 6315,
      "EERS": 6316,
      "Ġwanting": 6317,
      "ĠHai": 6318,
      "ĠHaiz": 6319,
      "ĠHell": 6320,
      "inks": 6321,
      "90500": 6322,
      "ĠItalian": 6323,
      "Ġsuite": 6324,
      "Ġsugar": 6325,
      "Ġspl": 6326,
      "Ġspare": 6327,
      "Ġspee": 6328,
      "Ġspoil": 6329,
      "Ġfees": 6330,
      "Ġfema": 6331,
      "711": 6332,
      "arer": 6333,
      "ĠKEEP": 6334,
      "odka": 6335,
      "Ġloves": 6336,
      "Ġ...*": 6337,
      "Ġbye": 6338,
      "sgiving": 6339,
      "embe": 6340,
      "Ġ090946": 6341,
      "Ġ090715124": 6342,
      "reats": 6343,
      "Ġphne": 6344,
      "ONIC": 6345,
      "ĠDoing": 6346,
      "ĠTheory": 6347,
      "Ġokie": 6348,
      "7040": 6349,
      "70150": 6350,
      "quest": 6351,
      "ield": 6352,
      "Ġarms": 6353,
      "Ġarng": 6354,
      "Ġsmokes": 6355,
      "Ġsmoking": 6356,
      "Ġ_.": 6357,
      "Ġsaucy": 6358,
      ":-.": 6359,
      "ecause": 6360,
      "ecutive": 6361,
      "Ġrepe": 6362,
      "ĠVi": 6363,
      "ĠVett": 6364,
      "ĠVIO": 6365,
      "igent": 6366,
      "Ġmajor": 6367,
      "ĠToll": 6368,
      "Ġfreezing": 6369,
      "ubby": 6370,
      "Ġcock": 6371,
      "Ġusc": 6372,
      "Ġmeetin": 6373,
      "!!!!": 6374,
      "Ġhasn": 6375,
      "few": 6376,
      "fered": 6377,
      "iah": 6378,
      "ALES": 6379,
      "Ġ699": 6380,
      "Ġ698": 6381,
      "Ġ08719180": 6382,
      "mmma": 6383,
      "Ġsheets": 6384,
      "Ġmessenger": 6385,
      "morro": 6386,
      "Ġnewest": 6387,
      "Ġexe": 6388,
      "Ġexcellent": 6389,
      "Ġexplic": 6390,
      "Ġlegs": 6391,
      "661": 6392,
      "6669": 6393,
      "Ġquiz": 6394,
      "Ġcontents": 6395,
      "OUNT": 6396,
      "lfrnd": 6397,
      "assy": 6398,
      "Ġadore": 6399,
      "Ġadvent": 6400,
      "ĠStorm": 6401,
      "ĠStarWars": 6402,
      "owners": 6403,
      "Ġdeath": 6404,
      "301": 6405,
      "Ġcompla": 6406,
      "20946": 6407,
      "upur": 6408,
      "Ġages": 6409,
      "Ġconcert": 6410,
      "Ġbros": 6411,
      "Ġbrought": 6412,
      "Ġbrilliant": 6413,
      "Ġbrothas": 6414,
      "Ġenuff": 6415,
      "ĠSTUD": 6416,
      "ĠSTUP": 6417,
      "Ġroast": 6418,
      "Ġroads": 6419,
      "Ġkeys": 6420,
      "Ġmsging": 6421,
      "Ġstops": 6422,
      "ists": 6423,
      "ructions": 6424,
      "Ġchechi": 6425,
      "ĠTxts": 6426,
      "403": 6427,
      "bell": 6428,
      "Ġcareer": 6429,
      "Ġperiod": 6430,
      "Ġsometimes": 6431,
      "801": 6432,
      "EST": 6433,
      "Ġappt": 6434,
      "Ġapparently": 6435,
      "Ġblo": 6436,
      "Ġbloo": 6437,
      "Ġblur": 6438,
      "Ġblake": 6439,
      "Ġblame": 6440,
      "getables": 6441,
      "101": 6442,
      "GET": 6443,
      "Ġdearly": 6444,
      "ĠOrder": 6445,
      "ĠGOIN": 6446,
      "Ġsentence": 6447,
      "Ġguide": 6448,
      "Ġguilt": 6449,
      "Ġcaring": 6450,
      "Ġcarry": 6451,
      "ressed": 6452,
      "882": 6453,
      "ukk": 6454,
      "Ġchrist": 6455,
      "Ġchina": 6456,
      "ASE": 6457,
      "Ġdisli": 6458,
      "Ġdispl": 6459,
      "Ġ090634": 6460,
      "Ġ0906345": 6461,
      "Ġchanges": 6462,
      "Ġgona": 6463,
      "Ġdrinking": 6464,
      "Ġdates": 6465,
      "Ġlately": 6466,
      "Ġhopefully": 6467,
      "12661": 6468,
      "izen": 6469,
      "Ġaccom": 6470,
      "ĠInf": 6471,
      "ĠIncluding": 6472,
      "Ġpeace": 6473,
      "ĠWhenevr": 6474,
      "Ġxmas": 6475,
      "avier": 6476,
      "ĠXy": 6477,
      "adeem": 6478,
      "Ġ80082": 6479,
      "Ġcollecting": 6480,
      "Ġcollected": 6481,
      "11000": 6482,
      "1170150": 6483,
      "gged": 6484,
      "percent": 6485,
      "perWKsub": 6486,
      "Ġpartic": 6487,
      "MSG": 6488,
      "Ġbusiness": 6489,
      "Ġeaten": 6490,
      "road": 6491,
      "working": 6492,
      "words": 6493,
      "Ġscr": 6494,
      "Ġscreen": 6495,
      "Ġscared": 6496,
      "Ġpayoh": 6497,
      "ĠShit": 6498,
      "ĠShop": 6499,
      "ĠShort": 6500,
      "Ġboye": 6501,
      "Ġpicture": 6502,
      "ĠAnyways": 6503,
      "ĠAnytime": 6504,
      "ĠHahaha": 6505,
      "248": 6506,
      "Ġgirlfrnd": 6507,
      "Ġprem": 6508,
      "Ġpreviously": 6509,
      "Ġprevious": 6510,
      "ĠAsk": 6511,
      "rator": 6512,
      "rated": 6513,
      "Ġ08709": 6514,
      "Ġ087024": 6515,
      "ossible": 6516,
      "Ġlinerental": 6517,
      "Ġshame": 6518,
      "Ġsathy": 6519,
      "Ġaddie": 6520,
      "Ġgroo": 6521,
      "Ġground": 6522,
      "Ġrealize": 6523,
      "Ġrealized": 6524,
      "????": 6525,
      "?????": 6526,
      "Ġbigger": 6527,
      "Ġ121": 6528,
      "Ġfinishing": 6529,
      "Ġbatch": 6530,
      "Ġbirla": 6531,
      "Ġflash": 6532,
      "Ġflower": 6533,
      "ĠSender": 6534,
      "ĠMelle": 6535,
      "ĠGudnite": 6536,
      "Ġreceived": 6537,
      "Ġ2005": 6538,
      "LET": 6539,
      "LEAVE": 6540,
      "teen": 6541,
      "teasing": 6542,
      "ĠQue": 6543,
      "onsider": 6544,
      "Ġchatting": 6545,
      "Ġlooks": 6546,
      "ĠAmazing": 6547,
      "Ġdelay": 6548,
      "Ġdiff": 6549,
      "Ġdificult": 6550,
      "3800": 6551,
      "ĠProm": 6552,
      "ĠPrabha": 6553,
      "urns": 6554,
      "UTES": 6555,
      "kkum": 6556,
      "Ġsettle": 6557,
      "Ġhurry": 6558,
      "ĠNews": 6559,
      "Ġruns": 6560,
      "Ġsupply": 6561,
      "Ġ0906120946": 6562,
      "Ġtax": 6563,
      "Ġpostcode": 6564,
      "ĠBAK": 6565,
      "RIED": 6566,
      "THIN": 6567,
      "Ġmoments": 6568,
      "ĠINFOR": 6569,
      "ĠAlready": 6570,
      "Ġavatar": 6571,
      "Ġsuntec": 6572,
      "Ġidiot": 6573,
      "elligent": 6574,
      "Ġpassionate": 6575,
      "Ġinvite": 6576,
      "Ġinvnted": 6577,
      "Ġ09066358": 6578,
      "ĠSPOOK": 6579,
      "Ġregister": 6580,
      "Ġregular": 6581,
      "Ġheadache": 6582,
      "Ġ08718730": 6583,
      "Ġ0871873800": 6584,
      "Ġelsewhere": 6585,
      "698": 6586,
      "Ġtests": 6587,
      "Ġcosts": 6588,
      "Ġvalid": 6589,
      "Ġvalue": 6590,
      "ssss": 6591,
      "Ġache": 6592,
      "Ġsimply": 6593,
      "Ġ87021": 6594,
      "prints": 6595,
      "today": 6596,
      "Ġcleared": 6597,
      "Ġwalked": 6598,
      "Ġcricket": 6599,
      "ĠIdk": 6600,
      "Ġunderstood": 6601,
      "Ġhanded": 6602,
      "ĠBehind": 6603,
      "ĠLIFE": 6604,
      "Ġquestioned": 6605,
      "Ġtakin": 6606,
      "Ġtaken": 6607,
      "Ġdiamond": 6608,
      "ĠWINNER": 6609,
      "ĠUnless": 6610,
      "ĠUnsubscribe": 6611,
      "ĠUncle": 6612,
      "Ġsubscription": 6613,
      "4280": 6614,
      "ĠAtlanta": 6615,
      "xxxxxxxxx": 6616,
      "Ġfinishes": 6617,
      "URL": 6618,
      "Ġmoon": 6619,
      "Ġmedicine": 6620,
      "Ġchain": 6621,
      "Ġchamp": 6622,
      "Ġincre": 6623,
      "Ġincident": 6624,
      "ĠChinese": 6625,
      "ĠArgument": 6626,
      "ĠAfterNoon": 6627,
      "Ġstranger": 6628,
      "Ġ08712402": 6629,
      "Ġdrinks": 6630,
      "Ġseconds": 6631,
      "989": 6632,
      "okin": 6633,
      "phine": 6634,
      "ucts": 6635,
      "Ġesplanade": 6636,
      "ĠSmiling": 6637,
      "Ġ0800093876": 6638,
      "ĠClos": 6639,
      "ĠBring": 6640,
      "ĠBrilliant": 6641,
      "Ġprompt": 6642,
      "Ġpromises": 6643,
      "Ġaftr": 6644,
      "exp": 6645,
      "frm": 6646,
      "Ġsky": 6647,
      "Ġsorting": 6648,
      "Ġcalc": 6649,
      "Ġcalicut": 6650,
      "Ġcaliforn": 6651,
      "ĠIndians": 6652,
      "Ġdistance": 6653,
      "Ġoption": 6654,
      "Ġinstantly": 6655,
      "Ġinstructions": 6656,
      "ĠDOIN": 6657,
      "ĠDOES": 6658,
      "Ġdownloads": 6659,
      "Ġconfirmed": 6660,
      "BPOLY": 6661,
      "bye": 6662,
      "Ġwedding": 6663,
      "Ġmiddle": 6664,
      "Ġmoved": 6665,
      "ĠSHOW": 6666,
      "ĠWHEN": 6667,
      "Ġevry": 6668,
      "Ġstanding": 6669,
      "Ġvijay": 6670,
      "Ġuncon": 6671,
      "Ġ090580918": 6672,
      "Ġterrible": 6673,
      "Ġbilled": 6674,
      "Ġpossession": 6675,
      "Ġparked": 6676,
      "ĠActivate": 6677,
      "ĠMsgs": 6678,
      "Ġshortage": 6679,
      "Ġ80182": 6680,
      "Ġ80878": 6681,
      "Ġvaluable": 6682,
      "Ġvegetables": 6683,
      "Ġwisdom": 6684,
      "Ġforeign": 6685,
      "ĠCHAR": 6686,
      "ĠLoan": 6687,
      "ĠLoving": 6688,
      "ĠRemind": 6689,
      "Ġtransfered": 6690,
      "Ġreturned": 6691,
      "ginte": 6692,
      "Ġfilms": 6693,
      "Ġparag": 6694,
      "ĠSUBPOLY": 6695,
      "ĠSubscri": 6696,
      "ĠYears": 6697,
      "Ġurgently": 6698,
      "Ġspending": 6699,
      "..........": 6700,
      "...........": 6701,
      "Ġimpossible": 6702,
      "UDI": 6703,
      "UDDY": 6704,
      "Ġaffairs": 6705,
      "Ġipad": 6706,
      "Ġipod": 6707,
      "Ġboost": 6708,
      "Ġbooking": 6709,
      "Ġbooks": 6710,
      "Ġfalls": 6711,
      "Ġprizes": 6712,
      "ĠCrack": 6713,
      "Ġrefused": 6714,
      "Ġrule": 6715,
      "ĠLiverpool": 6716,
      "ĠDoesn": 6717,
      "Ġ69888": 6718,
      "Ġthanksgiving": 6719,
      "Ġchildren": 6720,
      "82228": 6721,
      "CKS": 6722,
      "Ġwaheed": 6723,
      "Ġsales": 6724,
      "ĠSkilGme": 6725,
      "ĠSkillGame": 6726,
      "Ġeye": 6727,
      "ĠBEFORE": 6728,
      "Ġpraying": 6729,
      "Ġvoicemail": 6730,
      "Ġmaga": 6731,
      "Ġadvise": 6732,
      "ĠPOLYPH": 6733,
      "621170150": 6734,
      "CEPT": 6735,
      "RAND": 6736,
      "ibility": 6737,
      "tuition": 6738,
      "Ġeduc": 6739,
      "Ġcudd": 6740,
      "Ġcuddle": 6741,
      "Ġbags": 6742,
      "Ġfills": 6743,
      "Ġfightng": 6744,
      "Ġflaked": 6745,
      "Ġfootprints": 6746,
      "Ġgenerally": 6747,
      "Ġgenuine": 6748,
      "ĠTCR": 6749,
      "ĠSolve": 6750,
      "Ġindia": 6751,
      "ĠNext": 6752,
      "ĠMOB": 6753,
      "ĠMmmm": 6754,
      "ĠMmmmm": 6755,
      "ĠFinal": 6756,
      "ĠFinally": 6757,
      "ĠFinish": 6758,
      "Ġnearly": 6759,
      "Ġ82242": 6760,
      "Ġ300603": 6761,
      "Ġcommon": 6762,
      "Ġcommunity": 6763,
      "Ġquickly": 6764,
      ">>>": 6765,
      "uxury": 6766,
      "Ġceleb": 6767,
      "Ġpackage": 6768,
      "araoke": 6769,
      "ĠSweetest": 6770,
      "ĠNetwork": 6771,
      "ĠMessages": 6772,
      "ĠBecause": 6773,
      "ĠPICS": 6774,
      "ĠFIND": 6775,
      "Ġ88066": 6776,
      "Ġpractic": 6777,
      "ĠErm": 6778,
      "ĠVouchers": 6779,
      "Ġperform": 6780,
      "Ġblessings": 6781,
      "Ġregarding": 6782,
      "COMUK": 6783,
      "ilthy": 6784,
      "months": 6785,
      "Ġwalls": 6786,
      "Ġwallpaper": 6787,
      "Ġmachan": 6788,
      "Ġdresser": 6789,
      "Ġpieces": 6790,
      "ĠSimply": 6791,
      "ĠSuprman": 6792,
      "Ġinclude": 6793,
      "ĠALRITE": 6794,
      "Ġeggs": 6795,
      "Ġissue": 6796,
      "Ġrecd": 6797,
      "ĠNatal": 6798,
      "ĠMINUTES": 6799,
      "Ġsteam": 6800,
      "ĠGrahm": 6801,
      "ĠFriday": 6802,
      "ĠFUCKIN": 6803,
      "Ġsupervis": 6804,
      "Ġsports": 6805,
      "ĠStarts": 6806,
      "Ġbloody": 6807,
      "Ġroommates": 6808,
      "Ġactivate": 6809,
      "Ġ087187269": 6810,
      "3585": 6811,
      "Ġresponding": 6812,
      "Ġgentleman": 6813,
      "Ġrandomly": 6814,
      "Ġsuccessful": 6815,
      "Ġsuccessfully": 6816,
      "Winaweek": 6817,
      "Ġqatar": 6818,
      "Ġtirunel": 6819,
      "Ġtirupur": 6820,
      "Ġbottle": 6821,
      "Ġbottom": 6822,
      "ĠSomething": 6823,
      "ĠSOMEONE": 6824,
      "ĠSOMETHING": 6825,
      "ĠWRK": 6826,
      "ĠABTA": 6827,
      "ĠAftr": 6828,
      "ĠMatrix": 6829,
      "ĠMANEESH": 6830,
      "Ġformat": 6831,
      "ĠDrop": 6832,
      "rief": 6833,
      "ĠFeb": 6834,
      "ĠRaji": 6835,
      "ĠRINGTONE": 6836,
      "Ġ***********": 6837,
      "Ġremains": 6838,
      "ĠMeeting": 6839,
      "Ġ090617014": 6840,
      "Ġsubscribed": 6841,
      "08718727870": 6842,
      "Ġfavourite": 6843,
      "kias": 6844,
      "Ġtalent": 6845,
      "Ġwoman": 6846,
      "Ġsoryda": 6847,
      "Ġgarage": 6848,
      "ĠTwo": 6849,
      "ĠTONES": 6850,
      "Ġoccup": 6851,
      "ĠHoneybee": 6852,
      "Ġhanging": 6853,
      "ĠConvey": 6854,
      "ĠCutefrnd": 6855,
      "ĠACCEPT": 6856,
      "ĠAbout": 6857,
      "ĠAnother": 6858,
      "ĠYEAR": 6859,
      "ĠYEAH": 6860,
      "ĠPrepare": 6861,
      "Ġdocs": 6862,
      "ĠLaugh": 6863,
      "ĠLaughed": 6864,
      "ĠLdnW": 6865,
      "Ġsoftware": 6866,
      "Ġtechnical": 6867,
      "Ġ83222": 6868,
      "Ġ89555": 6869,
      "Ġvarious": 6870,
      "ĠHavnt": 6871,
      "Ġ087147123": 6872,
      "Ġmanagement": 6873,
      "ĠMobilesDirect": 6874,
      "Ġ08452810073": 6875,
      "partnr": 6876,
      "Ġverify": 6877,
      "Ġaunty": 6878,
      "Ġaudition": 6879,
      "Ġsnake": 6880,
      "Ġcruise": 6881,
      "Ġcustomers": 6882,
      "Ġideas": 6883,
      "Ġboat": 6884,
      "Ġfailed": 6885,
      "ĠShijas": 6886,
      "ĠHomeowners": 6887,
      "ĠHUNNY": 6888,
      "ĠCARE": 6889,
      "ĠCLAIM": 6890,
      "Ġrecogn": 6891,
      "ĠMinnam": 6892,
      "ĠDRAW": 6893,
      "ĠPARIS": 6894,
      "Ġjuicy": 6895,
      "ĠLeave": 6896,
      "Ġloyalty": 6897,
      "Ġshipping": 6898,
      "ĠRECEIVE": 6899,
      "ĠEVERY": 6900,
      "fficient": 6901,
      "ĠThursday": 6902,
      "Ġ087178980": 6903,
      "Ġexhausted": 6904,
      "Ġconstantly": 6905,
      "ĠTHANX": 6906,
      "1259": 6907,
      "Ġsatisfied": 6908,
      "Ġ09061790121": 6909,
      "Ġapologise": 6910,
      "ĠDeliveredTomorrow": 6911,
      "Ġresponce": 6912,
      "ighbour": 6913,
      "Ġdespar": 6914,
      "Ġ087187262701": 6915,
      "ĠIBHltd": 6916,
      "4235": 6917,
      "Margaret": 6918,
      "messages": 6919,
      "understand": 6920,
      "Ġtablets": 6921,
      "Ġwalmart": 6922,
      "Ġsource": 6923,
      "Ġmacho": 6924,
      "Ġbanks": 6925,
      "Ġblah": 6926,
      "Ġdubsack": 6927,
      "Ġfifteen": 6928,
      "Ġfloor": 6929,
      "Ġfancies": 6930,
      "Ġpotential": 6931,
      "Ġpending": 6932,
      "ĠSingle": 6933,
      "ĠWANNA": 6934,
      "Ġhusband": 6935,
      "ĠContent": 6936,
      "Ġreboot": 6937,
      "ĠMonday": 6938,
      "ĠMORAL": 6939,
      "Ġ1956669": 6940,
      "ĠUmmmmma": 6941,
      "ĠBBD": 6942,
      "ĠPARTY": 6943,
      "Ġ45239": 6944,
      "Ġloses": 6945,
      "Ġshouted": 6946,
      "Ġupgrade": 6947,
      "Ġ84128": 6948,
      "Ġprospects": 6949,
      "ĠENTER": 6950,
      "Ġphilosophy": 6951,
      "Ġ08719899": 6952,
      "Ġdevelop": 6953,
      "Ġaccordingly": 6954,
      "Ġswimming": 6955,
      "Ġ09066612661": 6956,
      "Ġchallenge": 6957,
      "Ġ09066362231": 6958,
      "Ġdepends": 6959,
      "Ġprivate": 6960,
      "Ġslippers": 6961,
      "087147403231": 6962,
      "minMobsmoreLKPOBOX": 6963,
      "08700": 6964,
      "FRIEND": 6965,
      "Gardener": 6966,
      "Melle": 6967,
      "Neighbour": 6968,
      "aurant": 6969,
      "pouts": 6970,
      "vironment": 6971,
      "Ġtaylor": 6972,
      "Ġtouched": 6973,
      "inunginte": 6974,
      "Ġsachin": 6975,
      "Ġmorphine": 6976,
      "Ġcitizen": 6977,
      "Ġcertainly": 6978,
      "ĠImmediately": 6979,
      "Ġbuzy": 6980,
      "Ġdearer": 6981,
      "Ġdignity": 6982,
      "erican": 6983,
      "Ġfathima": 6984,
      "Ġlido": 6985,
      "Ġlousy": 6986,
      "Ġnaked": 6987,
      "Ġgautham": 6988,
      "Ġgorgeous": 6989,
      "ĠTessy": 6990,
      "ĠTITLE": 6991,
      "ĠSept": 6992,
      "ĠSITUATION": 6993,
      "ĠSwtheart": 6994,
      "ĠHalloween": 6995,
      "ĠHELP": 6996,
      "Ġhundred": 6997,
      "ĠNurungu": 6998,
      "ĠMurdered": 6999,
      "ĠBelovd": 7000,
      "ĠBONUS": 7001,
      "ĠBeware": 7002,
      "ĠPoints": 7003,
      "ĠPocketBabe": 7004,
      "ĠPleasure": 7005,
      "ĠPERSON": 7006,
      "ĠGermany": 7007,
      "Ġrailway": 7008,
      "ĠFighting": 7009,
      "Ġ01223585": 7010,
      "Ġlifetime": 7011,
      "ĠLifpartnr": 7012,
      "ĠLvblefrnd": 7013,
      "ppermessSubscription": 7014,
      "Ġtelphone": 7015,
      "Ġ84025": 7016,
      "Ġ81618": 7017,
      "Ġ89545": 7018,
      "Ġ88600": 7019,
      "Ġ81303": 7020,
      "ĠRoger": 7021,
      "Ġoutstanding": 7022,
      "Ġalcohol": 7023,
      "ĠEnergy": 7024,
      "9050000": 7025,
      "Ġspeechless": 7026,
      "Ġfemale": 7027,
      "embered": 7028,
      "704050406": 7029,
      "ĠVettam": 7030,
      "Ġexplicit": 7031,
      "ĠStorming": 7032,
      "ĠSTUPID": 7033,
      "Ġguilty": 7034,
      "Ġdislikes": 7035,
      "Ġdisplay": 7036,
      "Ġ09063458130": 7037,
      "Ġ09061209465": 7038,
      "ĠINFORM": 7039,
      "Ġ08000938767": 7040,
      "Ġcalifornia": 7041,
      "ĠPOLYPHONIC": 7042,
      "ĠGrahmbell": 7043,
      "Ġsupervisor": 7044,
      "ĠMANEESHA": 7045,
      "ĠMinnaminunginte": 7046,
      "Ġ08717898035": 7047,
      "ĠUmmmmmaah": 7048,
      "!)": 7049,
      "!\\\"\"": 7050,
      "+-": 7051,
      "-(": 7052,
      "035": 7053,
      "0778": 7054,
      "01327": 7055,
      "09050000": 7056,
      "17": 7057,
      "120": 7058,
      "140": 7059,
      "1182": 7060,
      "1808": 7061,
      "2000": 7062,
      "280": 7063,
      "288": 7064,
      "212": 7065,
      "215": 7066,
      "37": 7067,
      "318": 7068,
      "338": 7069,
      "326": 7070,
      "400": 7071,
      "4000": 7072,
      "445": 7073,
      "412": 7074,
      "426": 7075,
      "435": 7076,
      "54": 7077,
      "578": 7078,
      "533": 7079,
      "64": 7080,
      "624": 7081,
      "678": 7082,
      "674": 7083,
      "6009": 7084,
      "740": 7085,
      "744": 7086,
      "795": 7087,
      "762": 7088,
      "810": 7089,
      "899": 7090,
      "835": 7091,
      "833": 7092,
      "819": 7093,
      "82050": 7094,
      "81151": 7095,
      "8704050406": 7096,
      "93": 7097,
      "AZ": 7098,
      "At": 7099,
      "And": 7100,
      "App": 7101,
      "Ala": 7102,
      "Acom": 7103,
      "AND": 7104,
      "AUS": 7105,
      "AUT": 7106,
      "AID": 7107,
      "ACH": 7108,
      "AVAL": 7109,
      "BO": 7110,
      "Boo": 7111,
      "But": 7112,
      "Best": 7113,
      "Buy": 7114,
      "Book": 7115,
      "BUT": 7116,
      "Bank": 7117,
      "BEL": 7118,
      "Biola": 7119,
      "Because": 7120,
      "BUDDY": 7121,
      "CA": 7122,
      "CR": 7123,
      "CT": 7124,
      "CU": 7125,
      "Cl": 7126,
      "Can": 7127,
      "Com": 7128,
      "Cir": 7129,
      "CED": 7130,
      "Ctxt": 7131,
      "CARD": 7132,
      "CCL": 7133,
      "CIST": 7134,
      "COUNT": 7135,
      "DA": 7136,
      "DO": 7137,
      "DX": 7138,
      "Do": 7139,
      "Dis": 7140,
      "Dont": 7141,
      "Date": 7142,
      "DAMS": 7143,
      "EH": 7144,
      "Es": 7145,
      "Ex": 7146,
      "End": 7147,
      "Ent": 7148,
      "EGE": 7149,
      "EMS": 7150,
      "Enjoy": 7151,
      "EAD": 7152,
      "FF": 7153,
      "FOUND": 7154,
      "Frm": 7155,
      "GO": 7156,
      "Good": 7157,
      "GIN": 7158,
      "Greet": 7159,
      "GUD": 7160,
      "HB": 7161,
      "HO": 7162,
      "How": 7163,
      "Hope": 7164,
      "HAM": 7165,
      "HERE": 7166,
      "HOL": 7167,
      "HOPE": 7168,
      "Haha": 7169,
      "HAVE": 7170,
      "IZ": 7171,
      "ILE": 7172,
      "IRE": 7173,
      "IEL": 7174,
      "Idew": 7175,
      "JUST": 7176,
      "JOY": 7177,
      "KI": 7178,
      "KS": 7179,
      "KED": 7180,
      "KUDI": 7181,
      "LS": 7182,
      "LOT": 7183,
      "MT": 7184,
      "Ma": 7185,
      "Mu": 7186,
      "My": 7187,
      "Mess": 7188,
      "More": 7189,
      "MIN": 7190,
      "MAR": 7191,
      "MED": 7192,
      "MOB": 7193,
      "NG": 7194,
      "Name": 7195,
      "NED": 7196,
      "NOT": 7197,
      "Number": 7198,
      "OE": 7199,
      "Oh": 7200,
      "On": 7201,
      "Or": 7202,
      "Opt": 7203,
      "OKE": 7204,
      "PS": 7205,
      "Pr": 7206,
      "Pls": 7207,
      "POWER": 7208,
      "RR": 7209,
      "Reply": 7210,
      "RINK": 7211,
      "Sg": 7212,
      "So": 7213,
      "Sp": 7214,
      "Sup": 7215,
      "SIM": 7216,
      "Sweet": 7217,
      "SIVE": 7218,
      "TD": 7219,
      "TG": 7220,
      "TY": 7221,
      "Ts": 7222,
      "That": 7223,
      "TIN": 7224,
      "TXT": 7225,
      "TAKE": 7226,
      "TALK": 7227,
      "Text": 7228,
      "Thanks": 7229,
      "UG": 7230,
      "UJ": 7231,
      "Unt": 7232,
      "UED": 7233,
      "UITE": 7234,
      "Va": 7235,
      "WA": 7236,
      "WE": 7237,
      "Win": 7238,
      "Wen": 7239,
      "WAY": 7240,
      "WIL": 7241,
      "XE": 7242,
      "XN": 7243,
      "YA": 7244,
      "YF": 7245,
      "Your": 7246,
      "YAR": 7247,
      "YEH": 7248,
      "ahat": 7249,
      "aith": 7250,
      "aus": 7251,
      "aud": 7252,
      "aie": 7253,
      "bin": 7254,
      "bha": 7255,
      "bat": 7256,
      "bay": 7257,
      "bit": 7258,
      "bel": 7259,
      "bud": 7260,
      "bage": 7261,
      "buk": 7262,
      "break": 7263,
      "con": 7264,
      "cing": 7265,
      "can": 7266,
      "core": 7267,
      "could": 7268,
      "cred": 7269,
      "congrat": 7270,
      "colour": 7271,
      "castic": 7272,
      "dc": 7273,
      "di": 7274,
      "dge": 7275,
      "del": 7276,
      "dress": 7277,
      "dden": 7278,
      "dison": 7279,
      "dbuk": 7280,
      "eg": 7281,
      "eh": 7282,
      "eone": 7283,
      "ello": 7284,
      "fc": 7285,
      "for": 7286,
      "fore": 7287,
      "fine": 7288,
      "fice": 7289,
      "fie": 7290,
      "friend": 7291,
      "ford": 7292,
      "fidence": 7293,
      "gor": 7294,
      "gan": 7295,
      "gard": 7296,
      "gks": 7297,
      "games": 7298,
      "gds": 7299,
      "hon": 7300,
      "hth": 7301,
      "hod": 7302,
      "hmm": 7303,
      "hough": 7304,
      "htu": 7305,
      "hley": 7306,
      "hja": 7307,
      "ior": 7308,
      "iing": 7309,
      "ike": 7310,
      "iri": 7311,
      "iking": 7312,
      "iary": 7313,
      "iated": 7314,
      "ju": 7315,
      "jst": 7316,
      "jits": 7317,
      "kn": 7318,
      "kin": 7319,
      "ker": 7320,
      "kara": 7321,
      "lk": 7322,
      "lace": 7323,
      "lane": 7324,
      "lSup": 7325,
      "mat": 7326,
      "mill": 7327,
      "mate": 7328,
      "mod": 7329,
      "mpt": 7330,
      "mark": 7331,
      "mates": 7332,
      "mirer": 7333,
      "mnth": 7334,
      "ni": 7335,
      "nu": 7336,
      "non": 7337,
      "nec": 7338,
      "nna": 7339,
      "nup": 7340,
      "norm": 7341,
      "need": 7342,
      "nss": 7343,
      "off": 7344,
      "oices": 7345,
      "ofl": 7346,
      "oley": 7347,
      "oanna": 7348,
      "pH": 7349,
      "pa": 7350,
      "pw": 7351,
      "pre": 7352,
      "pon": 7353,
      "ping": 7354,
      "pes": 7355,
      "pri": 7356,
      "pun": 7357,
      "pers": 7358,
      "pod": 7359,
      "please": 7360,
      "rc": 7361,
      "ram": 7362,
      "ront": 7363,
      "rish": 7364,
      "rcv": 7365,
      "rict": 7366,
      "rrit": 7367,
      "rAcom": 7368,
      "sm": 7369,
      "son": 7370,
      "ser": 7371,
      "sed": 7372,
      "sut": 7373,
      "shi": 7374,
      "somet": 7375,
      "slp": 7376,
      "slet": 7377,
      "sEMS": 7378,
      "tow": 7379,
      "tic": 7380,
      "tms": 7381,
      "tomorrow": 7382,
      "tilla": 7383,
      "ued": 7384,
      "uly": 7385,
      "uage": 7386,
      "uls": 7387,
      "ucc": 7388,
      "ugs": 7389,
      "uches": 7390,
      "vad": 7391,
      "vous": 7392,
      "voice": 7393,
      "vision": 7394,
      "ville": 7395,
      "viking": 7396,
      "ws": 7397,
      "wy": 7398,
      "want": 7399,
      "wood": 7400,
      "wear": 7401,
      "wive": 7402,
      "wick": 7403,
      "wait": 7404,
      "wave": 7405,
      "water": 7406,
      "wrc": 7407,
      "xX": 7408,
      "xst": 7409,
      "xahat": 7410,
      "yan": 7411,
      "your": 7412,
      "yde": 7413,
      "ziest": 7414,
      "zhth": 7415,
      "Ġing": 7416,
      "Ġxxxx": 7417,
      "Ġtc": 7418,
      "Ġtall": 7419,
      "Ġtac": 7420,
      "Ġtact": 7421,
      "Ġtag": 7422,
      "Ġtap": 7423,
      "Ġtank": 7424,
      "Ġtip": 7425,
      "Ġtyp": 7426,
      "Ġtaste": 7427,
      "Ġttyl": 7428,
      "Ġtlk": 7429,
      "Ġaer": 7430,
      "Ġapt": 7431,
      "Ġavent": 7432,
      "into": 7433,
      "Ġwes": 7434,
      "Ġwth": 7435,
      "Ġwate": 7436,
      "Ġwks": 7437,
      "Ġwast": 7438,
      "Ġwren": 7439,
      "Ġwah": 7440,
      "Ġwoot": 7441,
      "Ġwip": 7442,
      "Ġwoken": 7443,
      "Ġwtf": 7444,
      "Ġwml": 7445,
      "Ġwylie": 7446,
      "Ġwuld": 7447,
      "Ġsd": 7448,
      "Ġsac": 7449,
      "Ġsake": 7450,
      "Ġshan": 7451,
      "Ġsack": 7452,
      "Ġsco": 7453,
      "Ġsno": 7454,
      "Ġsrs": 7455,
      "Ġsix": 7456,
      "Ġsigh": 7457,
      "Ġsize": 7458,
      "Ġsoup": 7459,
      "hex": 7460,
      "hest": 7461,
      "hemat": 7462,
      "hews": 7463,
      "rep": 7464,
      "rees": 7465,
      "Ġmb": 7466,
      "Ġmi": 7467,
      "Ġmj": 7468,
      "Ġmp": 7469,
      "Ġmes": 7470,
      "Ġmot": 7471,
      "Ġmall": 7472,
      "Ġmut": 7473,
      "Ġmill": 7474,
      "Ġmone": 7475,
      "Ġmite": 7476,
      "Ġmain": 7477,
      "Ġmits": 7478,
      "Ġmiles": 7479,
      "Ġmotorola": 7480,
      "Ġmouth": 7481,
      "Ġmsn": 7482,
      "Ġmca": 7483,
      "Ġmental": 7484,
      "onw": 7485,
      "oning": 7486,
      "onaut": 7487,
      "Ġcc": 7488,
      "Ġcy": 7489,
      "Ġcst": 7490,
      "Ġcld": 7491,
      "Ġcough": 7492,
      "Ġcous": 7493,
      "Ġcity": 7494,
      "Ġchip": 7495,
      "Ġcme": 7496,
      "Ġcave": 7497,
      "Ġcaught": 7498,
      "Ġcuri": 7499,
      "..\\\"\"": 7500,
      "Ġym": 7501,
      "Ġyun": 7502,
      "Ġyep": 7503,
      "Ġyck": 7504,
      "Ġyummy": 7505,
      "Ġtoa": 7506,
      "Ġtoot": 7507,
      "Ġtooo": 7508,
      "Ġtomorro": 7509,
      "Ġtoshi": 7510,
      "ĠIK": 7511,
      "ĠIc": 7512,
      "ĠInt": 7513,
      "ĠIAS": 7514,
      "ĠILL": 7515,
      "ĠIKE": 7516,
      "ĠIrrit": 7517,
      "hay": 7518,
      "hand": 7519,
      "hant": 7520,
      "hala": 7521,
      "happy": 7522,
      "haya": 7523,
      "haps": 7524,
      "haved": 7525,
      "Ġball": 7526,
      "Ġbree": 7527,
      "Ġbite": 7528,
      "Ġbase": 7529,
      "Ġband": 7530,
      "Ġbul": 7531,
      "Ġbang": 7532,
      "Ġbonus": 7533,
      "Ġborrow": 7534,
      "Ġbsn": 7535,
      "Ġbrea": 7536,
      "orce": 7537,
      "ords": 7538,
      "orrect": 7539,
      "orating": 7540,
      "Ġdt": 7541,
      "Ġdu": 7542,
      "Ġdime": 7543,
      "Ġdest": 7544,
      "Ġdud": 7545,
      "Ġdick": 7546,
      "Ġdig": 7547,
      "Ġdough": 7548,
      "Ġdial": 7549,
      "Ġdorm": 7550,
      "Ġdance": 7551,
      "Ġdirt": 7552,
      "Ġdurb": 7553,
      "Ġdanger": 7554,
      "Ġyoure": 7555,
      "Ġyoung": 7556,
      "erg": 7557,
      "ering": 7558,
      "eries": 7559,
      "erable": 7560,
      "ermin": 7561,
      "ercial": 7562,
      "eronaut": 7563,
      "Ġfo": 7564,
      "Ġfan": 7565,
      "Ġfow": 7566,
      "Ġfit": 7567,
      "Ġfle": 7568,
      "Ġfal": 7569,
      "Ġfond": 7570,
      "Ġfurn": 7571,
      "Ġfret": 7572,
      "Ġfund": 7573,
      "Ġfair": 7574,
      "Ġfield": 7575,
      "Ġfilthy": 7576,
      "Ġfgks": 7577,
      "Ġlt": 7578,
      "Ġlv": 7579,
      "Ġlin": 7580,
      "Ġling": 7581,
      "Ġltt": 7582,
      "Ġlower": 7583,
      "Ġlays": 7584,
      "Ġlane": 7585,
      "Ġlucozade": 7586,
      "Ġlamb": 7587,
      "Ġluxury": 7588,
      "Ġnb": 7589,
      "Ġnu": 7590,
      "Ġned": 7591,
      "Ġnut": 7592,
      "Ġnus": 7593,
      "Ġnort": 7594,
      "Ġnast": 7595,
      "Ġnav": 7596,
      "Ġnoun": 7597,
      "Ġnurs": 7598,
      "Ġnvm": 7599,
      "Ġnamed": 7600,
      "Ġgf": 7601,
      "Ġgv": 7602,
      "Ġgain": 7603,
      "Ġgig": 7604,
      "Ġgving": 7605,
      "Ġgast": 7606,
      "Ġgist": 7607,
      "Ġgiv": 7608,
      "Ġgang": 7609,
      "Ġgarden": 7610,
      "ndy": 7611,
      "ndrst": 7612,
      "Ġpim": 7613,
      "Ġpol": 7614,
      "Ġpool": 7615,
      "Ġpeak": 7616,
      "Ġparent": 7617,
      "Ġpouch": 7618,
      "Ġpuzz": 7619,
      "Ġpush": 7620,
      "Ġpours": 7621,
      "Ġthesis": 7622,
      "Ġure": 7623,
      "Ġultim": 7624,
      "Ġutter": 7625,
      "Ġundrst": 7626,
      "anite": 7627,
      "anag": 7628,
      "anuman": 7629,
      "ato": 7630,
      "athe": 7631,
      "atic": 7632,
      "atum": 7633,
      "atus": 7634,
      "atient": 7635,
      "athaya": 7636,
      "ethe": 7637,
      "etrol": 7638,
      "aya": 7639,
      "ayin": 7640,
      "aying": 7641,
      "ayut": 7642,
      "ayse": 7643,
      "ayment": 7644,
      "arm": 7645,
      "arter": 7646,
      "arish": 7647,
      "arner": 7648,
      "argg": 7649,
      "arfull": 7650,
      "ĠTot": 7651,
      "ĠTis": 7652,
      "ĠTee": 7653,
      "ĠTak": 7654,
      "ĠTOP": 7655,
      "ĠTOT": 7656,
      "ĠTouch": 7657,
      "ĠTUL": 7658,
      "ĠTension": 7659,
      "ĠTWIL": 7660,
      "itt": 7661,
      "itis": 7662,
      "itic": 7663,
      "itting": 7664,
      "iture": 7665,
      "itude": 7666,
      "itina": 7667,
      "ĠSC": 7668,
      "ĠSac": 7669,
      "ĠSch": 7670,
      "ĠSear": 7671,
      "ĠSqu": 7672,
      "ĠSAY": 7673,
      "ĠScor": 7674,
      "ĠSuite": 7675,
      "ĠSEND": 7676,
      "ĠSAME": 7677,
      "ĠScare": 7678,
      "ĠSIX": 7679,
      "ĠSale": 7680,
      "ĠSlow": 7681,
      "ĠSinco": 7682,
      "ĠSAID": 7683,
      "ĠSitting": 7684,
      "str": 7685,
      "stone": 7686,
      "stery": 7687,
      "stairs": 7688,
      "stini": 7689,
      "edu": 7690,
      "edom": 7691,
      "edia": 7692,
      "edinto": 7693,
      "enal": 7694,
      "enry": 7695,
      "environment": 7696,
      "Ġos": 7697,
      "Ġoz": 7698,
      "Ġoil": 7699,
      "Ġots": 7700,
      "Ġodi": 7701,
      "otic": 7702,
      "otch": 7703,
      "otion": 7704,
      "otter": 7705,
      "otect": 7706,
      "othi": 7707,
      "othes": 7708,
      "otland": 7709,
      "...,": 7710,
      "...!!": 7711,
      "...!!!": 7712,
      "ĠHol": 7713,
      "ĠHER": 7714,
      "ĠHOR": 7715,
      "ĠHAR": 7716,
      "ĠHIT": 7717,
      "ĠHlp": 7718,
      "ĠHIS": 7719,
      "ĠHog": 7720,
      "ĠHang": 7721,
      "ĠHospital": 7722,
      "ĠHOL": 7723,
      "ĠHalla": 7724,
      "ĠHols": 7725,
      "ĠHOUS": 7726,
      "ĠHarry": 7727,
      "ĠHero": 7728,
      "ĠHrish": 7729,
      "ĠHugs": 7730,
      "Ġhall": 7731,
      "Ġinch": 7732,
      "Ġinvest": 7733,
      "ĠWon": 7734,
      "ĠWil": 7735,
      "ĠWood": 7736,
      "ĠWest": 7737,
      "ĠWick": 7738,
      "ĠWOU": 7739,
      "ĠWOM": 7740,
      "ĠWIF": 7741,
      "ĠWAITING": 7742,
      "ĠWISH": 7743,
      "ĠWALES": 7744,
      "isk": 7745,
      "isation": 7746,
      "isions": 7747,
      "Ġhid": 7748,
      "Ġhpp": 7749,
      "Ġhum": 7750,
      "Ġhist": 7751,
      "Ġhint": 7752,
      "Ġhols": 7753,
      "Ġhmmm": 7754,
      "Ġhubby": 7755,
      "alli": 7756,
      "Ġmei": 7757,
      "Ġmeow": 7758,
      "Ġmelt": 7759,
      "ĠCt": 7760,
      "ĠCard": 7761,
      "ĠCAL": 7762,
      "ĠCER": 7763,
      "ĠChar": 7764,
      "ĠCuz": 7765,
      "ĠColour": 7766,
      "ĠCorn": 7767,
      "ĠCSH": 7768,
      "ĠCele": 7769,
      "ĠCUP": 7770,
      "ĠCtter": 7771,
      "ĠCNN": 7772,
      "ĠCorrect": 7773,
      "ĠAP": 7774,
      "ĠAve": 7775,
      "ĠAud": 7776,
      "ĠAco": 7777,
      "ĠArs": 7778,
      "ĠAOM": 7779,
      "ĠAug": 7780,
      "ĠACL": 7781,
      "ĠAlex": 7782,
      "ĠAWARD": 7783,
      "ĠAeronaut": 7784,
      "Ġandros": 7785,
      "lyn": 7786,
      "Ġeps": 7787,
      "Ġebay": 7788,
      "Ġiscom": 7789,
      "Ġisland": 7790,
      "asu": 7791,
      "ases": 7792,
      "asda": 7793,
      "asota": 7794,
      "Ġreass": 7795,
      "Ġrecess": 7796,
      "ĠYA": 7797,
      "ĠYOR": 7798,
      "ĠYahoo": 7799,
      "ĠYetunde": 7800,
      "ication": 7801,
      "icated": 7802,
      "icib": 7803,
      "icsson": 7804,
      "Ġ27": 7805,
      "Ġ29": 7806,
      "Ġ218": 7807,
      "Ġitem": 7808,
      "Ġitwh": 7809,
      "Ġitalian": 7810,
      "Ġitcould": 7811,
      "Ġthin": 7812,
      "Ġthot": 7813,
      "Ġthous": 7814,
      "Ġthts": 7815,
      "Ġthread": 7816,
      "Ġthrew": 7817,
      "keep": 7818,
      "kered": 7819,
      "kempt": 7820,
      "ĠNY": 7821,
      "ĠNan": 7822,
      "ĠNic": 7823,
      "ĠNone": 7824,
      "ĠNoooo": 7825,
      "ĠNyt": 7826,
      "ĠNumber": 7827,
      "ĠNasda": 7828,
      "0060": 7829,
      "ĠMom": 7830,
      "ĠMen": 7831,
      "ĠMis": 7832,
      "ĠMid": 7833,
      "ĠMnt": 7834,
      "ĠMine": 7835,
      "ĠMand": 7836,
      "ĠMAR": 7837,
      "ĠMap": 7838,
      "ĠMail": 7839,
      "ĠMother": 7840,
      "ĠMoney": 7841,
      "ĠMonth": 7842,
      "ĠMarch": 7843,
      "ĠMUN": 7844,
      "ĠMORNING": 7845,
      "ĠMUM": 7846,
      "ĠMATCH": 7847,
      "ĠMMM": 7848,
      "ĠMila": 7849,
      "ĠMTALK": 7850,
      "Ġofice": 7851,
      "Ġforce": 7852,
      "Ġforum": 7853,
      "Ġforms": 7854,
      "Ġforums": 7855,
      "aler": 7856,
      "also": 7857,
      "aland": 7858,
      "Ġbear": 7859,
      "Ġbegging": 7860,
      "Ġ13": 7861,
      "Ġ140": 7862,
      "Ġ177": 7863,
      "Ġ153": 7864,
      "idal": 7865,
      "idual": 7866,
      "ĠDat": 7867,
      "ĠDis": 7868,
      "ĠDone": 7869,
      "ĠDnt": 7870,
      "ĠDream": 7871,
      "ĠDOT": 7872,
      "ĠDirect": 7873,
      "ĠDIR": 7874,
      "ĠDEF": 7875,
      "ĠDuches": 7876,
      "utly": 7877,
      "utra": 7878,
      "ĠUmma": 7879,
      "ĠUltim": 7880,
      "aced": 7881,
      "acher": 7882,
      "aching": 7883,
      "ached": 7884,
      "ackered": 7885,
      "Ġweas": 7886,
      "Ġwelp": 7887,
      "Ġweigh": 7888,
      "ĠBC": 7889,
      "ĠBY": 7890,
      "ĠBx": 7891,
      "ĠBit": 7892,
      "ĠBall": 7893,
      "ĠBill": 7894,
      "ĠBur": 7895,
      "ĠBig": 7896,
      "ĠBright": 7897,
      "ĠBOR": 7898,
      "ĠBUS": 7899,
      "ĠBRE": 7900,
      "ĠBaa": 7901,
      "ĠBET": 7902,
      "ĠBOUT": 7903,
      "ĠBaha": 7904,
      "ĠBRO": 7905,
      "ĠBOY": 7906,
      "ĠBRAND": 7907,
      "ills": 7908,
      "illed": 7909,
      "river": 7910,
      "rific": 7911,
      "ribut": 7912,
      "rifice": 7913,
      "iment": 7914,
      "imum": 7915,
      "ĠOi": 7916,
      "ĠOp": 7917,
      "ĠOz": 7918,
      "ĠOld": 7919,
      "ĠOff": 7920,
      "ĠONT": 7921,
      "ĠOoooo": 7922,
      "ĠOPT": 7923,
      "ĠOooh": 7924,
      "Ġhee": 7925,
      "Ġhel": 7926,
      "Ġhes": 7927,
      "Ġheal": 7928,
      "Ġheld": 7929,
      "Ġheater": 7930,
      "Ġstd": 7931,
      "Ġstamp": 7932,
      "Ġstones": 7933,
      "Ġstret": 7934,
      "Ġstatement": 7935,
      "Ġstyl": 7936,
      "Ġstars": 7937,
      "Ġstaff": 7938,
      "Ġstatus": 7939,
      "ĠPR": 7940,
      "ĠPS": 7941,
      "ĠPT": 7942,
      "ĠPa": 7943,
      "ĠPink": 7944,
      "ĠPick": 7945,
      "ĠPIN": 7946,
      "ĠPres": 7947,
      "ĠPub": 7948,
      "ĠPRE": 7949,
      "ĠPET": 7950,
      "ĠPics": 7951,
      "ĠPHP": 7952,
      "ĠPRO": 7953,
      "ĠPolo": 7954,
      "ĠPUB": 7955,
      "ĠPLAY": 7956,
      "ĠPayee": 7957,
      "ĠPotter": 7958,
      "entre": 7959,
      "entry": 7960,
      "amm": 7961,
      "amma": 7962,
      "ĠGin": 7963,
      "ĠGay": 7964,
      "ĠGir": 7965,
      "ĠGON": 7966,
      "ĠGame": 7967,
      "ĠGuy": 7968,
      "ĠGEND": 7969,
      "ĠGENT": 7970,
      "ĠGoogle": 7971,
      "ĠGAIL": 7972,
      "ĠGREAT": 7973,
      "ĠGIV": 7974,
      "ĠGHO": 7975,
      "Ġsever": 7976,
      "Ġsept": 7977,
      "Ġseeds": 7978,
      "adu": 7979,
      "adem": 7980,
      "adays": 7981,
      "Ġrc": 7982,
      "Ġrid": 7983,
      "Ġrum": 7984,
      "Ġrice": 7985,
      "Ġroy": 7986,
      "Ġrange": 7987,
      "Ġrang": 7988,
      "Ġrcv": 7989,
      "Ġrhy": 7990,
      "Ġromantic": 7991,
      "Ġracing": 7992,
      "Ġryan": 7993,
      "verb": 7994,
      "opal": 7995,
      "opose": 7996,
      "oplane": 7997,
      "Ġcalld": 7998,
      "Ġcallin": 7999,
      "Ġcallcost": 8000,
      "ĠFl": 8001,
      "ĠFri": 8002,
      "ĠFun": 8003,
      "ĠFant": 8004,
      "ĠFore": 8005,
      "ĠFear": 8006,
      "ĠFAR": 8007,
      "ĠFoot": 8008,
      "ĠFails": 8009,
      "ĠFIR": 8010,
      "ĠFIF": 8011,
      "ĠFingers": 8012,
      "ĠFuture": 8013,
      "ĠFyi": 8014,
      "ĠFffff": 8015,
      "ĠFEEL": 8016,
      "ĠFoley": 8017,
      "Ġkg": 8018,
      "Ġko": 8019,
      "Ġkz": 8020,
      "Ġkor": 8021,
      "Ġkar": 8022,
      "Ġkod": 8023,
      "Ġkerala": 8024,
      "Ġkapp": 8025,
      "Ġkadeem": 8026,
      "Ġkaraoke": 8027,
      "Ġkonw": 8028,
      "Ġjess": 8029,
      "Ġjason": 8030,
      "Ġjune": 8031,
      "Ġjanuary": 8032,
      "Ġjump": 8033,
      "Ġjamster": 8034,
      "Ġanj": 8035,
      "Ġanot": 8036,
      "Ġanth": 8037,
      "Ġanna": 8038,
      "Ġ050": 8039,
      "Ġ071": 8040,
      "Ġ021": 8041,
      "Ġ0578": 8042,
      "Ġgoal": 8043,
      "Ġgoals": 8044,
      "Ġdogging": 8045,
      "Ġdokey": 8046,
      "Ġlib": 8047,
      "Ġlip": 8048,
      "ldest": 8049,
      "ldish": 8050,
      "ldew": 8051,
      "ĠLook": 8052,
      "ĠLions": 8053,
      "ĠLATE": 8054,
      "ĠLUC": 8055,
      "ĠLiving": 8056,
      "ĠLUCK": 8057,
      "ĠLemme": 8058,
      "ĠLots": 8059,
      "ĠLIST": 8060,
      "ĠLucozade": 8061,
      "ĠLCCL": 8062,
      "Ġcanal": 8063,
      "Ġcancell": 8064,
      "Ġ41": 8065,
      "Ġ44": 8066,
      "Ġ420": 8067,
      "Ġ416": 8068,
      "Ġ404": 8069,
      "Ġ447": 8070,
      "Ġ4403": 8071,
      "Ġ4882": 8072,
      "Ġarent": 8073,
      "Ġneighb": 8074,
      "5069": 8075,
      "Ġgetstop": 8076,
      "Ġnotxt": 8077,
      "ppucc": 8078,
      "unna": 8079,
      "unsub": 8080,
      "unga": 8081,
      "unately": 8082,
      "anth": 8083,
      "antha": 8084,
      "Ġteleph": 8085,
      "essive": 8086,
      "essors": 8087,
      "essarily": 8088,
      "irit": 8089,
      "irting": 8090,
      "Ġfraud": 8091,
      "ili": 8092,
      "ilon": 8093,
      "ilities": 8094,
      "ightly": 8095,
      "cts": 8096,
      "ction": 8097,
      "Ġlock": 8098,
      "Ġlovers": 8099,
      "Ġloxahat": 8100,
      "gthr": 8101,
      "Ġshr": 8102,
      "Ġshu": 8103,
      "Ġshy": 8104,
      "Ġshore": 8105,
      "Ġshopp": 8106,
      "Ġship": 8107,
      "Ġshining": 8108,
      "urope": 8109,
      "urgent": 8110,
      "gement": 8111,
      "Ġupstairs": 8112,
      "oody": 8113,
      "Ġ810": 8114,
      "Ġ831": 8115,
      "Ġ861": 8116,
      "Ġ8822": 8117,
      "Ġ82468": 8118,
      "Ġ81151": 8119,
      "Ġknackered": 8120,
      "ĠRum": 8121,
      "ĠRally": 8122,
      "ĠRod": 8123,
      "ĠRever": 8124,
      "ĠRST": 8125,
      "ĠRITE": 8126,
      "ĠRIGHT": 8127,
      "ĠRALLY": 8128,
      "ĠRofl": 8129,
      "Ġworst": 8130,
      "Ġouts": 8131,
      "Ġplm": 8132,
      "Ġplum": 8133,
      "Ġplaz": 8134,
      "Ġplacement": 8135,
      "thm": 8136,
      "thts": 8137,
      "threats": 8138,
      "tern": 8139,
      "terror": 8140,
      "Ġali": 8141,
      "Ġalrite": 8142,
      "Ġalfie": 8143,
      "about": 8144,
      "absol": 8145,
      "olate": 8146,
      "olved": 8147,
      "ĠJD": 8148,
      "ĠJS": 8149,
      "ĠJe": 8150,
      "ĠJack": 8151,
      "ĠJia": 8152,
      "ĠJap": 8153,
      "ĠJames": 8154,
      "ĠJune": 8155,
      "ĠJerry": 8156,
      "ĠJESS": 8157,
      "ĠJesus": 8158,
      "ĠJamster": 8159,
      "ĠJoanna": 8160,
      "ĠJsut": 8161,
      "ĠJuly": 8162,
      "eaking": 8163,
      "eands": 8164,
      "Ġprod": 8165,
      "Ġprak": 8166,
      "Ġprops": 8167,
      "Ġprisc": 8168,
      "Ġprabha": 8169,
      "Ġprotect": 8170,
      "Ġpropose": 8171,
      "uments": 8172,
      "ileo": 8173,
      "using": 8174,
      "usion": 8175,
      "Ġ0825": 8176,
      "Ġ08700": 8177,
      "Ġvid": 8178,
      "Ġvday": 8179,
      "Ġvth": 8180,
      "Ġvive": 8181,
      "Ġvide": 8182,
      "Ġvag": 8183,
      "Ġvaa": 8184,
      "Ġvict": 8185,
      "Ġvoda": 8186,
      "Ġvale": 8187,
      "Ġwhn": 8188,
      "Ġwhom": 8189,
      "Ġwhos": 8190,
      "elve": 8191,
      "elive": 8192,
      "ĠNokias": 8193,
      "osh": 8194,
      "osk": 8195,
      "ĠEnd": 8196,
      "ĠEar": 8197,
      "ĠEire": 8198,
      "ĠEvr": 8199,
      "ĠEek": 8200,
      "ĠEerie": 8201,
      "ĠEAST": 8202,
      "ĠEdison": 8203,
      "Ġlikely": 8204,
      "Ġabj": 8205,
      "Ġaburo": 8206,
      "Ġability": 8207,
      "estar": 8208,
      "Ġgotten": 8209,
      "Ġ326": 8210,
      "Ġ3100": 8211,
      "Ġ373": 8212,
      "Ġamused": 8213,
      "EER": 8214,
      "EEEE": 8215,
      "ĠHaf": 8216,
      "ĠHands": 8217,
      "ĠHead": 8218,
      "ckt": 8219,
      "ckon": 8220,
      "cked": 8221,
      "last": 8222,
      "Ġtheres": 8223,
      "901": 8224,
      "902": 8225,
      "9060": 8226,
      "9014": 8227,
      "india": 8228,
      "index": 8229,
      "indgi": 8230,
      "ĠCallFREE": 8231,
      "ĠItz": 8232,
      "ĠWeek": 8233,
      "Ġsuck": 8234,
      "Ġsuits": 8235,
      "Ġsuffer": 8236,
      "Ġsufficient": 8237,
      "Ġsudden": 8238,
      "Ġspot": 8239,
      "Ġspile": 8240,
      "Ġspark": 8241,
      "Ġsplle": 8242,
      "Ġspirit": 8243,
      "udy": 8244,
      "Ġtextoper": 8245,
      "716": 8246,
      "7114": 8247,
      "7165": 8248,
      "Ġ54": 8249,
      "Ġlag": 8250,
      "Ġlaund": 8251,
      "ĠKL": 8252,
      "ĠKR": 8253,
      "ĠKay": 8254,
      "ĠKno": 8255,
      "ĠKallis": 8256,
      "ĠKAVAL": 8257,
      "ĠKaie": 8258,
      "INE": 8259,
      "INT": 8260,
      "oying": 8261,
      "Ġgoodnight": 8262,
      "Ġgoodnite": 8263,
      "embr": 8264,
      "employ": 8265,
      "ains": 8266,
      "Ġphoned": 8267,
      "ections": 8268,
      "ĠDoc": 8269,
      "ĠDoll": 8270,
      "ĠDoctor": 8271,
      "pton": 8272,
      "Ġhoward": 8273,
      "706009": 8274,
      "Ġarts": 8275,
      "Ġsmell": 8276,
      "Ġsmashed": 8277,
      "Ġsmeone": 8278,
      "ffles": 8279,
      "Ġ_'": 8280,
      "Ġ_?": 8281,
      "Ġ___": 8282,
      "Ġmini": 8283,
      "Ġminor": 8284,
      "ecial": 8285,
      "Ġrepair": 8286,
      "ĠVE": 8287,
      "ĠVU": 8288,
      "ĠVry": 8289,
      "ĠVij": 8290,
      "ĠVillage": 8291,
      "ĠVodka": 8292,
      "\\\"..": 8293,
      "\\\".\"": 8294,
      "igate": 8295,
      "Ġmap": 8296,
      "Ġmakin": 8297,
      "Ġoffc": 8298,
      "resso": 8299,
      "Ġherself": 8300,
      "actice": 8301,
      "Ġdonno": 8302,
      "ĠThy": 8303,
      "ĠThgt": 8304,
      "ĠThts": 8305,
      "ĠThings": 8306,
      "ĠFREEFONE": 8307,
      "Ġtelly": 8308,
      "Ġfreefone": 8309,
      "orte": 8310,
      "ubb": 8311,
      "Ġcoin": 8312,
      "Ġcoat": 8313,
      "Ġcoast": 8314,
      "Ġcochin": 8315,
      "Ġusb": 8316,
      "Ġafric": 8317,
      "Ġhappily": 8318,
      "Ġmeets": 8319,
      "feat": 8320,
      "Ġeverywhere": 8321,
      "ATM": 8322,
      "Ġ600": 8323,
      "Ġ630": 8324,
      "Ġ612": 8325,
      "Ġ616": 8326,
      "Ġwhose": 8327,
      "sole": 8328,
      "Ġshelf": 8329,
      "Ġmessy": 8330,
      "Ġmessaged": 8331,
      "andCs": 8332,
      "moro": 8333,
      "morow": 8334,
      "Ġclar": 8335,
      "Ġclothes": 8336,
      "ulate": 8337,
      "ulian": 8338,
      "Ġexmp": 8339,
      "Ġmissin": 8340,
      "ĠYours": 8341,
      "ĠYourself": 8342,
      "Ġunint": 8343,
      "Ġunfort": 8344,
      "Ġunkn": 8345,
      "Ġunnec": 8346,
      "Ġunemploy": 8347,
      "665": 8348,
      "666": 8349,
      "6600": 8350,
      "6650": 8351,
      "Ġqueen": 8352,
      "Ġquiet": 8353,
      "Ġcontrol": 8354,
      ":-)\"": 8355,
      ":-):-)": 8356,
      "Ġwaited": 8357,
      "ĠMystery": 8358,
      "eee": 8359,
      "Ġmanaged": 8360,
      "Ġ7876": 8361,
      "Ġads": 8362,
      "ORGE": 8363,
      "ORCIST": 8364,
      "ĠStud": 8365,
      "ĠStreet": 8366,
      "ĠStrong": 8367,
      "Ġgiven": 8368,
      "....!!": 8369,
      "Ġdeg": 8370,
      "Ġdeus": 8371,
      "Ġdehy": 8372,
      "Ġdefeat": 8373,
      "ĠHigh": 8374,
      "aging": 8375,
      "30150": 8376,
      "3091": 8377,
      "30901": 8378,
      "Ġgreatest": 8379,
      "ĠCanary": 8380,
      "ĠCancer": 8381,
      "ĠGoodo": 8382,
      "Ġcompare": 8383,
      "2055": 8384,
      "Ġfinance": 8385,
      "Ġagree": 8386,
      "ĠeveB": 8387,
      "ARY": 8388,
      "Ġrights": 8389,
      "Ġrightly": 8390,
      "Ġtons": 8391,
      "Ġconver": 8392,
      "Ġconvin": 8393,
      "Ġconsole": 8394,
      "Ġbruv": 8395,
      "Ġbroken": 8396,
      "Ġbruce": 8397,
      "comp": 8398,
      "comes": 8399,
      "Ġengin": 8400,
      "ĠSTAR": 8401,
      "ĠSTART": 8402,
      "Ġprobs": 8403,
      "aila": 8404,
      "Ġkegg": 8405,
      "well": 8406,
      "wered": 8407,
      "Ġserving": 8408,
      "ITAL": 8409,
      "istrator": 8410,
      "Ġbabies": 8411,
      "Ġcheat": 8412,
      "Ġchest": 8413,
      "Ġcheating": 8414,
      "Ġcheese": 8415,
      "Ġclaims": 8416,
      "ĠTeam": 8417,
      "ĠTease": 8418,
      "nyt": 8419,
      "ĠTxtNO": 8420,
      "ĠURE": 8421,
      "ĠURSELF": 8422,
      "221": 8423,
      "227": 8424,
      "2229": 8425,
      "407165": 8426,
      "bey": 8427,
      "behaved": 8428,
      "nog": 8429,
      "nocent": 8430,
      "Ġcared": 8431,
      "Ġcares": 8432,
      "Ġpercent": 8433,
      "Ġpermiss": 8434,
      "ĠTHINK": 8435,
      "haring": 8436,
      "Ġsleepy": 8437,
      "Ġsleepin": 8438,
      "Ġpickle": 8439,
      "8034": 8440,
      "801259": 8441,
      "ESIL": 8442,
      "Ġapps": 8443,
      "Ġappro": 8444,
      "Ġapplic": 8445,
      "Ġapplebe": 8446,
      "Ġcontacts": 8447,
      "Ġwoulda": 8448,
      "Ġbluff": 8449,
      "Ġbloke": 8450,
      "Ġblond": 8451,
      "Ġblock": 8452,
      "NDAY": 8453,
      "lpo": 8454,
      "Ġcashto": 8455,
      "1030": 8456,
      "1018": 8457,
      "ĠOrang": 8458,
      "ĠGOSS": 8459,
      "Ġsenthil": 8460,
      "Ġguid": 8461,
      "Ġcaroline": 8462,
      "Ġ1030": 8463,
      "231": 8464,
      "2345": 8465,
      "2311": 8466,
      "ichturn": 8467,
      "8888": 8468,
      "Ġkeeps": 8469,
      "Ġchuck": 8470,
      "Ġchoc": 8471,
      "Ġchinese": 8472,
      "ASS": 8473,
      "Ġdisast": 8474,
      "Ġdiscl": 8475,
      "Ġdisapp": 8476,
      "Ġ0906121": 8477,
      "Ġ09065069": 8478,
      "Ġentire": 8479,
      "Ġentertain": 8480,
      "Ġintelligent": 8481,
      "4589": 8482,
      "4553": 8483,
      "Ġchances": 8484,
      "Ġspecific": 8485,
      "Ġdram": 8486,
      "Ġdrms": 8487,
      "Ġdrpd": 8488,
      "Ġremov": 8489,
      "Ġremembered": 8490,
      "ANC": 8491,
      "ANG": 8492,
      "Ġ930": 8493,
      "Ġearn": 8494,
      "Ġtonights": 8495,
      "1896": 8496,
      "CsBCM": 8497,
      "ĠIsn": 8498,
      "ĠIslands": 8499,
      "ĠWhom": 8500,
      "rene": 8501,
      "Ġlotta": 8502,
      "Ġaccent": 8503,
      "ĠIncred": 8504,
      "ĠInvad": 8505,
      "Ġ169": 8506,
      "779": 8507,
      "7797": 8508,
      "7763": 8509,
      "872": 8510,
      "ovie": 8511,
      "ovided": 8512,
      "Ġxin": 8513,
      "Ġxavier": 8514,
      "Ġplanet": 8515,
      "minmore": 8516,
      "ĠXuhui": 8517,
      "ĠXxX": 8518,
      "ĠWats": 8519,
      "ĠWating": 8520,
      "ĠWatch": 8521,
      "ĠDidn": 8522,
      "Ġ80086": 8523,
      "114": 8524,
      "117": 8525,
      "ggy": 8526,
      "ggles": 8527,
      "pert": 8528,
      "perate": 8529,
      "schedule": 8530,
      "Ġmath": 8531,
      "Ġmaturity": 8532,
      "Ġmathemat": 8533,
      "Ġpartners": 8534,
      "341": 8535,
      "34396": 8536,
      "Ġtrade": 8537,
      "Ġbuses": 8538,
      "ionsms": 8539,
      "roc": 8540,
      "roit": 8541,
      "roach": 8542,
      "roenter": 8543,
      "works": 8544,
      "Ġlandlines": 8545,
      "Ġscen": 8546,
      "Ġscra": 8547,
      "Ġscary": 8548,
      "Ġscrat": 8549,
      "Ġschedule": 8550,
      "Ġscotland": 8551,
      "Ġpayment": 8552,
      "ĠShuhui": 8553,
      "ĠShrAcom": 8554,
      "Ġemploy": 8555,
      "ĠHopefully": 8556,
      "Ġanswered": 8557,
      "Ġclasses": 8558,
      "2450": 8559,
      "2422": 8560,
      "2478": 8561,
      "2414": 8562,
      "240060": 8563,
      "EDIT": 8564,
      "Ġprey": 8565,
      "ĠAsking": 8566,
      "Ġreser": 8567,
      "Ġresub": 8568,
      "Ġresume": 8569,
      "Ġreserve": 8570,
      "Ġwishin": 8571,
      "Ġmonthly": 8572,
      "Ġpole": 8573,
      "Ġpoem": 8574,
      "Ġpoker": 8575,
      "Ġsecs": 8576,
      "ĠLOG": 8577,
      "ĠLOST": 8578,
      "Ġ087060": 8579,
      "Ġ087044": 8580,
      "Ġ087075": 8581,
      "Ġ08708034": 8582,
      "Ġjobs": 8583,
      "Ġ0905624": 8584,
      "toneking": 8585,
      "Ġshagged": 8586,
      "Ġfunk": 8587,
      "Ġfuneral": 8588,
      "Ġfunky": 8589,
      "606": 8590,
      "608": 8591,
      "6030": 8592,
      "60665": 8593,
      "Ġuseful": 8594,
      "Ġinfront": 8595,
      "Ġinfections": 8596,
      "Ġthoughts": 8597,
      "Ġgrace": 8598,
      "lection": 8599,
      "Ġ1250": 8600,
      "Ġtwenty": 8601,
      "Ġtwelve": 8602,
      "Ġactor": 8603,
      "Ġacted": 8604,
      "Ġaction": 8605,
      "Ġactual": 8606,
      "Ġflight": 8607,
      "Ġflame": 8608,
      "Ġflies": 8609,
      "Ġflights": 8610,
      "Ġflirting": 8611,
      "ĠMeans": 8612,
      "Ġattract": 8613,
      "Ġattached": 8614,
      "Ġreceivea": 8615,
      "Ġbedrm": 8616,
      "ĠSpace": 8617,
      "ĠSpook": 8618,
      "ĠSpoke": 8619,
      "ĠSpanish": 8620,
      "ĠSpecial": 8621,
      "Ġ2007": 8622,
      "Ġlived": 8623,
      "insha": 8624,
      "Ġdeciding": 8625,
      "Ġdecimal": 8626,
      "Ġdecisions": 8627,
      "Ġhousewive": 8628,
      "ĠReach": 8629,
      "Ġ08000407165": 8630,
      "Ġ080007763": 8631,
      "tered": 8632,
      "ĠQues": 8633,
      "ĠQatar": 8634,
      "ĠQUITE": 8635,
      "Ġnetworks": 8636,
      "Ġprint": 8637,
      "Ġprince": 8638,
      "Ġprinted": 8639,
      "165": 8640,
      "162414": 8641,
      "deep": 8642,
      "devour": 8643,
      "uviri": 8644,
      "eraj": 8645,
      "Ġloose": 8646,
      "ĠAmerican": 8647,
      "ĠMEMB": 8648,
      "RET": 8649,
      "subs": 8650,
      "subscription": 8651,
      "Ġslice": 8652,
      "Ġslots": 8653,
      "Ġslightly": 8654,
      "Ġdelete": 8655,
      "Ġdelivered": 8656,
      "Ġdiffer": 8657,
      "Ġdifference": 8658,
      "Ġpale": 8659,
      "anyway": 8660,
      "ĠAllah": 8661,
      "Ġstays": 8662,
      "Ġstayin": 8663,
      "Ġstayed": 8664,
      "383": 8665,
      "385": 8666,
      "382422": 8667,
      "clark": 8668,
      "clusive": 8669,
      "iva": 8670,
      "ividual": 8671,
      "ĠPray": 8672,
      "ĠPras": 8673,
      "ĠProvided": 8674,
      "kka": 8675,
      "Ġillness": 8676,
      "Ġhurting": 8677,
      "Ġhurried": 8678,
      "Ġshitload": 8679,
      "ĠExpect": 8680,
      "ĠExecutive": 8681,
      "mrw": 8682,
      "Ġwrote": 8683,
      "Ġwrnog": 8684,
      "Ġmobs": 8685,
      "Ġmoby": 8686,
      "Ġliterally": 8687,
      "Ġelab": 8688,
      "ĠMayb": 8689,
      "EEDCHAT": 8690,
      "Ġsuppose": 8691,
      "Ġ0906110": 8692,
      "152": 8693,
      "1529": 8694,
      "1560665": 8695,
      "corn": 8696,
      "correct": 8697,
      "pler": 8698,
      "ples": 8699,
      "Ġtahan": 8700,
      "Ġwkg": 8701,
      "Ġswt": 8702,
      "Ġswiss": 8703,
      "Ġswoop": 8704,
      "Ġswatch": 8705,
      "Ġposts": 8706,
      "ĠBAHAM": 8707,
      "ĠTHEN": 8708,
      "Ġbirthdate": 8709,
      "146": 8710,
      "14823": 8711,
      "THIS": 8712,
      "ĠINC": 8713,
      "ĠINR": 8714,
      "ĠCosts": 8715,
      "ĠAlgar": 8716,
      "ĠAlwys": 8717,
      "Ġjoining": 8718,
      "Ġguessing": 8719,
      "99801": 8720,
      "iyag": 8721,
      "ocks": 8722,
      "Ġtrave": 8723,
      "Ġtrains": 8724,
      "Ġwifi": 8725,
      "Ġsunshine": 8726,
      "Ġsunlight": 8727,
      "Ġsweets": 8728,
      "Ġsweetie": 8729,
      "Ġdetail": 8730,
      "Ġforgotten": 8731,
      "Ġkisses": 8732,
      "elly": 8733,
      "Ġ:-):-)": 8734,
      "Ġtruck": 8735,
      "Ġtruffles": 8736,
      "Ġcrap": 8737,
      "Ġcraziest": 8738,
      "Ġpainting": 8739,
      "Ġpainful": 8740,
      "ĠREWARD": 8741,
      "ĠREPLY": 8742,
      "Ġ0800634": 8743,
      "Ġ09066350": 8744,
      "Ġ090663806": 8745,
      "Ġ09066382422": 8746,
      "Ġmails": 8747,
      "4447": 8748,
      "447797": 8749,
      "aves": 8750,
      "ipayut": 8751,
      "yped": 8752,
      "Ġ..\"": 8753,
      "Ġdenis": 8754,
      "Ġluvs": 8755,
      "angaly": 8756,
      "ĠSPK": 8757,
      "ĠSPORT": 8758,
      "ĠSPEEDCHAT": 8759,
      "ĠNEVER": 8760,
      "ĠNEVA": 8761,
      "ĠNEFT": 8762,
      "Ġheads": 8763,
      "Ġheading": 8764,
      "Ġworlds": 8765,
      "Ġ087187278": 8766,
      "Ġ08718727870": 8767,
      "Ġbabysit": 8768,
      "ĠLOVEME": 8769,
      "217": 8770,
      "693": 8771,
      "txtStop": 8772,
      "txttow": 8773,
      "Ġ!!!!": 8774,
      "Ġtesting": 8775,
      "Ġcosting": 8776,
      "ĠImportant": 8777,
      "ĠImagine": 8778,
      "Ġhavin": 8779,
      "Ġbelive": 8780,
      "Ġbelong": 8781,
      "Ġbeloved": 8782,
      "Ġlogos": 8783,
      "Ġconform": 8784,
      "Ġconfused": 8785,
      "Ġconfidence": 8786,
      "Ġconfuses": 8787,
      "2893": 8788,
      "Ġaccept": 8789,
      "Ġacadem": 8790,
      "Ġsitll": 8791,
      "Ġsimpler": 8792,
      "Ġrents": 8793,
      "ĠGOODNIGHT": 8794,
      "ĠGOODFRIEND": 8795,
      "2584": 8796,
      "prov": 8797,
      "practice": 8798,
      "Ġaproach": 8799,
      "Ġsurvey": 8800,
      "Ġclever": 8801,
      "Ġtomeands": 8802,
      "ĠYESTER": 8803,
      "START": 8804,
      "STERS": 8805,
      "Ġmusthu": 8806,
      "Ġcrore": 8807,
      "Ġcrab": 8808,
      "Ġcrash": 8809,
      "Ġcramps": 8810,
      "Ġgifted": 8811,
      "Ġunderwear": 8812,
      "Ġ113": 8813,
      "ĠUKs": 8814,
      "ĠBefore": 8815,
      "ĠLILY": 8816,
      "Ġtrips": 8817,
      "Ġwidelive": 8818,
      "Ġmono": 8819,
      "Ġmonkeys": 8820,
      "Ġcurry": 8821,
      "Ġcolours": 8822,
      "Ġdipped": 8823,
      "Ġfastest": 8824,
      "ensus": 8825,
      "ĠDelhi": 8826,
      "ĠBlind": 8827,
      "ĠBlank": 8828,
      "ĠGods": 8829,
      "Ġsubs": 8830,
      "Ġsubmit": 8831,
      "Ġopening": 8832,
      "351": 8833,
      "IDE": 8834,
      "IDAY": 8835,
      "aaaaa": 8836,
      "ficiary": 8837,
      "ugu": 8838,
      "Ġtopic": 8839,
      "ĠHAV": 8840,
      "ĠAccident": 8841,
      "Ġreaders": 8842,
      "Ġvisionsms": 8843,
      "ĠpolyH": 8844,
      "ĠpolypH": 8845,
      "Ġ09058095": 8846,
      "Ġ09058099801": 8847,
      "ĠExpress": 8848,
      "Ġmoving": 8849,
      "Ġmokka": 8850,
      "Ġchap": 8851,
      "Ġchase": 8852,
      "Ġchasing": 8853,
      "Ġcutting": 8854,
      "Ġinconsider": 8855,
      "ĠCoffee": 8856,
      "ĠArgh": 8857,
      "ĠArun": 8858,
      "Ġstrange": 8859,
      "Ġ08712101": 8860,
      "Ġdiscreet": 8861,
      "Ġdrinkin": 8862,
      "ENDERS": 8863,
      "phs": 8864,
      "phonic": 8865,
      "shop": 8866,
      "Ġese": 8867,
      "Ġtreated": 8868,
      "ĠTsunam": 8869,
      "ĠTsandCs": 8870,
      "ĠSmith": 8871,
      "Ġhoped": 8872,
      "ĠCheer": 8873,
      "ĠCheap": 8874,
      "Ġretrie": 8875,
      "irtel": 8876,
      "Ġcompleted": 8877,
      "ENCE": 8878,
      "Ġsnowman": 8879,
      "Ġcourt": 8880,
      "Ġcourage": 8881,
      "Ġnormally": 8882,
      "Ġgalileo": 8883,
      "ĠTEX": 8884,
      "stopsms": 8885,
      "ĠClick": 8886,
      "ĠClose": 8887,
      "ĠBray": 8888,
      "ĠOFF": 8889,
      "versity": 8890,
      "Ġexcuses": 8891,
      "ĠAccounts": 8892,
      "azine": 8893,
      "fullonsms": 8894,
      "hhh": 8895,
      "moreFrm": 8896,
      "Ġwarning": 8897,
      "Ġwarrant": 8898,
      "Ġskip": 8899,
      "Ġskyped": 8900,
      "Ġsorted": 8901,
      "Ġdistract": 8902,
      "Ġinstall": 8903,
      "Ġinstalling": 8904,
      "ĠWinning": 8905,
      "Ġrestock": 8906,
      "Ġrestaurant": 8907,
      "Ġrestrict": 8908,
      "ĠGuide": 8909,
      "Ġsells": 8910,
      "Ġdownloaded": 8911,
      "Ġsecretly": 8912,
      "Ġsecretary": 8913,
      "ĠQuest": 8914,
      "Ġconfirmd": 8915,
      "ferably": 8916,
      "Ġsinging": 8917,
      "Ġmids": 8918,
      "Ġmoves": 8919,
      "Ġfarm": 8920,
      "Ġnahi": 8921,
      "ĠSHESIL": 8922,
      "Ġhardly": 8923,
      "ĠWHY": 8924,
      "Ġevn": 8925,
      "ĠMissed": 8926,
      "Ġsemi": 8927,
      "Ġfrndship": 8928,
      "Ġvibr": 8929,
      "Ġ0905809445": 8930,
      "ĠTEXTPOD": 8931,
      "ĠTEXTBUDDY": 8932,
      "46899": 8933,
      "Ġterrific": 8934,
      "Ġbills": 8935,
      "Ġbillion": 8936,
      "Ġdarlings": 8937,
      "Ġfujits": 8938,
      "atives": 8939,
      "ĠShamp": 8940,
      "ĠShahja": 8941,
      "ĠWORRY": 8942,
      "ĠCDGT": 8943,
      "ĠASKED": 8944,
      "ĠActive": 8945,
      "ĠMoby": 8946,
      "ĠPhoen": 8947,
      "Ġ801": 8948,
      "Ġ8077": 8949,
      "Ġ80608": 8950,
      "737": 8951,
      "73162414": 8952,
      "Ġvewy": 8953,
      "Ġowns": 8954,
      "Ġwiskey": 8955,
      "Ġcatching": 8956,
      "Ġcoping": 8957,
      "Ġforevr": 8958,
      "Ġnydc": 8959,
      "ĠCHOS": 8960,
      "ĠCREDIT": 8961,
      "Ġrequire": 8962,
      "Ġ0780": 8963,
      "Ġ07808": 8964,
      "ĠRemove": 8965,
      "Ġexpired": 8966,
      "Ġexplain": 8967,
      "Ġtransport": 8968,
      "Ġtransfr": 8969,
      "Ġscreamed": 8970,
      "Ġ090663643": 8971,
      "Ġ09066364589": 8972,
      "0871240060": 8973,
      "Ġdifficulties": 8974,
      "91795": 8975,
      "LOSIVE": 8976,
      "SHIT": 8977,
      "careers": 8978,
      "Ġbrah": 8979,
      "Ġdesert": 8980,
      "Ġdescri": 8981,
      "Ġdesperate": 8982,
      "Ġfigures": 8983,
      "Ġparking": 8984,
      "Ġparco": 8985,
      "Ġpaperwork": 8986,
      "ĠTrust": 8987,
      "ĠSUM": 8988,
      "ĠSURE": 8989,
      "ĠSUNDAY": 8990,
      "ĠSubs": 8991,
      "ĠSubscribe": 8992,
      "ĠHIYA": 8993,
      "ĠGranite": 8994,
      "Ġraed": 8995,
      "Ġrael": 8996,
      "Ġannivers": 8997,
      "ĠENJOY": 8998,
      "ĠEverything": 8999,
      "ferences": 9000,
      "Ġdealing": 9001,
      "Ġdealer": 9002,
      "Ġimpress": 9003,
      "Ġimpatient": 9004,
      "ISSCO": 9005,
      "ĠREALITY": 9006,
      "ĠHAVENT": 9007,
      "Ġcorrection": 9008,
      "200117": 9009,
      "86200117": 9010,
      "CHEERS": 9011,
      "ricity": 9012,
      "Ġaffair": 9013,
      "Ġsignific": 9014,
      "Ġmodule": 9015,
      "Ġmodules": 9016,
      "Ġcaptain": 9017,
      "Ġcappucc": 9018,
      "Ġcausing": 9019,
      "Ġcountin": 9020,
      "Ġtortilla": 9021,
      "Ġbasket": 9022,
      "Ġdepos": 9023,
      "Ġdepartment": 9024,
      "Ġdepressed": 9025,
      "Ġfalling": 9026,
      "Ġprior": 9027,
      "Ġpurse": 9028,
      "Ġhorrible": 9029,
      "Ġrefund": 9030,
      "Ġrefilled": 9031,
      "Ġreasonable": 9032,
      "ĠMale": 9033,
      "ĠMaking": 9034,
      "ĠDAYS": 9035,
      "Ġruin": 9036,
      "Ġruining": 9037,
      "Ġkicks": 9038,
      "Ġkickoff": 9039,
      "Ġjolt": 9040,
      "Ġjogging": 9041,
      "Ġ40533": 9042,
      "Ġlocation": 9043,
      "Ġ69696": 9044,
      "Ġ69669": 9045,
      "Ġ69698": 9046,
      "Ġconnections": 9047,
      "Ġrocks": 9048,
      "Ġ090640121": 9049,
      "Ġ09064011000": 9050,
      "Ġdisturbing": 9051,
      "SSSS": 9052,
      "ringtoneking": 9053,
      "Ġsalon": 9054,
      "Ġsilver": 9055,
      "Ġsilence": 9056,
      "Ġsilently": 9057,
      "hasing": 9058,
      "Ġgrave": 9059,
      "ĠHelpline": 9060,
      "ĠCollect": 9061,
      "ĠDeeraj": 9062,
      "ĠBEAUT": 9063,
      "ĠBEGIN": 9064,
      "Ġjaya": 9065,
      "Ġ0776": 9066,
      "Ġ077426": 9067,
      "Ġ07734396": 9068,
      "Ġ07786200117": 9069,
      "Ġ3650": 9070,
      "Ġ3680": 9071,
      "Ġlaughing": 9072,
      "Ġ08712400": 9073,
      "Ġadmit": 9074,
      "Ġdeepak": 9075,
      "textbud": 9076,
      "textpod": 9077,
      "textcomp": 9078,
      "Ġmobilesvary": 9079,
      "ĠFANTASY": 9080,
      "419060": 9081,
      "NOON": 9082,
      "ibbs": 9083,
      "whr": 9084,
      "Ġerror": 9085,
      "Ġericsson": 9086,
      "Ġmadam": 9087,
      "Ġmistakes": 9088,
      "Ġfilled": 9089,
      "Ġfighting": 9090,
      "Ġflaky": 9091,
      "Ġfootball": 9092,
      "ĠSWEET": 9093,
      "...!..!!": 9094,
      "Ġindicate": 9095,
      "Ġindividual": 9096,
      "ĠAGO": 9097,
      "Ġrelatives": 9098,
      "Ġrewarding": 9099,
      "ĠMOST": 9100,
      "ĠMmmmmm": 9101,
      "ĠUNI": 9102,
      "ĠBtw": 9103,
      "Ġtelugu": 9104,
      "Ġlovingly": 9105,
      "Ġ85069": 9106,
      "Ġcommercial": 9107,
      "ĠFRNDS": 9108,
      "ĠFRNDSHIP": 9109,
      "Ġremoved": 9110,
      "121318": 9111,
      "Ġ08712405022": 9112,
      "Ġ08712402050": 9113,
      "Ġfixedline": 9114,
      "Ġrequests": 9115,
      "IFUL": 9116,
      "hampton": 9117,
      "Ġgaytextbud": 9118,
      "Ġpacks": 9119,
      "ĠSweetheart": 9120,
      "ĠNetworking": 9121,
      "ĠMessaging": 9122,
      "ĠBoys": 9123,
      "ĠBecomes": 9124,
      "ĠOptout": 9125,
      "ĠOptOut": 9126,
      "ĠFINAL": 9127,
      "ĠFINISH": 9128,
      "Ġ88088": 9129,
      "ologist": 9130,
      "Ġpractice": 9131,
      "Ġpractical": 9132,
      "ĠEXORCIST": 9133,
      "Ġofficially": 9134,
      "Ġ08712317": 9135,
      "Ġcondition": 9136,
      "Ġconducts": 9137,
      "Ġappreciated": 9138,
      "Ġblessing": 9139,
      "Ġblessed": 9140,
      "Ġprofessors": 9141,
      "Ġ090617438": 9142,
      "Ġ09061743806": 9143,
      "Ġ0906174338": 9144,
      "Ġ09061744553": 9145,
      "Ġopinions": 9146,
      "ĠPlayer": 9147,
      "Ġ080028888": 9148,
      ":::": 9149,
      ":::::": 9150,
      "OSE": 9151,
      "ĠZOE": 9152,
      "Ġwindow": 9153,
      "Ġwindows": 9154,
      "Ġmisbehaved": 9155,
      "Ġdressed": 9156,
      "Ġlyf": 9157,
      "Ġlyfu": 9158,
      "Ġpiece": 9159,
      "ĠTnC": 9160,
      "ĠHurt": 9161,
      "ĠHurts": 9162,
      "ĠHOWS": 9163,
      "ĠALWAY": 9164,
      "ĠMINE": 9165,
      "ĠUsher": 9166,
      "ĠUsually": 9167,
      "Ġsteve": 9168,
      "Ġsteal": 9169,
      "ĠFrnd": 9170,
      "ĠFUCKING": 9171,
      "Ġjiayin": 9172,
      "childish": 9173,
      "Ġvomiting": 9174,
      "ĠEVENING": 9175,
      "Ġsuperior": 9176,
      "Ġargument": 9177,
      "Ġ6031": 9178,
      "Ġuniversity": 9179,
      "Ġprepaid": 9180,
      "Ġprepared": 9181,
      "Ġprepayment": 9182,
      "Ġ09050001808": 9183,
      "Ġ09050003091": 9184,
      "Ġ09050002311": 9185,
      "Ġprocessed": 9186,
      "Ġhotels": 9187,
      "Ġ09058094599": 9188,
      "Ġ09058094597": 9189,
      "Ġ09058094565": 9190,
      "270819": 9191,
      "3237": 9192,
      "MEMBER": 9193,
      "apply": 9194,
      "smsco": 9195,
      "Ġsarcastic": 9196,
      "Ġsarasota": 9197,
      "ĠIBN": 9198,
      "Ġborin": 9199,
      "Ġburning": 9200,
      "Ġpanic": 9201,
      "Ġpatty": 9202,
      "Ġpattern": 9203,
      "otsman": 9204,
      "Ġhamster": 9205,
      "ĠWRC": 9206,
      "Ġeasily": 9207,
      "ĠDrinks": 9208,
      "ĠDATEBox": 9209,
      "Ġweakness": 9210,
      "Ġstaring": 9211,
      "ĠFeel": 9212,
      "Ġkills": 9213,
      "Ġkilling": 9214,
      "Ġkilled": 9215,
      "Ġ02073162414": 9216,
      "Ġdollar": 9217,
      "Ġteacher": 9218,
      "Ġ08081560665": 9219,
      "ĠKNOWS": 9220,
      "ĠFRIENDSHIP": 9221,
      "Ġcloses": 9222,
      "Ġreceipts": 9223,
      "Ġ09061702893": 9224,
      "Ġclearing": 9225,
      "Ġclearly": 9226,
      "Ġsubscriber": 9227,
      "08718720201": 9228,
      "087187288": 9229,
      "ĠGeeeee": 9230,
      "ĠGIRLS": 9231,
      "70000": 9232,
      "SPE": 9233,
      "UUUU": 9234,
      "iiii": 9235,
      "kiosk": 9236,
      "kisses": 9237,
      "marrow": 9238,
      "moby": 9239,
      "mobsEMS": 9240,
      "waxst": 9241,
      "Ġriver": 9242,
      "Ġtalks": 9243,
      "Ġwihtu": 9244,
      "Ġwomen": 9245,
      "Ġslip": 9246,
      "Ġbreath": 9247,
      "Ġbreathe": 9248,
      "Ġdemand": 9249,
      "Ġlimiting": 9250,
      "Ġnature": 9251,
      "Ġnatural": 9252,
      "Ġnitros": 9253,
      "Ġgreetings": 9254,
      "Ġposition": 9255,
      "ĠTONIGHT": 9256,
      "ĠSLAP": 9257,
      "ĠSleeping": 9258,
      "ĠSleepwell": 9259,
      "ĠConfidence": 9260,
      "ĠCOLLEGE": 9261,
      "ĠACTION": 9262,
      "Ġecst": 9263,
      "Ġeighth": 9264,
      "Ġreduce": 9265,
      "ĠDONT": 9266,
      "ĠDIDN": 9267,
      "ĠPutting": 9268,
      "Ġjeans": 9269,
      "Ġjealous": 9270,
      "Ġ078212": 9271,
      "ĠLucky": 9272,
      "Ġshoes": 9273,
      "Ġshoving": 9274,
      "Ġshocking": 9275,
      "Ġ83383": 9276,
      "Ġ89693": 9277,
      "Ġ88888": 9278,
      "Ġ88877": 9279,
      "ĠEuroDis": 9280,
      "Ġreplace": 9281,
      "Ġreplacement": 9282,
      "Ġchillin": 9283,
      "1282": 9284,
      "Ġ09061221061": 9285,
      "Ġavoid": 9286,
      "Ġavoiding": 9287,
      "Ġcelebration": 9288,
      "Ġ08452810075": 9289,
      "Ġ08002986030": 9290,
      "Ġbeneath": 9291,
      "Ġbenefits": 9292,
      "Ġbeneficiary": 9293,
      "Ġweirdest": 9294,
      "Ġ08701417012150": 9295,
      ";):": 9296,
      "MORO": 9297,
      "MOROW": 9298,
      "OOKS": 9299,
      "VALUED": 9300,
      "huag": 9301,
      "Ġ%.": 9302,
      "Ġverified": 9303,
      "Ġaunts": 9304,
      "Ġcooked": 9305,
      "Ġcookies": 9306,
      "Ġicicib": 9307,
      "Ġideal": 9308,
      "Ġbrown": 9309,
      "Ġbuffet": 9310,
      "Ġdedicate": 9311,
      "Ġdedicated": 9312,
      "Ġlicks": 9313,
      "Ġgrowing": 9314,
      "Ġpapers": 9315,
      "anese": 9316,
      "anesh": 9317,
      "ĠTrav": 9318,
      "ĠTravel": 9319,
      "ĠScotch": 9320,
      "ĠScotsman": 9321,
      "ĠSecond": 9322,
      "ĠSecret": 9323,
      "ĠSexy": 9324,
      "Ġhuge": 9325,
      "ĠCONT": 9326,
      "ĠCONVIN": 9327,
      "ĠCLAIRE": 9328,
      "ĠADAM": 9329,
      "ĠADDAMS": 9330,
      "ĠAdmirer": 9331,
      "ĠApply": 9332,
      "Ġrecovery": 9333,
      "ĠYunny": 9334,
      "Ġthursday": 9335,
      "ĠMONO": 9336,
      "ĠMojiBiola": 9337,
      "ĠDRACU": 9338,
      "ĠUSER": 9339,
      "ĠBooked": 9340,
      "ĠProf": 9341,
      "ĠProverb": 9342,
      "ĠGeorge": 9343,
      "Ġjuan": 9344,
      "Ġlionm": 9345,
      "Ġlionp": 9346,
      "Ġnecessary": 9347,
      "Ġnecessarily": 9348,
      "Ġloyal": 9349,
      "Ġshipped": 9350,
      "Ġ89070": 9351,
      "Ġ89080": 9352,
      "umbling": 9353,
      "Ġamongst": 9354,
      "Ġspeeding": 9355,
      "ĠWhatsup": 9356,
      "Ġbroad": 9357,
      "Ġapprox": 9358,
      "Ġ0906539": 9359,
      "Ġ09065989": 9360,
      "Ġdrunken": 9361,
      "Ġscores": 9362,
      "Ġpreferably": 9363,
      "Ġsatisfy": 9364,
      "1513": 9365,
      "Ġresponse": 9366,
      "Ġdespite": 9367,
      "Ġfavorite": 9368,
      "Ġ09064019014": 9369,
      "ĠCompany": 9370,
      "4284": 9371,
      "MIER": 9372,
      "Missing": 9373,
      "SKY": 9374,
      "Unbreak": 9375,
      "Unkempt": 9376,
      "blood": 9377,
      "chee": 9378,
      "ietrivia": 9379,
      "yarasu": 9380,
      "Ġsensitive": 9381,
      "Ġmcat": 9382,
      "Ġmassive": 9383,
      "Ġcastor": 9384,
      "Ġcapital": 9385,
      "Ġcreepy": 9386,
      "Ġbuilding": 9387,
      "Ġdoubt": 9388,
      "Ġdancing": 9389,
      "Ġnagar": 9390,
      "Ġpredict": 9391,
      "ĠTRUE": 9392,
      "ĠTickets": 9393,
      "Ġovulation": 9394,
      "Ġhonest": 9395,
      "ĠCLUB": 9396,
      "ĠCaRE": 9397,
      "ĠCaptain": 9398,
      "ĠCustCare": 9399,
      "ĠCareful": 9400,
      "ĠCOMIN": 9401,
      "Ġeffects": 9402,
      "Ġrenewal": 9403,
      "ĠMRNG": 9404,
      "Ġforgiven": 9405,
      "Ġstrike": 9406,
      "Ġsticky": 9407,
      "ĠPeace": 9408,
      "ĠPeople": 9409,
      "Ġkidding": 9410,
      "Ġjacket": 9411,
      "Ġdoggy": 9412,
      "ĠLinerental": 9413,
      "sexCM": 9414,
      "Ġnecklace": 9415,
      "Ġ83049": 9416,
      "Ġproperty": 9417,
      "ĠEvrey": 9418,
      "Ġallowed": 9419,
      "Ġcombine": 9420,
      "ĠKeralaCir": 9421,
      "Ġ08719181513": 9422,
      "Ġcontinue": 9423,
      "Ġadministrator": 9424,
      "Ġconcentrate": 9425,
      "ĠPOSTCARD": 9426,
      "Ġimprove": 9427,
      "Ġimproved": 9428,
      "Ġ090651740": 9429,
      "Ġ0906517114": 9430,
      "ĠLOTR": 9431,
      "39680": 9432,
      "Ġflowing": 9433,
      "REATH": 9434,
      "ĠXXXXX": 9435,
      "ĠBritish": 9436,
      "ĠBritney": 9437,
      "Ġresponsibility": 9438,
      "Ġviolence": 9439,
      "Ġviolated": 9440,
      "LDNW": 9441,
      "boarding": 9442,
      "ĠEXPLOSIVE": 9443,
      "Ġirritating": 9444,
      "Ġprescription": 9445,
      "ĠSLEEPING": 9446,
      "Ġ0871277810810": 9447,
      "76969": 9448,
      "DEW": 9449,
      "FWD": 9450,
      "Ringtone": 9451,
      "Respect": 9452,
      "SWEET": 9453,
      "casm": 9454,
      "movietrivia": 9455,
      "shall": 9456,
      "welcomes": 9457,
      "Ġ008704050406": 9458,
      "Ġturning": 9459,
      "Ġayn": 9460,
      "Ġalter": 9461,
      "Ġsigning": 9462,
      "Ġsooooo": 9463,
      "regret": 9464,
      "Ġcherish": 9465,
      "Ġcolor": 9466,
      "Ġyelling": 9467,
      "ĠINDIA": 9468,
      "Ġbleh": 9469,
      "Ġdhina": 9470,
      "Ġdivision": 9471,
      "Ġfreedom": 9472,
      "Ġfaggy": 9473,
      "Ġflip": 9474,
      "Ġlengt": 9475,
      "Ġlanguage": 9476,
      "Ġnanny": 9477,
      "Ġgpu": 9478,
      "Ġpenis": 9479,
      "Ġpunish": 9480,
      "ĠTomarrow": 9481,
      "ĠTOMORROW": 9482,
      "ĠSIB": 9483,
      "ĠSymbol": 9484,
      "Ġoreo": 9485,
[...]
