#version: 0.2
Ġ t
h e
i n
Ġ a
r e
Ġt he
Ġ o
a t
e r
Ġ s
Ġ c
o n
Ġ p
a n
e s
e n
Ġ f
r o
in g
i s
i t
Ġo f
e d
o r
Ġ b
Ġa n
Ġ in
a l
i c
a r
i on
Ġan d
Ġ m
Ġ d
Ġt o
c t
en t
Ġ is
Ġ w
i l
Ġ re
h at
Ġ T
l e
Ġ W
u l
Ġp ro
u s
Ġf or
at ion
a s
Ġb e
u r
o m
i m
e t
v e
h o
i d
ĠT he
ĠW hat
Ġ e
Ġ n
Ġc on
Ġ l
Ġ g
Ġo r
Ġa re
l y
u t
an t
r a
o w
u re
Ġ h
d u
m ent
u n
er s
c e
i r
Ġc an
i f
o t
a g
e ct
o s
es s
o l
Ġs u
it y
Ġ I
a b
r i
p p
Ġ v
Ġ he
e l
c h
ar m
Ġs t
e ed
a in
q u
ul t
Ġa s
at e
Ġp l
ro p
es t
Ġ A
Ġ C
o d
i g
i z
Ġ it
Ġ en
Ġs o
i es
g an
Ġ im
s t
Ġf arm
ag e
i v
Ġpro du
Ġd e
a m
u m
Ġcon t
Ġc rop
t er
Ġ us
Ġs ho
Ġ S
i al
Ġt hat
Ġw it
ul d
t h
Ġo n
Ġim p
v er
Ġb y
Ġ r
Ġp re
or t
at er
Ġ P
en d
e m
Ġc om
Ġ F
Ġsho uld
Ġs p
r u
Ġwit h
c ess
re d
Ġ H
a y
Ġ le
is t
a d
f f
c om
Ġa l
a c
Ġe x
Ġpl ant
i ve
Ġor gan
Ġso il
Ġa pp
h is
ro w
Ġprodu ct
ro m
Ġa d
er t
o p
ar i
he r
d s
s e
it ion
ĠH ow
Ġ B
e as
ab le
Ġv ari
if ic
Ġf rom
o re
r ic
an ce
a ct
a k
e c
Ġp er
Ġin c
Ġw ater
Ġorgan ic
h ic
Ġcom p
m end
Ġ (
Ġm an
Ġa g
Ġ y
Ġd o
Ġre s
ic e
Ġ ro
an d
un d
Ġa t
com mend
Ġre commend
Ġd is
id e
Ġrecommend ed
Ġh a
Ġs eed
ĠI t
p t
hic h
ĠT his
ve l
at ed
an s
p er
Ġhe l
o od
Ġc o
al l
Ġthe ir
ĠI n
il l
ur ing
Ġpro cess
Ġg row
Ġhel p
u d
Ġ M
p os
ic al
Ġ k
d ition
Ġ 1
Ġpro v
l ow
e e
Ġt e
i el
t ain
r y
Ġcon s
Ġc a
Ġp est
ru it
Ġvari et
he n
Ġus ed
a v
h y
Ġf ruit
ro l
Ġ N
ur al
ig h
Ġen s
il ity
Ġa c
Ġcrop s
Ġt h
Ġfarm ers
re s
Ġimp ort
or m
u g
l es
Ġw hich
Ġ D
Ġcont rol
c es
ric ult
ff ect
Ġs y
ra ct
Ġfarm ing
ation s
Ġ R
Ġc h
as t
i re
Ġ j
Ġimport ant
o c
Ġha ve
Ġplant s
iel d
al ly
Ġf ood
Ġn ut
er m
Ġin f
ent s
ar t
e f
t her
Ġdis eas
Ġ qu
re n
Ġdo es
du c
Ġ 2
ra in
Ġt r
l ud
Ġsu ch
Ġre qu
Ġp ur
Ġsp ec
Ġinc lud
i ed
Ġag ricult
Ġn ot
Ġn e
al th
Ġm et
Ġ O
Ġhelp s
v ent
g en
Ġhe alth
Ġm e
i b
Ġin t
Ġens ure
on g
Ġgrow th
Ġs ow
ion s
un t
Ġ G
iz e
us t
s o
he m
Ġapp l
Ġpre s
Ġnut ri
o us
Ġs e
ic es
a il
ri b
Ġpur pos
Ġb en
ar y
u p
ar d
vel op
ac k
Ġm ain
Ġtr ans
Ġin s
ug h
al s
Ġo ther
m o
Ġre g
Ġvariet ies
Ġben ef
i p
Ġs c
ment s
us e
Ġt im
o g
Ġd uring
Ġ E
il iz
or s
al ity
os t
a re
om e
Ġde velop
Ġa ct
u e
on e
at ing
Ġpurpos e
c ial
Ġc ol
ĠW hy
l ing
Ġf ert
Ġprov id
as e
ra m
Ġs h
Ġal so
Ġmet ho
ĠThe se
Ġit s
Ġc ult
it ies
y p
at ure
Ġm o
Ġo ver
g e
ig n
f e
en s
i a
0 0
Ġsu pp
Ġl i
g et
Ġa b
Ġsow ing
P O
Ġproduct s
er v
re e
ut ion
Ġm a
e ar
st em
ent ial
Ġa v
Ġpre vent
Ġ ho
Ġm ay
Ġqu ality
Ġfor m
el l
it s
Ġc ert
Ġm in
Ġ und
Ġbe t
ar k
Ġc l
ar v
Ġr ice
a p
m ot
an y
Ġus e
ir on
x t
Ġj u
Ġthe y
igh t
in e
Ġtim e
Ġp ract
ĠP ro
p l
Ġimp ro
Ġd am
Ġw eed
at ive
Ġt yp
Ġt re
g ar
Ġan y
ĠW hen
Ġman age
Ġproduct ion
Ġcult iv
Ġspec ific
Ġe ffect
Ġcom m
v iron
Ġpest s
as ed
Ġ L
Ġh as
f ter
Ġf l
Ġmain tain
o ur
Ġas s
j ect
ic i
Ġy ield
Ġen viron
Ġp art
r ation
Ġcon dition
ĠC om
ro ugh
k e
c a
Ġin d
c y
Ġenviron ment
Ġsu b
en ce
Ġan im
Ġin v
ri g
ĠA d
Ġus ing
a f
Ġd if
c ent
d ing
ak e
Ġd ry
Ġcons um
Ġte a
ay s
Ġr ate
fe ren
ra y
Ġdam age
Ġpro mot
Ġt his
ab ility
Ġs ol
Ġf in
Ġex t
k s
Ġdiseas es
Ġal low
Ġ un
Ġthe se
Ġn eed
ĠF PO
Ġs us
Ġ 3
av es
i red
d er
Ġinclud e
Ġprov ide
i um
c o
Ġpro t
Ġthe m
b er
Ġ K
Ġsu gar
is h
Ġle vel
at es
Ġm ore
Ġmanage ment
Ġw e
Ġle aves
ag es
a ch
Ġro le
' s
ib le
Ġint o
Ġca us
ĠB y
Ġpract ices
Ġseed s
Ġcondition s
on s
ire ct
v ed
Ġp ot
Ġd et
ific ation
re en
f ore
Ġinc re
ĠO r
Ġ ve
Ġsp ray
Ġju ice
at ural
Ġd one
Ġm on
Ġb l
Ġli ke
Ġvariet y
Ġsy stem
Ġm ater
Ġmater ial
as s
Ġh igh
Ġa fter
Ġagricult ure
Ġ 5
Ġfert iliz
Ġrequ ire
Ġw hen
Ġf eed
res s
Ġ J
Ġle ad
Ġbe ca
rib ut
Ġbeca use
ĠOr gan
Ġund er
Ġnutri ents
Ġ 4
Ġ U
Ġm ark
Ġfruit s
ot h
le ment
Ġn atural
g g
hem ical
Ġve get
act er
ĠAd dition
Ġth rough
Ġs ign
Ġa ffect
ct ion
he re
Ġagricult ural
ul ar
w e
Ġdevelop ment
Ġs ome
ĠAddition ally
Ġad v
it e
o ver
Ġdif feren
Ġins ect
i od
ĠThe y
Ġw h
Ġav ail
Ġin ter
ic ation
Ġdiseas e
a ce
Ġre duc
red it
Ġc ar
duc er
id es
Ġre du
v es
Ġd es
Ġsupp ort
Ġinv ol
ak ing
Ġprot ect
ol og
Ġ '
Ġf un
Ġp o
if ied
Ġover all
Ġc hemical
ure s
ĠPro ducer
Ġt em
Ġvari ous
ir st
Ġmin im
Ġ up
Ġappl ied
Ġmark et
r in
iv ity
in ation
ar ds
m s
Ġcont ribut
Ġtem per
Ġo b
ĠCom p
p h
Ġin st
er y
Ġres ult
Ġprodu c
u b
ro und
Ġmo ist
on d
Ġc re
Ġre f
ab les
Ġsus tain
Ġtemper ature
am e
os s
mo unt
Ġa mount
Ġanim als
v ing
Ġbe fore
Ġo ut
Ġo pt
Ġde c
ĠIn d
Ġtre at
an ces
Ġf ield
Ġm at
ur s
Ġthe re
Ġre l
Ġimp act
Ġk g
Ġr is
ow n
il e
Ġre p
ic ides
Ġe gg
et y
ch n
k ing
Ġl ong
Ġmetho d
ĠS t
Ġg reen
Ġbenef its
Ġm em
ho l
Ġdifferen t
an ge
ff ici
Ġcultiv ation
it able
Ġd ist
Ġrequ ired
id s
Ġnutri ent
Ġmoist ure
Ġl it
iz ation
Ġca p
Ġro ot
ect in
Ġ ir
en cy
ru ct
Ġex p
Ġad d
Ġl o
pl ant
Ġne cess
Ġcon cent
Ġd irect
Ġte xt
Ġab o
Ġe v
ff ee
Ġnecess ary
e p
Ġte chn
i e
Ġt erm
Ġ ra
arv est
Ġres p
in ess
Ġen h
a e
Ġpre p
we en
ro gen
Ġbet ween
am p
e g
Ġf ac
ĠFPO s
Ġ if
Ġst and
t ing
ad e
Ġappl ication
Ġdry ing
Ġm il
it rogen
Ġeffect ive
Ġpot ential
t ic
le ct
is ms
Ġcol or
Ġw ill
Ġf act
ver al
Ġco ffee
Ġw ell
Ġe c
Ġg rain
Ġe ar
Ġpart ic
ĠF arm
Ġm eas
hem e
Ġch ar
) ,
i o
Ġhe ct
il y
ter n
Ġy ear
Ġveget ables
Ġg en
Ġde p
Ġper iod
Ġtrans plant
Ġof f
Ġmetho ds
Ġir rig
g es
Ġp e
he d
Ġpro per
ad d
Ġare as
Ġsign ific
Ġal l
Ġsu itable
Ġprodu ce
Ġhect are
le t
Ġad ult
ĠComp any
Ġre mo
i x
an e
ĠF or
Ġfin an
Ġh arvest
Ġy o
Ġse veral
Ġprocess ing
Ġext ract
Ġv al
Ġcont ent
Ġcaus ed
Ġl ow
Ġinf orm
Ġc ru
in es
Ġimp lement
Ġtreat ment
Ġde f
h ar
Ġapp ro
Ġ ess
Ġb ore
ĠW hich
over n
Ġpro ject
Ġensure s
add y
Ġf ree
ast e
Ġess ential
u al
Ġh y
com e
c c
Ġcru cial
iz ed
x im
ation al
us iness
os e
Ġabo ut
Ġro t
Ġd ays
Ġme et
g ram
Ġt ra
Ġn itrogen
Ġle af
ĠP O
f ul
Ġo per
Ġopt im
ĠC h
Ġreduc ing
b ers
Ġcont ain
Ġres our
Ġf ol
or y
Ġm ic
Ġfinan cial
Ġinf est
ul ation
Ġcomp any
Ġat t
if y
Ġc ost
Ġfact ors
Ġw or
Ġh ig
Ġme ans
ent ion
Ġs ur
Ġc le
Ġbet ter
n t
Ġact iv
av or
Ġegg s
Ġ Y
Ġb re
Ġl arv
iv es
Ġtyp e
ot t
he s
l ed
as h
Ġsy m
Ġallow s
Ġens uring
Ġ ent
Ġp ectin
ho ut
Ġactiv ities
Ġproduct ivity
ic s
Ġfertiliz ers
Ġsustain able
ffici ent
w orm
iel ds
Ġ1 0
Ġg r
ĠT o
m at
Ġmaterial s
Ġhig her
ho s
Ġso ur
Ġl oss
Ġl im
Ġprovid es
Ġ rain
ruct ure
Ġg u
Ġcert ification
Ġcomm on
Ġcontribut e
Ġre le
Ġp addy
Ġb u
ri p
Ġs eas
Ġbore r
Ġe m
Ġa ir
an c
r ate
Ġimpro ve
ec ond
u es
Ġon e
Ġp at
Ġd ue
A R
Ġmic ro
Ġp op
pt om
A C
Ġb od
Ġweed s
n ing
Ġapp ly
ĠA g
Ġredu ce
Ġm aking
id ent
Ġl and
Ġl oc
ĠOrgan ic
Ġt w
a red
Ġe qu
i ent
it or
in t
Ġresour ces
Ġs m
f er
Ġac id
Ġ2 0
Ġtransplant ing
Ġsym ptom
Ġ V
Ġ 6
Ġrequire ments
Ġk n
Ġchar acter
Ġn urs
Ġinform ation
Ġ est
it t
Ġdet erm
Ġw here
Ġgen er
Ġf irst
Ġr at
Ġyo u
Ġf o
Ġbe ver
n e
ical ly
Ġac c
Ġb usiness
Ġprovid ing
Ġsol ution
ect ion
Ġris k
f orm
ĠI f
c ane
Ġcar b
Ġmaintain ing
Ġinvol ves
har if
Ġmem bers
ag ing
Ġn ame
Ġfun g
h a
p ut
Ġsu c
ĠInd ia
Ġseas on
Ġb ased
Ġnurs ery
Ġirrig ation
u c
ol l
Ġ ident
Ġc redit
Ġmeas ures
Ġresp ons
Ġs he
Ġwith in
Ġsugar cane
i qu
ab l
Ġavail able
or gan
Ġwh ile
Ġman ure
ur ance
Ġst age
Ġex amp
Ġfert ility
Ġfol low
as es
Ġs et
Ġstand ards
re ad
ar ant
it al
iz ing
Ġref ers
Ġcharacter ist
Ġfac il
Ġsub st
) .
Ġco ver
Ġa r
Ġad dition
Ġst or
b r
Ġpres erv
ce pt
iv en
ide red
Ġcons idered
Ġhealth y
Ġma ize
Ġhe at
o id
Ġm ention
Ġconcent ration
Ġp ack
Ġsm all
olog ical
y m
Ġe l
Ġha pp
Ġinclud ing
r it
iv ers
ing s
Ġm ade
Ġg ram
Ġwit hout
end ing
ic ial
Ġare a
Ġmat ter
Ġis s
Ġfree z
u ch
he tic
Ġbe en
t s
ĠFarm ers
Ġs erv
ĠA n
Ġn um
Ġplant ing
Ġh and
nt hetic
ra d
overn ment
Ġtw o
Ġm ake
Ġpres s
Ġth an
Ġhe r
Ġma xim
Ġbl ack
o b
o il
Ġh arm
g ing
Ġmention ed
Ġapp ear
Ġval ue
ist ance
Ġca use
Ġsc heme
t en
Ġa ch
ic ide
ion al
ĠA s
Ġprovid ed
Ġw as
Ġroot s
at a
Ġn on
arant ee
if e
ĠS ome
l i
Ġach ie
Ġ ut
Ġb ut
Ġ 7
Ġg ood
Ġconsum ers
Ġsignific ant
Ġb an
iv id
Ġcle an
Ġest abl
e red
is s
Ġsy nthetic
co unt
Ġprep ar
Ġh um
hy d
r ated
Ġstor age
ic k
ate ly
Ġtyp es
in d
oc i
Ġcharacterist ics
c i
b s
Ġinsect s
Ġlim it
Ġreg ul
ĠC an
Ġmon itor
Ġav oid
af ety
Ġ 8
ĠN A
row n
Ġgrow ing
er n
Ġbe l
Ġpro p
Ġseed ling
Ġgrain s
am in
Ġbever ages
e ver
n ess
Ġpest icides
al e
Ġinfest ation
Ġst ructure
Ġb i
Ġinst it
B AR
BAR D
Ġac cess
Ġreg ist
on om
pt ion
Ġ1 5
Ġfarm er
ut h
Ġv ir
Ġne g
du ct
Ġst em
Ġp ar
Ġm uch
Ġw ho
id er
d ers
ut ions
Ġcontrol ling
Ġenh ance
x y
Ġin put
Ġm od
un g
ur ation
un e
y c
Ġs ize
ur n
Ġsp read
Ġc ater
op er
Ġneed s
ĠNA BARD
Ġg round
Ġbenef icial
Ġlead ing
ult ry
Ġbod y
ĠY es
res h
Ġcert ain
Ġhapp ens
y stem
Ġs afety
Ġpro f
Ġw ee
ill ar
Ġt ak
Ġpo ultry
ĠW ho
ant s
Ġind ust
Ġnum ber
v al
is e
Ġfl avor
Ġincre ase
w n
Ġpro gram
Ġe ach
m er
p illar
Ġneg ative
Ġf low
or p
Ġd ata
Ġtrans p
Ġpres ent
Ġher b
ri ed
is ed
Ġform ation
Ġfo und
Ġre ce
Ġl ife
Ġass ess
Ġre c
ott on
r im
Ġp ul
o red
Ġb as
Ġr ange
ĠF irst
Ġminim ize
Ġlevel s
c rib
Ġp od
Ġb acter
Ġpl ay
Ġsymptom s
Ġl ar
Ġm ix
b e
Ġb r
f ace
Ġgrow n
Ġfertiliz er
Ġ3 0
iz ations
ric t
Ġcater pillar
Ġo cc
Ġl ess
Ġex cess
ĠM an
Ġcarb on
m itt
Ġf am
Ġd os
Ġrespons ible
Ġd own
Ġw he
el low
Ġanim al
Ġavail ability
ĠG u
Ġgu id
a ren
as ing
Ġind ivid
Ġ 0
Ġadd ed
Ġs a
Ġorgan isms
Ġlarv ae
Ġl ab
Ġob tain
Ġc m
Ġd uration
Ġenvironment al
Ġcomp ost
Ġch an
Ġ ing
ĠIn s
Ġne w
an ds
Ġsp ac
Ġcons ist
Ġb al
Ġc al
Ġc otton
Ġo il
Ġc ent
Ġm ed
Ġac count
Ġb rown
ĠFirst ly
a ir
Ġres id
Ġkn own
al y
Ġre m
ĠThe re
Ġpres ence
Ġpromot ing
Ġwh ite
ho gen
Ġsh are
b le
Ġd i
Ġor der
com pos
Ġbu il
ur ity
i er
Ġcre ate
Ġb ir
ail s
Ġexamp les
Ġing red
Ġmon th
Ġa m
Ġbe ing
ĠS c
o ugh
Ġe as
Ġtechn olog
Ġfreez ing
a id
t al
Ġper cent
c u
c ies
Ġso ci
Ġ2 5
Ġsc ient
ĠU n
Ġsuc cess
Ġon ly
ĠSt ate
Ġtechn iqu
or d
Ġd rain
Ġp hos
Ġmil k
o ard
Ġf resh
Ġseedling s
Ġp hy
Ġl ay
er ve
Ġp ow
ĠW here
Ġy ellow
Ġdo cu
Ġcons ider
Ġprevent ing
Ġrain f
ĠAg ricult
Ġinput s
Ġm l
Ġst ate
Ġcomp on
ac ity
Ġman y
Ġco unt
Ġind ic
Ġpromot e
Ġestabl ish
Ġpat hogen
Ġag ain
ib ility
Ġf ields
Ġb ul
Ġut iliz
Ġpl an
o y
ur ther
ĠHow ever
Ġsubst ances
Ġg ra
Ġ5 0
Ġcap acity
Ġoptim al
Ġle g
Ġsystem s
Ġappear ance
u ally
ĠN o
Ġfam ily
p ar
un ds
Ġimpro ved
Ġtext ure
Ġmonitor ing
pp ing
rig h
Ġt ake
Ġg iven
all en
Ġdevelop ed
Ġsur face
oc k
ĠGu arantee
g o
Ġbenef it
an ies
Ġj el
Ġchemical s
Ġob ject
Ġsoci ety
Ġscient ific
e w
ĠIn st
orp or
Ġagain st
h iz
i an
Ġg o
Ġint eg
Ġadv ant
Ġresult ing
Ġreduc ed
Ġatt ack
Ġimplement ing
Ġoper ations
Ġbel ong
Ġg erm
Ġmaxim um
uth or
in ed
Ġear ly
l ight
rop ri
Ġindust ry
i ous
l l
Ġf il
Ġcol lect
Ġeffect s
l o
Ġp ig
Ġsour ces
Ġm ult
ĠC o
Ġev en
g y
n ut
Ġc ase
organ isms
Ġec onom
Ġloc al
Ġphy s
Ġm oth
Ġb or
Ġal tern
Ġli qu
Ġb oth
el s
ee p
Ġho t
Ġjel ly
Ġde compos
Ġb ug
as it
Ġpop ulation
m e
Ġp ri
Ġd el
Ġto tal
Ġpl ays
Ġspec ies
Ġcap ital
Ġcommon ly
Ġbir ds
m on
Ġs ul
Ġeffective ly
Ġaddition al
Ġa im
Ġin come
ivers ity
Ġprepar ation
2 0
r ition
Ġc rit
P C
Ġs econd
Ġof ten
Ġb ed
ri es
Ġspray ing
Ġlo an
Ġrem ain
Ġ er
os ystem
ial ly
Ġinclud es
Ġcomm un
Ġcal c
h an
el ines
Ġpromot es
Ġdec is
Ġdos age
h ip
Ġt est
Ġc ho
Ġprocess es
f act
e re
ĠA gen
F AC
Ġreg ular
a res
pp er
00 0
Ġdes ired
Ġwhe at
Ġin it
ĠI m
Ġcomp let
Ġqu ant
Ġse par
Ġmicro organisms
Ġt ill
Ġto mat
Ġinf ect
Ġtomat o
Ġp ers
Ġch allen
P M
p ect
Ġn ature
Ġv ac
Ġper form
Ġharm ful
Ġim m
el f
Ġapp ropri
Ġ z
in s
Ġm ost
Ġlow er
Ġe fficient
Ġco ol
Ġbacter ia
Ġs al
ĠK harif
Ġredu ces
l d
Ġsow n
Ġmult ip
Ġincre ased
Ġrot ation
Ġp oll
Ġf er
Ġterm s
Ġec osystem
ure a
ĠE x
in c
at ory
ĠS econd
Ġsho ot
Ġallow ing
Ġris ks
Ġpartic les
Ġact ivity
Ġrel ated
ify ing
Ġprop ert
ĠS FAC
vent ional
Ġmin er
i ents
hol ders
c ed
r al
ch an
Ġspac ing
Ġb ro
Ġwor k
Ġbe et
Ġcomp et
Ġdec re
anc ed
Ġt aste
Ġthe n
Ġto p
Ġen z
Ġg ro
qu ate
ĠJ une
Ġhy br
ic ult
ag ed
ĠR eg
Ġpar asit
p hat
Ġl ight
Ġa w
at her
Ġappro ach
ra w
ch ing
ĠS p
Ġorgan ization
ph or
Ġproduc er
ĠSc heme
Ġd rin
Ġw o
Ġconsum ption
Ġappropri ate
i ence
Ġp rim
Ġdef ici
mat i
Ġv is
Ġy ields
Ġextract ion
o k
Ġs un
Ġtrans fer
Ġlar ge
phor us
i xt
Ġju ices
Ġ urea
ul es
Ġex per
Ġinvol ved
Ġo xy
Ġo wn
ar ch
ĠD uring
Ġsupp ly
Ġharvest ing
Ġfacil it
r on
Ġ righ
ir d
Ġcomp ared
Ġab s
a x
Ġs an
Ġc ur
Ġel ig
Ġre t
Ġl iv
Ġcom b
Ġfeed ing
l or
ro s
Ġnut rition
Ġproduc ers
Ġadd ress
Ġtak en
Ġingred ients
ĠSecond ly
ĠR s
O s
Ġ -
en ing
Ġsignific ance
ĠN ational
v ers
Ġsour ce
a z
P I
ĠB as
Ġapply ing
Ġserv ices
be ing
a j
Ġm ixt
ĠT h
Ġbe come
Ġsu m
Ġenz ym
phat e
ric ho
in k
Ġimpro ving
e a
er ing
Ġhe ad
Ġst ep
Ġyear s
Ġab ility
Ġd ried
Ġcont in
all ed
Ġm id
Ġsa fe
t le
ĠA ct
ĠB oard
ĠD irect
Ġtyp ically
Ġpartic ular
Ġmixt ure
ure d
Ġst rate
ĠF PC
Ġass oci
Ġcon ventional
Ġse lect
Ġear th
Ġb ur
us a
Ġsu fficient
Ġdet ails
Ġc yc
Ġspray ed
Ġv erm
Ġregul ations
crib e
Ġguid elines
Ġliqu id
Ġma ch
Ġgr ass
ĠBas mati
Ġa uthor
Ġproduc ed
Ġmed ium
Ġbe ans
Ġtransp ort
Ġass istance
Ġcompon ents
Ġfer ment
ut e
Ġcaus es
Ġoxy gen
Ġf urther
Ġst art
Ġde hyd
Ġsh ap
Ġtechnolog y
Ġb iod
Ġrequire ment
Ġtechniqu es
Ġgerm ination
Ġwo uld
e quate
Ġ 9
Ġc ell
ĠA fter
Ġs k
Ġp ay
Ġcon c
Ġcon duct
Ġbi ological
l ic
se qu
Ġground nut
Ġf ul
Ġw hat
Ġs ec
ĠT richo
le ction
Ġth ree
ar b
Ġex pos
Ġad op
Ġrep res
Ġ ide
Ġp up
it her
ĠW h
ĠA re
Ġde g
ĠD e
Ġsh ort
Ġchan ges
Ġpers on
u fact
Ġmo ve
ĠT r
ru p
Ġgr ant
Ġprotect ion
Ġpathogen s
ĠInst it
Ġc ut
Ġveget able
Ġremo ve
Ġbre ak
en e
ĠP usa
hic k
Ġund ers
Ġiss ues
Ġregist ered
Ġvir us
Ġg overnment
ak es
Ġk e
Ġfacil ities
in al
at s
Ġm ust
ĠC ert
Ġocc ur
Ġa round
er ation
er gy
Ġins urance
Ġinv est
Ġwe ight
Ġgram s
Ġphos phorus
at ors
ot her
Ġme chan
Ġsh ares
Ġcultiv ar
Ġinstit ution
Ġexcess ive
ĠAgricult ure
5 0
f t
it amin
ver y
row s
c ip
Ġst ress
Ġpl ough
am ination
r us
Ġt ho
ill s
Ġchallen ges
Ġt rain
Ġc alled
Ġd ark
p ro
Ġre d
ir c
Ġman ufact
oc us
Ġf ocus
Ġcontrol led
Ġadvant ages
r ant
Ġan aly
Ġe ither
ĠA r
Ġde m
Ġcomp o
Ġer os
Ġpl ace
Ġal ong
Ġlarv a
ter m
Ġimplement ation
Ġ6 0
Ġpri or
L I
a im
o x
ĠC rop
Ġpercent age
Ġeros ion
at h
at ives
Ġcon st
v en
Ġg ru
Ġtr ust
Ġincre asing
ĠAs s
t and
Ġen ergy
com es
Ġsy rup
Ġfin al
Ġgener al
Ġpress ure
C C
Ġ et
ĠG overnment
Ġcert ified
Ġshe l
Ġdrain age
Ġfl av
Ġ rip
Ġw aste
Ġre st
Ġconc ern
s is
ap or
worm s
Ġk harif
ffici ency
Ġlit er
ve red
Ġaffect ed
Ġrele ase
Ġdeterm ine
Ġachie ve
Ġam ong
Ġquant ity
an k
ist ant
Ġloss es
Ġ Z
al u
ul y
Ġresid ues
Ġminim um
Ġrat io
iss ion
en cies
Ġc at
ar get
Ġd ate
Ġsum mer
g i
Ġf ly
ĠM a
Ġk il
Ġgro up
e xt
z e
pp ort
rib ution
Ġmeet ing
ĠIns urance
l and
m in
og ram
Ġmil let
Ġaltern ative
Ġkil ogram
Ġs ect
Ġe fficiency
Ġst ages
ĠR es
in f
Ġb ar
Ġb ag
ĠC redit
so on
Ġreg ard
Ġ4 0
Ġlay er
Ġide al
gen ce
Ġinter n
Ġpe a
avor able
ar ies
Ġd ig
et s
iz es
end ed
Ġspecific ally
Ġdes ign
Ġcontribut es
Ġequ ip
Ġbal ance
Ġdehyd ration
S A
ro pping
om pos
ĠS u
Ġcre ating
Ġassoci ated
2 5
ol d
ĠP l
ĠM em
Ġspec ified
Ġbuil ding
Ġphys ical
1 0
at ic
Ġs im
Ġf ish
im in
end er
e ad
is hed
Ġpre v
Ġminim izing
c on
j al
ĠOrgan ization
Ġmicro b
Ġst ored
Ġrece ive
Ġs l
if orm
Ġad equate
Ġres istance
Ġj am
Ġsustain ability
Ġpack aging
Ġn o
ĠCom mitt
Ġwe ather
rin jal
ĠInd ian
Ġpod s
g ed
Ġd ay
ere st
Ġcomp os
Ġfun ction
Ġstrate g
b ased
p s
er ia
Ġc ry
Ġd ose
Ġk eep
Ġ1 00
it ed
ic ompos
Ġcont amination
ree ment
Ġpropert ies
Ġnutrition al
Ġcompo unds
Ġequip ment
Ġa rom
Ġp ond
it es
Ġb io
Ġg l
Ġv ol
Ġpre m
Ġinc orpor
Ġmem ber
ĠCommitt ee
i ra
en ces
Ġor ch
Ġsoil s
Ġpur ch
Ġimpro ves
Ġwee k
Ġherb icides
Ġt arget
ot s
Ġde ep
Ġtre ated
ĠFarm er
Ġp H
Ġcont ext
ter a
ver age
Ġref er
Ġeconom ic
Ġrigh t
re g
ed i
ĠA l
ort al
Ġra w
Ġb o
Ġimport ance
Ġev alu
Ġshap e
h ib
o int
Ġho st
Ġmon soon
Ġremo ving
Ġtrain ing
a w
Ġpro ble
Ġl aid
Ġme an
ĠE LI
Ġtre es
Ġelig ible
n er
Ġc irc
Ġre se
id ae
ĠC l
ĠM ay
Ġb est
ĠA c
ĠE C
Ġho l
co hol
anc ing
Ġg el
Ġmarket ing
oper ative
Ġmonth s
Ġ &
at or
Ġv itamin
Ġco vered
Ġsuccess ful
Ġdecompos ition
) ?
Ġ ed
Ġs ing
Ġs ame
or ding
Ġen g
Ġman aging
Ġpo int
Ġfung al
Ġunders tand
Ġf ix
Ġ1 9
Ġins ide
ĠOrgan izations
Ġf e
Ġre ad
Ġprep ared
ĠPO PI
Ġindivid ual
Ġdefici ency
Ġt urn
it ive
Ġan t
ar ing
ĠO n
ĠIm p
Ġr ural
Ġpre fer
ort ion
ff e
Ġorgan izations
Ġad j
Ġcons erv
Ġhy d
Ġeas ily
Ġbiod iversity
n ual
one y
Ġpract ice
Ġrel i
Ġdep end
Ġcost s
r ing
x id
Ġl ast
g th
r ut
r ast
s ol
re t
Ġs we
Ġun it
Ġaffect s
Ġhum an
o v
Ġv ary
ĠA z
Ġen d
Ġfac ility
Ġfollow ing
Ġcrit eria
in ing
Ġc or
Ġf ill
Ġm ature
ul ated
Ġbe an
ĠS h
Ġdes cribe
Ġharvest ed
Ġregist ration
Ġrainf all
Ġabs or
j or
Ġo s
Ġc ow
ol ic
op le
Ġcol l
Ġma jor
id ence
Ġst ake
est ock
iv ed
Ġus ually
Ġint erest
pl oy
ass ium
Ġa mend
Ġre as
Ġag ency
Ġne em
Ġpurpos es
Ġmat urity
organ ic
ym ph
Ġcat tle
Y M
u als
Ġpl ac
Ġdif f
Ġcontain s
Ġplough ing
l u
Ġa verage
ar n
ĠC ons
Ġconsum er
Ġenh ances
Ġc it
Ġe very
row er
ĠG rant
Ġdirect ly
Ġoff ers
Ġindivid uals
Ġto get
Ġapp le
ast ic
Ġallow ed
Ġbeet le
Ġtoget her
t is
Ġun iform
lement ing
Ġprof it
Ġcommun ity
Ġvac c
Ġenzym es
Ġrese arch
us h
Ġca re
ĠE qu
Ġdirect ors
Ġhy gi
Ġsun light
B B
Ġcaus ing
Ġexp ens
Ġmix ed
Ġb ack
ul ations
Ġdist ance
Ġem er
Ġpoll ution
Ġp ass
um e
Ġbelong s
ĠTr ust
Ġdem and
Ġregard ing
Ġbe h
pp ed
Ġappl ic
Ġlab or
Ġdocu ment
ĠEqu ity
ĠA t
Ġdis inf
Ġtime ly
gar h
Ġdi et
Ġdocu ments
Ġhybr id
h um
Ġc ard
us ter
ĠI s
Ġas pect
Ġal cohol
Ġth ird
ĠJ uly
Ġiss u
Ġprim ary
Ġsect or
Ġp h
Ġp ric
Ġb rinjal
Ġro ast
Ġresult s
Ġshel f
Ġadj ust
i or
m os
id ity
el ing
Ġint ro
Ġtemperature s
Ġrep ort
Ġexp ert
Ġverm icompos
Ġstake holders
e on
v am
Ġd est
ĠA pp
Ġsp l
ee vam
Ġwe re
iven ess
Ġpul p
ĠThere fore
ĠAgen cy
Ġliv estock
l er
Ġ es
ĠC on
Ġcl aim
ub le
3 0
et er
Ġres istant
Ġrele ased
Ġobtain ed
p ec
Ġp ost
Ġp ick
Ġadult s
Ġpow der
Ġleg al
it h
Ġprov is
av y
Ġdep ending
Ġcomplet e
Ġdrin ks
Ġn ymph
ut es
Ġha ir
PM A
ros s
S C
Ġo ur
hat tis
Ġcon sequ
ĠP rad
Ġpartic ip
Ġirrig ated
Ġexamp le
rast ructure
hattis garh
Ġs hed
an a
is ing
Ġcomp anies
Ġho w
mot ic
redit ation
Ġfun ds
4 0
v ant
Ġ4 5
ĠComp anies
Ġpe ople
Ġperform ance
Ġexper ience
ing er
Ġd il
Ġoptim um
Ġrainf ed
Ġearth worms
Ġf od
Ġpre d
ore s
Ġbenef ici
ĠCh hattisgarh
mitt ed
Ġmultip le
Ġsan ction
Ġmove ment
Ġstrateg ies
ĠImp lementing
Ġswe et
eevam rut
Ġp os
Ġp aste
ur b
Ġcle ar
Ġp oss
es h
Ġb oil
Ġre tain
Ġcont amin
Ġsp oil
Ġinf rastructure
Ġinstit utions
Ġaim s
Ġf und
is an
or g
Ġre ach
ab i
Ġbod ies
Ġlimit ed
Ġcry st
o f
Ġt eas
ĠC O
ry ing
Ġch ain
Ġlit res
xim ately
Ġwor king
Ġadop t
i res
Ġ /
Ġf avorable
ĠM o
ĠN P
erm a
ĠO ne
Ġsub s
rip s
Ġem ploy
Ġz inc
d erma
Ġs and
Ġag ents
Ġadv ised
Ġdecre ase
g er
Ġp ub
Ġch ange
Ġminer al
Ġke y
c k
an du
Ġbe comes
Ġg re
Ġcan n
Ġad ding
Ġhealth ier
Ġresp ect
Ġident ify
Ġarom a
% .
Ġw ays
il t
Ġex ist
Ġact ive
ens ion
Ġev apor
Ġyo ung
Ġban k
t t
Ġpl astic
Ġinf lu
Ġincre ases
Ġutiliz ation
Ġdecis ion
Ġrepres ent
Ġexpens es
Ġst r
ĠC over
Ġman go
Ġsol ids
Ġgen et
Ġel imin
g ress
at o
il ities
Ġre act
Ġreg ion
Ġsul phate
Ġsal t
Ġcontin u
Ġmicrob ial
D C
y l
Ġcon f
ĠP M
Ġpest icide
Ġenh ancing
Ġdecis ions
Ġbro ad
C DC
y ing
Ġt hick
Ġd r
Ġw orm
rop er
Ġspec ial
Ġdist ribution
Ġinteg rated
m it
m ission
p r
t o
Ġp rin
Ġtim es
ĠL e
Ġpot assium
Ġconcent rated
Ġ x
Ġan other
ĠC BB
Ġle ast
Ġcultiv ated
Ġimpact s
Ġconsist ency
Ġcool ing
Ġferment ation
a pt
Ġs qu
Ġet c
Ġconsequ ences
Ġfod der
p id
ill age
Ġinf ection
Ġlead s
Ġdirect or
o ids
ow led
Ġsu per
ĠB l
Ġman ures
ĠN CDC
Ġact s
Ġsus p
b or
Ġw ide
Ġsu gg
ĠR abi
Ġobject ives
Ġsing le
Ġsugg est
Ġf ore
Ġcon ver
Ġl ending
Ġv i
Ġproper ly
Ġbre w
Ġpreserv ing
Ġbul bs
Ġstep s
Ġbag s
Ġa ph
Ġm ar
Ġor ig
ce ed
ab it
Ġdis c
Ġinvol ve
Ġrep ro
Ġlit ers
Ġfung i
Ġparticular ly
F PO
Ġf all
ru pt
Ġdis sol
Ġac re
Ġfl u
Ġatt ract
Ġprem ium
Ġw ay
end az
Ġdeterm ined
Ġtransport ation
ĠTricho derma
org hum
Ġo p
Ġs at
Ġb ott
Ġqu ick
ĠG reen
Ġsh ade
Ġsus cept
Ġob s
Ġlo ans
Ġappro ximately
Ġanaly sis
Ġos motic
w ards
Ġpro gress
ĠR ice
Ġprep are
it u
ect ed
Ġyield ing
iqu e
Ġherb icide
Ġstr ong
Ġ u
du ction
ĠF ood
Ġinst ant
Ġinteg r
pport un
1 2
Ġo pportun
Ġl ate
ly ing
Ġrequ ires
ĠU s
Ġbal anced
Ġcit rus
Ġfarm s
ĠS oil
Ġform ed
Ġgener ally
i ation
Ġp en
ic h
Ġd ung
ist r
op tera
Ġtransp aren
Ġaspect s
om en
Ġn et
ĠA cc
Ġpart s
Ġprin cip
o le
im ent
ĠC ent
ĠF in
ĠF YM
Ġcl ar
Ġun ique
Ġadv is
Ġpo or
Ġacc ording
Ġspoil age
owled ge
e x
Ġp ure
Ġw et
Ġw ast
ow ing
Ġst raw
Ġcont act
ĠP ortal
Ġpop ular
ers e
Ġhe avy
Ġst ren
Ġk ill
Ġse lection
hol ding
Ġsec urity
Ġflav ors
Ġcompos ition
l og
Ġs mo
Ġm ass
ri end
ec ut
Ġ1 2
Ġtak es
ĠAgen cies
Ġorch ard
Ġ ur
re qu
or andu
Ġm ill
Ġd ivers
ac hes
Ġdis rupt
Ġac cept
Ġremo ved
Ġprogram s
riend ly
c hes
s es
Ġre v
im e
Ġsho w
Ġad min
Ġag encies
dition al
Ġeffect iveness
Ġpromot ion
Ġlong er
Ġpop ulations
Ġfollow ed
elf are
Ġes pec
Ġespec ially
c l
v als
il ar
as ter
Ġg overn
ri ve
ĠC arb
age ment
ak h
av ing
ie w
Ġclean ing
Ġinit ial
Ġtho se
S R
d e
r an
v il
ve re
ĠS ection
Ġcl im
Ġdifferen ce
Ġsepar ate
Ġpub lic
orandu m
Ġt ree
et h
Ġh abit
ĠS w
ĠB ank
Ġmo le
Ġrele vant
Ġhand ling
li ke
Ġcount ries
d ew
Ġ unt
Ġb oll
Ġv ital
Ġsp ace
Ġwater log
Ġfood s
Ġmeas ure
air y
Ġaw ay
Ġa ut
Ġs ens
Ġc ate
Ġm akes
Ġso cial
Ġim age
ĠL ast
Ġident ifying
Ġremain ing
a per
m a
r id
x ide
Ġl og
Ġoff ice
Ġoper ation
Ġcent ral
Ġtill age
Ġvol ume
ĠLast ly
f ly
Ġs em
ho pper
Ġex pl
ĠD o
Ġbl ue
Ġadv erse
Ġabo ve
Ġent ire
Ġgu arantee
Ġs orghum
Ġc he
Ġc ases
Ġw ash
Ġv er
Ġr hiz
Ġcl ass
Ġra ised
Ġban ks
Ġbas is
Ġissu ed
Ġact ion
Ġval u
Ġpreserv es
Ġbut ter
Ġhygi ene
ĠCBB Os
i ological
Ġs ap
ar s
ric h
Ġdevelop ing
Ġserv es
Ġcomb ination
ĠDe velop
Ġboil ing
1 5
Ġs ee
Ġm ul
ĠC E
Ġapp oint
Ġcons ult
Ġsc ale
Ġunderstand ing
Ġobs erv
p art
r ates
Ġcomm od
Ġkn owledge
Ġachie ving
Ġnegative ly
Ġinfect ed
Ġp aid
Ġman ner
low er
Ġass ist
Ġneed ed
tern al
worm ing
ĠUn der
bor ne
Ġc ust
Ġc ropping
is ter
iv ing
Ġinter vals
Ġent er
Ġspl it
l ine
p le
on es
Ġf requ
it ation
Ġg et
Ġcl ay
Ġtra ditional
li ance
Ġprior it
ĠAss oci
Ġintegr ity
g reg
l a
ro us
Ġl ist
ot ing
Ġst ands
iv al
Ġr un
Ġinclud ed
ĠU tt
Ġdep th
Ġhum idity
Ġminer als
Ġvitamin s
Ġreas ons
k a
Ġv ery
Ġcomm er
Ġfil t
mos p
ĠDevelop ment
ĠAssoci ation
er ob
Ġd id
Ġpro ced
Ġ2 00
Ġme at
ĠE ar
Ġtransplant ed
Ġremo val
Ġcyc le
Ġbar ri
erob ic
Ġe lect
ort s
Ġat mosp
orm al
ĠD ist
Ġprot e
Ġestablish ment
Ġdel iv
Ġhol ding
Ġread y
S O
_ _
Ġp it
Ġag reement
Ġmet ers
Ġsol id
Ġdeterm ining
Ġconsist ent
Ġcollect ed
Ġpig eon
Ġgru bs
Ġcommer cial
Ġa ud
le x
Ġst ud
od ium
Ġsp ots
Ġse vere
ĠPro ject
Ġenvironment ally
Ġsupport ing
Ġident ified
Ġ7 0
Ġwee vil
Ġproble ms
ĠUtt ar
p ea
in ery
Ġan nual
Ġl ack
Ġen c
Ġr ich
Ġex ternal
Ġcomp liance
ĠD ep
Ġmaintain ed
Ġ5 00
Ġunder go
Ġfil ter
Ġdel ay
Ġvalu able
y ard
ro om
Ġd er
Ġpro pos
Ġl ive
ific ate
ĠR hiz
Ġbever age
Ġcover age
Ġimm edi
Ġmach inery
ffe ine
Ġbenefici aries
in ated
Ġm ush
Ġd io
ĠB or
ren t
Ġinter c
Ġpat tern
Ġprovis ions
Ġhair y
FPO s
Ġmush room
1 9
Ġo xid
it ud
Ġw il
ut ri
ec es
Ġco uld
rough t
Ġsub ject
Ġcompost ing
Ġabsor b
Ġcann ot
ĠC or
Ġreg ions
ens ive
ĠJ eevamrut
Ġcar ried
Ġconcent rate
Ġfacilit ate
Ġdiff icult
p ection
Ġc ash
an i
Ġd airy
le ments
ers hip
Ġad apt
Ġres ol
ĠO ver
ĠSt and
Ġ7 5
Ġmod ified
Ġsk in
Ġconserv ation
Ġdio xide
a pp
i os
he ad
Ġf ut
Ġf ram
Ġto wards
du le
Ġex ceed
Ġprocess ed
Ġcl o
Ġpo ly
Ġbre ed
Ġprogram me
G M
t rol
Ġ ult
Ġs itu
en se
al f
ur i
Ġg inger
ĠF und
Ġro d
Ġth rive
Ġconsum e
Ġfeed s
Ġinform ed
Ġaccount s
ĠAgricult ural
Ġcomplet ed
Ġhybr ids
icult ure
Ġamend ments
Ġnymph s
ecut ive
Ġcate g
er gence
or k
em ergence
ĠN e
Ġhigh ly
Ġsupport s
crib ed
Ġgra p
g in
i ef
m y
es ame
ĠE n
hol der
Ġcontain ers
Ġpreserv ation
Ġachie ved
Ġpul ses
Ġpurch ase
Ġsmo oth
Ġmole c
Ġfut ure
u um
Ġs er
al ing
Ġto ler
Ġe ff
Ġor ange
ĠIn t
Ġcol d
Ġlo ok
Ġocc urs
Ġprofit ability
Ġsuscept ible
m an
m ber
o hyd
s et
Ġt ub
Ġa eration
Ġp r
Ġp ortion
ar ily
Ġg ard
Ġpre feren
ĠM as
Ġcult ure
Ġcl oth
Ġpot ato
Ġcre ates
Ġbor rower
Ġgru b
Ġgroup s
arn a
Ġposs ible
ĠUs ing
Ġre pl
Ġre aring
Ġv ent
ĠS e
ĠS eed
Ġr ates
Ġredu ction
Ġra ising
Ġstand ard
aren ess
Ġrip ening
Ġph ase
Ġdest ro
Ġcontinu ous
ĠDist rict
l ication
Ġp i
il ize
ch a
qu ality
Ġpres erve
Ġho urs
ress ing
Ġtest ing
Ġdeg rad
ĠLe vel
Ġenc our
f ree
l op
w ari
it ef
or ds
Ġag greg
art ment
og n
Ġmin utes
Ġcl uster
Ġcomm itt
Ġun f
co ze
ob ium
Ġplan ning
Ġpay ment
Ġdig est
Ġdesign ed
Ġdisinf ect
Ġopportun ities
coze b
l ig
Ġb ase
Ġh or
Ġit em
Ġaffect ing
Ġopt ions
Ġprepar ing
Ġwho le
Ġaw areness
Ġed uc
Ġcust om
Ġt ender
Ġpro c
us ion
ĠP roper
ĠF S
ĠF ee
ĠM O
Ġch ill
Ġch ances
Ġun its
Ġproduc ing
Ġoff er
Ġcalc ium
ĠWh ile
Ġplac ed
ĠPrad esh
ĠSw arna
Ġunt il
Ġpi eces
A M
b re
r d
re ct
Ġin oc
Ġh oney
Ġle ft
Ġac ids
Ġho les
ĠCom pos
Ġconsum ing
co ol
ĠK isan
Ġall oc
Ġsur v
Ġset ting
Ġrec ogn
Ġresid ue
Ġselect ing
ira ble
Ġintro duc
z ing
Ġ rows
Ġt iss
ra p
ch ar
Ġst at
Ġext end
Ġecosystem s
Ġconduct ed
Ġsim ilar
Ġexist ing
Ġmolec ules
lop rid
C E
P R
Ġs n
Ġhe ight
Ġde worming
Ġal t
Ġcomp act
Ġro om
ĠM on
ĠO ff
Ġho use
Ġcl ose
Ġtre ating
Ġfl o
Ġfl at
Ġconsum ed
Ġamount s
Ġrel ations
Ġacid ity
Ġrat s
Ġrec ords
Ġshare holders
ĠDirect ors
Ġfrequ ent
l ies
m l
Ġs low
Ġp aper
it ig
Ġm itig
Ġplant ed
Ġag ro
ĠIn tern
Ġ1 8
ĠD han
hem es
ail ed
Ġtreat ments
Ġacc ur
Ġtechniqu e
Ġinit i
Ġexpos ed
Ġmanufact uring
endaz im
l ess
n ight
r ange
Ġ ice
le y
Ġfor t
ac loprid
Ġk ind
Ġca ffeine
iliz ers
Ġsupp lement
Ġform s
Ġsol uble
Ġra d
Ġ8 0
Ġeas ier
ĠTricho gram
Ġrelations hip
e es
Ġd rop
Ġto o
ĠS ystem
Ġsc he
Ġsub mit
Ġsubst ance
Ġlar ger
Ġtechnolog ies
Ġprim arily
Ġexpos ure
Ġmechan ical
Ġvermicompos t
d ra
h i
j oy
Ġd rought
Ġw ind
us ing
Ġg as
Ġen joy
Ġsc hemes
Ġrel ation
tic les
Ġsignificant ly
ĠMan agement
Ġinfect ions
f ur
o ly
o king
r if
Ġw in
Ġund ert
Ġavoid ing
Ġcount ry
Ġvac uum
Ġfix ed
Ġapplic ations
Ġsusp ension
k ra
t ed
Ġa ids
Ġs erve
Ġhe ap
Ġen ough
ĠH y
Ġco ord
hy l
Ġqu al
Ġinter vent
Ġdist rict
Ġmil dew
Ġbre aking
Ġliv ing
Ġsanction ed
Ġrespect ive
o ff
Ġ row
ic ing
im ately
Ġl ink
Ġcan e
os ing
ĠP re
ay a
ĠB ef
ative ly
Ġtra p
Ġar range
Ġestabl ished
Ġguid ance
Ġobject ive
Ġinvest ment
Ġkilogram s
Ġroast ed
ĠNe em
ĠBef ore
C P
F W
v is
v ate
on ic
ho od
if ies
Ġst ability
Ġex c
Ġha ving
rain s
Ġfl ood
cy ra
olog y
Ġlit re
Ġec ological
Ġextract ed
Ġresour ce
Ġprof ess
Ġadvant age
Ġcrit ical
ĠZ inc
ĠCor cyra
a ff
c ol
n d
an ching
id acloprid
Ġcan ning
ĠCh ief
Ġfreez e
Ġassess ment
Ġful l
Ġcare ful
6 0
v i
Ġt ur
Ġf ed
Ġf ir
is ation
ho g
Ġh ills
um in
Ġcom e
Ġapp e
ĠR aj
Ġtrans form
Ġbul k
Ġcalc ulated
Ġpric e
Ġu pt
D A
w ater
Ġs il
Ġc ast
al es
ul ating
ol s
Ġst ruct
am y
ry s
Ġpotential ly
ĠY o
Ġest im
Ġcompon ent
Ġindic ates
Ġregular ly
Ġcompet ition
Ġprev ents
Ġcryst als
m aking
o on
in ary
is m
et ers
op e
ĠD es
be an
Ġauthor ity
ĠCert ification
ĠMem orandum
hib it
Ġinflu ence
Ġgenet ically
Ġworm s
Ġitem s
Ġupt ake
b y
n es
n ov
Ġt end
Ġa ff
Ġn ational
Ġv illage
ĠC ard
Ġnot ified
Ġprotect ing
Ġra pid
Ġinfest ations
Ġcover ing
Ġret ention
ĠMa ize
Ġsubs id
ĠCE O
Ġcommitt ee
Ġfort night
Ġsche dule
k en
m ore
en gth
ic king
Ġto x
ut ed
Ġr an
ĠP rom
Ġman d
Ġac qu
Ġth ro
ens is
Ġwe b
Ġfung us
Ġbed s
Ġfunction ing
Ġreli ance
Ġclaim s
' ?
Ġf ine
ir t
ĠM al
ĠD AC
ail y
Ġprotect ed
ĠSt ates
Ġbug s
Ġhead s
ĠInstit ution
Ġsuggest ed
Ġbutter fly
Ġobserv ed
Ġpriorit ize
g round
Ġ +
in ct
Ġp olic
Ġw elfare
ĠW ater
as ks
Ġl ength
ĠP ant
ific ations
ĠN PMA
Ġinter val
Ġexp ort
Ġappro val
Ġwee ks
Ġbr and
ĠRes ear
Ġmean ing
Ġprefer red
ĠNP K
Ġadvis able
Ġwash ing
y n
Ġs odium
Ġc ross
Ġm old
ĠT ea
Ġn ect
Ġl akh
un n
od es
ĠF urther
ĠH e
iliz ation
ens ity
Ġsuc king
Ġshare holder
Ġefficient ly
Ġmach ine
Ġ9 0
Ġrepres ents
Ġop en
Ġprincip les
ĠMO P
1 1
Ġt ax
Ġf ail
Ġd aily
Ġl ine
Ġen ables
row ning
ug hout
Ġspecific ations
Ġext ent
Ġrep ay
Ġlit ter
Ġequ ity
uc urb
Ġmoth s
Ġremain s
Ġimm une
Ġpropert y
Ġenzym e
Ġmanufact ure
Ġconcern ed
SA I
Ġstren gth
Ġthro ughout
ĠResear ch
c ing
f ill
Ġon set
ĠF ruit
Ġag ent
Ġup on
rin k
Ġoptim ize
ĠCh rys
Ġbul b
Ġret urn
Ġpup a
Ġvi ability
Ġder ived
Ġult imately
ĠFurther more
Ġf riendly
Ġbe low
Ġg ive
Ġr id
Ġal ign
Ġne xt
Ġmo b
Ġsign s
Ġlim e
Ġequ al
Ġindic ate
Ġgra ding
Ġcho ose
pr il
Ġwast es
ĠRhiz obium
cool ing
ĠTrichogram ma
f ort
g u
Ġb ud
Ġn am
ag er
ol i
am om
ĠS an
ĠB oth
ak ed
Ġ1 1
yp s
Ġopt ion
Ġacc um
Ġutiliz ed
ĠEx ecutive
ĠDirect or
ĠWh ite
Ġintern ational
Ġbrew ing
ĠAcc reditation
7 0
o ut
t ime
Ġd ust
Ġw omen
ra z
Ġst re
Ġde ath
Ġpre ca
art ments
Ġsh all
Ġinfest ed
ott ed
Ġrain s
Ġcarb ohyd
Ġingred ient
Ġshoot s
ron utri
ĠInstit utions
Ġintern al
Ġcomplete ly
Ġrev iew
p hos
t e
ro ly
Ġfarm yard
am b
ĠS ub
ac y
Ġha z
ĠR e
ast ra
Ġtrans mission
ĠE ach
Ġdet er
Ġup land
Ġsmall er
Ġflow ering
aren dra
Ġselect ed
Ġful ly
Ġprev ious
ĠCent ral
Ġdestro y
c os
Ġc hick
Ġin nov
ic er
Ġst unt
ain s
Ġform ing
Ġpot ash
Ġmat uring
Ġtra ps
lor ide
Ġadop ting
ĠAss am
Ġdissol ved
' .
it ter
Ġcon vers
ect ic
el ling
ĠM ore
Ġsub mitted
Ġperiod s
Ġwor ld
onom ic
Ġpul se
Ġcaterpillar s
Ġoil s
Ġdrin king
Ġauthor ized
Ġcell s
Ġrest rict
ĠIntern ational
m al
s ide
Ġt on
in der
Ġs esame
ul ate
ho t
Ġn ormal
Ġl ater
ĠA pril
od o
st and
ĠP est
ak s
Ġres il
ud d
Ġmarket s
Ġinst ar
ĠPO s
Ġbu ff
Ġfill ed
Ġbeh av
Ġorig inal
S P
g rains
o ber
Ġ iron
Ġf our
ed ic
Ġhe art
od e
ĠP addy
Ġle mon
ric ts
ĠM in
ĠN itrogen
Ġprevent ive
Ġweed ing
Ġext ended
Ġproject s
Ġ6 5
Ġident ification
Ġassess ing
Ġmix ing
Ġgo ats
Ġbeet les
Ġferment ed
sequ ent
Ġvacc ination
Ġevapor ation
Ġpen et
Ġsem i
Ġchill i
4 4
Ġ hat
Ġf em
is p
Ġh ard
Ġst er
Ġst ates
Ġde ad
Ġman ual
Ġnut rit
Ġbl ight
Ġflow er
Ġke pt
Ġtho rough
Ġfe et
Ġquick ly
Ġmushroom s
F O
g ae
Ġ ill
ct ions
du ce
ab or
ĠA ll
gan d
ĠS L
se ud
Ġtim ing
Ġform al
Ġdes irable
AC CP
Ġmaxim ize
Ġpig s
ĠReg ular
Ġfacilit ating
Ġcur rent
Ġelig ibility
Ġconcern s
aw s
Ġparticip ation
Ġproc ure
4 5
a i
b al
y a
re l
Ġs w
Ġc red
or th
Ġg m
Ġh ar
Ġpl at
ac hed
Ġman aged
Ġ1 7
Ġref rig
Ġfo ot
Ġacc reditation
Ġflow ers
Ġrec ord
Ġcur d
ĠSu gand
Ġelimin ate
Ġdr um
Ġwaterlog ging
h ain
Ġ Q
in y
on as
om onas
ag g
ĠS el
Ġch il
ren ce
Ġins pect
Ġinsect icides
Ġcre ated
Ġtra de
Ġsur round
ha ar
Ġbas al
Ġparasit oids
Ġcontamin ants
. ,
f or
r s
Ġs ide
Ġb at
al o
Ġm ash
Ġd raw
ur a
et ho
Ġcon cept
Ġro und
Ġdis or
ĠM e
ĠN arendra
Ġsupp ress
Ġexp ected
Ġtechn ical
ĠAg reement
Ġloc ation
mer ic
Ġutiliz ing
Ġrigh ts
Ġconduct ing
Ġrhiz ome
itud e
ĠOver all
Ġcareful ly
i us
k g
Ġo ld
Ġf ib
Ġw all
ad haar
ert ilizers
les h
Ġfood grains
iliz ing
Ġact ions
Ġho ld
Ġcl os
Ġthere by
Ġset t
Ġobtain ing
air s
Ġgo al
ĠAc count
ĠFS SAI
Ġconvers ion
8 0
B Y
F BY
Ġa id
ĠI C
pp ers
Ġon ion
Ġcult ural
Ġprevent ed
ĠMan cozeb
ĠTh ird
Ġcontin ue
Ġdepend s
Ġplat form
hain cha
S t
r at
re a
en er
Ġf ace
Ġre co
Ġst ill
Ġso ft
um es
ac co
row ing
ĠB an
Ġcomp ly
Ġth rips
Ġass ets
Ġadv anced
amp les
Ġcontain er
Ġfol i
Ġrain y
anc hes
Ġloc ated
Ġrespons ib
Ġut ilize
Ġbacter ial
Ġcarbon ation
Ġyellow ish
Ġgo als
Ġcultivar s
Ġpick les
ilt ration
Ġtransparen cy
ĠFin ally
ĠMore over
b it
b acco
s p
Ġs ell
ro b
it ives
Ġb rowning
il ation
ĠW P
ul if
Ġe lements
Ġde v
ĠP hos
Ġseed ing
ĠD if
ĠE m
ph ur
Ġdec l
nt hes
Ġiss ue
Ġestablish ing
Ġcollect ive
Ġcho ice
Ġz one
Ġbur rows
Ġfocus es
Ġkeep ing
Ġfill ing
Ġaph id
Ġnect ar
ulif lower
s c
v id
Ġto bacco
ct ober
as k
ve y
Ġl ines
Ġr ust
ust ers
Ġits elf
Ġfin d
Ġnatural ly
Ġinst ead
Ġrep e
Ġmem br
Ġimplement ed
itor ing
Ġrat oon
Ġpos itive
Ġsand y
Ġbarri er
Ġimmedi ately
seud omonas
T U
t hen
in ate
Ġc rus
Ġp ink
et ies
Ġg rin
ĠA adhaar
ort ing
Ġinc idence
ĠU rd
Ġinter act
Ġpe eling
Ġlow land
Ġdef ined
ĠTh i
Ġcoll abor
Ġdivers e
Ġclim ate
Ġproced ures
Ġbreed ing
Ġpreferen ces
FO AM
a ult
Ġf ew
ro t
Ġen em
ĠS SP
Ġne ar
rad e
oper la
Ġconsist s
Ġfresh ness
Ġvirus es
Ġproble m
Ġcard amom
Ġpowder y
Ġwil d
ĠStand ards
Ġclo ud
Ġmitig ate
Ġstruct ures
ĠChrys operla
F SC
G F
T C
b ack
w ar
or ies
Ġh is
Ġst im
ru g
ist ration
tain ing
Ġac ross
Ġsub sequent
Ġsol utions
ph as
Ġdef in
Ġseas ons
Ġem p
Ġem phas
Ġhapp en
Ġhum ans
Ġam mon
Ġpow er
Ġparasit es
Ġvermicompos ting
Ġaph ids
ĠDep artment
Ġintroduc ed
Ġnam es
Ġbuff alo
rel ated
p m
re es
Ġm oney
Ġg all
ant ri
Ġde mon
um ber
ĠF ac
Ġsp ot
Ġdis pos
Ġwe ak
ĠU rea
Ġadv ance
Ġadd itives
Ġresp ir
Ġchar itable
Ġgr an
Ġprop ortion
Ġgra du
Ġdecre ased
az ole
Ġsat is
istr ar
Ġmul ching
Ġstat us
Ġfir m
St ate
nthes is
Ġdemon st
u k
Ġt il
Ġt aking
Ġp ectic
is es
Ġm ites
od optera
Ġpre c
Ġcomp rom
Ġca uliflower
ĠR ural
Ġcl usters
Ġpart ially
Ġdet ailed
eg rated
Ġoff icial
Ġcharacterist ic
ten ance
li er
duct s
Ġwhe ther
ĠSp odoptera
Ġrip e
Ġfilt ration
Ġdegrad ation
ĠMon itoring
rif ug
Ġhaz ards
Ġton nes
ĠSugand h
Ġresponsib ilities
I S
t ers
Ġo d
Ġo kra
Ġp an
Ġp ose
al t
il o
ĠT e
ab ly
Ġst ab
ĠC CE
Ġen ab
ater al
ru ction
Ġres erv
Ġco operative
ĠR ed
Ġinsect icide
Ġcontribut ing
Ġmeet ings
Ġsym b
Ġdeterm ines
Ġregul atory
Ġincorpor ated
ĠCons um
Ġpred ators
Ġpaste ur
Ġdelay ed
ĠProm oting
Ġenem ies
w ise
Ġp hen
Ġp ast
Ġp hot
Ġf ro
Ġd rug
Ġv ig
Ġco con
Ġrequ est
ĠG round
Ġins pection
Ġother s
Ġass urance
Ġpart ies
Ġlike ly
Ġcar ry
Ġprotect ive
Ġout bre
io xid
Ġdef ault
Ġrece ived
ĠReg istrar
Ġcyc ling
Ġsee k
Ġprote in
Ġcast or
yps um
Ġpreca utions
Ġcocon ut
0 5
G S
Ġs light
Ġc orpor
Ġd ivid
Ġw ings
Ġcon ven
Ġg ases
un c
ce ll
ĠP art
op y
ĠB ra
Ġhel d
ĠO ctober
ach lor
Ġacc redit
Ġsuc k
Ġmod ern
Ġreact ions
ĠBor rower
Ġbud get
ĠGround nut
M P
d own
w ant
w ork
Ġc ab
Ġc ucurb
an es
Ġm oss
Ġd iversity
Ġw a
us s
ir ing
ĠI I
Ġon ce
op l
ĠM TU
Ġ2 4
Ġnot e
Ġmain tenance
Ġspray s
Ġatt ribut
oll a
Ġban ana
Ġdos es
Ġsafe gu
Ġcut worm
Ġgl ob
ĠAz olla
Ġcor rect
eth rin
Ġeff orts
ĠMas uri
Ġalt itude
re me
Ġc yl
Ġf at
Ġf aster
or r
Ġm is
ul s
id ios
Ġg ain
Ġh ist
Ġst e
um p
ĠH ACCP
Ġco oking
Ġch lo
Ġtr un
our ce
Ġdif fer
Ġsol d
Ġinter m
hol d
Ġshe ds
Ġcent rifug
Ġeas y
lo ad
Ġpri vate
Ġvis cos
aj ra
ĠSu pport
Ġpurch asing
Ġapplic able
Ġlog o
my worm
idios is
N A
c ri
Ġt all
en ic
arm al
Ġst ore
ĠH igh
ĠM ain
ĠG overn
Ġform ulation
ark et
ress ed
ĠJ ap
Ġdes cribed
Ġdist inct
Ġcontain ing
Ġent ry
rip e
ĠAn nual
Ġpar am
Ġbuil d
Ġmechan isms
Ġexpert ise
istr ative
Ġexpl ain
Ġatmosp here
Ġsitu ations
Ġrod ent
ĠInt egrated
Ġdefin ition
Ġenab ling
Ġviscos ity
6 5
p ur
s u
Ġthe r
Ġp ap
Ġb on
Ġb itter
ar c
Ġm m
Ġg e
Ġsu it
ĠP ectin
ĠB usiness
Ġag e
Ġco cc
Ġth in
ug ar
ĠG ov
Ġcol lection
Ġli ability
feren t
ĠJ am
Ġout side
Ġstand ing
Ġrot ating
Ġmic ronutri
Ġbu y
Ġloc ally
Ġequ ival
Ġar ticles
br id
Ġspac es
Ġcyc les
ĠMem bers
Ġorch ards
Ġbott om
Ġinterc ropping
Ġcarbohyd rates
ĠThird ly
ĠDif ferent
want ed
h ap
m iss
Ġp udd
or ing
Ġb in
Ġd om
ent al
Ġw ood
ul a
ur ities
ve mber
Ġl at
Ġso y
Ġso aked
Ġim bal
Ġus age
ĠS oci
com p
com ing
ĠM antri
Ġj ell
Ġme ant
Ġme aly
Ġab le
Ġun wanted
Ġfun ctions
Ġdist ricts
let s
Ġavoid ed
Ġquant ities
Ġful fill
Ġtransparen t
Ġappoint ed
Ġpropos ed
ĠCompos ite
ĠDes cribe
ĠQ u
3 5
b ic
n ed
o gen
t ho
Ġt ren
Ġt ip
Ġt ray
Ġc y
ic ers
Ġe vent
Ġpl ate
ĠP R
ĠP e
ĠP ig
Ġpe el
ĠPO B
Ġpat ches
Ġstem s
Ġ25 0
Ġphys iological
Ġdefici encies
Ġtransfer red
Ġcow pea
Ġexpert s
Ġrepro duction
Ġur ine
Ġcommod ities
Ġresol ution
Ġser ious
Ġrepay ment
Ġsafegu ard
h arvest
i i
Ġa qu
Ġc ere
is ion
Ġh ome
Ġh yp
Ġv apor
ĠF all
ĠF orm
Ġsp ores
Ġext reme
ĠOrgan isation
Ġinst all
ĠInd ira
Ġmeet s
AR I
Ġrespons ibility
Ġchan n
Ġdi am
Ġback ground
Ġsqu are
Ġgrap e
itef lies
vis ory
ĠYo j
Ġrepe ated
b ed
f ertilizers
i ot
r ating
Ġc akes
on azole
Ġd irt
Ġd ensity
us es
Ġst aff
Ġr ub
em ic
Ġwater ing
ĠD el
Ġnot ice
ell a
Ġcar rying
Ġterm ites
Ġappro ved
Ġappro aches
uc her
read y
cept ions
ĠAn other
ĠNo vember
Ġdeg rees
Ġreli able
Ġabsor ption
ĠPrad han
Ġclar ification
Ġhabit at
ĠDo es
Ġcommod ity
Ġill ness
U T
d ay
g reen
Ġs ale
en ed
it ace
ul fur
et ch
du p
Ġwith stand
ĠM et
Ġtrans act
Ġreg ister
Ġdec ant
Ġbu ds
Ġbel ie
duct ive
Ġspread ing
Ġassess ed
Ġbr an
Ġbr anches
Ġbor ne
Ġabs ence
ĠCert ificate
Ġevalu ation
Ġreas on
Ġfund ing
ĠNP V
Ġgenet ic
Ġconf idence
Ġflu id
Ġaut hen
Ġprocure ment
Ġtil th
ĠMain taining
u ok
z o
Ġf ails
al is
al im
il s
ĠW ith
ut ation
Ġh ort
el ves
Ġas h
ĠA uthor
Ġen rol
ĠF uk
Ġal ready
Ġseed ed
Ġdam aged
Ġfac ed
Ġsur vey
Ġbusiness es
Ġbas in
Ġlab el
Ġcount ing
ĠRes ource
Ġeng age
ĠPOPI s
Ġcoll ateral
PMA FSC
Ġreact ion
Ġeduc ation
Ġprofess ional
Ġbat ch
Ġtrun k
Ġinterm edi
uok a
ĠFuk uoka
c ert
c king
s elves
re p
Ġp ortal
an ee
ic t
Ġm yc
Ġd edic
ut s
Ġst able
ĠC GF
st ances
Ġthem selves
Ġbl anching
Ġout comes
Ġfact or
Ġextract s
cc oli
Ġwor ks
Ġbas ic
Ġbuil dup
Ġphos phate
Ġbro ccoli
Ġbo ost
Ġeng aged
Ġant ioxid
Ġdisinfect ants
Ġrad ish
Ġfail ure
Ġbehav ior
D SR
l orp
Ġp ale
Ġb urn
Ġh ands
Ġh alf
un j
ĠC TC
Ġus es
Ġpre cip
ĠP ot
Ġha il
ĠM ith
Ġk ern
Ġth re
Ġwe bs
Ġrel atively
Ġimprove ment
Ġfung icide
Ġcarbon ated
icult ural
Ġsan itation
Ġpup ation
ĠZ n
ĠCl aim
ĠPM FBY
Ġorig in
Ġpattern s
Ġfram e
Ġintervent ions
Ġarrange ment
Ġdisor der
Ġequival ent
alim ar
lorp y
. -
7 5
V I
t ific
Ġa p
er ous
Ġf lesh
Ġre ly
us tain
ho use
ĠC al
od y
Ġprodu ces
ist ic
Ġro ll
up s
cy c
Ġdist ribut
Ġexp ect
Ġra ise
Ġchar ges
abl ab
Ġcalc ulation
Ġgro unds
Ġtarget ed
Ġrepro ductive
Ġadmin istrative
Ġdeliv ery
ĠHy brid
Ġinnov ative
Ġparam eters
Ġpap aya
% )
o ch
p est
er ations
Ġs in
ing u
is hes
om et
ĠI FOAM
el ine
od ging
Ġcont ribution
Ġsho wn
Ġr ules
Ġapp et
Ġper mitted
Ġy eas
oc c
Ġqu int
Ġcultiv ating
Ġextract ing
Ġtra its
Ġpreserv atives
Ġmultip lication
Ġmid ge
Ġstrate gy
ĠInstit ute
Ġrefer red
Ġcirc um
Ġcirc ular
Ġpos ition
Ġclass ified
Ġsupplement ation
Ġstunt ed
ĠMin ist
Ġrefrig er
ilo oper
Ġpasteur ization
Ġslight ly
Ġsoy bean
Ġauthen tic
Ġdedic ated
c ence
z en
on y
it ure
os y
Ġst rict
ĠC els
ĠS owing
Ġal gae
ip tera
Ġsc ab
Ġpract icing
Ġcap able
Ġacc ord
Ġshe ets
Ġstate ments
Ġfacilit ates
Ġcut ting
ven ue
Ġbar ley
Ġfe ature
Ġemer gence
Ġtiss ue
yn am
Ġfem ale
Ġcircum stances
ĠCels ius
4 2
o o
in ating
Ġc ro
Ġc ra
Ġp et
en ers
Ġf ur
Ġf ive
Ġv ine
est ic
Ġcont ents
ĠP unj
ĠF ed
ĠIn c
hy ll
Ġcert ifying
ine app
ĠPro gram
ĠL im
ĠL ending
Ġfin ance
ĠK CC
ish ing
Ġminim izes
Ġout l
Ġleaf hopper
Ġoper ating
Ġfollow s
Ġ15 0
oper ation
Ġprof its
Ġconsider ing
Ġbro ken
Ġret ail
ĠCl uster
Ġpure e
Ġrepl en
Ġvent ilation
Ġstre am
Ġmembr ane
war f
Ġphot osy
Ġattribut es
Ġbin ding
Ġjell ies
ĠPunj ab
3 7
Ġs ed
or a
ĠT ar
Ġg iving
ment al
ĠA m
ist ered
op h
act iv
ĠN a
ef ul
Ġmain ly
Ġcol our
Ġlim its
Ġmaxim izing
ĠMan ager
lo anee
Ġoccur rence
Ġbeh ind
Ġadopt ion
ĠSystem s
Ġnutrit ious
Ġsatis fact
orr hiz
Ġpudd ling
b age
d en
g n
t on
Ġt en
et ic
Ġl act
Ġg ives
ow er
Ġh inder
ag n
Ġso le
Ġso und
ĠP seudomonas
Ġproduct ive
her ing
her ic
Ġrecommend ations
ill us
orm s
Ġint ended
ĠG ener
Ġsugar s
Ġminim ized
Ġcre amy
ĠMan ure
righ t
Ġobject s
Ġeven ly
Ġsul f
Ġown ership
Ġperson al
Ġevalu ating
ĠSh alimar
Ġamend ment
Ġgre ater
Ġwide ly
Ġboll s
ĠEar th
Ġatmosp heric
ĠGovern ments
Ġchann els
Ġdiam eter
ĠMith un
Ġappet ite
2 4
I N
a erobic
l av
p a
in a
er c
Ġc ake
il ib
ers ion
Ġv eter
eed s
ĠS a
ĠP rat
Ġman uring
Ġca pt
ĠN umber
ffect ive
ĠG ro
Ġcomm it
Ġdet rim
Ġcre ation
Ġpe at
Ġborer s
ĠV ari
Ġmembers hip
Ġstor ing
Ġpack ing
Ġleg umes
Ġcommun ities
Ġadjust ing
Ġdr ill
Ġfore st
Ġoxid ation
Ġchick en
Ġresil ience
Ġcred ibility
ĠYoj ana
ulfur on
ustain able
Ġaccord ance
Ġdetrim ental
o or
w ard
Ġo vers
Ġf air
ol iation
Ġso ap
ĠP h
Ġcom es
ĠH em
Ġinc l
ĠL ep
Ġass ign
Ġdep artments
Ġdef oliation
Ġacid ic
ne w
li hood
Ġvir ide
Ġlab eling
Ġlay ers
Ġattack s
Ġcho osing
Ġinit ially
Ġexper iment
Ġdem ands
Ġconserv ing
Ġpric es
ĠCarb endazim
Ġstud ies
GM Os
Ġunf avorable
Ġaccur ate
Ġaccum ulation
ĠPig eon
itace ous
2 2
8 1
d ed
Ġs ix
Ġp pm
en ced
Ġm ut
Ġm ort
Ġd ri
Ġd ense
Ġw hy
il ing
il it
ul um
us k
Ġg um
ra ight
Ġst ick
Ġpl ans
Ġso aking
Ġim idacloprid
Ġus eful
ĠS um
ĠS erv
ĠS oy
Ġcomp ens
Ġj ute
Ġcert ificate
ĠPro cess
Ġcar ds
Ġlit ura
ĠV erm
Ġvir al
Ġdecompos ed
Ġcommun ication
Ġcompet e
Ġmach ines
Ġanaly zing
ĠPl ant
Ġpoint s
Ġcryst all
Ġwaterlog ged
Ġpr one
Ġweb ber
sc ale
Ġfro zen
Ġaccredit ed
Ġcab bage
ineapp le
A P
s ive
re hen
Ġs elf
an as
it hout
Ġin hibit
Ġre al
Ġre lying
Ġfor ce
Ġe pid
Ġcon ical
Ġg ypsum
ĠA GM
Ġde pos
ĠB io
ec ution
Ġcomp rehen
per m
Ġhelp ing
Ġ1 20
Ġfl ask
ĠCh air
xy l
Ġindust ries
Ġsepar ation
Ġpoll ination
ĠEx amples
ĠSp ray
Ġpay able
Ġdeg ree
ĠTr ans
Ġsl ug
Ġincorpor ating
Ġed ible
Ġhygi enic
Ġalcohol ic
Ġemploy ed
Ġactive ly
Ġalloc ation
Ġsurv ive
Ġgradu ally
Ġcucurb itaceous
Ġhist ory
Ġbon us
Ġcomprehen sive
b oard
f low
g al
g ran
g then
Ġ vel
Ġs amp
an cial
Ġf lex
Ġm ig
Ġd ie
ab ilities
Ġhe ating
st er
um b
um n
ĠS o
ĠH aving
Ġk odo
Ġk etch
ĠR at
Ġch am
oc er
Ġse en
PO PI
feren ce
Ġear lier
Ġoff icers
Ġoptim izing
Ġmed ic
Ġsul phur
Ġtest ed
Ġtill ing
Ġcur ds
Ġinvest ments
Ġmillet s
Ġevalu ate
Ġcor n
Ġdisinf ection
Ġprovis ion
Ġmar gin
Ġtoler ance
Ġsurv ival
Ġwall s
Ġaqu atic
tific ial
perm ethrin
Ġketch up
' t
b an
u a
on ds
Ġp ome
Ġan aerobic
Ġin j
Ġm agg
im a
Ġen able
em at
Ġdis char
ĠM arket
Ġben zo
Ġcert ify
Ġdist ingu
Ġall ied
ha ust
uc le
Ġpack aged
Ġchan ging
ĠInst ead
Ġsepar ated
Ġcompet itive
Ġverm iculture
ĠCert ain
ĠCons ult
mos is
ĠBl ack
Ġboll worm
Ġpr un
Ġiniti atives
Ġappe aling
Ġsubsid y
Ġtox ic
Ġsurround ing
Ġa ra
Ġs av
Ġs izes
al a
Ġm us
Ġre venue
ĠW ithout
as al
ĠThe ir
ot e
Ġsu ff
est ern
ĠC R
iz on
ĠS ec
em ber
Ġsp ir
ist s
ad es
Ġex em
hic al
Ġres ign
Ġj ust
oc on
Ġmon it
Ġ4 00
Ġob lig
Ġlo ose
Ġev idence
Ġent ering
ob acter
Ġwas hed
Ġrece iving
Ġconsider ation
Ġsal ts
Ġgrass hopper
Ġgl ass
Ġvol at
ret ary
ĠAcc ording
Ġsplit ting
Ġprote ins
Ġhor izon
Ġinoc ulum
ĠOff icer
Ġclose ly
Ġtur meric
Ġfoli age
Ġdrug s
Ġsuit ability
Ġphotosy nthesis
Ġsed iment
ĠHem iptera
ĠLep id
ĠServ ice
I nd
K isan
f ac
f riendly
h in
l ands
m es
Ġt an
Ġt ail
re ci
Ġs ection
Ġs orting
Ġf um
Ġb hog
Ġm armal
Ġre aches
ĠT erm
Ġen rich
Ġcont ract
ter ing
Ġimp urities
Ġsp otted
ad a
ĠIt s
Ġco co
res istant
ĠR o
Ġnot ification
Ġins ured
ear ing
Ġho pper
ĠAd ult
Ġ3 5
ress ion
Ġup load
Ġpack ed
Ġpack age
Ġregul ate
Ġindic ators
eep ing
Ġdig ging
Ġmill ilit
roly sis
ĠBan ks
ĠTe chn
ĠGov t
Ġdom estic
Ġcro re
Ġsulf ate
3 3
Ġa part
Ġp ear
al in
ic ate
ot obacter
ri al
Ġst raight
ĠS C
ĠF ig
Ġsp rink
ĠM il
ĠM arch
Ġcons erve
Ġth us
ĠR C
Ġtrans ition
Ġsub mer
Ġext ension
Ġwh iteflies
ruct ions
ĠY ard
Ġgener ated
Ġmod er
Ġcho ices
Ġcompos ite
Ġcow s
Ġbenefici ary
Ġdisc uss
Ġstren gthen
__ __
Ġtiss ues
Ġcoord ination
vi ya
Ġrapid ly
ĠMal viya
cri ption
Ġcham ber
ĠLepid optera
R I
c ast
m all
n a
on is
an al
Ġb ric
Ġd ro
ct u
Ġpro hib
Ġn emat
ir rig
ĠS am
Ġro les
and ra
Ġmet hyl
Ġcl ub
ĠL MP
Ġfertiliz ation
Ġinst ructions
Ġmeas uring
Ġshe et
Ġserv ice
Ġgood s
Ġcollect ing
Ġcirc ulation
ĠAz otobacter
Ġinterest s
ĠCon trol
Ġbott les
Ġaccept able
Ġproced ure
Ġbarri ers
Ġlive lihood
Ġmand atory
Ġrid ge
ĠCCE s
arc ity
1 3
4 3
p ir
s em
t y
w ings
Ġt unn
Ġa erobic
Ġc ore
Ġp and
Ġd ip
ur face
Ġl if
Ġl odging
Ġg ap
Ġh ad
ri um
Ġst ay
Ġpl ains
um ps
ĠS ugar
Ġpre gn
Ġcom fort
ĠF ree
Ġsp ices
Ġorgan izing
op ectin
Ġcomp lex
Ġro l
ans ion
Ġ1 4
Ġ1 000
av ist
ĠN on
ĠR ep
Ġsc reen
Ġho using
Ġmark s
oth rips
Ġexp ansion
Ġterm ite
Ġent ity
Ġequ ilib
br is
resh ing
ĠCo ffee
Ġtomato es
Ġvis ual
Ġexper i
Ġstart s
Ġbreak down
Ġroast ing
Ġcontamin ate
Ġgre y
Ġmar g
Ġur ad
Ġche ck
Ġcustom ers
Ġflo or
Ġwin ds
Ġran ging
Ġpolic ies
gran ate
Ġinj ur
Ġpand emic
Ġequilib rium
1 8
F arm
G s
h wari
l ife
s hap
x am
y r
er ies
Ġp icking
Ġp ineapple
Ġf urn
is on
it c
Ġm os
Ġm ight
Ġm ung
Ġd on
Ġw id
Ġre cyc
le af
Ġl ands
ĠC le
Ġde bris
ĠP ress
ĠP oly
Ġex haust
ĠB ac
Ġag r
Ġ1 6
Ġmet ab
ia e
Ġprevent ion
Ġpart n
Ġbl ood
Ġout er
Ġmat ters
ectin ization
Ġent ities
Ġcharacter ized
Ġcarb endazim
Ġshe ath
Ġnum erous
rim ary
Ġfam il
ĠIns pection
Ġsecond ary
Ġconst ant
ĠMem ber
Ġprincip le
Ġrod ents
ĠSe veral
Ġquint als
ĠMinist ry
Ġpome granate
shap ed
A S
c an
d raw
h al
Ġt ons
Ġt asks
Ġp ut
Ġb id
ic ed
Ġm asks
Ġre new
ĠT able
ĠW elfare
Ġpro l
as m
ur se
ur ated
Ġe at
Ġcon n
ra g
Ġcan es
ot a
ĠI r
Ġst rip
ult iv
rop hyll
Ġde ca
ĠF asal
Ġsp ro
ĠB ima
Ġdis b
Ġdis put
pt ember
Ġco vers
ĠN orth
ĠD is
ip es
Ġsc re
Ġsc arcity
Ġact ual
ĠAd equate
Ġadv ances
ĠSt em
Ġtra ck
Ġrat her
Ġher bs
Ġyellow ing
Ġsal es
ĠEx cess
ea u
Ġsk ills
Ġincorpor ation
Ġbo und
Ġsusp ended
Ġconver t
Ġconsult ation
Ġget ting
itef ly
Ġappe al
Ġreserv es
Ġoutbre aks
anes e
Ġcocc idiosis
ĠSoci eties
Ġcommit ment
avist in
Ġwid th
Ġdeca ffe
9 0
b endaz
l iness
he at
an g
en ess
Ġm or
le ase
us ed
Ġbe gin
ol uble
ĠI ARI
Ġst ock
ig ence
Ġde b
Ġwith draw
Ġapp les
rom ones
Ġad ds
ug ust
ĠD haincha
ĠR SA
ĠL o
Ġrep utation
Ġgreen ish
Ġdist urb
Ġoper ate
uc ose
Ġ8 5
Ġbr ing
Ġlab els
Ġchallen ging
Ġperform ed
Ġdecre ases
Ġstart ing
Ġstart ed
Ġgrant ed
Ġgl ucose
Ġsing ly
ĠCO VI
Ġadopt ed
Ġgre at
Ġcateg ory
Ġrecogn ized
Ġgrin ding
Ġammon ia
ĠFac ility
unc il
miss ible
Ġsin ensis
ĠProgram me
Ġfum ig
irrig ated
bendaz ole
ĠCOVI D
8 5
c ap
y ster
Ġt rough
in ning
Ġs ite
Ġc hic
Ġf ever
al i
Ġm ol
ĠT ax
ho ppers
ce mber
el i
ĠC orpor
ĠB ajra
ĠD eep
Ġmo uth
ĠAd visory
Ġfin ding
Ġext ensive
ĠU T
Ġear head
Ġmeas ured
Ġdep let
Ġrele asing
int ensive
Ġar bit
Ġclean ed
Ġprof ile
Ġnew ly
Ġpow ders
Ġaltern ate
me al
Ġsan it
Ġaddress ing
Ġread ily
Ġhair s
Ġspecial ized
ĠFin ancial
Ġhabit ats
Ġver ified
Ġrun off
Ġimmedi ate
Ġwil ting
etho xam
Ġvig or
ĠJap anese
Ġmyc orrhiz
ynam ic
Ġprun ing
ĠBac illus
2 00
c m
v ity
w ays
Ġf a
Ġb unds
Ġin activ
ic ip
ic rob
Ġd ressing
Ġd warf
Ġto ols
Ġfor king
ur an
ra j
ag i
Ġst ub
ĠC A
Ġex cept
Ġex erc
ĠIn come
ĠN ap
ĠN ew
Ġinf iltration
Ġab d
Ġcultiv ate
Ġrel ies
plant ing
ĠCh lorpy
Ġatt ention
Ġfung icides
Ġhand le
Ġbir d
ĠIm idacloprid
vers e
Ġshap ed
Ġinstitution al
Ġdesign ated
ĠPl an
Ġcry ogen
ĠOn ce
Ġdiff usion
Ġpass ing
Ġdil igence
Ġemploy ment
Ġthick ness
cl im
Ġaut om
Ġmul ch
Ġfram ew
Ġundert ake
Ġran ges
Ġclos ed
Ġreco ver
Ġdispos al
Ġcorpor ate
Ġsole ly
Ġmort ality
M D
S U
d ish
m od
p hen
w a
Ġt u
Ġc e
Ġb er
Ġm ills
Ġw r
Ġre ject
ĠT rade
im es
ĠI PM
th al
ari um
ric al
ĠG ood
ĠG han
ĠPro vid
Ġfl our
Ġfin ished
ach ing
ĠU S
Ġmil ch
Ġgu arant
Ġrele ases
Ġgener ations
Ġshe ep
Ġherb al
Ġpow ers
ĠSp in
ĠDe cember
pro ducts
ĠMa h
Ġsim pl
Ġbio fertilizers
ĠAl tern
Ġplac ing
Ġemer ging
Ġdocument ation
Ġadjust ed
of uran
Ġfore ign
Ġtransform ation
Ġrespir atory
Ġchlo rophyll
omet imes
ocon trol
Ġoblig ations
Ġframew ork
ĠProvid ing
F YM
f arm
n ial
p ho
Ġs elling
or l
Ġg ather
os ad
Ġst al
ĠA ugust
Ġle aving
Ġk anal
ĠD AP
Ġse qu
rib usiness
Ġsh ad
Ġform at
ight s
Ġtyp ical
Ġext ending
Ġpe els
AC S
ĠV itamin
rit ical
ĠAn y
Ġvis ible
Ġauthor ities
Ġsk i
Ġred dish
ĠAr myworm
reg ular
Ġbo ok
Ġpass ed
Ġspl its
Ġcann ed
Ġadvis ory
Ġdivers ification
Ġclim atic
Ġrun ning
Ġaud it
Ġundergo es
Ġfrequent ly
Ġpenet rate
ĠIC AR
Ġconven ient
Ġillness es
Ġtransact ions
itc hen
Ġfamil ies
0 2
9 6
J une
d le
d rying
e per
o rous
z ian
Ġc r
Ġf an
ro se
Ġb a
Ġb ig
ic over
Ġd im
ĠT am
et t
Ġg our
Ġg unn
ol ution
pp ings
rop ical
em ics
ĠH ort
ac c
ari an
ĠB e
ĠB ucher
and om
ill ing
ĠN atural
ĠD et
Ġch loride
Ġse al
Ġsc hed
og rap
ens ions
Ġdam p
ĠL ong
Ġdec id
Ġir regular
Ġexp end
Ġexp and
Ġclean liness
ind rical
Ġbur ning
Ġintro duction
Ġrepresent atives
Ġconver ted
Ġnet work
Ġcommercial ly
Ġcustom er
Ġwin ter
Ġintervent ion
Ġexc ret
Ġpolic y
isp y
Ġthorough ly
Ġhar zian
Ġsymb ol
Ġste am
Ġantioxid ants
pest icides
Ġfeature s
Ġstick y
icover pa
Ġgour d
Ġharzian um
I R
I n
c hed
e ffective
l ied
u fficient
Ġc amp
ro ot
or n
Ġb oard
Ġd iv
Ġd ors
Ġpro min
Ġn erv
Ġl aw
Ġh ind
du a
Ġcan s
ch ange
est ed
ĠC occ
Ġde eper
am ell
ĠS ho
ĠF e
Ġal ways
ĠN ut
ĠO ther
ell ed
Ġcar ne
Ġdes cription
Ġgreen gram
Ġlit tle
Ġlo amy
Ġfinan cing
Ġval ues
Ġdef ect
ĠCh lor
Ġsur fac
ĠAn im
Ġbelong ing
Ġeconom y
Ġeconom ically
ok ed
ron age
Ġsum m
Ġbur st
pro duc
ĠAc id
Ġhol istic
Ġdisc ol
Ġgovern ance
Ġexceed ing
Ġclo ves
Ġcateg ories
Ġaggreg ates
lig ible
Ġsn ow
Ġenjoy able
Ġbulk y
Ġdeter ior
Ġcollabor ation
Ġcyl indrical
Ġlat est
Ġbelie ve
Ġintermedi ate
Ġyeas t
Ġvine gar
ĠPrat ap
reci ation
ispy rib
Ġcarne a
Ġsurfac es
9 5
P E
c row
c ens
m ing
w ide
he ld
Ġp y
ĠT om
Ġbe coming
Ġl aws
ain t
ĠP ur
ru b
Ġle t
ac char
ive ly
Ġy our
Ġseed bed
Ġk itchen
Ġch ance
Ġch art
oc king
ren nial
rain ed
Ġne igh
ĠG ram
Ġsol ub
Ġbl ast
Ġadv oc
Ġlo ad
Ġoper ational
rip hos
Ġar tificial
Ġbi ocontrol
ath ion
Ġconst ruction
Ġsl ope
hib its
Ġdil uted
Ġsens ory
Ġabsorb ed
Ġtoler ant
Ġencour age
Ġexc lud
Ġchil onis
Ġdivid ed
Ġglob al
Ġmicronutri ent
Ġovers ee
Ġepid emics
Ġnemat odes
Ġnerv ous
amell ia
ispyrib ac
ĠTom ato
1 4
1 6
l im
r as
y e
y ear
in ds
Ġo val
an ges
an ob
or ter
ar row
il ip
Ġfor ces
Ġg rad
un ity
Ġhe ated
ch loride
ĠC ultiv
ĠS ustainable
Ġr andom
Ġpre val
ĠH el
Ġplant ation
ill ed
Ġfruit ing
ren e
ĠG ard
Ġse g
Ġsh orter
Ġpromot ed
Ġprot opectin
Ġlo os
eg rad
ĠCh ina
Ġpectin s
ĠAg ri
Ġgener ate
Ġset s
Ġpreserv ed
Ġsa w
ĠIns ured
Ġaltern atives
Ġsul fur
Ġparasit ised
aj eevamrut
ĠAr har
ĠSh are
Ġvacc inated
Ġsuper ior
Ġfall ing
Ġattract ive
Ġsem ilooper
ĠStand ard
Ġsitu ation
ĠMas anob
ĠSe ptember
ĠOff ice
oly tic
col ored
ĠSan ction
raz ine
ĠAccount ant
Ġcrus h
Ġcloud y
Ġgran ules
Ġevent ually
Ġwebs ite
ĠGro ups
Ġmig ration
Ġmonit ored
Ġhorizon tal
Ġbric ks
Ġagr onomic
ĠIr rig
icip atory
icrob ial
ĠMasanob u
6 4
C I
F S
I C
i pt
n i
Ġt ap
re ating
Ġp onds
an cy
Ġf inger
ro ts
ic acy
ar in
ion ally
Ġpro of
ra ding
un ter
ot y
ĠP ar
Ġex change
op ies
her n
ĠB ord
Ġper ceptions
Ġte am
Ġins ights
Ġdry er
Ġ3 00
Ġdec line
Ġrel ative
ĠSt ation
Ġdep reciation
Ġlarv al
Ġsm ell
Ġappear s
Ġban king
Ġban anas
ĠIns ect
Ġindic us
Ġmid dle
Ġgrant ing
Ġconst it
Ġplac es
Ġemer ge
Ġparticip ate
esh wari
ĠMo A
Ġpropos al
Ġgrap es
Ġgard en
Ġtox ins
Ġinspect ions
ĠPhos phorus
Ġemphas izes
Ġge ograp
Ġkern els
Ġthre at
ĠZn SO
ĠChair man
Ġsav ings
Ind ia
ĠRC M
Ġpromin ent
ĠPur ple
' ,
D T
K CC
L CC
P H
a ve
b les
p ers
u i
Ġt able
Ġt ract
Ġo yster
er ated
Ġc as
Ġp its
Ġp aren
ar ter
Ġd ra
ul ner
im ents
Ġn om
Ġn ucle
Ġl ice
ant ran
ow ar
Ġh ill
Ġv ert
Ġpre cooling
ĠH ex
Ġal k
ĠIn f
ĠN ag
ĠD rying
Ġj ar
Ġmet er
Ġsol ar
Ġdet ect
Ġbl end
ĠJ an
Ġup d
Ġmem orandum
Ġenh anced
ade quate
ĠY ield
Ġpat ronage
Ġ6 00
Ġar m
Ġprepar ations
Ġ8 00
Ġvir id
ĠUn it
Ġdrain p
Ġconsider ations
Ġliqu ids
ron ic
Ġmechan ism
ator ies
ĠAz ad
Ġcit ric
Ġsat urated
Ġshow s
cl os
Ġsens itive
Ġadapt ability
Ġpotato es
Ġdigest ive
Ġreturn s
Ġworld wide
Ġcomprom ise
Ġtray s
ĠAuthor ity
Ġfur row
Ġveter inary
Ġmus c
Ġprohib ited
Ġclub s
Ġpregn ant
Ġcomfort able
Ġtrough s
Ġdim ensions
antran ilip
ĠHex ac
1 7
d ox
l aws
m ost
o A
p ort
s pec
Ġs ized
Ġs ometimes
Ġf ee
ing le
Ġm al
Ġm ite
Ġm ale
Ġw arm
ĠW estern
ul ic
ly b
ra ulic
ir i
Ġcan opy
Ġst ores
Ġpl ow
ĠC y
ĠC ut
od al
Ġimp roper
ĠP er
Ġex cl
Ġad here
Ġper for
Ġcomp uls
Ġcons ent
Ġac com
Ġth uring
res hold
ĠD SR
Ġsc ales
Ġdam ages
Ġenviron ments
ca using
Ġsign ed
Ġrain water
ne y
yc in
Ġfound ation
Ġimm ers
Ġvis it
Ġpay ments
Ġsuccessful ly
Ġhyd raulic
ĠTrust s
ĠApp lying
Ġsuscept ibility
Ġdeliv er
Ġexceed s
ĠSeed ed
Ġdigest ion
Ġlink ed
Ġlink ages
Ġpenet ration
Ġhat ch
Ġphen olic
Ġther mal
Ġimbal ances
tho dox
Ġhort icultural
ĠLim ited
Ġcrystall ization
Ġmor ning
Ġchic ks
ĠSpin osad
ĠNut rition
ĠIrrig ation
5 5
8 00
A W
G u
N R
U s
b i
c ks
i w
k n
r ane
he st
is ition
Ġb right
ar se
Ġm ent
Ġm ac
Ġd rip
Ġw ilt
om ace
Ġn it
Ġl ose
Ġv ulner
ain ing
Ġpl um
Ġon es
ĠP ri
ĠP ACS
ĠF l
Ġal ter
op at
her s
ĠB a
ĠB ut
ĠB light
Ġdo ing
Ġro b
low ing
av a
rib al
Ġtrans mit
Ġfert ile
Ġmo uld
Ġform ula
ĠJ S
Ġcar rots
Ġoper ates
Ġhig hest
Ġgener ation
ever ages
Ġrece ives
Ġleg umin
Ġfil m
Ġbor on
Ġtill ed
Ġcool ed
Ġcell ul
Ġmust ard
pro ved
Ġmanufact ured
Ġsect ors
ĠSu per
Ġincorpor ate
Ġant ib
Ġos mosis
Ġsweet eners
ĠMo ve
Ġsqu ash
Ġopportun ity
Ġwast age
Ġaccept ed
Ġassist s
Ġenter pr
Ġaud ited
Ġsubmit ting
Ġarrange ments
Ġdestroy ed
Ġchil d
Ġod or
ĠBra con
rep rene
Ġdistribut ed
Ġexpect ations
ĠFed eration
ĠGener al
ĠSoy bean
ĠConsult ative
ĠCle an
ĠExcess ive
cap e
ĠHexac onazole
1 00
B C
G A
I PM
R SA
b l
g ent
er ui
Ġf if
ar a
ar ial
Ġm el
Ġre mot
ul ates
us arium
Ġl ed
ĠA ch
ĠA PE
ĠC a
ĠC SC
ĠS elf
Ġpre y
Ġsp eed
op t
ĠB rinjal
Ġper col
Ġper missible
ĠD ub
ĠR ani
ĠO per
ail ing
Ġsc or
ĠE ligible
Ġcol on
Ġcol umn
Ġmetho xyl
Ġmin or
ĠCom mon
Ġext ra
Ġprotect s
ep end
ĠCh art
Ġpress ing
li ers
Ġprop ag
Ġaccess ing
ĠUn iversity
Ġstate ment
Ġattack ed
ĠCo operative
Ġdecompos e
ĠReg ional
Ġvis its
Ġvis ually
Ġown er
Ġearth ing
ĠAr ticles
Ġconst ruct
Ġjam s
Ġhyd ro
Ġbeh alf
Ġposs ess
Ġelimin ating
ĠLe af
Ġaccording ly
Ġmass es
Ġsee king
Ġfilt ers
ĠEar head
Ġabd omen
ĠGhan ajeevamrut
Ġgunn y
ĠSho ot
ĠChlor antranilip
Ġrob ust
ĠAPE DA
ĠDub raj
ĠRani k
7 2
E LI
P ro
V K
Y V
a ic
b rown
d ent
l imin
o ug
o ks
p icking
w h
w ith
Ġt er
he t
in ations
Ġc ode
Ġp al
Ġp il
is al
as on
as ite
Ġor anges
ra isal
Ġpl oug
ĠA part
ĠC hemical
ĠS mall
Ġby products
em ia
Ġex cell
ĠB hog
Ġinc ent
ĠN ot
Ġnut s
Ġ2 1
Ġmet al
Ġint ake
ĠG V
Ġli k
ĠK odo
Ġ5 5
Ġev ol
AR K
ha h
Ġset tle
Ġar ise
Ġpress es
Ġindust rial
ĠUn ders
ĠInst ant
Ġphys ically
Ġbor row
Ġcomb ined
Ġassoci ation
Ġstrateg ic
ĠApp lication
Ġdil ution
Ġinflu enced
Ġstud y
Ġhor se
Ġintroduc ing
Ġsil ken
Ġmand arin
rob in
ĠSugandh it
ĠPart icipatory
Ġprecip itation
Ġauthentic ity
Ġreplen ish
Ġincl usion
Ġcompens ation
ĠAGM ARK
Ġmagg ot
Ġexem pt
Ġresign ation
eau x
Ġfumig ation
ĠBord eaux
Ġremot e
Ġploug hed
2 1
H B
c ium
d rained
h m
h and
r ass
s eed
s uch
u arial
Ġt ight
he l
Ġs ick
Ġc up
Ġp he
Ġf rag
or ange
Ġb red
Ġpro m
im eth
un a
Ġpl owing
est ment
ĠC ol
ĠC amellia
Ġso on
ĠS im
Ġpre limin
ĠP ink
end imeth
ad s
Ġex hibit
Ġper man
Ġinc ur
Ġco ated
ĠIn v
ĠD ig
iliz ed
Ġover come
Ġab und
Ġho le
Ġund es
Ġcl a
ĠL and
Ġun s
Ġmarket ed
Ġpe an
ĠV acc
rad iation
Ġbas eline
Ġcent re
Ġshare holding
Ġcompet it
Ġaw are
Ġbiod ynamic
Ġpup ates
inal phos
Ġsim ple
Ġmicrob es
Ġprem ises
Ġweek ly
Ġtarget s
Ġhyd ration
Ġbrew ed
Ġkill ing
ĠCarb ofuran
Ġver ification
amb a
Ġfib er
Ġoutl ines
ĠVari ety
Ġflex ibility
ĠSec retary
Ġrecyc ling
Ġpartn ership
Ġperfor ated
Ġlegumin ous
Ġchild ren
Ġexcell ent
Ġprelimin ary
/ -
M S
N o
m ade
n el
s acchar
t oph
u ce
at t
Ġin ver
Ġre ference
Ġfor ced
id elines
Ġe le
Ġe lection
Ġg ets
Ġv aries
ch us
ĠP rimary
ĠF usarium
Ġsp ring
Ġex act
Ġorgan ized
op hos
se ason
ĠB o
ĠB iological
ak en
Ġdiseas ed
ren ch
Ġ2 2
PO P
Ġmaintain s
Ġ4 8
Ġcontribut ed
Ġtemper ate
Ġresp on
Ġval id
Ġtra vel
Ġatt ached
Ġtw ice
itt en
itt ed
Ġident ity
Ġsubst rate
Ġaccount ability
Ġrem ed
Ġgo ing
Ġpers ons
Ġwork ers
Ġdrin k
Ġbiod egrad
Ġsec ure
ĠWh itefly
tand ing
Ġdissol ve
ĠBor ax
Ġcontinuous ly
Ġaggreg ation
Ġqual ifications
Ġestim ated
ĠHe alth
Ġmanufacture rs
Ġfour th
Ġbuy ers
Ġcere als
ĠAltern atively
Ġski pper
ĠUnders tanding
endimeth alin
% ,
4 8
C A
C l
H M
R O
c io
d ro
g m
k y
m em
u ary
at ers
Ġp un
Ġf ract
Ġm ot
Ġw ine
Ġw earing
Ġre cent
Ġcon ve
Ġg ly
Ġh orm
ĠI dent
Ġv ill
Ġst aking
od own
Ġso cio
ĠS and
ĠS ign
op ic
Ġper ce
Ġman ip
ĠM ul
ĠR em
oc ks
Ġpres cribed
ĠL ablab
Ġind epend
Ġadv ice
Ġout put
Ġdist ances
Ġlo am
Ġec ology
ĠAg ni
ivers ities
Ġpar asite
Ġmod el
Ġindic ating
Ġmultip ly
ĠEx per
Ġcontin ues
Ġgrass hoppers
Ġexpos ing
ĠAr ka
ĠRes erve
Ġprev ailing
Ġturn ip
Ġdepend ence
Ġlabor atories
Ġissu ing
Ġpick ling
Ġfore wings
Ġvi able
Ġadmin istration
Ġmeasure ment
Ġcateg or
Ġtub e
Ġinoc ulation
Ġflo ures
Ġaff ord
Ġrespir ation
Ġcere al
Ġhyp och
ĠDel hi
POPI s
ĠMarket ing
Ġvolat ile
Ġmarmal ade
Ġmillilit ers
Ġmycorrhiz a
Ġexerc ise
ĠJan uary
ĠSim ilar
5 6
H Gs
S B
c arb
h as
r ance
y er
Ġ @
Ġc hos
is her
Ġb ispyribac
il ly
il ated
Ġre ached
ĠT ra
ĠW G
as ant
os is
Ġpl ain
ig er
ĠP A
ĠP al
ĠH a
Ġex it
ĠB ast
ĠB ody
ĠB everages
Ġvari able
Ġman ually
Ġy ard
ĠM el
ĠN G
ĠN utri
Ġch amp
oc ity
Ġqu est
Ġ2 3
rain ing
Ġpur ple
gen er
Ġcol ored
Ġli abilities
Ġav oids
ap onic
ĠPro ducts
Ġpart y
Ġind irect
Ġsub mission
Ġsign ifies
Ġcar p
ĠInd ust
Ġev ents
Ġwill ing
Ġoff icer
Ġpe rennial
cept ion
Ġblack gram
Ġbi op
Ġrece ipt
Ġrec all
Ġdrain ed
ĠCo pper
ĠCo vid
ĠCo operation
ron t
Ġsec ret
Ġfocus ed
Ġcompo und
Ġfe es
Ġdest ruction
Ġop ening
Ġadmin istered
Ġsens ing
Ġadverse ly
Ġver ify
Ġpreferen ce
Ġqual ities
Ġprofess ion
Ġresil ient
agg ery
ĠConsum ers
ĠBra hm
Ġdecant ers
Ġroll ers
Ġsatisfact ory
ĠProcess ing
ĠVerm icompos
ĠCertain ly
Ġmarg inal
Ġscre w
Gu yer
ĠChart ered
Ġprom pt
Ġchos en
Ġchamp ion
ĠBrahm astra
8 6
B I
B W
S S
e qu
p or
r ans
t d
y ond
z ed
he w
Ġs aves
Ġs aving
es ides
ro ten
is opl
Ġof fe
Ġb le
Ġin adequate
Ġd haincha
Ġw ing
Ġre hyd
ĠW eeds
Ġbe yond
ĠThe n
Ġl ies
Ġl ost
Ġg rade
Ġg odown
ut ing
ot i
ĠC irc
ĠS afety
ort ium
Ġle ave
ad vant
ĠB i
ĠB all
Ġinc hes
Ġro aster
Ġdis advant
pt a
ill a
ĠD ry
ĠG M
so il
Ġsh ared
Ġmo ong
ens ing
Ġcl umps
viron ment
ĠL ate
ĠL td
ĠK VK
Ġwe igh
Ġbl ending
ass es
ub ation
Ġout come
Ġdec ay
Ġimpact ing
ĠSt e
Ġterm inal
Ġchar ge
Ġremo ves
Ġent it
Ġnurs eries
Ġfo am
Ġbel ts
ĠMan aging
ĠGu idelines
Ġcent im
Ġleg ally
Ġscientific ally
ĠCo uncil
Ġsepar ating
Ġsepar ately
Ġcomb at
Ġreport s
Ġcontamin ated
Ġexist ence
Ġflu ores
Ġgovern ments
Ġclass ification
Ġgard ens
Ġencour ages
Ġrecogn ition
Ġfed erations
ĠYo u
ĠMal athion
ĠFruit s
Ġrid ges
ĠSan wa
ĠWhite g
ĠRe v
Ġrestrict ed
Ġreco very
Ġgrin d
Ġprec ise
ĠQu inalphos
Ġbran ch
cert ified
ĠPot ash
ĠNa du
Ġvel ocity
Ġspir it
Ġdro ppings
Ġlivelihood s
Ġmos aic
Ġwr itten
Ġba it
ĠTam il
Ġexpend iture
Ġscor ch
ĠInv estment
Ġele v
aponic um
isopl iae
Ġoffe red
2 3
N ational
R H
a ign
c akes
g am
i pped
p an
t in
w or
re ed
re st
Ġc all
Ġp le
Ġf eas
Ġf allen
Ġb avistin
Ġm er
ent ly
Ġw ider
ĠT et
as tern
im b
Ġn ight
Ġl ic
Ġl ablab
ut ants
Ġh am
Ġh usk
Ġv it
Ġv ar
Ġv oting
Ġhe av
Ġst ink
ĠC otton
st robin
am ethoxam
Ġcont ing
ĠS esame
ĠH YV
Ġal umin
se c
Ġcomp are
Ġj ud
ĠG rowing
up ation
Ġsc ra
are house
Ġsupp liers
Ġju icing
pl us
ĠJ M
Ġoff ering
mat ic
Ġpreserv ative
Ġinstit utes
xy strobin
compos t
Ġcalc ulate
Ġpoll utants
Ġdefici ent
Ġdig it
Ġfix ation
ĠOn ly
Ġreach ing
Ġelect ric
ios ks
Ġcompact ed
ĠNeem astra
ĠHe at
Ġrestrict ions
ĠSL CC
ĠMe aly
Ġwild life
ĠConsum ing
Ġrub ber
Ġfluid ized
ĠClaim s
Ġ150 9
den um
ĠEarth worms
Ġbenzo ate
Ġcoco on
ĠMil k
Ġdisput e
Ġbegin ning
eli hood
Ġcamp aign
Ġsumm ary
Ġdrainp ipes
spec ific
lyb denum
Ġment ions
Ġenterpr ise
Ġlik elihood
Ġincur red
mem bers
F PC
I I
P U
S LCC
u z
in er
Ġs ilt
is k
or ax
Ġan isopliae
ar hiz
Ġm ud
Ġm ating
Ġm alt
Ġd y
ĠT ier
ĠT reating
Ġbe ar
om es
Ġg arb
ut able
ce ler
Ġcan d
ĠI R
ĠI PU
ĠA meric
ĠC ap
ĠS ol
Ġon to
ĠP y
ĠP hy
ĠP GS
Ġle c
ĠB h
eas e
ific ates
ec onomic
Ġper me
Ġrecommend ation
pt ic
Ġk in
ĠN D
Ġac celer
oc al
Ġfood borne
Ġqu arter
ĠO kra
Ġcult uring
Ġpart ial
Ġun able
ĠK ash
Ġbl ister
Ġhigh light
ĠJ al
Ġinter p
Ġlong itud
Ġdist ancing
Ġmil d
Ġsur plus
Ġbu ying
Ġequ ation
ĠV al
Ġaccess ible
rict ion
Ġcent er
Ġtest s
Ġcompet ent
ĠReg istration
ĠTh rough
ĠTh rips
Ġtransport ed
Ġ9 5
Ġsl op
Ġvary ing
ĠCons ortium
Ġuniform ly
Ġpass es
Ġintro duce
Ġreport ing
Ġmango es
Ġflu ctu
Ġclar ity
Ġappoint ment
Ġsubject ed
ĠRaj eshwari
Ġacqu iring
ĠRe lease
Ġplatform s
Ġfoli ar
Ġinteract ion
Ġcyl inder
Ġmicronutri ents
Ġcy permethrin
ĠMet arhiz
Ġenrol l
Ġhail st
ĠSpray ing
ocer os
hin oceros
Ġmoder ately
Ġrol ling
Ġseal ed
Ġarm iger
ĠMove ments
reprene urs
ĠDig ital
Ġrespon se
Ġvill ages
ĠSign ature
ĠWhiteg rub
Ġgarb age
ĠMetarhiz ium
Ġarmiger a
9 8
C BB
I SA
P GS
c ons
e ous
i ensis
m ark
m ium
Ġt ribal
in ce
Ġs af
Ġp ort
Ġp omace
Ġb ox
Ġd eed
ĠT w
Ġl ender
ir us
ri x
Ġst ocking
ĠC ritical
ĠS he
em per
Ġsp ore
ĠH im
Ġex ecution
ive k
Ġad hering
ak ka
Ġcomp ressed
Ġco ating
Ġco unter
ill ary
ĠR ate
Ġqu en
Ġ2 000
Ġspec ify
ous ly
Ġsc ience
Ġsc rap
Ġsupp ressing
Ġprevent ative
Ġform ats
ell ite
ĠPro duct
ĠL em
Ġbl ock
Ġ4 2
Ġ4 4
oth rin
Ġdifferen ces
Ġcar rot
Ġmat uration
Ġir radiation
Ġdirect ions
ie ce
ix ing
ning s
ĠV ivek
Ġar myworm
Ġar rest
ĠAn aly
Ġnum bers
Ġbi om
Ġ15 00
Ġprogram mes
Ġsa uce
ĠUn ion
Ġfresh ly
Ġbor rowing
Ġdecompos ing
Ġer ad
Ġtill ers
Ġimm unity
Ġbur nt
Ġperson nel
Ġant i
Ġuniform ity
Ġchain s
Ġu pper
Ġcomposition s
ĠEar ly
Ġweevil s
Ġslow ly
umin ants
Ġacqu isition
Ġnutrit ive
Ġdev ices
Ġemp an
Ġammon ium
Ġdemonst rate
Ġprec ision
Ġcorpor ates
Ġste el
Ġprecip it
ĠRat ua
Ġsubmer gence
hal othrin
Ġdeterior ation
crow ding
Ġpreval ent
ĠHel icoverpa
Ġthuring iensis
Ġdeliver ables
Ġantib iot
sacchar ides
ĠPal am
E C
H R
R B
S T
W P
b h
d ressing
s ulfuron
Ġ ri
re ated
Ġc ity
Ġc um
Ġc opy
es ions
ro le
it o
or ation
al and
ĠW ill
Ġbe es
ur t
ur on
im icrobial
Ġn arrow
Ġl esions
ol f
ab h
Ġv ines
Ġv ote
ch in
ĠC SR
iz er
Ġen for
Ġon ions
end ra
Ġsp orts
ĠH ead
Ġle aching
Ġal one
Ġvari ations
Ġag reed
Ġco pper
ef ram
Ġ2 9
Ġmet als
Ġins oluble
Ġtim efram
Ġsh if
Ġcert ifications
Ġsol vent
Ġ3 1
Ġincre mental
ub lic
Ġref lect
Ġref reshing
Ġpectin ase
ne x
form ation
Ġbr ine
Ġbr ands
Ġbuil t
Ġgra vity
Ġeven ing
Ġinfect ious
Ġperform ing
Ġparasit oid
Ġwo ol
Ġtransfer ring
ĠFPC s
Ġcell ular
Ġshel ter
Ġrip eness
ĠAl bendazole
Ġeng aging
Ġlast s
Ġadjust ments
Ġsanction ing
Ġretain ing
ĠBl ue
Ġsat ellite
12 1
Ġexpl ore
part y
Ġoxid ative
Ġaccur acy
rif os
Ġsil age
Ġtend s
ĠPest s
Ġdecl ared
Ġstab ilizing
ump ing
Ġrefriger ator
Ġlact ic
Ġcapt ure
Ġassign ed
Ġsamp ling
ĠTechn ical
Ġinjur y
urse ment
Ġmol ds
Ġtu ber
Ġstal ks
Ġcolon ies
Ġprofession als
ĠSte iner
ĠSLCC CI
Ġlec ani
Ġinterp ret
2 6
F T
K ISA
W M
W S
b and
d a
d ered
e y
f ers
m u
r ine
y ield
Ġt art
Ġo l
Ġp el
Ġf ast
Ġb one
ĠT er
ĠW S
ĠW e
ul phur
as th
Ġn ow
Ġn ative
Ġg lo
eed ing
ĠA ph
ĠA WS
ĠC od
ĠC ry
Ġimp lements
Ġex ecutive
ĠB ul
ĠB ud
Ġman cozeb
Ġco oked
Ġco arse
ĠR od
Ġj ob
lud ing
ĠO s
Ġse a
ugh t
Ġsc en
Ġsc ope
Ġab n
Ġform ulated
Ġcl od
ap arn
Ġdam aging
Ġfl ock
Ġass im
Ġind ig
Ġsol ute
Ġprot oc
ber ry
ĠK arn
Ġavail ing
Ġcap s
Ġexp ressed
Ġtransplant ation
Ġtra pped
Ġgr ants
Ġharm on
Ġbel t
Ġmod e
Ġbr ings
Ġresid ual
Ġdi agn
Ġpow dered
Ġinteg ration
Ġfil ed
Ġeconom ies
Ġtill ering
Ġimm ature
Ġfer rous
ĠEx ecution
Ġearth worm
Ġverm i
Ġunders urface
Ġet hyl
Ġdig ital
Ġprem ature
Ġbo oks
Ġant imicrobial
Ġprefer ably
Ġretain s
Ġelimin ates
Ġgovern ing
Ġbreed s
Ġgard ening
Ġhouse hold
Ġlink age
Ġaff airs
Ġsubsid ies
Ġster ilization
Ġsett led
Ġcollective ly
Ġpan ic
Ġoutbre ak
ĠJam mu
bic a
Ġtren ds
Ġcy halothrin
Ġhort iculture
Ġpet als
ĠTar un
Ġmut ual
Ġsamp le
Ġdischar ge
Ġsuff er
Ġmetab olic
Ġdeplet ion
Ġstub ble
ett lement
ĠDet ailed
ĠAnim als
Ġlet ter
Ġcrush ing
Ġgeograp hical
Ġcas hew
Ġmusc le
ĠCSC s
Ġabund ant
ĠBast ar
Ġvit ality
ĠAnaly sis
Ġtimefram e
KISA N
ĠCod ex
aparn i
4 9
5 00
B ased
b ing
d om
e ing
f iltration
g est
h ada
k es
l t
Ġt in
Ġt iny
he ver
Ġs amples
an ch
Ġf os
Ġb und
Ġb ajra
Ġan ts
Ġin hibits
Ġw hic
Ġw ax
Ġre verse
ĠT ime
ĠT SS
ĠW or
ĠW inds
us ive
us band
id ers
Ġg ender
ot ox
ol id
Ġv iew
arm a
Ġst ead
ĠC ar
ĠC ash
ter rane
ĠS ure
th ra
ĠP ract
ĠP oint
Ġex amin
Ġex ecut
ĠB andra
act ion
ec urity
Ġper mission
ud olf
ĠM akka
ĠR udolf
Ġj oint
Ġne arb
Ġint ensity
Ġse ver
Ġins ert
Ġother wise
Ġsh aring
ĠL E
ĠL og
ĠL ead
Ġfl ies
ĠK arma
ĠOr ange
ĠU P
Ġsome one
Ġsupport ed
Ġinvol ving
Ġtem por
Ġris e
Ġra gi
Ġra ck
Ġhect ares
Ġdef ine
Ġrot ations
Ġpectin ases
Ġgu ide
ĠAg ro
Ġequ ipped
Ġshe ll
Ġsubst ant
Ġel ong
Ġsoci eties
ĠUn iversities
Ġcount ed
Ġutiliz es
Ġgra zing
go ing
ĠIm proved
Ġchallen ge
ĠSp ec
Ġorganization al
ĠTh reshold
Ġconst riction
Ġflav ored
Ġarom atic
Ġgel ling
Ġdiet ary
Ġparticip ating
Ġpred atory
Ġboil ed
Ġpub l
Ġcontinu ed
Ġbroad cast
pr one
ĠCBB O
Ġsqu ares
ĠUs ar
ĠCent re
Ġlog ging
ĠEn g
Ġser ies
Ġrepl ac
CE O
Ġ18 50
Ġaccur ately
Ġundert aking
Ġundert aken
ĠPre vent
vi pos
ĠRaj asth
Ġbrand ing
Ġsurround ings
Ġclos er
ĠThi ram
Ġfew er
Ġemp ower
Ġconven ience
ĠII HR
Ġdecant er
ĠPot assium
Ġroll er
Ġten ure
ĠSo uth
Ġprol ong
Ġguarant ees
pho rous
Ġdecid ed
Ġdra wn
Ġsolar isation
clos ure
Ġaccom mod
ĠPri vate
ĠBut achlor
ĠOper ational
ĠRanik het
ĠNG Os
ĠNutri ent
Ġcentim eters
Ġfluores cens
CBB Os
Ġbiom ass
Ġwhic hever
ĠWinds or
terrane an
Ġnearb y
ĠRajasth an
. /
2 7
6 1
E T
F C
K V
a ired
c ission
c opic
e ff
g ros
h s
m ic
t ill
w are
Ġa i
Ġp eas
en es
ro ke
is ite
Ġan n
Ġan tic
ic id
ar j
ar r
Ġw ra
Ġpro ceed
id ney
Ġe ating
Ġe rect
Ġcon duc
Ġl a
Ġor thodox
ag ar
Ġv o
Ġst ring
ĠA oA
Ġde em
ĠS amba
ĠS ettlement
Ġby e
ĠP res
ĠP ublic
ĠF rom
ĠF ield
ru bs
Ġapp raisal
ĠB ar
ĠB IS
Ġdis k
ĠIn ter
Ġgrow s
ĠM ust
Ġk iw
res p
Ġcontrol s
ĠR id
ĠR ot
Ġj owar
Ġinf l
Ġtr ash
Ġnot ation
vent ionally
ling s
PO s
erv es
ree ments
Ġinv ersion
Ġve ins
Ġpo ison
Ġminim al
Ġpartic le
Ġdep artment
Ġrot ated
Ġfol der
Ġwor d
hes hwari
Ġent ers
Ġent ered
ĠV e
uc king
Ġpack s
Ġhand led
Ġhand holding
Ġbi os
Ġdi arr
Ġgerm inate
Ġdel icate
Ġer ro
Ġmultip lying
Ġabs cission
Ġbur ied
Ġshort age
ĠMa heshwari
con trol
Ġemer ged
Ġlabor atory
ĠApp ro
Ġpick le
Ġsweet ness
ĠMo ong
Ġsuggest s
Ġconver ting
Ġattract ed
Ġaccept ance
akh and
de hyd
ars on
Ġelect ed
ĠUttar akhand
Ġadapt ed
Ġdestro ying
Ġencour aging
Ġeduc ational
Ġsn ap
Ġsn ails
Ġrad ical
Ġmob ile
then e
back s
Ġstim ulating
Ġcomprom ised
Ġap ric
Ġfurn iture
Ġstrip es
Ġspro uts
ĠCorpor ates
Ġarbit ration
Ġber ries
Ġbig ger
Ġpy rolysis
ĠCy permethrin
ĠChlorantranilip role
Ġundes irable
Ġentit led
Ġfluctu ations
ĠTw o
Ġquen ching
nex ure
Ġglo ves
Ġscen ari
gros copic
icid al
Ġconduc ive
ĠMust ard
1 50
3 6
4 7
B PH
f l
g aining
h thal
k an
l in
o ured
s y
t rans
Ġ %
Ġo vipos
er ate
Ġs od
Ġp iece
an ging
it is
ed ible
Ġd ut
il ting
il achlor
ĠT ender
ho p
Ġcon ventionally
du bi
ol ong
Ġhe pta
Ġst ri
Ġst orms
Ġst roke
ĠA ra
ĠC C
Ġen ric
st it
Ġde aling
am ectin
ĠS ince
ĠF AW
Ġsp iny
ĠH az
com fort
Ġal most
ac re
Ġex chan
Ġad he
ĠB C
ĠB en
Ġper f
ĠM aster
Ġ1 3
Ġch lor
Ġtr anc
Ġse x
ĠE th
co vered
ĠK a
Ġlevel ing
ĠJ h
ĠU V
Ġdevelopment al
Ġwh orl
Ġavail ed
Ġrep air
Ġmil king
add ed
ash ing
Ġland holding
Ġseason ality
Ġar ising
Ġbut ton
iss ions
Ġhum us
hyd rate
Ġwho se
Ġwho les
Ġsa ve
Ġmed ia
Ġplan ned
ian a
ĠReg ulation
ĠSp ring
Ġcomb ining
lor ite
Ġbreak s
Ġconst itu
Ġflav our
Ġbar gaining
ĠAc etic
Ġfix ing
Ġ19 56
of ix
Ġrepresent ation
apt an
Ġdisrupt s
ĠCarb on
Ġpoly thene
Ġrelationship s
Ġtend on
Ġacqu ire
raz os
amb oo
Ġhat ching
Ġrefrig eration
Ġdraw ing
ĠPhos phate
Ġdivid end
NA A
Ġreason able
Ġkern el
Ġthre ats
ĠTar ai
Ġsatisfact ion
ĠUT s
ĠNap hthal
ĠPlan ofix
Ġsched ul
ĠCocc idiosis
ĠCultiv ation
ĠNag aland
Ġplum s
Ġborrow ers
seed ed
Ġtight ly
ĠHealth y
Ġafford able
Ġhypoch lorite
ĠSimilar ly
Ġgodown s
ĠRev olution
ĠJal dubi
Ġenroll ment
Ġantibiot ics
Ġlecani i
Ġsever ity
eff icacy
ĠVe get
Ġhepta hydrate
Ġtranc he
ĠNaphthal ene
2 8
9 9
C SC
T P
a u
a emia
b ling
d ri
g one
i ors
k harif
k eeping
p ower
w heat
Ġt ank
in i
in et
in ity
Ġc odes
Ġp ore
Ġp edic
es ban
or al
Ġin vent
Ġd up
Ġd ates
ur ges
id a
id hi
Ġn our
Ġcon d
Ġcon v
Ġcon form
Ġg ut
ir ds
ag nes
ri e
ri ef
Ġv ess
arm ing
ĠA erobic
ĠC ucurb
Ġso oty
Ġon going
ort ed
ort hern
ĠF ol
Ġex its
ĠB and
Ġper ception
Ġy ards
Ġdo or
Ġdo uble
Ġres ist
Ġres erve
Ġro ugh
Ġro sem
Ġdis sem
pt ions
ĠM ar
ĠN POP
Ġth i
ĠD urges
Ġsy nthesis
ĠR O
rain ts
ĠO xy
Ġse aling
Ġsc ent
ĠE c
ens us
Ġho uses
ĠL ocal
Ġpromot ers
ish n
Ġunder gone
Ġsign ature
urs ed
Ġval idity
ĠCh andra
Ġem issions
Ġimprove ments
ĠAg ribusiness
Ġhum id
Ġregul ating
Ġmed ication
ĠUn like
Ġindic ated
Ġaltern ating
Ġjelly ing
Ġmost ly
Ġoxy chloride
ros is
Ġaddress ed
lic ations
Ġred gram
Ġconst raints
old en
con t
ĠAl m
Ġhol ds
Ġeng agement
Ġconserv es
Ġhyd rop
Ġcoll ar
Ġexpens ive
Ġdil ute
Ġbroad leaf
Ġbott le
Ġelect ronic
Ġinterc rop
ohyd rate
Ġvent ure
Ġcompact ion
Ġpaper work
ĠPre mium
Ġflood ing
Ġestim ates
Ġmold board
Ġbehav iors
Ġsoft ware
Ġcrus hed
Ġinteract ions
ĠThi amethoxam
Ġvig orous
Ġwa it
ĠJap an
Ġenrol ment
oo ks
ĠInc re
Ġoutl ined
Ġdri ving
Ġvel v
Ġmedic ine
Ġbenzo ic
Ġpear l
Ġgrey ish
Ġfa una
ĠChlorpy riphos
clim atic
Ġexcret a
ĠGard en
Ġseg ment
Ġvert ical
ĠCut ting
Ġimmers ing
800 2
Ġvulner able
Ġbiop est
Ġdy kes
ĠAmeric an
Ġempan elled
yield ing
ĠOs motic
Ġabn ormal
Ġclod s
usband ry
Ġtempor ary
Ġpubl ished
Ġbios ecurity
dri ven
agnes ium
Ġrosem ary
ĠDurges hwari
% ),
8 7
D PR
E s
I m
e ven
o uring
r ust
t ropical
u rop
u ff
u ish
y matic
Ġt ast
he a
er ating
Ġs ides
Ġc ul
on kan
Ġp endimethalin
en cing
Ġf le
it im
or bic
Ġb old
Ġb rief
ar ic
Ġw rit
Ġre imb
Ġbe er
ho ol
Ġe p
Ġl ays
ow l
ir y
ot al
os ed
ĠI SO
ab ad
Ġst arch
est ible
ĠA ri
ĠC ub
ig s
ig old
Ġde al
am ities
ĠS N
ĠS n
ĠS odium
ad h
Ġman power
Ġres em
Ġha ze
Ġco hes
Ġco ffe
Ġcons olid
ĠD PR
ĠR ain
Ġmet ric
Ġins ufficient
ĠE urop
Ġcol ors
Ġho eing
Ġcert ificates
Ġass et
Ġsub terranean
ĠK rant
ĠK onkan
Ġmon ohydrate
Ġbl uish
hemical s
Ġveget ation
olog ically
Ġdec ide
Ġterm ination
tic le
ĠCh lo
Ġent repreneurs
Ġtw inning
Ġpack ages
Ġmod els
Ġmonth ly
Ġgo es
lo a
Ġaim ed
Ġcomplet ion
Ġmultip lied
ĠReg ion
Ġgroundnut s
Ġpup ae
Ġregard less
ĠPl ants
Ġdepend ency
andu a
Ġrepresent ed
Ġinvolve ment
Ġrepro duce
Ġmill ion
Ġche cking
Ġresol utions
Ġpoly saccharides
uri ate
ĠInt erest
Ġhoney dew
Ġalloc ated
Ġrespective ly
ĠRaj endra
Ġmob ilization
Ġdust y
Ġshall ow
Ġcarbohyd rate
ronutri ents
phos phate
Ġdecl ar
Ġemp ow
ĠPOB s
Ġlabel ed
och loa
Ġinhibit ing
Ġupload ed
ĠRep ort
Ġgreat ly
Ġdiv ision
Ġneigh bor
Ġtract or
Ġnit rate
gam ot
Ġlongitud inal
emper ature
ĠTime ly
Ġsubstant ial
Ġdeem ed
Ġdiarr hea
dehyd e
ĠCub a
ĠEurop e
F ood
K R
R G
a ur
c if
d i
d inary
f it
f ixing
l ar
n ose
o in
r ator
t ol
u le
Ġ "
he art
in o
er ant
Ġs ie
Ġc ig
Ġp seudomonas
Ġf ar
Ġf ats
ro cc
al ine
Ġm uc
Ġd uly
Ġw aters
il us
Ġre n
Ġre gener
le ting
Ġpro xim
im etho
et ing
Ġe co
Ġn ec
Ġn ations
Ġl ying
Ġl amb
ir m
ch i
ult ural
ĠA nt
Ġso ak
Ġus ual
ĠS em
Ġwit hering
th ing
Ġpre ced
ĠP ox
ĠP olic
Ġcom ing
ĠH KR
Ġal le
Ġal ert
se i
ore r
Ġco bs
ill ium
ĠM IS
Ġk andua
ĠN odal
Ġth reshing
ĠD ash
ĠD HM
ĠD imetho
ffect ed
Ġch rocc
Ġj aggery
Ġ2 8
Ġrequ iring
Ġrequ isite
Ġreg ulation
Ġsc are
Ġtim elines
og as
Ġmo ving
Ġma ps
Ġform ulations
Ġcultiv ators
ĠL ight
ĠCom mer
ĠAd v
Ġsystem atic
Ġwh it
Ġmarket able
Ġmat ching
Ġgreen house
Ġcap su
Ġgen u
Ġdep ectinization
Ġpe ak
Ġtra ding
worm ed
Ġgu ava
Ġfo ul
Ġserv ing
Ġserv ed
ĠAn nexure
Ġlimit ations
Ġmod ify
wn s
Ġpresent ed
Ġdown sei
Ġcent ers
Ġbrown ish
Ġam ino
Ġbor ax
Ġparasit ic
ros ion
ĠAr ticle
Ġsl ender
Ġhyd rolysis
sol ids
Ġmature s
Ġpick led
Ġclear ly
Ġemploy ees
Ġinflu ences
Ġshow ing
Ġelect roly
Ġtub ers
Ġaggreg ating
Ġunf it
Ġproc uring
Ġstruct ural
ĠProm ot
Ġprevious ly
Ġstunt ing
Ġfem ales
Ġfib r
Ġsett ling
Ġcloud iness
Ġcorrect ly
Ġwood en
ĠSoci ety
comp any
Ġregister ing
Ġantioxid ant
ĠFed erations
ĠGener ally
Ġgum my
Ġmoder ate
Ġtunn el
Ġprol if
Ġsimpl er
Ġsequ ence
ĠHort icultural
ming ling
Ġparen t
Ġpropag ules
Pro ducer
Ġcla use
Ġinver t
ĠMul ching
Ġindepend ent
ĠIndust ry
Ġwing less
ĠCirc ular
Ġham mer
ĠLem a
ĠFol lowing
ĠSem ilooper
Ġchrocc um
Ġcapsu le
4 00
D F
L M
M an
a mental
a ffected
c er
i ary
m en
r ations
s ized
s ugar
u ous
w w
Ġs pp
Ġs und
Ġs ites
Ġc uc
Ġc ope
on al
Ġp ol
Ġp ump
es e
is ations
Ġb ill
Ġb esides
ar lic
Ġd imin
Ġto ol
Ġto ugh
ĠW arehouse
ul ants
om an
et es
Ġg arlic
ut ral
du e
ot ic
ĠI D
ab har
Ġst one
ĠC ast
ĠS y
ĠS ank
Ġr uminants
ĠP ul
ĠP BW
ĠH ary
Ġex ceptions
ari a
ĠB ads
ill ation
ill ard
ĠM ic
ĠM od
ĠM umb
ĠM adh
Ġk ing
ĠD ec
ĠD IN
Ġdoes n
vent ilated
ĠE xt
yp es
Ġmo lybdenum
Ġover crowding
Ġsupp lier
Ġpract iced
ĠPro duction
Ġ3 70
ĠK n
Ġve ct
Ġbl ocks
Ġsign ing
Ġup ro
Ġec ologically
Ġdep ression
Ġhy groscopic
Ġtra ce
ĠV ishn
uc ing
Ġar ran
ĠAn dro
Ġpress ed
Ġban ds
Ġcalc ulating
Ġwork ed
Ġenz ymatic
Ġcur l
Ġmid rib
Ġide a
Ġpup al
Ġpup ate
ĠCert ifying
Ġfocus ing
Ġsyrup s
ĠMa illard
Ġsl ur
ĠAl tho
ĠSh astra
ĠBl anching
Ġmar igold
Ġdeliv ering
Ġaud itor
ĠEn s
Ġtub es
Ġgard eners
Ġrepl ace
Ġdisinfect ant
Ġenjoy ed
Ġheap s
Ġestim ation
Ġcred ential
Ġdisor ders
lesh wari
Ġdev ast
Ġstab ilizers
ĠPe ople
iot ic
ĠWith in
Ġstrict ly
Ġretail ers
Ġtan n
Ġtail ored
ĠSam leshwari
Ġdon ations
ĠLo an
Ġinactiv ate
ĠNap ier
ĠChlorpy rifos
Ġshad ing
ĠHort iculture
Ġexcl us
Ġcompuls ory
ELI s
wh ite
Ġphe romones
Ġpean ut
Ġcompetit iveness
Ġfract ions
ĠSand y
ĠVermicompos t
Ġdisadvant ages
Ġple asant
Ġconting ency
Ġalumin ium
ĠHaz ard
Ġconstitu ents
esban ia
Ġwrit ing
ĠHary ana
ĠBads hah
ĠMumb ai
ĠVishn u
ĠAndro id
ĠAltho ugh
0 9
A I
B usiness
C O
P L
c ame
f an
f ed
g ers
o is
p ite
r ish
v able
Ġ i
Ġt ropical
he ries
in king
Ġa ms
re ma
er o
Ġs ay
Ġc ort
an ical
en cha
Ġf u
is heries
it ting
Ġb iform
al se
ic ella
Ġm en
Ġm am
Ġw ant
Ġw ire
Ġre nt
ĠT est
ĠT raining
as ia
Ġbe came
om il
et othrips
Ġor dinary
un ch
ot anical
Ġst o
Ġst ripe
qu ito
ĠA b
ĠA ut
ĠA pro
gan ate
ĠS amp
Ġwit ness
ĠP anch
ĠF ung
ĠF HB
Ġad equ
ĠB ased
ĠB ran
act ive
Ġag ed
Ġag ribusiness
Ġat razine
Ġdis cip
Ġdis comfort
per ial
ĠM Z
Ġcons iders
Ġac ar
ug e
ĠR G
ĠR BI
oc asia
ren ew
Ġspec ially
Ġnot iced
ĠO lig
Ġsow s
ens es
ens ils
Ġma pping
ĠL iqu
ĠL ime
Ġfl ora
Ġfl oral
Ġdry ers
Ġun even
ĠK hap
ish able
Ġ5 81
Ġveget ative
Ġinter ference
Ġup right
Ġmarket ability
Ġout line
Ġrep el
ĠSt re
ĠSt encha
Ġlit chi
Ġra b
ae rema
Ġpe aches
rip ening
Ġmicro sc
ptom ycin
Ġut ensils
ind ust
Ġmod icella
Ġcal amities
ĠUn ited
Ġsuccess ion
ord ial
ĠNo ctu
Ġtexture d
Ġeconom ical
ĠIm perial
Ġcomb ine
Ġcomb ines
ĠAct uarial
Ġgrass es
Ġauthor ised
ĠCrop s
Ġtrust s
Ġet hical
Ġdesign ing
ĠPl ains
Ġarom as
ira ch
ĠAl gae
Ġturn s
Ġreli ability
Ġcoll ap
Ġvacc ine
ĠAt razine
ĠCon ventional
urb an
Ġfund amental
Ġevapor ate
Ġsuper vis
Ġsuper phosphate
Ġfall s
Ġop in
Ġobs erve
Ġintegr ating
Ġnet wor
Ġpopular ity
Ġdisrupt ing
Ġcentral ized
Ġrhiz obium
Ġrhiz omes
Ġfrequ ency
Ġtoler ate
Ġcloth ing
Ġdegrad ed
Ġdigest ible
Ġextend s
Ġcoord inating
mal ocer
Ġhard er
Ġsw ab
ĠEm malocer
Ġmembr anes
Ġsymb iotic
opl ank
Ġimbal ance
Ġtren d
Ġintermedi aries
ĠCal cium
Ġyeas ts
ony chus
ĠPh ase
ĠTrans planting
Ġara ban
Ġcoco ons
Ġdiscuss ed
Ġtunn els
Ġlif es
Ġrol led
Ġexperi enced
Ġinjur ies
Ġdisb ursement
Ġdecaffe inated
Ġdeb t
Ġfinding s
Ġce iling
Ġdamp ing
produc ing
produc ers
Ġoversee ing
Ġsuperior ity
Ġvirid i
Ġcellul ose
Ġperman ganate
roten e
Ġrehyd ration
ĠWill mes
ĠAph id
otox aemia
ĠLog o
Ġprolong ed
Ġkiw i
arson em
Ġscenari o
Ġdut ies
ĠAlm ond
itim us
Ġneighbor ing
Ġregener ative
ĠPolic y
ĠDimetho ate
Ġgenu ine
ĠCast or
Ġupro oting
Ġams l
Ġcort ex
Ġbiform is
ĠApro aerema
ĠPanch ay
ĠBran ch
ĠOlig onychus
ĠKhap ra
ĠStencha etothrips
ĠNoctu idae
ĠEmmalocer a
0 4
8 2
A d
D han
M ay
O N
T AC
V C
b ru
c ropping
c nose
e fficient
f lower
n ity
o ving
o oplank
s erve
t he
t arget
v iew
Ġ rig
Ġt ri
er b
on t
Ġp ed
Ġp add
Ġp ores
Ġp airs
Ġf avor
it ra
or ily
ic it
ic ul
ic ota
ar ning
Ġm agnesium
Ġd ries
Ġfor th
ur aj
ho ugh
Ġcan opies
ag ous
ri vel
Ġv ers
ch ins
ĠA ud
um ois
ĠS ab
ĠS we
Ġon line
Ġimp art
ĠP ra
ĠP rop
ĠP ick
ĠP yr
ĠP VC
Ġsp ons
Ġwith held
ĠH D
ĠH arvest
ad y
ad iri
Ġal bic
ari us
her ical
ĠB t
Ġcomp l
ĠM ut
ĠM ult
Ġk ills
Ġk iosks
av i
Ġth ri
Ġth orax
ĠR agi
oc rot
Ġne utral
ĠO ros
ĠG yps
ĠG ypsum
ĠG rading
ous e
ary l
are r
Ġact ing
Ġsh rivel
erv ing
ĠL aw
ici ous
Ġ3 2
Ġ3 3
ĠK adiri
Ġdet ected
Ġfertiliz ing
Ġsign board
Ġpo rous
Ġinst ru
Ġmethod ology
Ġcap ability
Ġcap abilities
Ġconcent rates
Ġconcent rating
Ġcolor ing
Ġfact ory
Ġdef oli
Ġlim on
Ġem itted
ĠV i
Ġgener ating
br ids
Ġel se
ĠAn go
Ġregul ated
Ġvir t
Ġprof itable
Ġpul led
Ġpod fly
ĠIns ufficient
Ġdi pping
Ġphy toph
Ġloan ee
PM FBY
Ġz ero
ĠSp otted
Ġsun flower
Ġdehyd rating
Ġ9 9
Ġmechan ization
Ġmicrob iological
ĠCl ub
cohol ic
ĠOn ion
Ġdisinf ected
Ġdil utable
Ġpred ator
ĠMo ist
Ġelimin ated
Ġpen alt
Ġcust ody
ĠDep artments
Ġder iv
Ġeff ort
Ġdegrad e
Ġencour aged
Ġhor ned
ĠFS S
Ġalt hough
Ġiniti ate
Ġfir ing
inct us
phos ate
Ġdraw backs
ĠMe eting
ĠEm amectin
Ġcollabor ate
Ġdemonst rates
ĠRed ucing
Ġcentrifug e
Ġcentrifug ation
Ġther m
Ġinstall ments
UT s
Ġbelie ved
Ġcra cking
Ġveter in
ĠSoy a
Ġmarmal ades
Ġmillilit er
Ġlands cape
Ġconn ect
Ġarbit rator
Ġcryogen s
phen ol
Ġreject ed
ĠUS DA
Ġloos ening
ĠNutrition al
Ġpercol ation
Ġter ra
Ġincent ive
Ġmot iv
ĠIdent ification
Ġperce ived
ĠRem oving
ĠExper iments
Ġcategor ized
carb on
Ġscra ps
Ġelectric ity
ĠCap ital
cons um
thra cnose
Ġnour ish
ĠKrant i
Ġproxim ity
ĠDash aparni
Ġprolif eration
Ġslur ry
Ġsto pped
Ġlifes pan
bru ary
Ġalbic inctus
ocrot ophos
ĠOros ius
ĠGyps y
ĠAngo umois
Ġphytoph agous
3 8
4 6
A O
E ast
J uly
N PMA
b our
e eling
h bh
k ar
o C
p o
t am
u pt
v ic
Ġ X
Ġt ying
Ġs q
Ġs li
Ġp ist
Ġf ront
Ġb ones
Ġb otanical
al ian
ic ks
ic ted
Ġm esh
Ġd at
Ġis ol
ĠT SU
ul l
ul ant
ation ally
om eth
im ate
Ġe ase
Ġe ight
Ġn ic
Ġn orth
Ġl ives
ut ious
Ġh usbandry
un tain
Ġcan k
ĠI Us
Ġv ib
ĠA ff
ĠC FT
st ate
ĠS on
ĠS orghum
th ird
Ġimp osed
ver i
ater pillar
ĠF owl
ĠH ar
ist ics
Ġex am
Ġorgan ism
op ro
Ġcomp r
ĠIt alian
Ġco operation
ĠIn put
Ġgrow ers
Ġhelp ful
hen di
ĠN idhi
Ġac kn
res ella
ĠR et
Ġch lorpy
Ġinf low
Ġ2 7
Ġint ensive
Ġsc rut
Ġsc out
ĠE st
ĠE very
Ġdevelop s
ge red
ĠPro t
Ġcultiv able
ĠL ess
ĠL oss
Ġpromot ional
Ġun cert
ĠJ u
Ġ4 50
ĠU lt
Ġsign als
Ġcre am
Ġdist illation
Ġdep resella
Ġirrig ations
Ġval ley
Ġproject ions
Ġcost ly
Ġcle aring
ĠV L
ĠV ert
ĠV illage
uc k
ĠAn ar
ind i
Ġlimit ing
Ġprop ort
Ġrec ip
Ġbr anching
Ġdi pped
Ġcollect ives
mon soon
20 4
Ġinit iation
Ġz ooplank
Ġpoll en
Ġbeet root
Ġtop soil
Ġtop dressing
Ġaddress es
Ġbur ying
Ġtrust ee
Ġrest aur
ĠZ aid
Ġbuilding s
Ġtarget ing
Ġevalu ated
Ġmature d
Ġph ases
Ġsubs crib
Ġrepresent ative
ĠCover ing
yl ar
Ġconf lic
Ġspecial ization
Ġvi ol
Ġclay ey
ĠEn vironment
Ġstandard ized
Ġtur g
Ġtur ning
Ġalign s
stand ing
Ġhat ched
Ġrecord ed
Ġfib ers
Ġpink ish
Ġfat ig
Ġfur rows
ĠAm ras
ĠSa hbh
ĠVari ous
Ġflex ible
Ġmagg ots
Ġsprink led
ĠSam man
Ġexperi ences
Ġrenew al
Ġconn ection
Ġstub bles
Ġsched ules
Ġdors al
Ġdefect ive
Ġfinger ling
RSA s
Ġquest ion
Ġfeas ibility
Ġheav ily
chin ochloa
Ġol der
Ġstead y
arj eeling
Ġovipos ition
Ġenric hes
Ġadhe rence
ĠKa veri
Ġlamb da
Ġfibr ils
Ġcuc umber
Ġdevast ans
Ġdiscip line
ĠPyr illa
tam ethrin
Ġpist on
ometh ing
ĠCFT RI
ĠAmras ca
ĠSahbh agi
E R
I FOAM
O H
c ro
d ate
d ist
f lav
i ant
l oc
m el
o xystrobin
p us
r any
t ight
t ie
Ġ urban
in ators
re at
at able
at ak
er al
Ġs izing
Ġs ense
Ġs omething
Ġc age
on ents
Ġp in
an pur
ro pped
ic um
ar ind
ion e
Ġd han
Ġto day
ent y
Ġw ww
Ġw oman
il es
il ent
ĠW ad
ur ning
om in
Ġl int
os es
Ġst ap
Ġas e
Ġas pir
ĠA ir
ig her
ĠS un
ĠS HGs
Ġimp lications
Ġr ating
ĠP et
ĠP ack
ĠP upation
em nity
ĠF ly
ĠF act
Ġsp ark
Ġsp inning
ĠH um
ĠH ouse
ĠH igher
Ġle m
ist ing
ĠB on
ĠB acter
Ġcomp at
Ġcomp ut
Ġy et
Ġdo ors
Ġro ck
ĠIn formation
ĠM any
dition s
Ġca utious
hy brids
ĠD arjeeling
ract s
ĠR an
ĠR PC
Ġj umping
ĠG erui
Ġse arch
rib uz
ack s
Ġreg ional
Ġsh rubs
Ġover flow
Ġover due
fe el
ap rop
ĠL ow
Ġfl ash
Ġfin isher
ber ries
Ġdet ection
ĠAddition al
Ġinter fe
Ġsustain ed
Ġdist ress
Ġcap illary
ruct ose
Ġdirect ion
Ġdirect ives
Ġchar ged
Ġall otted
Ġoper ated
Ġoper ator
Ġfinancial s
Ġfinancial ly
Ġwor th
Ġbod ily
Ġloc k
Ġset up
ob ia
ci ous
Ġvir idae
oper atives
Ġocc up
ĠMan i
Ġguid ing
Ġchan ged
Ġscient ists
Ġphos ph
Ġmilk y
Ġlay out
Ġcompet ing
Ġparasit ized
Ġfacilit ators
ron es
aj a
Ġsk y
ĠAre a
Ġtrain ings
ox aprop
CC Es
ĠELI s
ĠCl ay
ĠAz oxystrobin
Ġcor resp
Ġreport ed
Ġes cape
Ġspecial ty
ĠBl ock
Ġclar ify
Ġadmin ister
Ġconsistent ly
ĠRhiz ome
Ġinterc ropped
Ġoxid ase
Ġsubject ing
Ġdifficult ies
Ġtub ular
Ġalloc ate
Ġqual ify
ĠPre par
Ġadvantage ous
Ġtax es
Ġpreca ution
ĠPest icides
Ġhard ening
Ġcurrent ly
Ġstim ulate
Ġadvance ments
Ġgradu al
Ġsatis f
Ġod ors
Ġdistinct ive
Ġbuy er
Ġsafeguard ing
Ġhome opat
Ġextreme ly
Ġtransact ion
Ġrefriger ated
ĠGro up
Ġsediment ation
Ġupload ing
Ġpear s
Ġsubmer ged
ĠSugar cane
Ġmarg ins
Ġmos quito
Ġmetab ol
Ġdisput es
ĠDis ease
Ġburst s
ĠPar asit
Ġblend s
Ġfif th
ĠVacc ination
Ġremed ial
Ġhorm ones
Ġreceipt s
Ġprompt ly
ĠGM Os
ĠTet rany
Ġslop es
Ġenfor ce
Ġinterpret ation
ĠKarn atak
ĠWor ld
Ġwra pping
Ġvo ucher
ĠInter cropping
Ġapric ots
razos ulfuron
cont amination
ĠIncre asing
ĠCommer cial
ĠEns uring
Ġcredential s
Ġadequ ately
irach tin
Ġvirt ual
Ġdat ab
ĠLess er
cro ppers
ĠRPC D
ĠKarnatak a
1 20
7 4
A s
B R
C o
K U
N S
N AM
O D
S FAC
c id
e z
g l
g as
i oc
j ay
n ag
o ors
p ack
r um
s pect
v ile
re am
Ġo pp
at he
at in
Ġs ac
Ġc ordial
is l
or ac
Ġb us
Ġb and
Ġb low
Ġb amboo
Ġan g
Ġan thracnose
Ġin ner
Ġre ct
ĠT ho
ĠW ell
us and
ho uses
Ġl end
Ġl uc
ce l
ot onic
ag on
ag gered
ĠI CP
ab er
Ġst ack
Ġst agn
ĠC ur
ĠC ow
ĠC row
iz ers
Ġen comp
ĠS RI
ĠS oluble
ĠS KU
Ġr upt
Ġpre t
ĠP KV
ĠF resh
ĠF lower
ad ka
ac arb
ĠB al
ĠB und
ĠB GA
Ġat tain
Ġco at
Ġco ales
ĠM ung
Ġ1 25
av ail
av our
ĠN ymph
ĠN orthern
Ġac ute
Ġth read
orm ally
Ġmet ribuz
Ġensure d
Ġben gal
Ġtim eline
ĠE astern
Ġmo ves
Ġsupp lied
ĠPro duc
ĠL akh
Ġass ured
Ġind ication
Ġsub lim
Ġun irrigated
ĠK H
ĠU PR
Ġmark ings
ĠInd ox
ĠSt ink
ruct ive
Ġtechn ological
let e
Ġdef ines
Ġproject ed
ĠY ellow
Ġloc ations
Ġ20 13
Ġkn ives
uc onazole
Ġher d
ĠAs h
Ġ7 50
Ġaccess ibility
Ġneg oti
Ġmod ification
Ġground water
Ġflavor ful
Ġrec on
Ġplay ed
Ġdown y
Ġ0 1
ough ing
Ġlay ing
Ġleg s
Ġleg ume
ll a
Ġcho col
Ġlower ing
Ġpoll inators
ral ized
Ġparasit ism
ĠSp iny
Ġexper iments
Ġselect ively
ĠWh iteflies
Ġmove ments
pro fit
Ġanaly ze
ĠAr gin
ox id
Ġflav on
alu ka
Ġintern ationally
ĠPl ain
ĠAl iment
ĠAl cid
Ġhost s
Ġcor rosion
Ġdiff ers
Ġissu ance
Ġpric ing
ĠCon t
Ġcryst al
Ġemploy ing
Ġstrong er
ĠFin ance
Ġunt reated
Ġappoint s
Ġobserv ing
part s
Ġpriorit izing
Ġoxid ized
app ropri
ĠMon ocrotophos
Ġmitig ating
Ġcoord inate
vi ations
Ġaff aber
ĠHe avy
Ġinnov ation
isp a
Ġster ility
Ġster ilized
Ġbat ches
Ġsett lement
Ġprec urs
Ġsuck ers
Ġbudget ary
Ġcab inet
Ġcucurb its
Ġwa ve
uls ion
Ġplate au
ĠForm ation
Ġcra cks
Ġten ant
ĠPh adka
ĠPigeon pea
Ġcompens ate
Ġdistingu ish
Ġdistingu ishing
Ġara ble
Ġspir its
Ġexem ption
ĠFig ure
AS T
Ġdisb ursed
Ġmouth feel
Ġber gamot
Ġgather ing
ĠBe et
orn is
ĠFe bruary
Ġdiscol oration
Ġsolub ility
Ġseg ments
Ġnucle i
Ġupd ated
Ġtransmit ting
Ġfif te
ĠCa ffeine
Ġbiodegrad ation
Ġbiodegrad able
Ġpun ct
Ġgly phosate
Ġcand ied
ĠPy razosulfuron
Ġerad ication
Ġpel lets
Ġprotoc ols
Ġreplac ed
ĠPrevent ing
ĠRid omil
ĠVeget ables
Ġpedic el
Ġdeclar ation
tol erant
Ġpreced ing
Ġwhit ish
Ġarran ged
ĠLiqu id
Ġcollap se
ĠPanchay at
Ġpadd les
ĠMoist ure
vic ornis
Ġfatig ue
ĠSKU AST
avour able
ĠIndox acarb
Ġchocol ate
ĠArgin a
ĠAliment arius
ĠAlcid odes
. )
5 1
8 8
D ep
D IN
M T
M a
N C
O P
P T
T SU
V illage
b ug
c aterpillar
f lies
j a
l ab
m eg
n atural
p ace
r is
r itor
s owing
t es
t able
u il
w in
w ay
Ġt ie
Ġo olong
at ox
er ium
Ġc el
Ġc opies
on av
en ure
Ġf en
ro d
is ons
Ġb ind
Ġb rought
Ġan ten
Ġin ae
ic y
Ġd ug
Ġd rive
Ġre ared
ĠT emperature
le vel
ĠW eed
Ġpro th
Ġpro pping
om ethoxam
om ycin
et ida
id ia
Ġe ug
Ġn odal
ra ph
Ġh om
if i
ab ul
Ġhe m
Ġst orm
Ġst ip
qu alis
Ġpl enty
est er
ĠC ho
ĠC ost
ig e
ter ra
ĠS ci
ĠS han
ĠP ost
ĠF er
ĠF il
Ġsp ent
ĠH and
ĠH PR
ist ical
Ġex ig
rom one
se en
ĠB ag
ĠB rown
ĠB PT
ec al
ec osystem
Ġinc ubation
Ġdis hes
Ġhel iot
Ġco uncil
Ġprocess ors
ud r
ĠM y
ĠM ost
Ġ1 45
Ġ1 121
ĠN ature
Ġsy n
ĠR ec
oc u
Ġpur ging
ust ic
so ft
ip s
Ġsc al
og ical
ĠE ffective
ĠE udr
are tt
Ġcol ocasia
Ġsh rink
Ġmo unt
ens ification
Ġform ulating
ell s
ap s
ĠL IN
ke let
Ġsub m
ĠAd ding
Ġ3 8
fore st
fore seen
Ġfeed ers
ĠJ y
ĠOrgan isations
Ġinter ior
Ġpo isons
Ġup root
ph ag
Ġout flow
Ġexp ress
ĠFarm ing
Ġperiod ic
overn ing
Ġtra cking
Ġoper ators
Ġwor ds
Ġcle arer
ructure d
Ġem pt
Ġair tight
Ġkn ow
Ġkn ee
Ġkn ife
Ġrat ios
Ġfo etida
ne vil
Ġname ly
Ġar id
Ġhum ic
Ġbr isk
ĠMan ip
Ġcarbon ate
Ġshare croppers
Ġphos phat
Ġpathogen ic
pect ed
ĠEx p
Ġdecre asing
ron ically
Ġselect ive
Ġdehyd rated
Ġoccur ring
pro cess
term edi
Ġsyrup y
Ġrest ore
Ġcompos ed
Ġpurch ased
Ġrese arc
ĠAc eria
Ġ19 81
Ġhyd roly
sol id
Ġcor onav
ĠSh ort
ĠApp le
Ġparticip atory
Ġpred ict
Ġconf irm
Ġpen al
Ġwet ting
Ġkill ed
Ġcate chins
Ġlack s
ĠInt ensification
Ġvent ral
Ġdrop lets
Ġflood s
Ġheads pace
Ġnect ars
Ġchick pea
Ġoils eed
Ġformal in
Ġfirm ness
Ġhist or
cri ptions
ĠQu ality
ĠPe at
ĠAuthor ized
ĠLim it
ĠEarth ing
Ġfair ness
usk y
Ġdepos its
Ġenrich ing
ĠTechn ology
alin ity
ĠControl ling
ĠFree ze
Ġsheath s
can ut
Ġbid ding
Ġscre ens
Ġbring ing
Ġstal k
Ġhind wings
Ġdiscol ored
Ġsolub ilizing
ĠGard ens
pers on
Ġcompuls orily
Ġrobust a
with held
Ġincent ives
Ġevol ving
Ġmanip ulation
ĠKVK s
Ġperme ability
ĠKash i
Ġshif t
Ġtart aric
Ġassim ilation
Ġcaps icum
Ġerro rs
ĠAppro ximately
Ġperf ect
Ġschedul ing
Ġhydrop onic
Ġintercrop s
ĠRain fed
Ġcig arett
Ġalert ness
ĠPromot ion
ĠPul ses
rish i
Ġfu el
Ġacar icide
renew able
Ġspons oring
ĠAff airs
Ġscout ing
ĠEst abl
Ġturg idity
tie red
ĠFact ors
ĠBon nevil
ĠBund el
meg a
Ġinae qualis
ĠShan kar
Ġheliot his
ĠLIN AC
Ġresearc hers
Ġcoronav irus
Ġcigarett e
ĠBonnevil le
% ).
A T
G erui
G overning
H el
H ACCP
M A
M V
M arket
b ient
c al
c ular
c ritical
h us
i et
m aj
m eter
n ot
p ectinization
r ances
s ection
w orth
y es
Ġt richo
Ġt aper
re ction
Ġs lower
on ate
Ġp age
Ġf rass
Ġf rench
Ġf alse
it ox
or rect
Ġb rain
Ġb ub
Ġb ids
Ġb ills
Ġin duc
Ġin organic
Ġin duce
ar asit
Ġm ask
Ġm ylar
Ġd ynam
ct ive
ct op
Ġw avy
Ġfor ward
as er
as hes
Ġe ye
Ġe yes
Ġn urt
Ġcon e
Ġl ot
Ġg olden
Ġare canut
ut ory
ra filtration
Ġh anging
ot ypes
ot arsonem
ag ious
ess ing
ĠI B
Ġst eep
ult ane
Ġpl us
ĠA ure
ĠA rom
ĠC oll
Ġso ught
Ġcont agious
ĠS ov
Ġr pm
ĠP ret
ĠP oor
Ġle ver
ad visory
Ġex ec
Ġex hibits
Ġorgan ize
her b
ĠB re
ĠB rix
Ġinc orrect
pt oc
Ġco le
ĠIn it
ĠM ission
ĠM etho
Ġca ustic
ĠN E
Ġac company
res ent
ĠD i
ĠR ules
ĠR Os
ĠR yn
Ġ2 40
Ġpur ity
Ġnot ify
Ġsc hool
Ġtim ings
ĠE ven
Ġli able
Ġab bre
ell ul
Ġmin t
ĠPro f
ĠL et
Ġsol utes
Ġfin er
Ġun less
Ġun foreseen
Ġ3 6
Ġ3 7
co vers
Ġ4 000
Ġdes i
Ġpo ol
Ġinst ars
ub ig
Ġout standing
Ġopt ional
hol ds
Ġdist illed
Ġir rit
Ġlo oper
Ġlo oking
Ġterm inated
lect ing
Ġear n
ĠFarm yard
Ġfree ly
Ġtra pping
Ġtra iling
Ġfol ded
Ġent om
ident al
Ġsm art
Ġwhere as
Ġsuc rose
Ġfreez er
overnment al
Ġharm ony
Ġestabl ishes
Ġbi ology
be y
ĠSc ale
Ġleg isl
Ġbenefit ing
Ġjel meter
Ġgo at
Ġgerm s
Ġlocal ized
Ġpri vile
han ol
Ġcho pped
Ġpers ist
Ġvac ant
ĠEx port
Ġsun n
Ġhead covers
Ġparticular s
Ġbur y
Ġgrass y
Ġ9 6
Ġdeg rading
ĠAr my
Ġtrust ed
Ġsim ultane
Ġevalu ates
Ġturn ed
Ġturn over
Ġreli ef
Ġes cal
Ġsubs cribed
Ġconf ined
ĠBl itox
Ġdissol ving
Ġattract ing
Ġclar ified
Ġsocial ly
Ġlist ed
Ġeff icacy
char ge
Ġstat utory
ĠTrichogram maj
Ġtrap ez
Ġtransform ed
Ġsil k
Ġmob ility
Ġ11 40
Ġaccum ulate
Ġreview s
aks h
Ġdead heart
Ġhar rows
ĠMe chan
Ġsett lor
Ġemphas ize
ĠFac ilities
Ġgran ular
Ġrequest ed
NA BARD
Ġlat us
Ġinstall ing
ĠDel tamethrin
ict ion
ĠInc ubation
ĠSa iss
Ġforest ry
Ġdri ven
ĠTrans action
Ġmedic ations
Ġdischar ged
ĠRo und
____ ____
pir ation
ĠFree zing
Farm ers
ĠPoly phenol
ĠPoly phag
asm ia
Ġdisturb ance
Ġfa ecal
Ġdors alis
ĠAnim al
Ġadvoc ate
Ġexclud ed
Ġsaw fly
Ġconstruct ing
Ġevol ved
Ġfloures ence
has ini
Ġble aching
ĠVal ue
Ġexamin ing
Ġaccommod ate
ĠMar asmia
ĠChandra hasini
Im port
oin ting
Ġnec k
ĠMadh uraj
Ġnetwor ks
ĠHarvest ing
ĠMut ent
Ġlimon in
Ġpenalt ies
Ġvib rant
Ġdatab ase
Ġluc ern
ritor ies
Ġfen oxaprop
Ġhistor ical
Hel p
Ġdynam ics
otarsonem us
ĠSov iet
Ġexec ute
ĠRyn ax
ĠTrichogrammaj aponicum
Ġtrapez alis
ĠPolyphag otarsonemus
1 15
3 9
A L
D M
H S
K E
M Z
M IS
M uriate
R abi
S I
S PI
S HGs
T enure
a qu
b en
b ooks
c orn
c orbic
d oor
f in
f all
f ten
h ra
h ane
k ee
k hand
l ers
l ite
m g
m ix
n ii
o oly
p read
u ation
z le
Ġt ab
Ġt ru
Ġt act
he rent
in ee
at us
Ġc umb
Ġp ush
an us
an gu
en ous
en iae
Ġf ing
Ġf og
Ġb ab
Ġb ending
Ġb hendi
Ġb racts
Ġan al
ic a
Ġd ur
Ġd rones
Ġw on
Ġw are
ĠT il
le g
ĠW orm
ĠW heat
ĠW ooly
as se
as cular
Ġbe li
Ġbe ars
om eter
im sulfuron
ve get
ho d
ho les
Ġcon sec
Ġl ots
Ġl aser
ant es
ow der
ir um
Ġcan cell
ot rop
ol ving
Ġst om
qu art
Ġas corbic
ĠC aptan
od ed
ig ure
Ġso ften
Ġde ploy
ĠS orting
th ora
Ġon wards
Ġpre fers
ĠP ectic
ĠP SB
ĠP owder
ĠF ertilizers
ĠF IC
Ġshould ers
Ġsp ong
Ġsp herical
ĠH P
Ġle ak
Ġle can
Ġle arning
ad ing
ad min
ac i
Ġorgan s
Ġad miss
ĠB ha
ĠB irds
Ġper lite
Ġro of
und hi
Ġdis pl
per g
Ġhel icoverpa
all abh
ĠM and
ĠM oring
pos e
Ġac kee
ĠR hinoceros
Ġtr anches
Ġne onate
Ġmet hane
Ġme al
ib bling
Ġint ention
hem p
Ġse ven
up ees
yp yr
Ġover win
ens er
Ġund erm
ĠPro ced
Ġcomm ission
ĠL al
Ġind emnity
Ġind oors
af lav
Ġun p
Ġ3 50
co oking
ĠK ing
ach ment
Ġbl ot
Ġfeed back
Ġunder ground
Ġ4 7
Ġsign ify
Ġwh itefly
ides pread
Ġdes k
ĠComp lex
Ġinst alled
Ġref und
Ġsustain ing
Ġsustain ably
Ġout let
ety l
Ġpartic ulates
Ġextract or
Ġdef icit
Ġleaf lets
Ġent rances
Ġ20 11
uc cess
oll worm
Ġsubst it
Ġar har
Ġfreez ers
ten ed
Ġregul ators
Ġbi ota
yc line
Ġaccount ing
Ġam bient
ĠUn its
Ġdrain ing
Ġphos phorous
Ġmult i
Ġdel ays
Ġcrit ics
ere ct
Ġcool er
Ġfer terra
Ġtop s
Ġvis ion
Ġsupply ing
Ġsk ins
Ġshort ages
Ġunders ide
Ġinvest ors
Ġdark er
Ġet hanol
ĠMa dua
Ġcirc ulate
Ġgel atin
ĠImp roper
Ġhyd rogen
Ġhyd rated
astic ity
Ġpass age
Ġfod ders
Ġsqu ee
Ġgovern ed
Ġpublic ity
Ġrhiz obia
Ġconsult ant
Ġpoly hed
Ġinoc ulated
ĠCompos t
Ġflat tened
ĠHy d
Ġexport ing
Ġmanufacture r
fill ing
Ġmob ilizing
Ġnam ed
amom ile
Ġaccum ulated
ĠDirector ate
raz in
ĠSub abul
Ġchick ens
Ġoils eeds
ĠBan gal
ĠThi omethoxam
back ed
Ġweak ness
Ġphen omen
ĠSupport ing
ĠGov ind
ĠDel ay
Ġforest s
Ġgum mosis
ĠProcess ed
Ġdepos ition
Ġvolat ilization
Ġsprink ling
Ġgap s
Ġbid der
ĠCorpor ation
Ġcryogen ic
Ġautom ated
Ġdecid ing
IR D
aint ies
Ġgrad ient
ĠSanction ing
Ġalk aline
ĠPer rine
Ġimmers ed
ĠFl our
ĠClean ing
Ġpercol ators
Ġhydro cooling
Ġpil ot
Ġexempt ed
toph thora
Ġconve ction
Ġconve ctive
Ġindirect ly
Ġelev ation
FPC s
ĠPhy tophthora
Ġsaf er
Ġpanic les
ĠPoint s
Ġexecut ing
Ġelong ated
Ġempower ment
FC s
enes cence
Ġresist ances
ĠSn ow
ĠSy nthetic
ĠMic ro
ĠAphid idae
Ġtri als
carbon ated
Ġuncert ainties
Ġzooplank ton
Ġrestaur ants
Ġviol ation
Ġase ptic
Ġinterfe re
ĠICP L
Ġencomp asses
Ġsublim ation
uil ding
Ġeug eniae
ĠFil ter
ĠEudr ilus
Ġmount ed
Ġempt y
ĠBundel khand
Ġtricho derma
ctop arasit
ĠPret ilachlor
ptoc ycline
Ġprivile ges
Ġescal ation
ĠRynax ypyr
Ġtab aci
Ġtru e
Ġcumb u
Ġfing ers
Ġbeli ef
Ġconsec ut
ĠPowder y
Ġlecan nii
Ġadmiss ibility
ĠMoring a
ĠBangal ore
ĠPerrine al
5 204
9 7
A g
C h
D s
F orm
F orms
F MS
I WM
I ON
K ur
N O
N P
P l
S mall
a har
b uconazole
c ation
f ruit
f ront
g rad
h t
i idae
i othrips
j ar
j ust
l it
m ir
o ir
o ot
p his
r aria
s w
v os
w ing
y alt
z zle
Ġ rib
Ġt ing
Ġt ick
in ates
Ġa z
Ġthe ar
Ġo ats
er g
er ion
Ġs ent
Ġc os
Ġc her
Ġc art
Ġc rib
Ġc rink
on ed
Ġp aw
Ġf it
Ġf ans
is ions
is ins
it ures
ed ium
or is
Ġb ad
Ġb unch
Ġin ject
Ġin comp
ic em
ar p
Ġm y
Ġto ot
ct ure
Ġw ate
Ġw estern
Ġw idespread
ĠT illing
ĠW BPH
ĠW ashing
ul ed
Ġpro active
Ġpro spect
us c
as y
Ġbe are
im uron
ho le
id ial
Ġl ip
Ġl umps
Ġg un
Ġg ently
ment ation
un ction
ir ation
ot ment
ag s
ab its
el ig
ch ari
Ġst y
Ġst ain
Ġst rain
Ġst rains
Ġst aggered
Ġpl ot
Ġpl ucking
est a
ĠA v
ĠC MS
iz z
iv estock
Ġde xt
Ġde activ
am aya
ter ior
ĠS R
ĠS ingle
Ġwit her
ĠP o
ĠP red
ĠP atory
em is
em oc
Ġle arn
Ġle cture
ari ans
se lection
ĠB er
ĠB ollworm
act ic
Ġcomp ar
Ġcomp ression
Ġman if
Ġman ager
Ġro ad
Ġdis p
ill um
ĠM eg
ĠM yc
ĠM yn
ĠM esta
av ed
av ig
ĠN ucle
ĠD ich
ĠR aksh
ĠR icem
Ġspec ifies
Ġmet sulfuron
ĠO oty
unt al
ĠG o
ard ed
Ġtrans it
Ġtrans mitted
Ġins ure
Ġins ulation
og ly
ĠE p
ĠE nt
Ġact uarial
Ġma p
Ġcert ifies
Ġju icy
Ġpract ical
ĠL ab
ca rotene
Ġfin ally
Ġallow ances
Ġ3 86
co oked
ĠK G
ĠK g
ĠK o
ĠK at
ĠK idney
Ġve hic
Ġwhen ever
ĠJ owar
Ġ4 6
ĠU p
Ġveget arian
Ġdes ire
Ġup front
Ġthere fore
Ġrel ating
Ġrel ie
Ġdifferent i
Ġlo yalt
Ġfac ing
Ġwell being
Ġear nings
Ġoff sp
Ġirrig ate
Ġharvest ers
Ġcru cif
Ġappro ve
Ġrot ten
Ġtra ces
ĠY MV
Ġent hus
Ġem b
ĠV ir
Ġest er
Ġmaxim izes
Ġut most
Ġclean er
ĠNA A
Ġaccess ed
Ġvir ions
Ġmod es
val u
Ġflavor ing
Ġless er
ĠGu jar
Ġmed ical
hogen ic
ord ination
ĠCo ordination
Ġcrit erion
Ġcommun icate
pper iness
lor vos
Ġmid lands
Ġassoci ations
Ġgrass land
Ġsec retary
Ġinvest ing
pro duct
ĠAr tificial
Ġfinal izing
Ġflav oured
ĠSu itable
ĠPl ume
Ġno ise
Ġfunction al
Ġbio herb
Ġdeep ly
Ġ19 50
Ġfe el
Ġmajor ity
Ġamend ed
Ġvacc inations
ĠCon cent
Ġevapor ates
Ġbroad er
Ġthick er
Ġsqu ashes
Ġquick er
Ġstraw berries
Ġsmo other
ĠSw arming
Ġver ifying
Ġmul ches
Ġelect ronically
Ġpigeon pea
Ġstud ying
ĠBor on
ĠEn z
Ġaggreg ate
Ġunf avourable
Ġrecogn ize
Ġrecogn izes
Ġflo ors
Ġiniti ated
Ġsubsid iary
Ġweb bing
ĠInstitution al
Ġexport ers
Ġreview ing
Ġster ilizing
Ġ17 18
Ġinspect ing
Ġround ed
Ġstim ulant
Ġemphas ized
Ġreserv oir
Ġfro st
Ġaccredit ing
Ġgain ed
ĠCal iothrips
cyc le
Ġsin ce
occ idial
Ġquint al
Ġposition s
Ġreplen ished
Ġcapt uring
Ġexperiment ation
Ġdepos it
ĠChair person
Ġara bica
Ġtan ks
Ġstrengthen ing
Ġdeb ts
phen ols
Ġreject s
ĠMah amaya
Ġcr isp
Ġneigh bour
Ġexclud ing
Ġconstit uted
Ġmac ronutrients
opat hogenic
ĠBa har
bl ast
hel min
Ġphe romone
Ġpean uts
Ġcompetit ors
ĠRem ote
ĠExper iment
Ġweigh s
Ġweigh ing
Ġlic ense
ĠPhy s
ĠND R
ĠKash mir
Ġhailst orm
Ġport ions
ĠHead ed
ĠTer ai
Ġethyl ene
hada an
Ġfos ter
ĠBar ani
ĠAra bica
Ġexchan ges
Ġchlor imuron
ĠEth yl
Ġdividend s
ĠBand icota
Ġtast es
Ġfle a
Ġelectroly tes
Ġking dom
Ġvect or
ĠSamp ada
ĠStre ptomycin
Ġrab bit
Ġsupervis ion
Ġderiv atives
po as
Ġsli pperiness
ĠVert ic
Ġphosph ide
Ġmetabol ism
Ġvoucher s
Ġbengal ensis
ĠBeet le
Ġfifte en
Ġhem isp
ĠEstabl ishing
Ġlever aging
ĠLet ter
Ġbab y
veget arian
Ġcancell ation
ĠProced ure
Kur la
Ġthear ubig
Ġcrib raria
Ġtoot hed
Ġbeare rs
elig ible
Ġdext rose
ĠMyc orrhiz
ĠMyn a
ĠDich lorvos
ĠRicem oth
Ġloyalt y
Ġoffsp ring
Ġenthus i
ĠGujar at
Ġneighbour hood
2 9
A D
C GF
D SC
F AW
G RO
O I
R Y
R s
R ed
b a
b ish
c ost
d ec
d ust
d den
e vity
g ir
j i
j it
j am
k hol
m ant
o om
p re
p is
r hinoceros
t i
v ance
y an
Ġt rig
he e
Ġthe aflav
at ically
Ġs org
Ġc row
Ġp ipes
es am
en vironment
Ġf ost
Ġf ight
ro tic
Ġb it
Ġb ass
Ġm g
Ġd al
Ġd rough
il ic
Ġre mitt
ĠT ur
ĠT el
ĠT illage
ĠT uss
ĠT otal
Ġpro xy
as p
om er
et a
Ġe ctoparasit
Ġl ac
Ġg hee
Ġare ca
ut hern
Ġh ars
Ġh abits
Ġcan cer
Ġcan cel
if lo
ag ers
os pir
Ġsu dden
ĠI X
ĠI MD
el ly
ch ad
ĠA A
ĠA GRO
ĠC DT
ĠC ensus
Ġen clos
Ġso uthern
st able
ĠS old
ĠS esbania
Ġimp erv
ver ia
em ination
ĠF ert
ĠF ish
ĠH I
ĠH av
Ġle verage
Ġex otic
Ġplant ations
Ġapp ointing
ert ure
ert onic
ĠB r
ĠB eau
ĠB aja
ĠB emis
ric yc
ec yc
Ġper ishable
Ġinc ub
Ġag ar
Ġro ut
Ġro ds
Ġat om
Ġdis mant
Ġha emoc
Ġco operatives
ĠM armal
ĠM icrobial
Ġk ee
Ġprov en
Ġte le
iel la
rol ler
ĠN S
ĠN il
Ġth ings
ast ing
Ġspec im
Ġnot ifying
Ġne erium
Ġsow ed
ĠG ur
Ġappl ies
Ġtrans fers
Ġover he
Ġho ur
Ġho ppers
ell idae
Ġmin d
ark hand
ĠPro duce
Ġany thing
ĠL i
Ġind ex
Ġsus pected
Ġ3 4
ĠK and
ĠK eeping
ĠOr thodox
Ġbl oom
Ġ5 8
ĠJ elly
ĠU F
Ġsupport ive
Ġpo unds
Ġinst ance
Ġdec ides
Ġrep ell
Ġlong evity
Ġexp iry
Ġlo ud
Ġcolor ation
Ġbore s
Ġleaf y
ĠCh illing
Ġatt end
Ġair flow
ient ific
Ġ6 25
Ġgener ates
Ġseason al
Ġhand w
Ġbas mati
Ġocc upation
Ġdown wards
ĠIns emination
Ġspac ed
Ġcal ib
compos ed
ĠSc irt
ord inary
Ġindic ative
Ġfil ing
Ġdecompos es
mon th
Ġquant um
Ġsal ary
Ġsal aries
Ġown ed
Ġsan ctions
Ġcur ling
Ġcomb inations
Ġsec urities
ĠTr iflo
Ġplace ment
ox ide
ĠAss essing
Ġrest ricts
ĠPl oughing
con ventional
ĠCl ass
Ġed ges
Ġant agon
Ġdepend ent
ĠSh ield
Ġvacc ines
Ġvacc inating
Ġpred omin
Ġretain ed
ĠMo U
Ġemploy ee
ĠPM H
Ġconver gence
Ġprogress es
ĠCent res
Ġstraw berry
Ġrev ised
Ġrev olving
Ġche ese
Ġsap ota
Ġobserv ations
Ġassist ing
Ġfilt ered
Ġ200 6
SO RY
Ġaud ience
Ġadapt ing
Ġpoly phenols
ĠMO U
Ġleft over
Ġiniti ative
Ġwind ow
Ġqual ification
Ġtransform ing
Ġalign ing
cos p
Ġsw ine
ĠIC s
ĠEm poas
Ġrepe at
Ġdispos ed
Ġdemonst rating
Ġofficial s
Ġod our
Ġglob ular
orr h
Ġgain ing
Ġcentrifug al
Ġrodent icides
su ited
Ġfulfill ing
ARI F
Ġrub bish
Ġreason ably
Ġworks hop
VI SORY
Ġap ex
Ġap erture
Ġdistribut e
oph ilic
Ġincl usive
Ġmut ually
ala xyl
Ġmus lin
Ġmonit ors
Ġdiscuss ions
cast le
Ġmethyl ene
Ġlif ecyc
Ġrenew able
ĠDis inf
Ġdecaffe ination
Ġsanit izers
Ġmycorrhiz ae
200 8
clim ate
Ġautom atic
Ġce ment
Ġexpand ing
FS SAI
ĠInsect s
Ġnom inated
ĠNag ar
Ġmal le
ĠAch chad
Ġextra ordinary
Ġconstruct ed
Ġcla uses
ĠIdent ifying
Ġperce ive
Ġoutput s
Ġfloures cens
sec urity
ĠBh abhar
Ġacceler ate
Ġhighlight s
Ġsaf ener
Ġbox es
ĠShe ath
Ġreflect s
ĠWe ather
Ġindig enous
Ġpanic le
Ġfos tering
Ġradical s
trans planting
ĠJh arkhand
Ġvess el
Ġscent ed
ĠEc onomic
Ġvelv ety
Ġbiopest icide
Ġcul inary
Ġdeal ership
Ġresem ble
Ġcoffe es
Ġconsolid ation
ĠEurope an
Man ager
Ġexclus ions
ĠAb out
Ġmicrosc ope
Ġped unc
Ġvers at
Ġterra ced
Ġnic os
ĠInput s
mel on
reat ment
ĠTetrany chus
Ġsac chari
Ġblow n
ĠKH ARIF
caterpillar s
ifi ers
ĠCho osing
ĠSci ence
kelet on
Ġsubm ersion
Ġbub bles
Ġsimultane ously
Ġware houses
ĠBha war
etyl ene
Ġphenomen on
Ġincomp lete
AD VISORY
Ġbass iana
Ġdrough ts
Ġremitt ance
ĠTuss ock
Ġhars h
ospir illum
ĠSold ier
Ġimperv ious
ĠHav ana
ĠBeau veria
ĠBemis ia
Ġkee per
ĠScirt othrips
ĠTriflo xystrobin
Ġpredomin ant
ĠAchchad an
) '
. .
2 15
3 4
9 4
A z
B G
D AC
E astern
G N
K C
M C
R D
R T
b red
b orer
c rop
c her
d em
f ric
f und
f ts
i per
i ppings
k ka
m ol
m ap
m unity
n oon
p rin
p ectin
t ra
u v
v ine
v ascular
y z
y ellow
Ġ ram
Ġ ii
he red
in termedi
re ared
er ala
Ġs ess
Ġc ub
Ġc ame
on ics
Ġp ert
Ġp ile
Ġf ake
Ġf etch
Ġf ishes
Ġf isher
Ġf isheries
or age
Ġb all
Ġb ark
Ġan c
Ġin efficient
Ġin eligible
al coholic
ion idae
Ġm ission
Ġd ated
Ġd usky
Ġw ise
le optera
ul atory
Ġpro hibit
as pur
Ġbe e
Ġbe ings
ur y
Ġcon vey
Ġl inking
Ġh arb
Ġh iring
ect olytic
ĠI T
ĠI ron
ĠI WM
pp erm
Ġv end
Ġhe ter
Ġst ated
Ġst amp
Ġas k
Ġpl ots
est y
est inal
ĠA fric
od end
Ġim mo
Ġde wormed
ĠS ensing
ĠS OP
Ġwit hered
Ġr ational
end ar
ĠF MD
ĠF rench
Ġsp i
Ġsp in
Ġsp ines
Ġsp arrow
ru ption
ĠH arm
ĠH oney
Ġal achlor
Ġad hes
op ened
ĠB avistin
ak er
ec ic
Ġag reements
Ġdis ast
all ic
ĠM H
ical cium
Ġk idney
Ġte buconazole
Ġcons cious
ĠN antes
Ġth irt
ĠD S
ĠD KC
Ġsy ring
ast itis
Ġqu arant
ren ts
Ġtr im
ĠO ut
gen cy
ĠG iant
ĠE valu
Ġcol ony
Ġsh ield
Ġcult ured
Ġover view
ign ment
Ġma dua
ell us
Ġmin ing
Ġcl osing
Ġcl ippings
xt ail
ĠL TP
ĠL ivestock
our y
Ġass um
ĠAd min
ĠAd just
ĠK RH
ĠK erala
Ġbl ind
Ġbl ended
Ġafter noon
ĠJ oint
Ġlead ership
Ġ4 45
ĠU t
we ight
Ġdes ilting
Ġdes pite
Ġup lands
Ġrep airs
Ġexp orts
Ġev ac
Ġra isins
Ġfact ories
io ben
io vascular
Ġoff ices
Ġadult erated
Ġdef ining
Ġdef ense
Ġappro ves
Ġappro xim
Ġrot ate
Ġtra dem
Ġoptim ized
ĠCh itra
Ġ10 5
Ġgr id
Ġsour ced
ĠAg ents
Ġ20 14
ĠV allabh
Ġ6 7
Ġfung icidal
ĠAn mol
ob hog
ĠAs perg
onom ous
Ġstem borer
Ġmod eration
Ġmod ifications
Ġflow s
Ġrece iv
Ġlar gest
Ġaccount able
ĠState ments
Ġconsider able
ian ecic
ĠCo leoptera
Ġbor der
Ġdel icious
Ġsul ph
Ġbro od
Ġcompet ence
ĠReg ulations
Ġferment able
lic ate
ĠDe worming
ĠDe obhog
rup ing
Ġtrain ed
Ġanaly zed
ĠMa xim
con cent
Ġsl ip
Ġfunction ality
Ġkeep s
ĠCons ider
Ġevery one
Ġback yard
Ġcard iovascular
Ġpulp y
Ġconsequ ence
Ġpos es
Ġsubs criptions
Ġevapor ating
Ġreact s
Ġthick ening
Ġsuper critical
Ġfall ow
Ġnet ting
Ġur ination
Ġshow c
Ġclim ates
Ġexpl oring
Ġbutter flies
Ġsap lings
Ġconsult ancy
Ġpriorit izes
Ġaud its
ĠDep ectinization
Ġundergo ing
Ġfilter ing
Ġstandard ization
Ġhouse holds
Ġslow s
ĠIntern ode
ĠHy dro
Ġcoord inates
Ġfed eration
ĠMal avi
Ġexport ed
Ġopen ed
Ġtax ation
fort ified
70 74
out s
te ins
ai romones
Ġsuppress ion
Ġweak ened
Ġcomprom ising
unc hed
Ġsuck er
Ġwa xy
ĠII I
Ġcentrifug ing
Ġge omet
Ġimbal anced
Ġaqu eous
Ġinstall ation
Ġinstall ment
Ġdirt y
ĠSum mer
ĠVerm iculture
Ġreal ized
Ġdepos ited
Ġdischar ging
Ġsediment able
ĠRo C
ĠFree z
Ġeat en
ĠRSA s
Ġmol asses
ĠMah as
Ġcr umb
ĠTam arind
Ġexpend itures
Ġsymbol izes
Ġdefect s
Ġpreval ence
ĠHel p
ĠShare holders
Ġparen ts
Ġnom inal
Ġwarm er
ĠCut worm
Ġexcl usion
Ġaccom pl
NR E
Ġalter ation
wh orl
Ġpil es
Ġfrag ments
ĠTra ditional
ĠPA N
ĠBall abh
Ġfeas ible
Ġheav ier
mark ets
ĠBul ky
Ġindig estible
Ġexecut ed
ĠSpec ial
Ġla unched
sy ruping
Ġflavour s
ĠAri ze
Ġmuc us
Ġren der
ĠAdv anced
Ġpol it
Ġmam mal
ĠRG C
Ġopin ion
Ġ99 81
Ġveterin arians
Ġackn owled
Ġchlorpy riphos
ĠJu ice
Ġsubscrib ers
Ġconflic ts
Ġspark ling
Ġcompat ibility
Ġrock y
ĠProduc ers
Dep artment
Ġexig ua
ĠJy oti
Ġbrisk ness
worth iness
Ġtaper ing
ĠAure omycin
Ġfog gers
hod odend
Ġunderm ine
Ġsubstit ute
ĠMicro organisms
Ġconsecut ive
Ġstain less
Ġmanager ial
Ġvehic les
ĠEnz ym
Ġthearubig ins
Ġdisast ers
ioben carb
Ġtradem ark
ĠMalavi ya
0 1
1 30
3 43
5 2
B l
B GA
F I
F ed
F lav
G V
H T
O R
R es
S ingle
U n
a h
a fe
c ul
c ur
c ine
d uration
g age
g ue
g rown
h igh
h iana
i pping
j eevamrut
m i
m un
n ic
n ected
o ct
o ag
o zo
p at
p ire
s aving
t ally
Ġ id
Ġ ions
Ġ ign
Ġt al
Ġt ar
he ology
in co
Ġo xide
Ġs enescence
Ġc eas
on a
on ia
on ding
Ġp ens
Ġp ict
an wa
ro vers
is ol
or ph
Ġb its
Ġin ch
al le
ic ad
ic ating
Ġm ist
Ġm astitis
Ġd ed
Ġd ren
Ġd ues
Ġd icalcium
Ġto uch
Ġw aves
Ġre charge
ĠT a
ĠT rom
ĠT AC
ĠW his
us able
Ġfor k
om a
om orph
im al
et hyl
Ġe art
Ġe chinochloa
Ġn ormally
Ġl osing
Ġl oses
Ġg n
Ġh uge
ag ic
ag raph
ect ing
os ia
Ġsu ited
ĠI PI
ĠI FSC
ĠI NC
ab etes
Ġhe aling
el ve
Ġst rips
Ġst out
Ġst eeping
ult ure
est ing
ĠA jay
ĠC ab
ĠC ate
ĠC ode
ĠC icad
st ream
st ructured
iv er
Ġde cent
Ġus ers
ĠS ur
ĠS pl
ĠS ym
ĠS TAC
Ġr ic
Ġr um
ĠP r
ĠP erm
ĠP PR
ĠP hyll
ĠP endimethalin
ĠF en
ĠF OR
Ġsp ells
ĠH am
ĠH illy
ĠH MT
ay an
ay ment
Ġle ather
ac in
ac erb
Ġex ert
Ġex acerb
op ing
ĠB are
ĠB urea
ĠB urning
ĠB IRD
ric e
Ġcomp lement
Ġcomp aring
Ġcomp artments
Ġag end
Ġro set
Ġrecommend s
Ġdis int
Ġdis app
Ġdis ruption
per me
Ġco urse
ud hiana
ĠM or
ĠM id
ĠM edium
Ġk er
ĠN R
Ġac etylene
Ġth reshold
Ġth iobencarb
ĠD M
ĠD iversity
ĠR isk
Ġch air
Ġch aff
Ġch ronic
Ġch aired
ast s
erm ination
Ġinf er
Ġ2 60
vent ion
Ġint act
unt ing
ĠG rub
velop ed
og et
ĠE gg
Ġsh aking
Ġsh iny
yp e
Ġmo dule
ign ed
Ġsupp lementing
Ġsupp lements
Ġli e
Ġmin ute
Ġbet a
pl asm
ĠL udhiana
Ġfl ame
Ġfl int
Ġind oor
Ġun int
Ġun su
Ġprot ozo
ĠK iosks
ĠK rishi
ach al
ons ider
Ġ5 3
ĠJ P
ĠJ aw
Ġ4 20
ĠU rad
Ġsome w
Ġinter face
Ġinter con
Ġdes ert
ph one
Ġcre ative
Ġdec ades
urs ery
Ġrep uted
ĠSt ud
Ġdist orted
plant ed
Ġconcent rations
tern ess
Ġdep icted
Ġperiod ically
Ġappro ving
Ġbre athe
anc hed
Ġmicro climate
Ġtw elve
form ing
Ġsuc ceed
organ ization
Ġblack ish
Ġ7 2
Ġ7 6
Ġlimit ation
Ġregul ator
Ġbi ogas
Ġmod ifying
ung am
Ġassess es
Ġassess ments
Ġrec onsider
Ġbas ins
ĠMan ufact
Ġsa anwa
Ġoil cakes
Ġdi abetes
Ġam ple
Ġsuccess ors
Ġindic ator
Ġbul l
Ġgerm plasm
Ġliqu or
Ġdel ib
Ġbed ding
Ġpers pect
Ġcool s
Ġsal ination
Ġlight ly
Ġtransport ing
Ġsk ill
Ġconc l
Ġsec onds
ĠCert ified
Ġtho ugh
pro ving
Ġalong side
Ġrip en
Ġrest ing
ĠZ inco
Ġbag asse
Ġeng ine
Ġswe ating
ĠAz ospirillum
ĠSh ri
lu id
Ġemer ges
Ġph arm
Ġdest ination
ĠCon ditions
Ġpick ed
Ġposs ib
Ġposs ibility
Ġevapor ators
Ġevapor ator
Ġdr one
Ġdr ills
Ġsuper markets
Ġconver ged
Ġmar itimus
Ġdisc rep
Ġclar ifications
Ġdivers ifying
ĠCarb aryl
Ġaut umn
Ġlog in
15 00
Ġstud ents
Ġ500 00
Ġpropos als
ĠRhiz oct
Ġinterc ultural
itud es
Ġresol ve
app ro
Ġult rafiltration
ĠEn ter
ĠSeed s
Ġreduction ist
Ġmitig ation
Ġsupplement ed
hi i
Ġsil very
Ġestim ate
Ġestim ating
Ġacqu ired
Ġdeter rents
ĠPest e
Ġ65 6
Ġblight s
ĠMe at
Ġstim ulates
Ġstab ilize
Ġdefault ed
Ġfat ty
Ġmis cell
Ġchlo rosis
Ġmealy bug
Ġtren ch
Ġtren ches
Ġrepeated ly
pest s
ĠAm ong
Ġlact one
ĠPh ule
Ġmort gage
ĠRat nag
Ġsuff oc
Ġhorizon tally
Ġtransition ing
Ġpregn ancy
ĠRep orts
ĠRep resent
Ġexperi encing
Farm er
Ġrecyc led
Ġpartn ers
90 7
Ġdisturb ances
Ġearhead s
Ġsanit izer
Ġinactiv ated
Ġexcept ional
ĠNew castle
Ġtu ft
Ġguarant eed
Ġshad y
Ġba its
Ġcamp us
Ġdiv ert
Ġburst ing
Ġchart s
Ġconstit ution
Ġtable ts
Ġupd ates
Ġbright ness
Ġvulner ability
opt ion
ĠChlorantranilip ore
Ġperman ent
Ġuns ustainable
Ġhorm one
ĠPA T
ĠMel an
Ġquest ions
Ġwilling ness
ĠVermicompos ting
roten oids
Ġdigit ization
ĠSol ids
ĠBh indi
Ġquarter ly
ĠHim achal
Ġprecipit ating
Ġri ver
ĠBul k
ĠBud get
ĠRod ent
Ġcaps ules
ĠCar rot
Ġexamin ed
Ġstring y
Ġstring ent
Ġsod a
Ġdup lication
Ġdup licate
Ġvess els
ĠCucurb its
Ġrough age
Ġthi ram
Ġvelv et
Ġbiopest icides
Ġep ianecic
ĠAri omorph
PL FS
icul ite
ĠSwe et
Ġcank erous
Ġscrut in
Ġproport ions
ĠHum us
Ġlem ons
ĠBacter ial
Ġcomput er
Ġcorresp onding
Ġrect ang
ĠCow pea
Ġcoales ce
ige ic
Ġphosphat es
ĠInit ially
ĠMetho d
ĠMechan ical
quart ers
Ġspong e
Ġoverwin tering
Ġcher ries
Ġmanif est
ĠRaksh ak
ĠLab elling
ĠKat rain
Ġbioherb icides
gir is
Ġtheaflav ins
Ġsorg hii
Ġbit terness
Ġrout ine
ĠNil giris
ĠLi ability
ĠKand ava
Ġhandw ashing
ĠEmpoas ca
orrh agic
Ġmalle able
Ġevac uation
ĠAsperg illus
Ġreceiv ables
ĠConsider ing
hododend ron
Flav oury
Ġpict ure
rovers ies
alle l
ĠTrom bey
Ġeart hen
ĠCicad ellidae
ĠBurea u
Ġroset te
perme able
Ġflint y
Ġunsu itable
Ġintercon nected
ĠRhizoct onia
ĠRatnag iri
ĠAriomorph a
4 1
6 6
7 3
7 6
8 3
8 4
? '
B o
B rix
C redit
C aptan
D E
D G
D S
F AO
G overnmental
H G
L TC
N a
N POP
P P
S D
S o
a es
b o
c are
e en
e op
g ery
i ol
i ance
j aponicum
k in
l ore
l ip
m als
n g
n ce
p e
p ri
p up
r hododendron
s ens
s urface
s ingle
s ulphur
s acks
t im
u is
v iation
Ġt icks
in ite
re lease
re lla
Ġthe rap
Ġs le
Ġs keleton
Ġc ant
Ġc rown
Ġp ectolytic
Ġf ire
Ġf ring
Ġf igure
ro f
is d
is co
or get
Ġan sw
Ġin ert
al ayan
ic o
ar is
ion ts
Ġm ental
Ġto wns
Ġw ear
il ia
il aspur
ĠT K
ĠT eas
ĠT aluka
le aved
ĠW et
ĠW RB
Ġpro ve
us er
Ġbe gan
ur ies
ur isd
om yc
et e
et or
id av
id han
Ġn or
Ġn ig
Ġn erve
Ġcon gen
Ġl ining
Ġl ye
Ġl angu
Ġg ate
ant eshwari
ra ft
Ġh im
Ġh id
Ġh ive
du ng
ag ricult
os em
Ġsu pers
ĠI ET
Ġv ic
Ġv ial
Ġv ap
Ġst op
Ġst ew
Ġst ones
qu iry
Ġpl ug
ĠA DT
ĠA phis
ĠC reating
ig yan
Ġen ds
Ġen co
Ġen quiry
Ġfarm land
iv ora
Ġde ce
Ġde bit
Ġde viations
Ġcont our
Ġcont rast
Ġus er
Ġsho t
ĠS ales
ĠS ulphur
Ġimp aired
Ġr inds
Ġr heology
ĠP S
ĠF inger
ĠF ormal
ĠF eeding
red ict
ĠH er
ĠH ot
ĠH airy
ĠH alf
Ġle ached
ad dition
ad der
Ġal tering
Ġex amination
Ġorgan op
Ġapp reci
op ted
ĠB D
ĠB esides
ĠB isco
ĠB ilaspur
Ġorganic ally
Ġcomp utation
Ġman ages
Ġag it
Ġag ri
Ġdo ub
Ġro uted
Ġ1 30
Ġca ught
rol ogical
ĠN x
ĠN ursery
Ġth aw
ĠD il
ĠD DT
ĠD BR
ĠD anteshwari
ract ive
ĠR osem
Ġj eop
Ġj urisd
oc oris
ef ruit
ef inite
ther mal
Ġqu ite
ren s
Ġtr uly
Ġnot ed
Ġmet allic
ĠO mega
Ġhealth care
Ġme als
ĠG en
ĠG ites
ĠE r
iliz er
ost ic
Ġact ually
Ġsh ut
Ġsh arp
Ġab ras
ĠL CC
ĠL ady
Ġind efinite
ence ment
ĠAd d
Ġpromot er
Ġun ne
Ġun iversity
Ġun like
ach lore
Ġbl ade
ĠJ RO
acter ic
Ġinsect icidal
Ġwh om
Ġcar ries
Ġchemical ly
rin king
Ġob st
ph al
Ġresult ed
Ġrel ig
Ġdist ortion
Ġexp elled
Ġdirect ed
Ġfac es
Ġdep ri
Ġpe ach
ane ous
Ġharvest er
Ġlow ers
ines e
Ġappro vals
Ġrot ting
Ġleaf hoppers
ful la
Ġoptim ization
ĠCh inese
Ġinfest s
Ġatt ending
Ġatt achment
Ġbre vicornis
Ġbu ck
Ġem ail
Ġem ulsion
Ġtw igs
int ed
Ġ20 9
ĠV eter
ĠV irus
ĠV igyan
Ġfo xtail
Ġcarb ofuran
Ġident ifies
Ġar gent
Ġfreez es
ĠAn ant
Ġpress ures
ĠCan ning
Ġpar agraph
Ġpar allel
Ġspread s
Ġprof en
val ue
Ġfound ed
Ġrec ur
rim ing
Ġbas il
Ġplay er
Ġbr id
Ġocc as
Ġindivid ually
Ġing ested
Ġdrain s
Ġphos pho
Ġcount s
lo ving
ĠCo ated
Ġmoth as
mon ium
hip s
ĠIm proving
PM U
Ġz ones
Ġtop ic
ĠReg ulatory
Ġsafe ly
ĠDirect ions
Ġbur den
Ġshap ing
Ġconduct s
Ġmechan ized
Ġplough ings
pro ducer
Ġmanufact ures
Ġcat aly
Ġvol unt
Ġvol umes
Ġpurch ases
Ġrefer ring
Ġgel ation
Ġed ers
Ġed ge
Ġ19 61
Ġread iness
ret ion
Ġdocument ary
ĠAt t
Ġhybrid ization
Ġadjust ment
Ġdest ructive
ĠApp ert
ĠCon tin
ores cence
ĠMo untain
Ġfore cast
Ġdisc our
12 9
Ġpure es
Ġwast ed
Ġ12 7
Ġdivers ify
Ġdisrupt ed
Ġshow ers
ĠCarb ox
Ġche st
Ġche ap
Ġche aper
Ġvalu ed
ĠCE Os
ĠCE RT
Ġenter otoxaemia
ĠDep ending
Ġabsorb ing
Ġresol ved
Ġresol ving
Ġ75 000
Ġsitu ated
Ġgrap efruit
Ġeff erves
Ġcluster ing
Ġeduc ating
ĠCompos ting
Ġflo ating
Ġagro c
Ġwin ding
DA P
water ing
Ġfail ures
fill ed
ĠSan ba
Ġinnov ations
Ġlater al
Ġster ilize
Ġformal dehyde
Ġsw im
Ġsw arming
Ġhar row
Ġhar ness
Ġfoot prin
ĠSugand ha
Ġaid ing
Ġdev ice
Ġdecl are
Ġdecl aring
Ġcrus hers
Ġsubsequent ly
Ġgall s
Ġdispos e
Ġdemonst rated
ĠRed gram
Ġphen ol
Ġphen yl
Ġpast ing
ioxid ants
Ġmis use
ump y
NA U
Ġge orget
ĠPectin ase
Ġcocc idia
Ġpudd led
Ġcy an
Ġpeel ed
Ġhyp ertonic
ĠYoj na
ĠMet alaxyl
ĠAuthor ities
cert ification
Ġboost ing
Ġauthentic ated
ĠInc orpor
ĠInc luding
Ġgum s
Ġreal ization
ĠTerm s
Ġbric k
Ġdro pped
Ġspro ut
ĠCA U
Ġsequ ential
Ġski pped
Ġfan nings
ett ia
ĠBe ing
ĠCocc us
ĠFe bendazole
ĠCultiv ating
ĠShare holder
Ġdra ft
Ġvirid is
ĠRanik ht
Ġsick ness
Ġfrag rance
Ġuns afe
att ered
Ġmot ion
ĠMul ch
Ġcall ing
ĠHYV s
ĠVal ley
Ġhailst orms
ĠHim alayan
Ġpel let
ĠCry pt
ĠRod ale
Ġprotoc ol
Ġharmon ious
Ġdiagn ostic
Ġshell s
Ġann ually
fl atox
Ġexchan ger
Ġbutton ing
Ġwholes ome
Ġinvent ed
Ġcul led
Ġcohes ive
Ġcoffe ae
ĠChlo ro
Ġempow ers
Ġsie ves
ĠAnt ioxidants
Ġsund aes
ĠSank ul
Ġtrace ability
indust ries
Ġrig orous
ĠSab our
ĠPra fulla
ĠMult i
Ġthri ving
Ġnourish ment
Ġexam ines
opro teins
ĠWad i
ĠRan jit
Ġlock down
Ġadminister ing
ĠPrepar ation
Ġsatisf ied
Ġmetribuz in
Ġrecon stit
Ġflavon oids
Ġcel osia
Ġproth orax
Ġstip ulated
Ġscal ding
Ġshrink age
Ġnurt uring
ĠSaiss ettia
Ġdispl ay
Ġunp redict
Ġting e
Ġaz imsulfuron
Ġcos mic
Ġlip ids
helmin tic
ĠMycorrhiz ae
Ġenthusi asts
ĠBr and
ĠBaja ura
Ġspecim en
Ġoverhe ating
Ġcub ic
Ġpert aining
pperm int
Ġheter otrop
Ġrational e
Ġthirt y
Ġquarant ine
Ġapproxim ate
ĠHydro cooling
Ġgeomet ry
Ġaccompl ished
cur rent
Ġtal c
Ġdecent ralized
ĠBare illy
Ġdisapp ear
Ġsomew hat
ĠEnter otoxaemia
Bo Ds
lip id
sulphur on
Ġcant af
omyc etes
idav it
ĠRosem ary
Ġjeop ard
ĠGites h
Ġindefinite ly
Ġunne cess
Ġargent ina
ĠContin uous
Ġgeorget te
Ġunpredict able
) /
0 6
0 30
1 19
2 33
3 1
3 00
3 35
A oA
B A
B an
B as
C ompos
E x
M and
P ack
P usa
P PR
R eg
S IR
T S
b earing
c il
d is
d ried
d ocu
e ath
f ish
g ment
g ol
k i
k ash
l ong
m m
m ishes
n at
n owing
p ly
p her
r uth
s an
t ometer
v illage
y tometer
Ġt et
in ous
Ġa flatox
re ly
Ġo x
at om
at ch
at ter
at urated
Ġc ms
on ing
Ġp ho
Ġf les
Ġf itted
it ative
Ġb h
Ġb ored
Ġin hib
Ġin edible
Ġin herent
Ġm L
Ġm ess
Ġm ice
Ġm ales
Ġm agn
Ġd orm
ent hi
Ġw arehouse
Ġre use
ĠT rap
le a
ĠW aters
ĠW DG
us p
Ġfor um
om inal
et erm
ho cy
id is
id ach
ĠThe r
Ġn od
Ġn ib
Ġl od
Ġl amp
Ġg ase
Ġg ray
Ġg ains
ant ing
ant hem
Ġh on
ir id
ir pus
ect ions
os a
os ure
Ġhe mic
ch ron
Ġst all
Ġst icking
ĠC it
ĠC amomile
Ġen act
Ġde leg
am ali
ter ous
ĠS al
ĠS ul
ĠS hy
ĠS ph
ĠS ilent
Ġimp ly
Ġr hy
Ġr upees
ĠP he
ĠF ive
ĠF our
ĠF rance
Ġsp an
ĠH ere
ĠH Cl
ad irachtin
Ġplant er
Ġad missible
ĠB ispyribac
ĠB PH
Ġvari ables
ore a
ric ting
act og
Ġper ches
Ġper oxid
Ġinc idental
Ġcomp lying
Ġdo ct
Ġdis pers
ans i
Ġco ars
ĠM A
ĠM are
ĠM usk
Ġk has
Ġk hada
Ġ1 10
Ġ1 40
Ġte eth
Ġca j
hen yl
av en
ĠN W
ĠN ame
res so
ug es
ĠD ue
ĠD airy
ĠD warf
ĠD IR
ĠD BW
Ġinf used
ef ined
Ġqu iz
Ġ2 6
Ġpur ification
Ġne ver
ib ha
ĠG NR
ĠG undhi
Ġse w
Ġben eath
Ġsc aven
ĠE lect
are st
Ġsh red
Ġmo vable
Ġover l
Ġover night
Ġover coming
ia z
Ġsupp lies
Ġma idis
Ġform ally
Ġbet el
Ġcl og
Ġcomm in
ici ously
ĠAd option
Ġsol ani
Ġfin itimus
Ġext rane
Ġun att
Ġun avail
ĠK ush
ĠK ang
ĠK orea
Ġmon o
Ġmon oc
Ġbl anched
ass ing
Ġcar ri
Ġpo uring
Ġpo orer
rin cip
ph us
ond ents
Ġref uges
Ġout comp
ĠInd ivid
Ġthere of
Ġrel ate
ĠSt raw
Ġtext ural
Ġra rely
Ġmil est
Ġear ned
io le
Ġyear ly
Ġgen us
Ġdep leting
Ġirrig ating
Ġfinan ci
Ġextract ors
Ġlow lands
Ġbore holes
Ġrot s
Ġrot or
Ġfol ds
Ġbre ad
Ġent ang
Ġsour cing
AR M
AR Gs
Ġequ itable
Ġsm uts
ĠV ol
Ġdeterm ination
uc er
Ġcredit worthiness
Ġar gue
Ġpack ets
oil ing
Ġharm ing
Ġwas p
Ġregul ates
Ġprop hyl
Ġbi otypes
Ġprof iles
Ġflavor ings
Ġbacter ium
Ġcarbon ic
Ġsa ucer
ĠSc ientific
Ġscient ist
Ġplan et
uthor ized
Ġbor ders
20 19
Ġcommun ic
ĠIm idach
Ġappropri ations
inc orpor
inc luding
Ġown ers
Ġcur ved
ĠAct s
Ġsec ured
Ġexpos es
ĠInstit utes
Ġcut s
Ġinvest ed
50 8
Ġtho usand
pro ject
Ġtrust ees
Ġincreasing ly
Ġrip ens
Ġintern et
Ġintern ode
Ġsim ulation
Ġsim ply
reg istered
Ġ19 0
Ġ19 90
Ġprefer able
Ġswe at
Ġabsor bs
Ġevery thing
ĠTrust ees
Ġdocument ed
ĠAt actog
Ġph one
ĠApp raisal
Ġpred ation
Ġpos ing
of ung
ĠMo lybdenum
Ġsubs urface
Ġevapor ative
Ġplastic ity
Ġcontinu ance
Ġdisc retion
Ġdissol ution
Ġdissol ves
Ġflu ids
Ġwet land
Ġsmo ke
Ġmill ed
Ġgovern s
Ġaut o
Ġsevere ly
Ġder ive
ĠJeevamrut ha
ĠEn ergy
Ġsmooth ly
man agement
ĠSe vere
ĠSe lecting
Ġchill ies
ĠCompos ites
Ġalloc ating
Ġstat istical
Ġrad ishes
ĠNeem ark
Ġexc re
Ġtransform s
DA S
Ġaff inity
Ġfine ly
ĠChrys anthem
Ġstre ak
Ġhaz ard
Ġdeter rent
sequent ly
sp outs
ĠPhos phorous
ĠEm ploy
Ġratoon ing
Ġpositive ly
Ġreserv ed
cell ular
Ġattribut ed
Ġglob e
Ġcorrect ive
Ġmis con
Ġjell ied
Ġtip s
ĠPe ppermint
itace ae
Ġsurvey s
ĠZn So
Ġrefriger ant
Ġlact ating
Ġhinder ing
ĠSa har
ĠPrat ibha
Ġassign ing
ĠPlant hopper
Ġslug s
Ġmedic ines
Ġdistingu ished
Ġtoxic ity
Ġloose ly
Ġtan gy
ĠTerm ites
Ġcontract s
ĠRo ot
Ġsprink ler
Ġnemat ode
Ġmethyl ated
Ġlif esty
Ġexhaust ing
asm ine
Ġconn ected
Ġbound aries
ĠLo ok
Ġdeplet ed
Ġabd ominal
ĠAltern ative
Ġaudit ors
96 2
In put
ĠFe SO
Ġadvoc acy
Ġloos en
Ġtap ioc
Ġgeograp hic
Ġalk alinity
ĠYield ing
Ġthuring ensis
Ġmould s
Ġmel on
seed lings
hel p
Ġundes ired
Ġfract ion
Ġsecret ion
Ġble mishes
Ġelev ated
Ġmer ione
Ġlic enses
Ġconting encies
Ġalumin um
Ġjud iciously
Ġscrap ed
Ġprecipit ate
ST SU
ĠKarn al
Ġharmon ization
Ġjoint ly
Ġinsert ing
Ġelong ate
Ġbroadcast ing
ĠEng land
ET L
Ġann um
Ġantic oag
Ġinfl orescence
Ġpoison ing
Ġerro r
fl avor
sy nthetic
ĠJh ansi
Ġwhorl s
Ġwholes ale
ĠCucurb itaceae
uff s
Ġempow ering
Ġmuc oproteins
ĠSank ar
Ġtann ins
ĠAud it
ĠSab ha
ĠPra kash
Ġcompl aint
Ġthri ves
Ġdefoli ate
ĠHar it
ĠProt opectin
Ġhomeopat hy
Ġmosquito es
ĠParasit oids
Ġbus hes
Ġstagn ation
ĠCur cul
Ġpret reatment
ĠMung eli
Ġprecurs ors
Ġhom ogen
ĠFer mentation
Ġsyn chron
Ġuproot ed
process ing
Ġinduc ed
Ġaccompany ing
Ġabbre viation
Ġentom opathogenic
Ġlegisl ation
Ġdur ations
ĠHyd rop
NP V
ĠPred atory
Ġdifferenti ate
ĠPhys ical
Ġfost ers
Ġectoparasit es
Ġenclos ed
cosp ora
Ġpredominant ly
uv ants
Ġfisher men
Ġharb or
Ġimmo vable
ĠEvalu ate
ĠMaxim um
ĠEnzym es
mun ication
Ġid eas
Ġgn aw
ĠSym ptom
ĠPhyll ody
Ġagend a
Ġdisint eg
Ġreconsider ation
ĠManufact uring
appro ved
Ġmiscell aneous
ĠRepresent atives
ĠEr gol
Ġbuck et
Ġfootprin t
Ġunnecess ary
Mand i
Pack aging
Ġpho to
Ġfles hy
enthi uron
ĠWaters hed
eterm ined
hocy an
Ġnod ules
Ġgase ous
Ġhemic ellul
ĠShy amali
Ġrhy th
Ġkhas i
Ġextrane ous
ĠKang ra
ĠAtactog aster
ĠChrysanthem um
Ġtapioc a
ĠCurcul ionidae
ĠErgol is
1 25
6 00
A PR
B FCs
C U
D W
G G
G P
I ARI
M L
N H
N itrogen
P S
R L
S c
S ilent
U AT
V AL
W BPH
a ut
b od
b its
b acter
b usiness
b itter
c uss
d iv
d rinking
e ut
e res
g s
g rowing
h ort
h ad
i atic
l ate
l ink
l iving
o ce
p ert
p eas
p aren
p udd
r ase
r ison
s he
s ul
s odium
s ilting
t ons
v ents
w est
Ġ ________
he ther
he aps
in ell
Ġa x
Ġa er
Ġa ug
Ġo ch
Ġo ily
at is
at ellus
er ative
Ġs ure
Ġc his
Ġc ensus
on la
Ġp over
an ion
en oc
Ġf ide
Ġf ear
Ġf oss
Ġf ructose
is en
it z
ed ge
ed ti
or ption
Ġb ins
Ġb ath
Ġan ch
Ġan terior
Ġin h
Ġin comes
ar ches
Ġm utation
Ġd ies
Ġto wn
ent atom
Ġw and
Ġw ants
Ġw rap
il k
il ate
Ġre usable
ĠT op
ĠT ricyc
ĠW eeding
ul as
ul ph
as id
ur it
ur able
om y
om al
ho u
ho w
Ġn orms
Ġcon gest
Ġl amin
Ġl ady
Ġg els
Ġor ders
Ġor yz
Ġh illy
if t
ot ations
ot assium
ect or
ab a
Ġv orac
ch mark
Ġst icks
ult y
Ġpl ag
Ġpl ume
ĠA st
ĠA RG
ĠC H
ĠC u
ĠC rit
ĠC lo
ĠC old
ĠC ocon
iz ophos
gan ese
st ep
st edti
Ġus able
ĠS I
ĠS ak
ĠS out
ĠS hah
th irds
Ġimp rison
Ġby product
ĠP at
ĠP ay
ĠP op
ĠP HB
ĠP entatom
Ġcom estible
ĠF lav
ĠF AO
ĠF ARM
Ġsp ect
Ġsp end
ĠH ard
ĠH ier
ĠH erb
Ġle v
Ġle an
ac uum
op ting
ĠB ay
ĠB iod
ĠB raz
ĠB abhar
ĠB oiling
Ġvari ation
ak ers
Ġper pus
Ġwater melon
Ġcomp ress
pt ical
Ġco gn
Ġcons ignment
Ġca rotenoids
av ings
hy me
ĠN TSU
igh a
Ġth rust
Ġimport ing
ĠD x
ĠD eed
ĠD ay
ĠD NA
ĠD iptera
ĠR RB
Ġch ips
Ġj hum
Ġj ars
Ġj asmine
oc hemical
Ġinf usc
Ġne ither
Ġne arest
ĠO olong
gen eration
Ġint im
Ġint end
unt ze
ĠG re
ĠG on
ĠG erm
Ġben chmark
ary a
ip e
ip ed
Ġsc ene
Ġsc irpus
ĠE VAL
ram p
Ġsh ipping
Ġsh avings
Ġmo untain
Ġover ripe
Ġab ilities
Ġma urit
Ġho sp
ap henyl
Ġju icers
ĠPro te
ĠL C
ĠL ar
ĠL amp
ĠL ager
Ġass ures
Ġpart ner
ĠAd opting
Ġsol vents
Ġun ion
Ġun ivers
Ġun ple
Ġ3 10
Ġve in
Ġfeed er
ĠJ aggery
Ġthrough put
Ġup coming
Ġcontribut ions
Ġob t
Ġob es
Ġinst ances
Ġout door
urs ing
ĠSt at
ĠSt ab
ĠSt ep
Ġexp ression
Ġterm inate
eg ree
Ġcolor ings
Ġear ning
Ġdep ectin
Ġinform al
Ġnitrogen ous
ĠCh anging
Ġcontain ed
Ġbre ach
ott led
Ġent ail
Ġrele vance
Ġem its
anc ies
Ġmicro filtration
Ġtw ist
ĠV II
Ġcarb aryl
Ġrespons es
Ġar tific
Ġsmall est
rit ory
ĠAs ian
li ant
hyd ration
Ġavoid ance
Ġstructure d
onom y
duct ing
Ġpar aphenyl
Ġenhance ment
Ġtransp iration
Ġrec alled
Ġplay ing
ĠMan a
Ġdown spouts
Ġresid ing
Ġrem it
Ġdi ag
go v
Ġobject ions
Ġgo ber
Ġbor ing
20 18
Ġinfect ing
Ġappropri ately
Ġz oning
Ġsal ine
Ġgro o
Ġfacilit ated
ĠTh irum
Ġverm iculite
Ġgrass lands
Ġauthor ize
Ġferment ing
Ġide ally
Ġmechan ically
Ġexcessive ly
pro duction
ox sul
ath i
Ġfinal ize
Ġflav ouring
Ġrest oration
Ġachieve ments
ĠZ one
Ġcat ch
Ġfly ing
pport ed
ĠRes id
ĠSu fficient
25 37
ĠPl um
10 64
10 61
Ġno zzle
Ġday time
Ġgl omer
reg n
reg istration
ĠCl a
Ġ19 70
Ġ19 72
Ġinterest ed
ĠCons erves
Ġback ward
Ġapplic ant
Ġph rase
Ġdest ab
eevam ruth
Ġparticip ants
Ġspoil ed
ĠNP A
Ġgre ens
Ġbank able
Ġconver ge
Ġattract s
Ġpen oxsul
ĠCent er
Ġclar ifying
Ġ12 4
Ġ12 6
Ġdisrupt ions
Ġaccept ing
de veloped
Ġsens it
Ġsens ors
Ġlog istics
Ġobserv ation
Ġdeliv eries
Ġstud ied
Ġdifficult y
Ġvent ilated
Ġcommitt ees
Ġchill ed
Ġpaper y
Ġiniti ating
Ġsche stedti
Ġflood ed
Ġfed erating
Ġcast ings
ĠDes pite
Ġcross bred
Ġreturn ed
Ġmob ilized
Ġ11 4
Ġdestroy s
Ġheart s
ĠMin ister
44 4
Ġsw elling
Ġinspect ed
Ġsuppress iveness
Ġwall owing
Ġdev iation
Ġemphas is
ĠTe ch
Ġsymb ionts
ĠConsum er
Ġpast ure
Ġdivid ing
ĠPart ially
Ġwa ive
opl asticity
Ġglob ally
Ġmis le
Ġmis appropri
Ġchlo rotic
su pported
Ġthin ning
Ġfulfill ed
ĠPR G
Ġchann el
ĠMet hyl
Ġburn er
Ġburn ed
Ġpet al
Ġreplen ishing
Ġstream line
ĠAm ar
ĠNa OH
Ġlact ation
Ġdri ers
ĠVerm i
Ġepid emic
ĠTrans fer
Ġdie back
ĠConsult ing
ĠSec urity
hin oor
Ġenrich ment
Ġcontract ing
ĠSam rat
Ġfurn ace
Ġdon ors
ĠCle ar
Ġ16 37
Ġconstant ly
Ġdecaffe inate
Ġwithdraw al
Ġfumig ant
Ġchic ory
Ġextensive ly
Ġdeplet e
phen olic
Ġsimpl ifies
Ġshad ed
ĠVitamin s
Ġaudit ing
Ġexcret ion
Ġsymbol ize
Ġseedbed s
Ġsaw dust
Ġconstit ute
ĠInf ested
Ġvirid ula
Ġdrainp ipe
ĠAzad irachtin
Ġmal ic
Ġvisit ors
Ġmac erating
ĠPri or
ĠBut ton
Ġmould y
Ġcellul olytic
Ġfrag rant
Ġremed y
ĠAgni astra
Ġhypoch loride
ĠTra izophos
gener ating
Ġbiop riming
Ġsecret ions
ĠBi op
Ġmer ch
Ġkin etic
Ġhighlight ing
Ġslop ing
Ġscrap ing
Ġerad icate
Ġtart ness
Ġol ive
ĠTer ritories
Ġjob s
Ġassim ilate
Ġpremature ly
Ġbund ing
ĠWor king
ĠPract ice
ĠSpec ific
Ġaccommod ated
Ġproceed ings
ĠAra ban
ĠCC B
stit utions
ĠBen gal
ĠCarbon ated
Ġschedul ed
Ġinvent ory
Ġcond ensing
Ġdissem inate
ĠOxy gen
ĠOxy chloride
Ġwait ing
Ġalle loc
Ġelectroly te
ĠMod ern
Ġmidrib s
Ġexclus ively
Ġmam mals
Ġwitness es
ĠFung i
ĠFung al
ĠRG L
indust rial
Ġopin ions
ĠAud ited
ĠPick les
ĠPick ling
ĠMult ip
Ġinstru ments
ĠClub s
Ġtherm oplasticity
Ġexam ine
ĠRet urn
Ġrecip ient
ER S
Ġhomeopat hic
orac ic
Ġnegoti ations
Ġpunct ures
Ma dua
Ġanten na
Ġstorm ing
forest ry
ĠManip hou
Ġhydroly ze
ĠArom a
aqu eous
fin ancial
Ġstom ata
ĠMand al
Ġblot ting
uccess ful
Ġpolyhed ral
Pl ain
Ġwate red
ĠAv oid
Ġroad map
ogly phus
ĠKo hinoor
Ġemb ra
Ġhemisp here
Ġincub ated
Ġhaemoc ytometer
ĠMarmal ades
Ġantagon istic
Ġlifecyc le
intermedi ate
Ġvend or
ĠHarm ony
Ġsyring a
ĠAdjust ing
ĠMahas uri
Ġcrumb ly
Ġpolit ical
Un ion
Ġrum ination
ĠDM RH
Ġengine ering
luid ized
Ġrectang ular
sens itive
Ġskeleton ization
Ġvic inity
Ġenco unter
ĠFormal in
ĠHer bal
Ġappreci ate
ĠBD N
Ġjurisd iction
phal us
Ġrelig ious
ĠVeter inary
Ġefferves cence
Ġagroc hemicals
ĠIncorpor ating
ĠCrypt oce
233 8
cil iation
Ġcoars eness
Ġcaj ani
Ġunatt ractive
ĠIndivid ual
Ġmilest ones
Ġfinanci er
Ġentang ling
Ġprophyl actic
ĠSahar anpur
Ġlifesty le
Ġrhyth m
UAT ION
bod ied
pudd led
inell ids
Ġchis el
Ġpover ty
ulph ite
Ġcongest ion
Ġoryz ae
Ġvorac ious
ĠCrit ics
ĠClo ud
ĠCocon ut
ĠPentatom idae
ĠFARM ERS
ĠHier oglyphus
ĠBraz il
Ġperpus illa
Ġcogn itive
Ġinfusc atellus
ĠEVAL UATION
Ġunple asant
Ġartific ially
Ġparaphenyl phenolic
Ġpenoxsul am
Ġalleloc hemicals
ĠCryptoce phalus
. ),
2 000
4 000
5 4
6 2
6 444
9 3
9 00
A n
B t
C B
C a
C om
C ert
H H
H MP
I U
J L
J T
J AS
K untze
L A
L TP
M I
M o
N ame
P rimary
P FMS
R agi
S e
S h
S er
T A
T e
U CE
W heat
b urn
b iological
b ags
c hemical
c rows
c ultiv
c luding
c oded
d es
d el
d ry
d rink
d hool
e b
e o
f ert
g ish
i op
k as
l R
l en
l ad
l ia
l azole
l odging
m ophilic
p rop
p rom
p rimary
r ank
r atic
s l
s id
s ub
s itu
s ucking
s ections
u ca
u rot
w es
Ġ [
Ġt ask
in ic
in ter
in ces
in ally
in stitutions
Ġa k
re fact
re vers
Ġo v
Ġo w
Ġs el
Ġs ch
Ġs hy
Ġs lic
Ġs acchar
Ġs orbic
Ġs esam
Ġc ess
Ġc ities
Ġc ages
Ġc hol
on il
Ġp ne
Ġp ron
Ġp iling
an of
es o
Ġf et
Ġf ra
Ġf ab
Ġf ry
Ġf ixt
Ġf izz
or um
or ia
Ġb unt
Ġin effective
Ġin appropri
al os
ic ity
ic cation
ic lad
ar gy
Ġd and
Ġd rast
Ġd ibbling
Ġw atch
il d
il ed
Ġre per
Ġre inf
Ġre ward
Ġre opened
Ġre generation
ĠT ribal
ĠT NAU
ĠT JT
ĠW ar
ĠW RG
ul ent
ul osis
ul fan
us ual
as aparni
Ġbe aker
ur ization
im ination
im ulating
et ically
ho k
id ents
Ġe ly
Ġe ats
Ġe rection
Ġcon j
Ġcon fer
Ġcon greg
Ġl ib
Ġg ent
Ġg ast
Ġor ient
ant h
ra pping
ra gi
Ġh ib
Ġh unting
du ces
un ately
ot he
ag raj
ag enes
ag reements
os ulfan
ess ion
ol ve
Ġsu ms
pp m
ch idae
Ġst ru
Ġst umpy
Ġst arches
ult ze
ĠA SB
ĠC er
ĠC hic
ĠC our
ĠC SIR
Ġen lar
Ġso uth
st ick
Ġde als
Ġde worm
um atic
ĠS alt
ĠS ungam
th a
Ġimp ose
ĠP hen
ĠP ap
ĠP ray
ĠP oss
ĠP oll
ĠP rincip
end ering
ĠF I
ĠF lex
ĠF ructose
ĠF lea
ĠF rank
Ġsp ider
Ġsp eeds
ru ff
ru cif
ĠH U
ĠH ome
ad abad
ad Dhan
com pl
Ġal gal
ac ent
ac les
Ġex ud
Ġplant ers
op s
ĠB uilding
ak tim
ec ation
ec ks
Ġinc ap
Ġcomp leting
Ġman agers
Ġag gress
Ġro se
Ġat razin
per us
Ġco inc
all otment
ĠIn adequate
Ġhelp ed
ĠM at
ĠM CU
Ġk ids
Ġ1 65
Ġ1 35
av ari
hy brid
ĠN et
ĠN ote
Ġac res
ĠD ef
ĠD har
ĠD rip
ĠD IC
ĠD iclad
ĠR a
ĠR ol
ĠR um
ĠR ad
ĠR og
ĠR uminants
Ġqu orum
ren der
Ġspec ifying
Ġnot es
Ġint ense
Ġint imate
ĠG ra
ĠG od
ĠG rass
ĠG olden
ĠG OI
ust atus
Ġse ptic
Ġmain stream
Ġtrans loc
Ġreg ain
ip ur
Ġsc rat
Ġsc attered
ĠE chinochloa
ĠE isen
iliz es
Ġact ors
Ġmo lyb
Ġform ulas
Ġmin es
Ġcl ot
ap ur
ap his
Ġpract ically
Ġany one
Ġcomm encement
ĠL SB
ke y
Ġind ices
Ġsol ve
Ġfin es
Ġun ripe
Ġun usual
ĠK anpur
ĠK NO
Ġlevel ed
Ġwe an
Ġwe alth
ĠJ aya
Ġ4 3
Ġ4 25
ĠU se
Ġinter view
ards hip
Ġref rain
Ġdec ade
Ġimpact ed
Ġrep aid
Ġgreen ery
Ġdifferent ly
Ġra bi
Ġprep ares
rogen ic
amp ur
tic illium
Ġear s
hed rosis
Ġlow ered
Ġdef orm
Ġdef ecation
Ġrot ary
Ġoptim ally
Ġinfest ing
Ġsur render
ĠY ear
Ġent rance
Ġgu ides
Ġem it
Ġem bed
Ġpat h
AR G
Ġmicro f
Ġloc ate
Ġ20 15
Ġ20 19
ĠV ere
Ġ6 4
Ġ6 6
Ġcarb o
Ġshe ared
Ġshe pher
read ing
Ġar my
Ġar ises
cept able
Ġel imination
Ġblack ening
ĠAs hok
Ġbut achlore
Ġ7 1
iss ible
Ġhum ane
ĠNA PP
Ġmod ules
urn al
Ġplay ers
Ġbr ush
Ġguid eline
Ġ0 51
Ġlab s
Ġlab elling
Ġcompost ed
Ġnew sp
Ġconsist ing
ĠSc hed
Ġsuccess ive
Ġgra ze
Ġ50 1
Ġinteg ral
Ġgerm inating
ropri ate
Ġpig ments
Ġpig gery
Ġliqu oring
Ġsepar ator
Ġinfect s
inc re
ĠReg istered
Ġcur ve
Ġcur tain
lor a
Ġhead quarters
Ġauthor ization
Ġ9 4
Ġ9 8
Ġ9 000
ĠWh orl
ĠDe oria
Ġoccur red
50 1
ĠAr bit
Ġshel ling
Ġshel ters
Ġsect ions
ĠRes istance
inf ested
Ġbar s
Ġequip ments
Ġsl ush
Ġbio fortified
ĠAl ong
ĠAl coholic
Ġ19 80
Ġ19 96
Ġadj uvants
Ġadj acent
Ġlast ing
ĠSh aktim
Ġcow peas
Ġcard board
ĠApp ropriate
ĠCon ver
Ġpred etermined
Ġclear ance
Ġsubs cribe
Ġsubs cription
ilt ered
Ġcontinu ing
yl onis
Ġspecial ists
Ġsuper nat
Ġfore ground
Ġconver ging
Ġmar s
Ġflu rose
Ġbott len
Ġwet table
Ġaccept ability
de composed
ĠSw eta
Ġmeasure ments
Ġsens or
Ġexpl o
Ġexpl an
Ġconsult ants
Ġ200 2
Ġ200 5
Ġsolid ifies
ĠProject s
Ġlack ing
Ġsubject s
Ġadapt ation
ĠOver ripe
ĠOver crowding
head ed
Ġfram es
Ġpoly bags
Ġmolec ular
Ġser um
Ġser rated
Ġpr une
Ġeduc ated
Ġcustom ized
Ġchill ing
AM BA
Ġsetting s
Ġalt itudes
ĠOff ices
Ġflat fan
Ġslow ing
Ġagro forestry
dra wn
Ġwind y
Ġundert akes
ĠPre cooling
Ġaff idavit
Ġopen ings
Ġmob ilize
ĠSan itation
Ġstre ptocycline
ĠRe verse
Ġrestrict ion
ĠMin im
Ġsemi permeable
44 8
FO F
Ġformal ine
ĠIC GV
sp ent
ĠDif enoc
ĠEm isan
Ġhappen ed
Ġdispos ing
Ġofficial ly
load ing
Ġparam eter
ĠPectin ases
Ġcocc inellids
Ġlat ent
35 9
ĠPR OD
Ġrub bing
Ġdecant ation
Ġenrol led
Ġsurvey ed
ĠCal ocoris
Ġdistribut ing
Ġcircular s
ĠMinist ers
Ġrefriger ants
Ġauthentic ate
Ġphotosy nthetic
Ġfair ly
Ġassign s
ĠProcess or
Ġcrystall izing
anas pis
Ġreal izing
Ġslug gish
Ġdistingu ishes
ala un
Ġsuff ering
Ġjust ice
Ġglass es
Ġcontract ed
Ġsprink lers
ĠMil let
Ġstrengthen s
Ġdro oping
Ġtunn eling
Ġcheck ed
ĠPoly hedrosis
rag on
Ġmor al
Ġwithdraw als
Ġautom atically
Ġce ylonis
thal onil
Ġguarant or
ĠBe h
Ġdors ally
Ġadvoc ates
Ġexclud es
Ġgrad ients
Ġloos ened
ĠPar lia
Ġnom inee
Ġnucle us
Ġnucle ation
Ġalk al
Ġalk ali
Ġdetect ing
Ġupd ating
Ġplow ed
ĠCy perus
Ġwilt ed
ĠBa had
Ġcellul ases
ĠMove ment
reprene ur
bl ack
Ġmel dew
ĠAch hadaan
Ġpal m
Ġmetal dehyde
Ġborrow ed
Ġabund ance
Ġpartnership s
att ested
season al
ĠBo und
ĠBo ards
Ġremed ies
Cl uster
Ġsocio economic
Ġcategor izing
ĠPA U
ĠMel athion
ĠMel anaspis
Ġrehyd rated
23 24
Ġham per
Ġscra pped
Ġacceler ating
Ġcounter act
Ġenfor ced
Ġdiagn osis
Ġantimicrobial s
Ġbund le
ĠPract ices
Ġinsert ed
Ġla wns
ĠRid ge
control led
Ġapric ot
36 8
lin iella
Ġstri pped
Ġchlor inated
Ġrepair ing
ĠCarbon ation
Ġcond enser
Ġconv ene
Ġdissem ination
Ġdissem inating
Ġreimb ursement
Ġcohes ion
Ġwaters hed
ĠAdv ances
Ġdimin ution
ĠExt ract
ĠKn owledge
Ġvect ors
Ġtann in
AI FOF
Ġmicrosc opic
ĠLaw rie
Ġinstru ment
Ġveterin arian
ĠRet ail
Ġscrut iny
Ġproport ional
Ġrecip e
dist illed
Ġaspir ational
ĠPet its
ĠPack aging
Ġoverflow ing
ĠPrepar ing
gl om
ioc ins
Ġang ustatus
ĠTho usand
Ġstack ed
Ġstagn ant
Ġthread s
Ġprecurs or
Ġanten n
ĠBag adDhan
forest ation
ĠIB D
ĠColl ateral
Ġsunn y
Ġsunn hemp
Ġtact ics
admin istered
Ġweakness es
ĠGovind a
Ag ricult
grad ed
Ġcrink ling
Ġinsure r
ĠVertic illium
Ġlac qu
ĠHI M
ĠNS KE
Ġrepell ent
Ġpedunc les
Ġversat ile
Ġsess ions
Ġspi ke
Ġadhes ive
Ġ445 8
ĠUt ilization
FI s
ĠWhis ky
ĠPr un
ĠPerm issible
ĠMor adabad
Ġker ri
Ġperspect ives
Ġpossib ly
uis ance
Ġtherap eut
agricult ure
Ġstew ardship
ĠGen etic
Ġabras ion
Ġrecur ring
Ġdiscour age
Ġcyan ogas
ĠChloro thalonil
ĠBrand y
Ġheterotrop hic
Bas ara
Ġaflatox in
ĠCit rus
ĠSul phate
Ġperoxid ases
Ġshred ded
Ġmonoc ulture
ĠEmploy ment
Ġdisinteg rate
Ġhemicellul ases
cuss ions
she et
Ġfoss il
Ġinh abit
ĠTricyc lazole
Ġimprison ment
Ġdiag ram
Ġglomer ata
Se ptember
Ser um
Ġsch ultze
Ġshy ness
Ġcess ation
Ġpne umatic
Ġfra ud
Ġfab ric
Ġfixt ures
Ġdand ruff
Ġreper cussions
Ġely tra
Ġcongreg ate
Ġlib erated
agenes is
Ġstru gg
ĠPray agraj
ĠFrank liniella
ĠDIC AMBA
ĠDiclad ispa
ĠRog or
ĠEisen ia
Ġmolyb date
Ġembed ded
ĠVere ticillium
ĠArbit ration
ĠShaktim an
Ġsupernat ant
Ġflurose cence
Ġbottlen ecks
ĠDifenoc onazole
ĠPROD UCE
ĠParlia ment
ĠBahad ur
Ġschultze i
0 3
3 2
3 65
6 8
9 46
B ooks
C amellia
D ays
D IS
F ather
G R
H O
I B
J G
M TU
O ctober
P uts
P hal
P ACS
Q F
S im
S HG
T richo
a fter
a uge
a uthorized
b t
b amboo
b uilding
c um
c ous
c rucif
d r
d est
d irect
d ead
e em
g red
g rain
g ins
i as
i olog
i kka
j n
k et
l am
m ar
m ain
n o
n itrogen
n ash
o e
o un
o ust
o ucher
p rep
p ayment
p otassium
r du
s els
s elf
s ustainable
t an
t emperature
t ype
v ar
v ices
v ities
w al
w ood
w alled
w itz
y x
y ers
z ag
z ara
Ġt it
Ġt am
Ġt ry
Ġt ied
Ġt urb
Ġt hyme
he dule
he cking
in ety
in agar
Ġa il
Ġa erated
re ach
Ġo mitted
Ġs it
Ġs mot
Ġs orted
Ġc op
Ġc ease
Ġp m
Ġp ane
Ġp air
Ġp armal
Ġp anting
an n
an chan
an ger
an ols
an wal
en a
en g
Ġf ax
Ġf igs
Ġf airomones
ro ad
it ing
Ġb ra
Ġb urea
Ġb igha
Ġin let
ic ators
ar am
ar rows
Ġm im
Ġd en
Ġd ot
Ġd uc
Ġd ump
Ġd uck
Ġd enser
Ġd anger
ent ralized
Ġw al
Ġw edge
Ġre ed
Ġre ve
ĠT ell
ul ative
Ġbe gins
ur rying
om estic
im pur
et ia
ho a
id ding
id ins
id ula
Ġe arm
Ġn yl
Ġn aked
Ġn orthern
Ġn avig
Ġn uisance
Ġn inety
Ġcon ce
Ġcon duction
Ġl y
Ġl ined
Ġl uff
Ġg on
Ġg han
Ġg reg
Ġg rie
ut y
ant hocyan
ure tic
Ġh ide
Ġh amp
Ġh omes
Ġh ispa
un ct
ir pur
if ts
ĠI U
Ġv an
Ġv ia
Ġst ation
Ġst inking
rop id
est ation
ĠA qu
ĠA round
ĠC M
ĠC ust
ĠC af
od ing
od ies
Ġen erg
Ġso fter
st ren
st ocking
Ġde forestation
am i
am m
am el
am age
am ond
Ġcont ra
Ġcont roversies
Ġsho ps
ĠS it
ĠS ter
ĠS oc
ĠS yn
ĠS ometimes
ĠS arj
ĠS ector
ĠS QF
Ġimp lies
Ġimp regn
ver ing
Ġr ation
ĠP C
ĠP U
ĠP aste
ĠP enic
ĠP iper
end ras
em ade
em orrhagic
ĠF ar
ĠF ore
ĠF ail
Ġsp ading
ĠH on
ĠH abit
Ġle tt
Ġle thal
ad emic
com munication
Ġal ive
ac oust
Ġplant hopper
ive lihood
Ġad mission
op ers
ition s
ĠB ee
ĠB rus
ĠB alf
ĠB rowning
ĠB idhan
Ġper ip
Ġcomp anion
Ġy og
Ġres ort
Ġres ched
and ied
and oned
und er
und red
Ġrecommend ing
Ġdis covered
ĠM t
ĠM os
ĠM ark
ĠM ob
Ġk untal
Ġk hoa
Ġca rotene
Ġca vities
av ator
Ġfruit fly
ĠN O
Ġac etic
Ġac ademic
Ġth irst
Ġth ink
res ident
Ġimport ers
ĠD h
ĠD r
ĠD ung
ĠD ocu
ĠD DM
ĠD omestic
ĠR est
ĠR hop
Ġch ief
ire n
Ġj oin
oc opy
Ġinf usion
ef it
Ġrequ isition
Ġpur pl
Ġnot ifications
Ġmet icul
ĠO b
ĠO d
ĠO yster
vent ually
Ġint estinal
ong rass
ĠG R
ĠG rin
ĠG ha
ĠG JG
so ons
Ġpres ents
Ġins pire
ugh ley
ip hum
Ġsc ar
ĠE d
ĠE duc
ĠE ight
ĠE tho
ĠE wes
ĠE ventually
ors hip
Ġcol ouring
Ġfert i
00 2
Ġab andoned
erv ation
Ġmay s
Ġform er
Ġmin e
ark ed
ine a
ine x
Ġmanage able
Ġspecific ation
Ġcomm and
ĠL c
ĠL ater
ĠL ist
ĠL BG
ĠL ivelihood
our ation
ĠCom mod
feren ces
Ġun ified
Ġun stable
ĠK ober
ĠK RL
ĠK anchan
ĠK endras
Ġmon soons
Ġbl ades
Ġbl adder
Ġ5 4
ĠJ AS
ĠJ eevamruth
ĠJ alaun
Ġ4 40
ĠU nt
ĠU BR
ĠU rdu
Ġsign ata
Ġinter fer
Ġdes iccation
Ġpo ros
Ġpo ured
Ġpo ols
Ġup ward
Ġmoist ened
Ġcre vices
Ġout lets
ĠInd icators
ĠSt age
ĠSt ations
ĠSt over
ĠSt oring
ĠSt CB
hol ars
Ġroot ed
Ġexp on
Ġexp ense
Ġexp ulsion
Ġnecess it
Ġconcent ric
ie ving
Ġra cks
Ġwell s
io let
Ġall erg
ix ed
Ġfinan ced
Ġyo uth
Ġess ence
Ġhy aline
Ġtra ders
ĠCh ilo
ĠY eas
Ġpectin ous
Ġ10 64
anc er
Ġpat ory
ĠAg r
ĠAg ros
Ġequ ally
Ġ20 44
Ġ20 17
ĠV is
ĠV ers
ĠV oucher
Ġkn ol
Ġkn owing
uc hed
Ġcredit ed
iqu es
Ġmanure d
Ġcover ings
Ġar s
Ġar tis
Ġel li
Ġhapp ening
uch ong
Ġhand picking
Ġpress ur
ob ar
Ġachie ves
Ġut ility
Ġban ian
Ġprop onents
Ġinstit ute
Ġbas ket
Ġbacter iocins
Ġless on
ĠMan ures
ĠMan ual
Ġwhe els
Ġbal ancing
Ġcal endar
Ġcent ury
Ġrem un
compos ite
ĠSc hedule
ĠUn fort
Ġgra zed
Ġobject ion
Ġattack ing
lo z
lo ropid
ĠCo C
Ġaim ing
Ġcho pping
ĠIm m
Ġsepar ates
Ġvac ation
ins eng
Ġtop ics
Ġparasit izes
ĠSp ay
Ġvis itor
Ġsun hemp
Ġlarge ly
ron il
Ġret ired
Ġret rie
ros cence
Ġmixt ures
ĠTh ree
Ġbur row
Ġbur rowing
Ġconc lud
Ġsec uring
ĠDe hydration
ĠCert ificates
Ġstress es
Ġplough s
Ġdark ness
CC P
Ġshel ves
Ġrest ricting
ĠZ ay
ĠZ ea
ĠRes olution
inf lam
Ġregard ed
Ġdesign ation
old ed
ĠPl ate
10 6
Ġfish ing
Ġcompos ites
Ġstrateg ically
Ġgl umes
oint ment
Ġcirc ulating
ĠCl avig
ĠAc cess
Ġhol low
Ġeng inee
Ġpoint ed
Ġ19 38
Ġant helmintic
Ġend osulfan
Ġcor ing
ĠSh ade
Ġcow dung
Ġvacc inate
Ġemer gent
ĠAt razin
Ġpric ed
ĠCon ducting
Ġclaim ed
Ġpost ure
Ġmultiple x
Ġpos ed
Ġspoil ing
Ġgre asy
Ġinflu encing
Ġconf usion
Ġprin ters
apt ed
Ġsuggest ing
Ġdisc l
Ġdisc arded
Ġflu roscence
Ġsat uration
Ġstrong ly
ole pta
Ġadvis ories
Ġpoor ly
Ġwet ted
Ġboll worms
Ġsem ilo
Ġche w
Ġche qu
greg ation
Ġlist s
Ġfilt rate
Ġ200 1
head s
Ġult imate
ĠNe zara
Ġpreferen t
Ġstandard izing
Ġcommitt ed
Ġunf olded
Ġdisinfect ing
Ġeduc ate
ĠProper ly
bre vicornis
Ġinoc ulating
cool er
Ġstat ute
Ġroom s
ĠMon olepta
aff les
Ġcast s
Ġtend ency
Ġtox in
Ġcross es
11 14
Ġ11 72
Ġ11 61
Ġstre aks
Ġstre ptomycin
cos ides
Ġton ne
Ġill ust
Ġformal ities
Ġdrum stick
ĠQ PM
Ġold est
ĠBan ned
Ġsell ers
Ġdecl ares
ĠThi aram
Ġcollabor ative
Ġweak en
Ġweak ening
Ġgran ulosis
ĠTe am
Ġstab ilization
opl asm
Ġtrun ks
NA s
Ġge o
ĠMembers hip
Ġdiam ond
Ġrub bed
Ġnotice able
Ġmyc osis
75 2
Ġap ical
Ġscab ies
Ġcutting s
Ġcro pped
Ġcra bs
Ġpet iole
ĠSa anwal
Ġmut agenesis
Ġuseful ness
Ġcrystall izer
ĠSo aking
ĠRat io
Ġmedic inal
Ġsav ed
Ind ian
Ġcontract ual
Ġdomestic ated
Ġstay ing
Ġrenew ed
Ġspro uting
Ġdisb ursing
Ġbound ary
Ġdecaffe inating
Ġdeb ited
Ġdisturb ing
Ġdisturb ed
200 4
Ġfa ith
Ġinactiv ation
Ġinstitutional ized
Ġwr ong
ĠSpin etor
Ġdamp ness
Ġsteam ing
Ġdiscol ouration
Ġpy razos
lim ited
Ġgrad es
Ġgrad ed
egrad able
Ġtract ors
ĠInf ected
Ġnit idula
ĠFl at
ĠFl ash
ĠBa hra
Ġenterpr ises
bl ue
gent a
Ġpropag ated
Ġhydro xide
ĠLeaf hopper
Ġter ritories
Ġpal atable
ĠVacc inations
Ġvalid ate
Ġsecure ly
Ġgly cosides
Ġmanip ulated
ĠWG G
ĠHa ughley
ĠIndust ries
Ġrecall s
ĠBi jn
Ġdisadvant age
ĠRev iew
wor king
Ġcampaign s
Ġperme ate
Ġperme able
Ġlongitud inally
ST AC
Ġcum ulative
Ġshif ts
ulphur an
ĠCry ogen
Ġstead ily
ĠUP AS
Ġbroadcast ed
Ġantic ip
Ġwra pped
ĠPres erving
ĠBar ley
ĠBen late
ĠEth ion
Ġpedic les
Im proved
Ġfle eces
Ġreimb ursed
ĠSn ails
ĠMic ronutrients
ĠDec entralized
Ġhygroscopic ity
ĠTest ing
ĠAut om
ĠAut umn
ĠStre ptocycline
Ġrab bits
Ġswab s
Ad visory
avi our
Ġshrivel ing
Ġshrivel ed
consum ing
consum ers
Ġisol ate
Ġcank er
ĠSon a
Ġackn owledge
Ġchlorpy rifos
ĠUlt ra
ĠUlt imately
dist rict
flav ored
Ġstap le
ĠSun light
ĠPet al
Ġlem ongrass
Ġcomput ers
NS KE
ĠTho se
Ġlend ers
Ġrupt uring
Ġpret ilachlor
Ġmetribuz ine
ĠLakh impur
Ġhom emade
Ġpredict ability
ĠNE H
ĠDi amond
Ġpool ing
Ġwon der
Ġleak age
ĠDelay ed
Ch ief
lit re
Ġprospect s
Ġprospect ive
ĠPo uchong
ĠGo a
ĠUp on
Ġrelie ving
ĠVir ide
ĠConcent rated
Ġreservoir s
ĠEthyl ene
ĠTur key
asp berry
ĠFert ile
Ġtele communication
Ġindex es
Ġcalib rated
Ġwindow s
Az adirachtin
ĠAfric an
Ġkidney s
Ġassum ptions
Bl ack
Fed eration
Ġric her
ĠHam irpur
Ġexacerb ate
Ġchaff y
ĠGrub nash
Ġlie u
Ġprotozo a
Ġsucceed ing
Ġdiscrep ancies
Ġsuffoc ate
Ġscrutin ize
83 000
iol one
pup ae
Ġfring ed
Ġansw er
Ġnig ra
Ġlangu age
Ġdece ased
Ġobst acles
Ġphenol ics
Ġdisappear ance
Ġjeopard ize
docu ments
Ġtet anus
Ġnib ble
Ġenact ed
Ġscaven ger
Ġunavail able
Ġoutcomp ete
ĠStraw berry
ĠImidach loropid
Ġmiscon ceptions
Ġanticoag ulants
eres an
Ġoch re
Ġanch orage
Ġplag ue
ĠCu SO
ĠGon thra
ĠGerm any
Ġmaurit ii
ĠProte inex
ĠLamp ito
Ġdepectin izing
Ġgroo ves
Ġmerch ants
ĠAvoid ing
JL Gs
eo rological
Ġsacchar ata
Ġinappropri ate
alos iphum
Ġreinf or
ĠChic ks
ĠCour t
ĠPoll ution
ĠFlex i
Ġincap ac
ĠRad ish
Ġmicrof lora
ĠSched uled
incre ase
Ġcurtain s
ĠBeh aviour
Ġantenn ae
Ġtherapeut ic
Ġstrugg le
Phal aris
crucif er
dest ructive
oun ced
prep ared
Ġtit le
Ġail ments
Ġcop ious
Ġpane er
Ġburea uc
Ġmim ic
Ġduc ks
Ġearm arked
Ġnyl on
Ġnavig ate
Ġluff a
Ġgreg ari
anthocyan idins
ĠCust om
ĠCaf tan
stren gth
ĠSyn genta
ĠSarj u
ĠPaste urization
ĠPenic illium
ĠFail ure
acoust ics
ĠBrus sels
ĠBalf our
Ġperip her
ĠMob ile
ĠRhop alosiphum
Ġpurpl ish
Ġmeticul ous
ĠGha z
ĠEight y
ĠKober witz
Ġinterfer ing
Ġporos ity
holars hips
ĠAgros an
Ġelli ptical
ĠUnfort unately
inflam mat
ĠClavig rella
Ġenginee red
Ġsemilo opers
ĠSpinetor am
Ġpyrazos ulphuran
ĠBahra ich
ĠBijn or
% ?
. '
1 000
4 50
5 3
6 7
8 9
9 2
B avistin
C H
C S
D P
D V
D ist
E G
E ligible
E DT
F e
F HB
M R
M t
N D
N arendra
N FS
S ec
T otal
T aluka
T NAs
U HT
W or
a ul
c ar
c redit
c irc
c ross
c ultural
d y
d warf
d amage
f our
f ills
f atox
g ut
g un
g ory
g SO
h ud
h ae
h pur
h abad
i ro
i ar
i pose
k alu
k oot
l on
l um
l ish
l oss
l ines
l ared
l inary
l oma
m art
m its
n am
o i
o op
o ining
p ic
p et
s s
s ore
s ign
s uri
t a
t or
t il
t reated
u ct
u ents
u ingu
v ari
w hich
w ear
w ani
w igs
y od
y riphos
z ine
Ġ )
Ġ *
Ġ il
Ġ iv
Ġ xy
Ġ ____
Ġt a
Ġt ert
he ct
in ction
in omycetes
Ġa est
Ġa onla
Ġo mega
at ters
er gen
er ants
Ġs ar
Ġc ure
Ġc ats
Ġc rows
Ġp ent
an ish
Ġf ile
Ġf ern
it ary
or res
or ney
Ġb ent
Ġb un
Ġb ites
Ġb ush
Ġb ison
Ġin ability
al ities
ic ts
ic onazole
ic osis
ar as
Ġm es
Ġm udd
Ġm irid
Ġd ia
Ġd ropping
Ġd ragon
ct iidae
Ġis otonic
Ġw ines
il age
il itation
Ġre nov
ĠT hy
ĠT rip
ĠT urn
ĠT orres
le m
ul ly
Ġpro form
Ġfor age
ur ist
ur ia
et ting
ho ps
ĠThe rum
Ġe ast
Ġe lement
Ġn ar
Ġn ation
Ġn ap
Ġl ent
Ġl akes
Ġg oss
Ġg auge
Ġg obar
Ġg inseng
Ġor al
Ġare n
ut ical
ut ki
ra v
Ġh ives
Ġh ung
ment ing
ers igned
ot in
ot erm
ot iation
ag en
ag ri
ect ants
ess ional
ol it
ol ium
ol khol
ĠI V
ab ags
ri able
Ġv ersion
el ium
Ġst ir
Ġst ays
ate hpur
Ġpl ane
rop yriphos
est ris
ĠA id
ĠA ction
ĠA ms
ĠA CCP
ĠC at
ĠC as
ĠC are
ĠC ider
ĠC ellul
ĠC LA
ĠC hecking
ig zag
Ġen velop
Ġso up
Ġim az
iv orous
Ġsho ck
ĠS op
ĠS low
ĠS af
ĠS rin
ĠS har
ĠS uch
ĠS ulfur
ĠS ilage
th s
th let
ver mi
ĠP ass
ĠP ower
ĠP ineapple
ĠP ET
ĠP FMS
end ers
end ix
ĠF W
ĠF eas
ĠF ast
ĠF requ
ĠF iltration
ĠF luidized
ĠF ully
ĠF atehpur
Ġsp or
Ġsp ind
Ġsp iders
Ġsp arrows
ĠH o
ĠH ol
ĠH eter
ĠH ara
ay ing
Ġle ach
ist ers
ad ies
ad ines
ad apted
ff ea
row ers
rom eters
Ġad ver
Ġad ipose
ert s
ari as
ĠB uff
ec id
Ġper mit
Ġcomp ressing
Ġcomp uting
Ġman ganese
Ġag ree
Ġres ide
Ġres ident
Ġro unds
commend ed
Ġdis s
ide o
ans mati
Ġco ast
Ġco ok
ĠIn ternal
ill in
ĠM ach
ĠM uriate
ĠM gSO
Ġk i
dition er
Ġ1 60
Ġte ak
Ġte abags
tain ed
igh ter
ĠD E
ĠD R
ĠD own
ĠD SC
ĠD DV
ĠD anish
ffect iveness
ĠR H
ĠR it
ĠR up
ĠR ats
ĠR ampur
Ġch airs
ast ed
Ġj our
Ġj aponicum
oc ad
erm is
art s
Ġqu inces
Ġ2 65
Ġtr uth
Ġne at
ĠO il
ĠO ils
Ġint ra
ĠG in
ĠG ir
ĠG old
ĠG inger
ĠG PS
ĠG DP
Ġse em
up a
ard han
Ġtrans gen
Ġtrans lu
Ġins piration
Ġreg ards
ip ation
ip ronil
Ġsc holarships
Ġtim ber
ĠE t
ĠE v
ĠE kalu
ĠE arias
Ġdevelop ments
Ġact inomycetes
Ġsh ades
Ġmo und
Ġover use
Ġover cooking
Ġover filling
ear ly
Ġho ps
Ġcl umping
ap yr
pl oid
ĠL ak
ĠL ym
ĠL amb
ĠL aws
ĠL amba
ĠL RG
Ġpart ly
Ġsub tropical
Ġun iversities
Ġun seasonal
Ġun authorized
Ġun limited
Ġprot oplasm
ĠK hud
ĠK utki
ish ment
ĠBy e
Ġdet ail
Ġspray er
Ġbl ender
Ġbl isters
Ġ5 24
ĠJ a
Ġunder lying
Ġunder cooked
Ġ4 1
ĠU K
ĠU SA
Ġinter rupt
ace utical
Ġdes orption
Ġpo x
Ġtem pl
Ġup grad
ĠComp ressed
Ġref in
Ġout reach
Ġris es
ĠSt rip
hol ogical
Ġexp ires
Ġexp ressing
Ġlo b
Ġev ap
Ġear worms
tern ally
tern ational
Ġdep unct
Ġtransplant er
Ġall otment
Ġall ergen
Ġadult eration
Ġadult erants
Ġcru de
Ġessential ly
cc ivora
Ġrot ational
Ġfol d
Ġcost ing
Ġactiv ate
Ġactiv ated
Ġent icing
Ġent repreneur
Ġ10 10
rip idae
Ġem uls
ĠAg ric
ĠAg reements
Ġtw ine
Ġsm earing
Ġ20 6
Ġ20 12
ĠV ent
ĠV ot
ĠV acuum
Ġ6 24
Ġacc lim
Ġacc idental
Ġshe aring
organ ized
Ġset backs
ym akers
Ġhand ic
Ġher ding
Ġach hadaan
ĠAs ha
ĠAs iatic
Ġut ilities
Ġ7 00
Ġ8 43
Ġneg otiation
Ġmod eling
Ġflow ing
Ġpresent ation
Ġrec ording
Ġdown ward
Ġbal ances
Ġcal ves
Ġcent res
Ġphy lum
Ġcount ersigned
ĠInst all
lo em
Ġpig ment
ĠCo ffea
mon ella
20 20
Ġer a
Ġcho p
PM Us
Ġimm ersion
Ġz e
Ġsal inity
Ġbro th
Ġparasit ize
Ġabs olve
Ġret ire
Ġret urning
ĠTh us
ĠTh ripidae
Ġmid gut
Ġsufficient ly
Ġcyc l
Ġdehyd rates
Ġ9 3
Ġ9 00
Ġpay ing
Ġexpos e
Ġdeg assing
ĠDe bt
cip itation
cip linary
ĠAr ctiidae
Ġfinal ized
Ġrest less
Ġliter ature
Ġcat fish
Ġintern ally
ĠSu pp
ĠMem br
Ġ100 9
Ġbio ag
Ġgl ands
ĠAl lowing
Ġproble matic
Ġcirc ulated
Ġread ers
ĠImp lement
ffe inated
Ġstake holder
ĠCons erving
Ġdemand ing
Ġph loem
ĠApp endix
ĠCon ciliation
ĠCon ditioner
Ġpost s
Ġpost age
Ġshed ding
Ġdil uting
Ġsweet ened
Ġclear ances
Ġboil s
yl ene
Ġconf ir
Ġconf ident
Ġconf used
Ġthick ener
Ġsuper v
ĠBl ood
Ġmar ine
Ġdisc ard
Ġacre age
Ġop ens
ĠUs ardhan
ĠSoil s
iment ary
ex cluding
Ġorchard ists
Ġmill ing
Ġrev ision
Ġrev olution
Ġrev isions
Ġshow er
SR I
Ġaut onomous
Ġver a
Ġver ifies
Ġclass ical
Ġconsult ed
Ġpriorit ized
ival ent
SO P
Ġenc rust
ĠDep uty
Ġadapt able
Ġpoly ethyl
Ġbreed ers
Ġcloth s
Ġrepl ication
Ġunf iltered
cool ers
Ġalloc ations
Ġrecogn izing
rap hic
Ġsimilar ity
Ġalt ered
ĠIntern et
Ġfort ified
Ġwind bre
Ġcoord inated
ĠPre cipitation
Ġprofess ionally
vi ate
Ġfir ms
ĠDes ign
by ists
Ġacqu ires
Ġpolic ymakers
Ġcross ing
Ġstrength s
Ġalign ed
Ġalign ment
Ġreview ed
te chn
ĠMin eral
Ġsw it
Ġhar rowing
Ġ17 00
Ġfoot wear
Ġsuppress es
Ġreco vered
Ġresponsib ly
sp ot
Ġcollabor ating
Ġstim ulants
antri idae
ĠFac ulty
ĠFac ilitation
Ġgran ule
Ġpasteur izer
Ġphot ocopy
Ġrequest ing
Ġdefault s
Ġcoconut s
Ġchlo rogenic
Ġtall er
ĠGovern ance
Ġther mo
Ġther mod
Ġpap ain
Ġbon ds
ĠPe eling
ĠPe rennial
Ġsafeguard ed
ii i
Ġhyp otonic
Ġhyp othe
Ġhyp hae
Ġgrape vine
Ġengage ments
Ġmyc otox
Ġworks hops
Ġbehavior al
Ġorigin ally
ĠMinist ries
Ġcra ccivora
Ġpet es
Ġcapt an
Ġovers ight
Ġovers ees
Ġassign ment
ĠPlant ing
Ġepid ermis
Ġmig rate
Ġprun es
Ġsav lon
hin us
ĠRo ots
ĠMil ch
Ġclub bed
Ġcomplex ity
Ġpicking s
Ġfurn ish
Ġfurn ishing
can ic
Ġput refact
urse ments
ĠIr radiation
Ġspro uted
ang a
Ġwithdraw s
Ġsanit ary
Ġsanit ization
Ġinactiv ating
Ġexerc ises
Ġautom ation
Ġtu fts
ĠMah ua
ĠMah suri
farm er
Ġsequ est
Ġbook keeping
Ġcr iss
ĠDet ails
ĠLong uingu
In stit
In gred
Ġdiv ide
Ġhind ers
Ġsumm ar
Ġsumm ers
Ġlet ting
Ġadvoc ated
Ġload ed
Ġrandom ly
CI P
Ġconstit utes
Ġthreat en
Ġcas ings
Ġnucle ar
Ġvert ically
Ġarm ature
Ġmusc adines
Ġvisit ing
kn ot
Ġnit rates
Ġalter ations
100 1
Ġmel an
Ġmel ting
ĠAch arya
ĠOper ating
ĠCommon ly
ĠNot ification
Ġreplenish ment
ĠCol le
ĠCol our
ĠCol lect
/- .
ĠBo ro
Ġpun gency
Ġrecent ly
Ġmanip ulating
Ġindepend ence
Ġafford ability
ĠNG O
Ġelev ations
ĠTet anus
Ġlic ensing
Ġjud gment
Ġdigit ized
SLCC CI
Ġdy es
Ġcand ying
ĠSol an
ĠSol ar
ĠND GR
Ġhailst ones
repreneurs hip
ĠShe et
emper ate
ĠAph ids
ĠCry tor
ĠRod ents
ĠPract icing
ĠEng lish
Ġreplac ing
hs il
Ġai romones
Ġantic occidial
Ġproceed ing
Ġinfl atable
Ġinfl amm
Ġpoison ed
Ġovipos itor
Ġenric hed
ĠBC R
Ġ13 2
ĠVeget able
Ġconv inc
Ġthi acloprid
ĠIncre ased
Ġabnormal ities
Ġep igeic
ĠChlo ropyriphos
Ġentrepreneurs hip
Ġdeclar ations
Ġalle viate
ĠPromot er
Ġparent age
cer ol
Ġdimin ishing
ĠID M
ĠSy rup
ĠKn olkhol
ĠAut onomous
ON ER
ont oterm
ĠProp onents
Ġderiv ative
Ġconnect ivity
Ġterra cing
Ġmotiv ating
Ġisol ating
Ġcompr ised
ĠProt ecting
ĠWad ura
Ġaspir ator
ĠPack aged
ĠBacter ia
Ġcompat ible
Ġoccup y
Ġprecaution ary
Ġsatisf ying
Ġbus hy
avail ability
ĠNymph ula
Ġcel ery
Ġproth oracic
ester ol
ecosystem s
ĠMy sore
ĠManip ur
ĠExp enses
process ed
Ġconfirm ed
Ġinduc ing
ĠArom atic
ĠColl ar
ĠBre ak
ĠBre aking
Ġabbre viations
ĠProf ile
Ġirrit ation
Ġentom ofung
Ġtact ical
Ġpush ing
Ġsoften ing
Ġleak ages
Ġsquee ze
lit er
Ġdeactiv ate
ĠPo ultry
ĠBer gamot
Ġcompar ison
ĠNucle ar
Ġcrucif er
Ġcrucif ers
ĠVertic elium
dec lared
jam rut
Ġcrow ded
ĠTel icota
Ġcancel led
ĠIX A
.. .
Ġspin osad
Ġtrim m
ĠChitra koot
Ġrender ing
Ġacknowled ges
Res ource
Ġceas es
Ġdren ched
ĠSpl itting
ĠFen bendazole
oget her
Ġunint ended
ĠJaw ahar
Ġdesert ification
Ġconcl usive
Ġpharm aceutical
ĠMelan aphis
ĠRodent ia
Ġsle ep
Ġcongen ers
Ġvial s
ĠPS ND
Ġthaw ing
Ġdepri ved
ĠAnant nag
Ġoccas ionally
Ġvolunt ary
Compos t
dis ciplinary
san optera
Ġox isol
Ġinhib ited
Ġlod ged
Ġdeleg ated
ĠSal monella
Ġcarri er
incorpor ated
Ġexcre ments
bacter ia
div ision
Ġaug ias
omy iidae
ĠSak et
Ġspect rum
ĠHard oi
ĠBay er
Ġthrust ing
Ġunivers ally
Ġobes us
ĠStat istics
ĠResid ues
Ġmisappropri ation
Te hsil
cultiv ated
del inted
Ġchol esterol
Ġgent le
ĠPrincip le
ĠHome opat
Ġaggress ive
Ġseptic emia
Ġclot hes
Ġshepher ds
Ġsluggish ness
Ġalkal oids
Agricult ural
ĠPrun ing
dr illing
main tained
Ġtam arind
Ġconce al
Ġghan jeevamrut
Ġhamp ers
Ġcontra vention
ĠSoc ial
ĠPiper zine
ĠBee j
Ġresched uled
ĠOd ontoterm
ĠGrin ding
ĠCommod ity
Ġexpon ential
ĠYeas t
ĠVers ene
ĠImm edi
ĠCryogen s
Ġincapac it
inflammat ory
EDT A
fatox icosis
pic uous
Ġxy lem
Ġtert iary
Ġsar cospora
Ġpent oxide
Ġmudd y
ĠThy sanoptera
Ġproform a
Ġnap ier
Ġgoss yp
ĠSop ore
ĠSrin agar
thlet es
ĠFeas ibility
ĠFrequ ent
Ġspind le
ĠBuff alo
Ġcoast al
ĠDDV P
Ġtranslu cent
ĠEkalu x
ĠLym antriidae
ĠKhud wani
Ġdepunct alis
Ġallergen s
Ġ624 98
Ġacclim at
Ġpolyethyl ene
Ġthermod ynamic
Ġhypothe cation
ĠLonguingu is
ĠCrytor hinus
Ġinflamm ation
Ġentomofung al
ĠOdontoterm es
/ /
/ =
0 8
2 50
2 65
2 907
3 70
3 95
6 3
7 1
7 7
7 50
7 40
7 100
9 35
: //
A V
A pril
B E
B H
C on
C ent
C ha
C PMU
D i
D irect
E n
F MD
G OI
H ow
H YV
I T
J asid
K g
K is
K rishi
L im
M arch
M CA
N on
N ew
N EC
N eem
O r
P res
P art
Q PM
R o
S esbania
S LTC
T L
T O
T SS
T ION
U R
U S
V S
W h
W HO
Z n
] .
a an
a ugh
b in
b all
b ered
b ird
b ank
b everages
b ouring
c he
c or
c ase
c ke
c occidial
d ome
d haincha
d egradable
e composed
e rens
f ib
f iling
g rating
g overnmental
h it
j ud
k ur
k ers
l od
l asting
m n
n ab
n our
o Brix
p es
p ing
p ass
p itude
r ative
s h
s q
s ed
s ess
s ort
s own
t ion
t est
t oc
t endering
u ity
u ality
v in
v et
v ances
v ious
v anced
w here
w ala
y th
y ces
z al
Ġ $
Ġ =
Ġ ion
Ġt ent
Ġt ines
Ġt aint
he ast
he alth
in ch
in ars
Ġa thletes
re liance
Ġo mn
at i
at omace
at uity
er als
er ning
er alis
Ġs or
Ġs ort
Ġs acks
Ġc in
Ġc rim
Ġc ups
on i
on th
Ġp ec
Ġp ans
Ġp ier
an ar
an ied
en ium
en ates
en na
Ġf ence
Ġf ond
Ġf ailed
Ġf itting
ro int
ro ots
ro zen
ing idae
is dom
it a
it i
it ect
it als
it ory
it rate
it izing
or i
or ate
or ial
or ru
or se
or akh
Ġb affles
Ġan est
Ġan ther
al ers
ic hol
ic ized
ion yx
Ġm om
Ġm ood
Ġm ellow
Ġm ottled
Ġd ess
Ġd ots
Ġd ull
Ġto ur
ct urnal
ent h
Ġw isdom
il a
il ot
il os
Ġre pos
Ġre app
Ġre used
ĠT A
ĠT ri
ĠT all
ĠT ying
le vant
ĠW ider
ĠW ise
ĠW hether
ĠW ild
ĠW TO
Ġpro anthocyanidins
Ġbe aring
ur ate
om op
im eter
im eral
et am
et tle
ve en
ho gan
ho xy
id ated
Ġn est
Ġn anof
Ġl am
Ġl ighter
Ġg undhi
Ġg orru
ra el
Ġh al
Ġh ull
Ġh undred
ers t
if ruit
if eralis
ag o
ag us
ag ery
ag ulation
ag reement
os ella
os oma
ol a
ol onth
ĠI K
ĠI SI
pp ery
Ġv ans
Ġv ast
Ġv iolet
Ġhe ard
Ġhe nce
el iness
ch y
ch itect
Ġst ating
Ġst ains
Ġst raining
Ġst uck
Ġst uffs
ain ts
Ġas par
Ġpl aster
ĠA raw
ĠA verage
ĠA ley
ĠC ane
ĠC har
ĠC rus
ĠC apt
ĠC GM
ĠC opt
ĠC arson
ĠC ultural
ĠC ecid
od ous
od ka
od iolone
ig ation
iz a
Ġso unds
Ġso ups
gan j
Ġim agery
st imulating
Ġde watering
am a
am rit
am aged
am monium
um bs
ĠS P
ĠS k
ĠS ant
ĠS ac
ĠS eas
ĠS ix
ĠS ha
ĠS MS
ĠS esam
ĠS kin
Ġthat ched
th iaz
Ġr ings
ort us
ĠP ure
ĠP ort
ĠP ier
ĠP PL
ĠP DS
ĠP ilot
end ence
ĠF DA
ĠF airomones
ĠF ixed
Ġsp ice
Ġsp ins
Ġsp illed
ru ed
Ġwith drawn
ĠH ail
ĠH yp
ĠH ence
ĠH iring
ĠH usbandry
ĠH QPM
Ġle ased
ist ency
ist urb
ad t
ad ia
Ġal oe
Ġal fatoxicosis
ac etic
ac hel
ac ceptable
Ġex hib
Ġex ternally
Ġplant ings
ive red
Ġorgan och
Ġorgan isations
Ġapp ra
rom yces
rom odiolone
op a
ition ers
ĠB ens
ĠB ada
ĠB OD
act ating
Ġinc ons
Ġcomp lies
Ġcomp uted
Ġ( =
Ġag itation
Ġag rees
and hi
Ġdis lod
Ġco herent
Ġco agulation
ĠM am
ĠM ac
ĠM eas
ĠM aking
ĠM aj
ĠM icrob
ĠM uz
ĠM itra
ĠM NRE
ĠM GG
Ġk ettle
Ġcons picuous
hen ogen
av atus
ĠN ar
ĠN ations
ĠN ormal
ĠN IC
ĠN OH
ĠN BFCs
ĠN itrate
ĠN ichol
Ġac comp
Ġth res
Ġth under
res pect
ĠD in
ĠD em
ĠD ip
ĠD AS
Ġsy ner
ĠR ow
ĠR ust
ĠR ob
ĠR ead
ĠR DF
ĠR upees
ĠR aspberry
ĠR VS
ĠR yth
ĠR achel
Ġch it
Ġch ap
Ġch amomile
oc o
oc occ
Ġfood grain
erm ining
Ġinf erens
art ile
Ġqu otations
Ġ2 25
Ġnot ices
Ġmet omin
Ġmet sulphuron
ĠO P
ĠO wn
ĠO pis
Ġme re
Ġint est
ĠG l
ĠG aut
ĠG orakh
ĠG iza
ĠG andhi
ust a
so ur
Ġse am
up loading
Ġtrans verse
Ġins ul
Ġins urable
Ġreg row
ip ers
ip rid
og y
og raph
ĠE l
ĠE sp
ĠE rosion
ĠE kka
ĠE ss
ost robin
ost adt
Ġcol der
Ġcol oured
Ġprovid er
Ġprovid ent
Ġsh in
Ġsh ining
Ġsh aken
Ġcult ures
Ġmo or
ens ed
Ġab rupt
Ġav ersion
Ġav ocad
ell er
Ġcert ifiers
Ġmin i
Ġmin ed
Ġmin ds
Ġund ried
Ġund ecomposed
Ġund amaged
Ġund isturb
pl ace
viron mental
ĠL a
ĠL ord
ĠL arn
ĠL iving
ĠL SD
ĠL actating
Ġhas s
Ġfl ush
Ġfl acc
Ġfl ocks
our ces
Ġpart henogen
ke w
Ġsub opt
Ġsub soil
Ġdif enthiuron
Ġdry ness
Ġconsum able
Ġsol ves
Ġallow ance
Ġun ity
Ġun approved
Ġun incorporated
Ġun cultivated
Ġun acceptable
ĠK ar
ĠK untal
Ġlevel ling
Ġinto x
irect in
ĠOr der
Ġbl unt
Ġsystem atically
Ġ5 1
Ġ5 000
Ġ5 50
ress al
ĠJ R
ĠJ hum
ĠJ wala
Ġ4 448
ĠU rine
ĠU AV
Ġmark ed
gg ed
iod ic
Ġinter cellular
Ġ' #
rin idhi
ĠComp leting
Ġinst inct
round ed
Ġamount ing
ĠInd ra
ĠInd irect
ĠInd ex
Ġmat ch
Ġthere after
Ġrel ax
Ġris ing
own ership
Ġrep elling
Ġrep utable
ĠSt raight
hol ogy
Ġdist inction
Ġroot lets
Ġir revers
Ġir respect
Ġexp iration
Ġdirect s
Ġterm ed
Ġra ises
Ġresp ondents
Ġwell ness
Ġchar ter
Ġgen otypes
Ġoff ence
Ġpe ppers
Ġadult erant
Ġlow est
Ġinform ative
Ġappro ached
Ġbore hole
Ġhy acin
ĠCh ain
ĠCh ill
ĠCh anges
Ġfol ate
Ġfol io
ention al
Ġactiv ation
ĠY our
Ġbre ath
Ġent ries
Ġpectin ic
Ġpectin olytic
Ġgr ating
Ġgr atuity
Ġlim ing
Ġgu ard
Ġbu cke
Ġem ission
Ġem amectin
Ġair borne
Ġpat hot
Ġpat hogan
Ġpat hology
Ġland less
int endence
Ġ20 48
Ġ20 27
ĠV ar
ĠV ars
ĠV anar
itt le
Ġwhere ver
Ġrisk y
Ġcarb ide
ha ze
Ġident ical
Ġshe en
organ isation
Ġar t
Ġar ils
Ġaddition s
Ġhapp y
uch i
ĠAn and
Ġnum bered
Ġhand made
Ġbut achlor
ĠCan na
Ġbi otic
Ġbi ochemical
xy thiaz
Ġspread able
Ġrec re
Ġpul ling
be es
be ans
Ġgrown up
Ġdos ages
Ġ0 5
Ġsa u
Ġbal es
Ġcent iped
Ġaccount ed
air ing
hogen s
Ġdi ets
Ġdi uretic
Ġfresh water
Ġphy toc
Ġconsider ably
ĠNo zzle
Ġbenefit ed
ew el
Ġgerm inated
ll ocer
Ġfil ms
ĠCo uld
ĠCo operatives
Ġbor ic
Ġliqu ors
Ġhot test
Ġdel ivered
mon ia
Ġsul phos
20 2
20 64
Ġer oded
Ġer oding
Ġcalc ulations
PM C
Ġperform s
Ġz igzag
ĠEx haust
Ġcompet es
Ġparasit izing
Ġapproach ing
Ġprim e
Ġcur ric
Ġcomb ating
lor ines
Ġnutrition ally
vers ion
Ġhead ed
Ġmid way
Ġauthor izing
Ġstart ers
Ġshap es
Ġsk illed
Ġpup arium
Ġdeg as
Ġshort fall
Ġunders t
Ġmust iness
pro gram
Ġprior ities
Ġconst ipation
Ġsyrup ing
Ġfinal ization
Ġgeneral izations
Ġet hological
Ġet hoxy
Ġflav anols
Ġrest oring
Ġrest ructured
Ġamong st
Ġcat ching
ĠMa har
Ġgroup ed
Ġbar n
Ġbag ged
Ġdesign ers
ĠPl astic
10 39
Ġmicrob iolog
Ġsl ices
Ġsl ake
Ġsl augh
Ġno cturnal
Ġgl ut
Ġgl itter
Ġbo ot
Ġbo ards
Ġbo vine
Ġcirc le
ĠAc ute
ĠAc idity
ĠAc rid
ĠAc etam
Ġhol der
Ġeng ages
Ġ19 65
Ġ19 49
Ġ19 04
Ġfe eling
Ġread er
ĠImp act
ret ort
Ġswe eter
ĠSh rinidhi
Ġinterest ing
Ġamend ing
Ġdiff use
arn agar
ĠCons ent
ĠCons istency
Ġpass ages
Ġdemand ed
Ġbeh aves
ĠIs rael
Ġph ones
ĠCon oget
30 7
Ġconsequ ently
40 9
Ġpred is
Ġpos terior
Ġcontamin ating
Ġcontamin ates
of os
ĠMo uld
ĠMo uth
Ġemploy s
Ġexist s
Ġevapor ated
tt p
Ġstr at
Ġstr and
Ġcontinu ity
mit ting
ĠLe aving
Ġsuper intendence
ĠBl ast
ĠBl ister
Ġconver ts
Ġorig inated
Ġdisc s
Ġinstant ly
Ġprincip al
Ġur ic
Ġur gent
cl uster
Ġclim acteric
eth apyr
ĠDevelop ing
Ġconsult ing
ister ing
Ġrun s
Ġ200 4
ĠEar wigs
Ġelect ions
Ġrich ness
ĠCor ing
ĠCor resp
Ġpoly sacchar
Ġpoly prop
ĠEn vironmental
Ġvent ures
cha romyces
Ġaggreg ated
Ġunf air
Ġproc ured
Ġcompact ness
ĠMon il
Ġ18 00
Ġrad iation
Ġenjoy ment
Ġwin nowing
Ġqual ified
Ġqual itative
ĠPre ca
vis ion
onic a
aff arnagar
Ġtur pitude
Ġfed erate
ĠDes i
ĠHe xythiaz
11 6
11 7
Ġrepay ing
ĠChrys opa
Ġ11 3
ĠSub vention
ĠSub sequently
Ġdeter ring
Ġdeter gent
Ġpenet rates
44 9
Ġhat cher
Ġfem ur
Ġdead line
gae id
ĠSL BC
Ġsw itc
Ġcred ible
Ġchil i
for ward
Ġfib re
ĠAccount ants
ĠIC M
ĠIC T
ĠBan anas
ĠPhos pho
Ġnectar ine
Ġcrus her
Ġdefin itive
Ġbuffalo es
Ġweak er
Ġweak ens
Ġpan el
Ġphot ograph
Ġwa iver
Ġmis rep
Ġcentrifug ed
ĠGovern ing
Ġbon a
Ġsuit ably
Ġthin ly
Ġthin king
Ġequival ency
Ġdom ain
ĠQu arter
ĠPe ach
Ġhyp ogly
Ġvapor ization
Ġbelie ves
ict ions
Ġboost s
ĠMith as
Ġap odous
ustain ability
ĠCal endar
Ġpet rol
Ġstream l
Ġsed ges
ĠAm monium
ĠAm monia
ĠNa veen
Ġcolour ful
Ġcapt ures
Ġcapt ured
Ġcommit ments
ĠPh omop
Ġincl us
22 88
Ġdri er
Ġreal istic
gran uls
Ġmig rated
ĠSo und
ĠSec urities
Ġresign s
Ind ira
Ġtan g
ĠAdult s
Ġstraight forward
Ġtransition al
Ġdip s
Ġ14 00
Ġagr onom
Ġ16 50
Ġfamil iar
hal aya
Ġput ting
ĠNorth bour
Ġdeb ate
ĠLo ans
85 5
Ġsanit ized
200 6
clim acteric
mod ified
Ġwr ite
Ġflour ish
Ġsimpl ify
Ġsimpl icity
farm ers
96 37
Ġcr umbs
Ġbig gest
Ġgunn el
ĠDet ermining
Ġirregular ly
ĠSho uld
ĠPratap garh
Ġlet tering
Ġneigh bouring
Ġexclud e
ras onic
Ġgrad ers
ĠCultiv ars
ĠStandard ized
FS S
ipt ortus
Ġtap es
Ġvert eb
ĠInf rastructure
ĠAzad irectin
Ġmal formation
ĠPer ionyx
Ġexcl usive
Gu arantee
kn own
Ġmel ons
ĠAch ieving
ĠCa uliflower
Ġcolumn s
Ġpal let
Ġpil ed
ĠChemical s
Ġuns uccessful
ĠVacc ines
ĠVacc inating
ĠBo ok
Cl osure
Ġindepend ently
Ġfloures cence
ĠHa emorrhagic
ĠBast i
ĠMel olonth
Ġwing ed
ĠBi ostadt
Ġfluores cence
Ġcall iper
Ġcall ipers
Ġdigit ize
Ġmalt ose
ĠND B
Ġacceler ated
cons erving
Ġscrap e
Ġscrap es
ĠLem on
Ġempan el
Ġprecipit ated
Ġri vers
Ġshif ting
Ġreflect ing
ĠBud gam
ĠCar as
Ġjoint s
ĠEng ine
ĠEng aging
Ġvo ice
ĠPres ident
ĠPres erves
Ġkiw ifruit
ĠAppro ving
Ġscenari os
36 96
Ġsod ic
Ġadhe res
Ġwholes alers
Ġtendon itis
ĠBand a
ĠBand ed
Ġdoor step
Ġrough ly
Ġthi amethoxam
ĠOxy a
Ġsignature s
Ġhydrop onics
Ġbrief ly
Ġresem bles
lar ation
Ġsie ve
Ġcig ar
Ġwhit ening
ĠExt ending
Ġrent ed
ĠSamp an
Ġsupervis ors
Ġnetwor king
Ad ar
Ad vanced
Ġrig idity
Ġped estris
ĠProp iconazole
Ġcompl imentary
Ġcompl aints
ĠVi enna
Ġtherm ophilic
Ġbotanical s
ĠSon am
ĠHar rows
opro x
Ġcompr ising
Ġcompr ises
ĠLoss es
ĠJu ices
Ġvalley s
Ġconflic ting
flav ors
flav our
Ġstap led
Ġcorresp ond
NAM E
gl ob
Ġrupt ured
ĠBal anced
Ġattain ment
ĠNymph s
ĠProduc ing
Ġflavon ol
Ġpunct iferalis
MT D
bug s
rod ible
rod idae
ige ics
ĠHand ling
ĠMy llocer
Ġoutflow s
Ġhydroly zed
Ġpredict able
ĠProf essional
Ġlegisl ative
Ġpersist ent
ĠSaiss etia
ĠLal mati
Ġgelatin ization
ĠSnow ball
Ġrib b
Ġmy ths
Ġwate re
Ġgun s
Ġcompar atively
ĠMeg halaya
Ġinsure rs
ĠEp igeic
ĠEnt repreneurship
Ġrelie ved
Ġester ase
Ġhemisp herical
dec laration
Ġdismant led
Ġtele phone
ĠNS SO
Ġrepell ents
ĠDisinf ection
ĠDisinf ectants
Ġpedunc le
Ġversat ility
Ġii i
Ġanc illary
ĠAfric a
Ġspin ach
ĠAdmin istration
concent ration
concent rated
Ġshowc ases
ĠFreez a
ĠFreez er
Ġign ore
Ġdren ching
ĠSpl it
Ġthiobencarb granuls
ĠEgg s
Ġunint entional
Ġbull ock
Ġpharm ac
Na vel
Na Cl
nce y
ĠTK G
Ġhid ing
Ġhid den
Ġvap ors
Ġvap our
Ġagit ators
Ġdoub ts
ĠDil utable
Ġshut down
Ġprofen ophos
Ġprofen ofos
Ġbrid ge
Ġcataly st
ĠAppert ization
ĠCarbox in
ĠCarbox ine
Ġpellet ed
Ġreconstit uting
Ġdisplay ed
Ġbh usa
Ġinherent ly
Ġmagn ification
Ġdorm ant
Ġhon or
ĠPhe romones
Ġdoct ors
ĠMare ks
Ġsew ers
Ġoverl aid
Ġclog ging
ĠKush inagar
ĠAudit ors
Ġhomogen eous
ĠHydrop onics
DW RB
link ed
Ġ________ _
Ġlamin ates
ĠSout heast
ĠPat hogens
ĠPop corn
ĠHerb icides
ĠRRB s
Ġintim ation
Ġhosp itals
Ġobt ect
ĠStab ilizers
ĠMana o
Ġmisle ad
900 6
An nual
Cert ified
Sh alimar
fert ilizer
prom oting
sl urrying
Ġow ed
Ġsel enium
Ġsesam um
Ġpron ounced
Ġfet us
Ġfizz y
Ġdrast ically
Ġconj unction
Ġgast roint
Ġorient ation
Ġhib ern
Ġenlar ged
Ġsouth west
ĠPoss ession
ĠFI L
compl iance
Ġexud es
ĠRol ling
ĠGrass land
Ġwean er
Ġcarbo xy
Ġnewsp aper
Ġmars hy
ĠMinim izing
Ġinhabit ing
Ġsmot hering
Ġreve al
Ġgon ads
Ġgrie vances
Ġstation ary
ĠHabit at
ĠDocu ment
ĠAgr onomic
ĠVis it
Ġars enates
Ġpressur ized
Ġremun erative
Ġobjection able
loz ole
ĠZay ad
Ġchequ e
Ġpreferent ial
ĠFlat fan
ĠAutom atic
Dist rict
Sec retary
car rying
hect are
Ġaren osella
ĠCellul olytic
Ġenvelop e
ĠRup ali
Ġjour ney
ploid ization
Ġtempl ates
Ġrefin ance
ĠAgric oop
Ġretire ment
ĠSupp lementing
Ġbioag ent
ĠImplement ation
Ġswit ch
Instit ution
ĠColle go
ĠCollect or
Ġtrimm ings
Ġgossyp ii
Ġacclimat ize
BE P
En closure
Kis aan
Lim ited
Or gan
Part icipatory
Wh ite
cor rodible
nour ished
sort ers
health y
Ġomn ivorous
atomace ous
Ġrepos itory
Ġreapp ointment
Ġaspar agus
ĠAraw ali
ĠAley rodidae
ĠCapt af
ĠCopt osoma
ĠSac charomyces
ĠSesam ia
ĠPier id
Ġorganoch lorines
ĠBens ulfuron
ĠBada un
ĠMuz affarnagar
ĠNichol as
Ġaccomp anied
Ġsyner g
ĠRob usta
ĠRyth u
Ġmetomin ostrobin
ĠOpis ina
ĠGorakh pur
ĠEsp resso
ĠEss ential
Ġavocad o
Ġundisturb ed
ĠLarn oo
Ġflush ing
Ġflacc id
Ġsubopt imal
Ġirrevers ible
Ġirrespect ive
Ġhyacin th
Ġbucke ye
Ġpathot ypes
Ġpathogan dua
ĠVars ha
ĠVanar aja
Ġcentiped es
Ġphytoc hemicals
Ġsulphos ulfuron
ĠExhaust ing
Ġethoxy sulphuron
Ġmicrobiolog ist
Ġglitter ing
ĠAcetam iprid
ĠConoget hes
Ġpolysacchar ide
Ġpolyprop ylene
ĠHexythiaz ox
Ġhatcher y
Ġswitc hed
ĠPhospho bacteria
Ġhypogly cine
ĠPhomop sis
ĠNorthbour ne
Ġverteb rate
ĠMelolonth idae
ĠMyllocer us
Ġgastroint estinal
% +
, '
. ?
0 7
1 60
1 35
1 81
1 121
2 75
2 95
5 9
5 99
6 9
6 33
7 11
7 16
8 962
9 30
9 42
9 1114
A r
A re
A adhaar
A jay
B us
B OD
C s
C rop
C ost
C SR
D H
D o
F PI
G C
G reen
G ov
G KV
H A
H ort
I As
K o
K VK
L E
L ic
L PC
M NRE
N G
N ot
N CDC
N TS
R e
S l
T rust
T MA
W G
a al
a em
a ments
a round
a dule
a ffeinated
b ent
b ir
b ase
c le
c ance
c ode
d ert
d efined
d egree
e ffici
e ared
e ffectiveness
f u
f en
f ol
f ive
f ood
f ield
f eeding
f enthiuron
g r
g rass
h av
h urt
h pat
i ac
i rom
i ety
i aries
i ology
i abad
k el
k har
k ins
k habad
l ique
l ocal
l ift
m et
n on
n agar
o el
o uted
o uched
p ure
p od
p ear
p fer
p oint
p iece
p resso
r ary
r ata
s on
s ue
s afety
s pro
s aturated
s eller
t ri
t ication
t urn
t asting
u x
u ctions
u yers
v ol
v athi
w el
x ins
x iety
Ġ ul
Ġ um
Ġ ud
Ġt ack
Ġt ell
Ġt orn
Ġt ricyc
Ġt ramp
he it
he ll
he user
in du
in ol
in af
in nowing
Ġa is
Ġa le
Ġa ce
Ġa head
re fund
re liant
Ġo Brix
at ore
at ics
er ut
er pr
Ġs hat
Ġs lo
Ġs ink
Ġc aste
Ġc aked
Ġc ramp
on ene
Ġp ion
Ġp ain
Ġp ine
Ġp our
Ġp ays
Ġp ace
Ġp ung
Ġp ins
Ġp seud
Ġp ineapp
Ġp ensions
Ġp aint
Ġp ione
an ent
an ia
es if
es wari
en optera
Ġf est
Ġf av
Ġf ired
Ġf ather
Ġf ences
Ġf aint
Ġf riable
is ure
is ulphite
it ha
it idae
it pur
it arian
ed ger
or ient
Ġb ow
Ġb righ
Ġb lowing
Ġan hyd
Ġan emia
Ġan omal
Ġan xiety
Ġin duces
al ments
ic ure
ic ated
ic ania
ar ate
ar ran
Ġm oll
Ġm erc
Ġd ied
Ġd olic
Ġd rench
Ġd aal
Ġto wel
ent erpr
Ġw ish
Ġw rink
Ġw arts
il ago
Ġre cy
Ġre using
hat ma
ĠT on
ĠT ram
ĠT ha
ĠT MTD
le gal
ĠW est
ĠW rapping
ĠW innowing
ul in
Ġpro act
us ks
as ure
Ġbe ating
ur one
ur ating
ur bs
ur dy
om aly
om opathogenic
im ony
im proved
et in
et ate
et ened
ho ols
id ing
ĠThe ram
Ġn orm
Ġn ets
Ġn ibbling
Ġcon du
Ġcon glom
Ġcon ferences
Ġl in
Ġl ug
Ġl ign
Ġl ush
Ġg em
Ġg ib
Ġg one
Ġg ear
Ġg athe
Ġg izz
Ġg ifts
Ġor ph
Ġare na
ant el
ra ust
ra ised
Ġh ire
Ġh ues
Ġh ttp
ir s
if orn
ot es
ot ed
ot rich
ag gregation
ect ious
os ter
ol ing
ol der
ol achlor
Ġsu cc
ity ahar
ĠI GKV
Ġv imeral
ch yp
ch ym
Ġst ations
Ġst rained
Ġst urdy
ain a
Ġpl ating
Ġpl ates
Ġpl aste
Ġpl uck
rop olit
ĠA le
ĠA mend
ĠA ber
ĠA bh
ĠA AI
ĠA TMA
ĠC B
ĠC ore
ĠC opies
ĠC FCs
ĠC andied
Ġen count
Ġen cl
Ġso oth
st ox
st atic
st uffs
iv ities
Ġde co
am al
am ide
am ica
um bers
Ġsho p
Ġsho ts
ĠS izing
ĠS ilt
ĠS BI
ĠS ucking
ĠS alinity
ĠS uccess
ĠS aturated
th i
Ġimp ed
Ġimp osing
Ġimp ression
Ġr ind
Ġr ins
Ġr ye
Ġpre con
Ġpre ying
ort y
ĠP us
ĠP el
ĠP PO
ĠP AC
ĠP icking
ĠP oo
ĠP ilib
ĠP rag
ĠP ione
ĠP upa
end amide
em ini
ĠF o
ĠF isheries
ĠF oot
ĠF ah
ĠF orty
Ġshould n
Ġsp s
ru khabad
ĠH as
ĠH op
ĠH ym
ay ani
Ġle aks
Ġle isure
com munity
Ġal um
ac es
ac ris
op hen
her ont
ĠB est
ĠB ack
ĠB har
ĠB hendi
Ġvari ed
ific ant
act one
Ġper ils
Ġper mits
Ġwater y
Ġcomp ass
Ġcomp lements
Ġcomp lications
Ġcomp liant
Ġy es
Ġres orting
Ġro am
and hra
und ation
Ġdis miss
pt ochloa
Ġco ir
Ġco up
Ġco ined
Ġco ils
Ġco urt
Ġco iled
all s
all ow
ud in
ĠM D
ĠM T
ĠM oth
ĠM ix
ĠM ath
ĠM old
ĠM ites
ĠM ex
ĠM agnesium
pos ure
Ġk inds
Ġk idding
Ġk aem
Ġ1 15
ee red
Ġte re
Ġcons angu
av athi
hy a
hy le
ĠN ect
ĠN ext
ĠN adia
ĠN ityahar
ĠN aina
Ġth ing
ug hen
ĠD on
ĠD ivers
ĠD usky
ĠD AT
ĠD LTC
ĠD egree
ĠD asaparni
Ġsy nthes
ĠR D
ĠR R
ĠR ight
ĠR ott
ĠR ough
ĠR ock
ĠR anch
ĠR iptortus
ast i
Ġj unction
Ġj ewel
Ġfood stuffs
Ġinf ants
Ġinf ilt
Ġinf using
art ing
Ġqu erc
Ġqu eries
Ġqu een
ren cy
ren heit
duc ing
duc ed
Ġ2 85
Ġpur sue
Ġmet ropolit
ĠO pt
ĠO cc
ĠO xid
ĠO TP
ib a
ĠG I
ĠG as
ĠG ly
ĠG rown
ĠG ender
ĠG iri
ĠG anga
so ori
Ġse als
rib olium
up am
Ġins ign
Ġsc hools
Ġtim eliness
ĠE ast
ĠE ating
ĠE fficient
ĠE ster
ĠE pir
ĠE TL
ors es
Ġsh irt
ature s
Ġmo unds
Ġover crow
ens aries
Ġma pped
ell ies
ell um
Ġmin ist
Ġju icer
ight ful
ine ment
Ġpract itioners
Ġweed icides
Ġtre ll
Ġcultiv ator
ĠL D
ĠL M
ĠL ack
ĠL arv
ĠL eg
ĠL uc
ĠL ife
ĠL odging
ĠL adies
ĠL edger
Ġfl ake
Ġfl ub
our s
Ġass uring
Ġass amica
Ġcondition ers
ĠCom mission
ĠAd apt
cent ives
Ġconsum ables
Ġfin ances
Ġext re
Ġun co
Ġun ex
Ġun app
Ġun comfort
Ġun covered
Ġun controlled
Ġun processed
Ġun healthy
Ġneed le
Ġneed les
Ġ3 11
co al
Ġthem e
ĠK ani
ĠK ala
ĠK anal
ĠK amal
ish ad
Ġlevel ler
Ġcaus ative
Ġpot ency
Ġdet achment
Ġbl oss
Ġbl ocking
ass id
Ġ5 2
ĠJ ellies
Ġlead ers
Ġunder ripe
Ġ4 9
ĠU HT
we etened
Ġadv ise
Ġwh ip
Ġinter disciplinary
ace ae
redit ed
Ġdes crib
Ġfun nel
Ġup lift
Ġob lique
ĠComp lete
ph ones
Ġinst alments
Ġout liers
ĠInd ig
Ġrel ay
ĠSt arch
ĠSt aff
ĠSt ories
ĠSt orage
Ġdist urbs
Ġexp ed
Ġexp ended
Ġadd itive
Ġlo ving
Ġlo oks
Ġnecess arily
Ġdirect ing
Ġtext ures
Ġmil itary
lect ive
Ġfact s
Ġgrain y
Ġdep icts
Ġpe aks
Ġharvest s
Ġval ve
har a
Ġrot atable
Ġtra cks
Ġtra ditions
Ġleaf spot
ĠCh ap
Ġfol ding
Ġatt ach
Ġwor n
nt ur
Ġeggs hell
Ġgu ar
Ġpat ch
Ġpat ients
Ġpat hs
Ġmicro organ
Ġpop lar
Ġland own
Ġland fills
Ġtw isting
Ġequ als
Ġsm eared
Ġ20 4
Ġ20 22
ĠV I
Ġ6 8
Ġacc idents
iqu antel
Ġset ts
ital ization
oid al
Ġmention ing
Ġpack et
Ġel asticity
rit ive
ĠAn d
ĠAn tic
ĠAn aba
ĠAn heuser
ĠAn upam
Ġhand lo
ob s
ĠAs ide
ĠAs ia
Ġwas ps
Ġ7 3
Ġ7 4
Ġ7 8
ĠCan ada
Ġ8 2
Ġ8 6
Ġ8 000
Ġregist ers
onom ics
Ġpar l
val urone
Ġpresent ing
Ġfound er
Ġrec ipes
Ġbr on
Ġbr ittle
ĠMan go
Ġ0 4
Ġ0 22
Ġlab elled
Ġobtain s
Ġcompost s
ands hah
Ġcal ories
Ġcal ming
Ġcent uries
Ġrem itting
Ġtechnolog ically
ĠUn dert
Ġlay ered
Ġindic a
Ġindic ations
ĠNo valurone
ll ation
Ġfil aments
ĠCo arse
ĠCo imb
Ġphys iology
Ġdel inted
Ġdel ightful
20 1
20 65
Ġcommun itarian
han pur
Ġtest imony
Ġtill er
ĠEx erc
Ġbeet s
Ġlight ing
Ġlight weight
ĠSp ace
ĠSp orts
ĠSp irom
Ġwo und
Ġvis cous
Ġown s
Ġcur rency
Ġliv ed
ros ed
az ing
az aqu
ĠTh inning
Ġ9 72
Ġsk ies
Ġconc erning
ĠDe ath
Ġunders ized
Ġgovernment al
Ġinvest ig
Ġweight ed
Ġstress ed
Ġstress ors
pro of
Ġanaly ses
ven or
Ġet hyle
Ġrest ored
Ġliter acy
Ġachieve ment
ĠZ ila
Ġcat ers
Ġ40 5
Ġdesign ate
10 10
10 95
con taining
con version
Ġsl ants
Ġno ises
ĠCommitt ees
Ġbio acoustics
Ġgl azing
Ġincorpor ates
ĠAl b
ĠAl k
ĠAl umin
Ġbo oster
Ġcirc ulates
ĠCl usters
ĠCl imate
ĠCl inic
ĠAc heront
ator ily
Ġ19 60
ĠOn ions
ret urn
ret aries
ov it
ĠAz imsulfuron
Ġend e
Ġcor rel
Ġos mophilic
Ġcoll oidal
YM V
Ġdiff uses
Ġcit iz
Ġph asing
Ġph ilos
Ġpric k
Ġes presso
ĠCon st
ĠCon sequently
ĠCon venor
30 9
ith andhra
40 5
40 7
Ġdil uents
esh ma
Ġrespect s
Ġyoung er
Ġconf igure
Ġbroad ly
Ġbroad leaved
ĠLe ptochloa
Ġsuper cool
Ġsuggest ion
Ġsuggest ions
Ġfore wing
Ġvi i
Ġvi rosed
ole uca
ĠCent rifug
ĠCent uries
ex pert
Ġwast el
Ġ12 1
Ġ12 2
Ġmill ions
cl able
de en
vere ating
Ġunt ested
Ġunt ouched
Ġlog os
Ġlog istical
Ġexpl ains
15 8
15 30
ĠUtt am
ĠDist ribution
ĠDist ricts
Ġholding s
Ġ70 29
Ġenc aps
Ġdelay ing
Ġsubject ive
ĠStand ing
app lication
Ġfram ing
Ġpoly phenol
Ġpoly carbon
Ġult rasonic
ĠInt ensive
Ġlook ed
Ġunf rozen
Ġdigest ed
Ġdigest ibility
Ġhor rens
ĠMO DIS
Ġoffer ings
Ġhoney bees
rap y
Ġstat istics
ĠOff icers
Ġ18 82
Ġdrop s
Ġenjoy s
ĠHy gi
aff a
col oured
Ġfull ness
Ġfed eral
ĠRaj iv
ĠRaj eswari
Ġsil ver
ĠDes k
ĠDes ilting
Ġsubsid iaries
Ġmand ated
Ġweb bed
Ġbrand ed
Ġopen ly
Ġrepay ments
Ġrid d
Ġaccum ulating
out put
raz iquantel
te br
ĠSub surface
ĠSub sid
Ġhaz y
ĠRe commended
Ġconvers ations
stand ard
aks hi
Ġbuff er
ĠMin erals
Ġster ile
ĠRegular ly
bal anced
Ġsurround ed
Ġdraw s
Ġround worms
ĠMe erut
Ġfib rous
Ġwall ow
Ġclos ure
ĠIC GS
sp reading
Ġdev oid
ĠThi ophen
TC GS
Ġgall eries
Ġadvance ment
Ġgran ulated
Ġproportion ate
Ġdemonst ration
Ġpan els
Ġstab ilizer
Ġenab led
Ġsymb ols
ĠConsum ption
work ed
Ġsafegu ards
Ġcorrect ness
Ġfat al
Ġcentrifug es
load s
cri pt
ĠHigh ly
su ed
su per
ĠPectin olytic
ĠGov ts
ĠJam s
miss ions
Ġdom in
Ġsoy beans
ĠPe eli
Ġserious ly
ĠMet asy
ĠMet eorological
ĠMet olachlor
Ġauthen tication
Ġprofessional ism
ĠCal iforn
Ġdistribut ors
Ġposition ing
ĠLim ing
37 3
37 4
ĠTar a
24 25
IN M
pa ulin
ilib us
ĠVari eties
ĠPh orate
ĠHem orrhagic
ĠLep akshi
Ġmut uality
Ġdri ves
ĠSum mit
ĠPlant omycin
ĠBio fertilizers
flow ing
ĠSo ap
ĠSo ft
ĠConsult ancy
Ġsuff ered
ĠSec retaries
Ġspir ally
Ġjust ifications
Ġoblig ation
ĠTechn ological
33 42
Ġdiscuss ion
Ġstrengthen ed
Ġprohib ition
Ġprohib its
yr um
Ġdon ation
Ġlands cap
Ġmetab isulphite
hal ation
Ġrenew ing
90 3
Ġwithdraw ing
85 85
Ġmouth parts
Ġsanit izing
ĠFinancial s
200 1
clim ates
ĠGhan jeevamrut
ĠMah soori
Ġsimpl ified
ĠBe an
Ġirregular ity
Ġexcret e
IR R
In termedi
ĠNut ritive
Ġdeterior ative
PE F
Ġsolub ilize
Ġglobal ization
lim its
lim onene
Ġtap e
Ġfinger ings
Ġproof ing
ĠPar as
ĠPar ishad
ĠBord o
Ġnom ination
Ġvert isol
ĠInf estation
Ġdetect able
Ġmusc les
17 6
ĠPer forming
Ġmac erated
Ġantib odies
bl ock
Ġcolon ize
Ġpropag ation
Ġhydro static
Ġpossess es
Ġpossess ion
Ġter ritory
Ġlik es
Ġevol ve
Ġhorse gram
Ġsick le
ĠCol ocasia
Ġuns weetened
Ġinver ted
Ġrespon ding
Ġpun ishable
Ġhorm onal
ĠNutri ents
ĠDry land
soil er
Ġprecise ly
23 82
Ġple asure
Ġmer its
Ġjud ge
ĠJM I
Ġdigit ally
Ġdigit izing
ĠAmeric a
ĠPy rolysis
ĠPy raust
Ġacceler ates
ĠShe ep
Ġarrest ing
Ġarrest ed
Ġantibiot ic
Ġ29 1
Ġinterpret ations
ey ed
ĠTer ritory
ĠCry st
ĠBul andshah
Ġharmon izing
Ġdiagn ose
Ġdiagn osing
Ġbund led
Ġview s
KV Y
Ġann oy
Ġproceed s
Ġerect ing
ĠRot ational
47 3
Ġdut y
ĠMaster piece
ĠEth iop
Ġconv icted
ĠEc onomics
cont act
Ġtast y
Ġresem bling
ĠRain fall
lar ge
Ġsie ved
Ġren ders
Ġalle ged
ĠCommer ce
Ġdimin ish
ĠPul se
ĠMadh uri
ĠDec ant
Ġacar icides
Ġaraban ase
Ġgenuine ly
Ġrig id
ĠSwe ety
Ġneutral ize
Ġ32 37
Ġdefoli ated
Ġdefoli ating
Ġlimon oids
ĠVi kas
Ġ99 2
Ġpenalt y
Ġconnect ing
Ġconnect ions
Ġisol ated
Ġnic he
ĠHar ithandhra
Ġuncert ain
ĠUlt rafiltration
Ġzooplank tons
Ġrestaur ant
Ġsubscrib er
reat ening
Ġstap ler
Ġspark ly
ĠRan bir
Ġoccup ies
Ġphosph ine
ĠParasit es
ĠCommercial ly
Ġopp os
Ġopp onents
Ġang les
ĠCur rent
Ġrupt ure
ĠFresh ly
ĠBal ance
Ġattain ed
Ġnegoti ate
Ġrecon c
oxid ants
ĠCont roversies
Dep artments
ja hanpur
ĠBag hpat
ĠRec ords
Ġphosphat ic
Ġconfirm ation
ĠNE NTS
resent ation
Ġ4000 51
Ġpersist ence
Ġ96 275
Ġrelief s
115 3
115 7
Ġdeploy ing
ĠLal itpur
Ġblot ches
Ġrefund ed
Ġgelatin ous
Ġsquee zing
ĠDelay ing
NP K
Ġsent ence
Ġsty x
Ġdisp ensaries
ĠEp icure
ĠEnt omopathogenic
Ġtrig ger
ĠAA A
Ġdismant ling
Ġhaemoc oel
ĠMarmal ade
Ġbloom s
ĠClass ical
Ġlifecyc les
Ġcement ing
94 65
GN N
Ġball s
Ġadhes ion
ĠAdmin istrative
ĠChitra vathi
Ġgrid ded
Ġsulph itation
ĠSpecial ty
130 5
Bl ock
Fed erations
Ġtar paulin
Ġded uctions
ĠCab endazim
ĠCab inet
ĠCate gory
ĠSur uchi
Ġric ini
ĠFen azaqu
ĠNR C
Ġinfer ior
ĠStud ies
Ġbull s
Ġdiscrep ancy
Ġmealybug s
ĠRodent icides
Ġcomputer ization
Ġinterconnected ness
bo und
Ġcongen ial
Ġplug ged
Ġthaw ed
ĠAdd itives
ĠAnant ha
Ġforecast s
Ġchest s
Ġswim mer
Ban ks
Reg ional
Ġbh indi
Ġdorm ancy
Ġforum s
ĠSph ingidae
Ġdoct or
ĠMare k
Ġsew age
ĠElect ronic
Ġcommin ute
Ġcommunic ated
Ġsynchron ize
ĠHydrop onic
hort icultural
Ġax is
Ġaer ator
Ġwand er
Ġwand ering
ĠAst ilago
ĠCH Cs
ĠShah jahanpur
ĠFlav on
ĠBiod iversity
ĠGre eshma
Ġbenchmark s
ĠLar ge
ĠLar ger
Ġtwist ed
ĠVII I
ĠCla use
ĠCla udin
Ġdestab ilizes
ĠMethyl ene
ĠAmar avathi
ĠSpecific ally
ĠMultip le
Ġembra ce
Com mon
HH P
MI DH
Ġslic ed
argy l
ĠPap aya
ĠHU W
ĠMat uration
ĠDef ault
ĠDhar ani
ĠGod avari
Ġtransloc ated
Ġexplo it
Ġlacqu er
Ġspike lets
Ġfraud ulent
direct ors
Ġsit emini
Ġdump ed
Ġly gaeid
ĠAqu adule
Ġimpregn ation
ĠFar rukhabad
ĠFore ign
ĠHon est
Ġyog hurt
ĠMos aic
ĠUnt il
Ġallerg ies
Ġartis ans
Ġconclud ed
Ġdiscl osure
Ġanticip ated
Ġgregari ous
Ġperipher al
ĠGhaz iabad
four th
Ġmes hes
Ġdia fenthiuron
Ġdragon flies
ĠTurn over
rav asti
Ġhung er
ĠAms an
ĠCas hew
Ġimaz ethapyr
ĠShar ad
ĠPass er
Ġspor ulation
ĠHol otrich
ĠMach ine
ĠDown y
ĠRit uraj
Ġtransgen e
Ġlob byists
ĠVot er
Ġrestless ness
ĠMembr ane
Ġconfir ming
Ġdiscard ing
Ġencrust ations
Ġwindbre aks
techn iques
Ingred ient
Ġmelan oleuca
Ġconvinc ing
265 395
Ro R
Ġtent ative
Ġcrim son
Ġmom ent
Ġdess erts
Ġnanof iltration
Ġlam ella
ĠCrus h
ĠCecid omyiidae
ĠSeas onal
Ġincons ist
ĠMicrob iological
ĠMNRE GA
ĠNar ayani
ĠDip loma
Ġchit inous
Ġchap atis
Ġminds et
Ġhass le
Ġparthenogen etically
Ġintox icating
Ġrelax ation
Ġrecre ation
Ġsau ces
program me
Ġglut inous
Ġstrat ified
ĠPreca utions
Ġmisrep resentation
Ġinclus ivity
Ġcarboxy lic
Organ ic
181 7
599 1
942 3
Bus ch
Hort iculture
Lic ensing
cance llation
pfer ol
spro uted
Ġum bre
Ġud der
Ġtricyc lozole
Ġtramp ling
Ġais le
Ġace phate
refund able
Ġslo gan
Ġcramp ed
Ġpion eered
Ġpung ent
Ġpseud o
Ġpineapp les
esif en
orient ed
Ġanhyd rous
Ġanomal ies
arran ged
Ġdolic hos
Ġrecy clable
ĠTram bey
ĠTha irum
Ġproact ively
Ġcondu it
Ġlug ens
Ġgathe red
Ġgizz ard
Ġplaste red
ĠAber deen
ĠAbh aya
ĠAAI W
Ġencount ered
Ġencl osing
Ġsooth ing
Ġdeco ction
ĠPoo ja
ĠPilib hit
ĠPrag iti
ĠPione er
ĠFah renheit
ĠHym enoptera
Ġcompass ion
ĠMath ura
ĠMex ico
Ġkaem pferol
Ġconsangu inea
ĠNityahar itha
ĠRott en
ĠRough age
Ġinfilt rate
Ġquerc etin
Ġmetropolit an
ĠGiri ja
Ġinsign ificant
ĠEster ification
ĠEpir icania
Ġflub endamide
ĠCommission er
Ġuncomfort able
ĠKani ka
Ġbloss om
Ġmicroorgan ism
ĠAnaba ena
Ġhandlo om
ĠCoimb atore
ĠExerc ise
ĠSpirom esifen
Ġ972 64
ĠAlumin ium
ĠAcheront ia
Ġphilos op
Ġencaps ulated
Ġpolycarbon ates
ĠSubsid y
ĠThiophen ate
ĠMetasy stox
ĠCaliforn ia
ĠPyraust idae
ĠBulandshah r
ĠEthiop ia
ĠFenazaqu in
ĠHolotrich ia
' )
0 49
3 12
3 81
5 7
7 30
7 87
A F
A GM
A DA
A rea
A AP
A ugust
A phis
B L
B en
B ee
B ansmati
C ard
C lav
C RI
C ont
C eresan
D e
D is
E D
E ver
E duc
E nt
E AR
F M
F ir
F ED
G D
G E
G han
H g
H ob
H UR
I nt
I MD
J AF
L C
L R
L o
L ine
L ond
L MP
L una
M on
M al
M SP
M OP
N HM
N ER
N TSU
N BFCs
O uts
P N
P ri
P erm
P hos
R W
R ural
R Os
R aj
R BI
R oC
R KVY
S w
S tand
S SP
S uk
T ribolium
V al
V ans
W RB
a und
b ly
b ut
b ia
b ath
b idae
b ona
b etor
c ers
c ry
c ern
c ules
c old
d ating
d ep
d har
d istance
d ata
d acy
d ressed
d oo
d epend
e aland
f i
f if
f ine
f old
f usion
f by
g um
g les
g ering
g inal
g rade
g rading
g ermination
g raphic
h rod
h oni
i ans
i ative
i ks
i ences
i romones
i acin
j una
l ist
l onica
l actone
m x
m ac
m ia
m ene
n c
n y
n is
n al
n ant
o ke
o ung
o vereating
p in
p ul
p hy
p ons
p ick
p oon
p enic
p omace
p ilus
r one
r ants
s it
s ho
s ix
s yc
s fac
t ical
t ish
t ext
t raining
u ing
u its
v t
v arna
w k
w ali
w eeding
w hether
w rapping
x a
x agon
x ivora
y oung
z es
z apur
Ġ q
Ġ |
Ġ 00
Ġ ).
Ġt rib
Ġt ending
Ġt ried
Ġt ins
Ġt rial
Ġt ikka
he ri
he ated
he rig
he rapy
in ting
in form
in put
in formation
Ġa irst
Ġa usp
re j
re se
re ll
re venue
re levant
Ġo ven
er ot
Ġs en
Ġs end
Ġs ust
Ġs fac
Ġs amba
Ġs esbania
Ġc hat
Ġc ations
Ġc aking
Ġc ider
on ent
Ġp or
Ġp uc
Ġp ock
Ġp ith
Ġp itted
Ġp aved
Ġp syc
an at
an ine
an ata
an ned
es es
es cript
en c
en ance
Ġf t
Ġf el
Ġf ig
Ġf res
Ġf uz
ro ct
ro tt
ro bal
ro asted
ing o
it ization
it ae
it imately
it ellum
ed ing
or hiz
or ii
Ġb end
Ġb ough
Ġb arium
Ġb romodiolone
Ġan omaly
Ġin her
Ġin coming
Ġin ception
Ġin bred
al act
al ee
al so
al ase
al idae
al of
ic ochemical
ar ine
Ġm ant
Ġm art
Ġm ong
Ġm other
Ġd ual
Ġd rown
Ġd ying
Ġd rowning
Ġd ressed
Ġd ict
Ġd ynamic
Ġd jam
Ġd asaparni
Ġto ured
Ġw ar
Ġw ors
Ġw ares
il ac
il ok
Ġre ar
ĠT en
ĠT im
ĠT ric
ĠT act
ĠT ract
ĠT art
ĠT ake
ĠT hick
ĠT rees
ĠT RI
ĠT reatment
ĠT ype
ĠT ikka
ĠT emperate
le arning
le urot
ĠW ood
ĠW all
ĠW ither
ĠW omen
ĠW earing
ul ing
ul us
ul ose
us um
us ions
us hes
Ġfor cing
as a
Ġbe am
Ġbe arer
ur ial
ur row
om yl
om eters
om ati
im et
im ple
et ts
et te
id as
id dhar
ĠThe anine
Ġn odes
Ġn imb
Ġn esting
Ġn iacin
Ġl uring
Ġl up
Ġl ia
Ġl ub
Ġl ids
Ġl aff
Ġl adder
Ġl ingo
Ġl ilac
Ġg ren
Ġg ird
Ġg erui
Ġg alact
ut ilized
ra ir
ra cy
Ġh i
Ġh ay
Ġh ast
Ġh ang
Ġh orses
ment ed
un i
un ed
un al
un ching
un less
ir zapur
Ġcan ce
if f
ot ata
ot rans
ag rom
ect ive
os er
os ene
ol and
ol othrips
ol aris
Ġsu fficiency
Ġsu ji
ĠI de
ab ir
ab uconazole
ab ahar
ri op
Ġv s
Ġv ested
Ġv estment
Ġv ideo
Ġv odka
Ġv otes
Ġhe re
Ġhe el
Ġhe betor
Ġhe sit
Ġhe xagon
Ġst ric
Ġst ature
Ġst ings
Ġst oned
ult uring
Ġas t
Ġas king
Ġas hes
ĠA se
ĠA ust
ĠA IC
ĠA iromones
ĠC her
ĠC ram
ĠC ell
ĠC ards
ĠC yc
ĠC orp
ĠC CA
ĠC ordial
ĠC NS
ĠC eresan
ig rant
ig rella
st orm
st ress
st rip
iv itamin
Ġde w
Ġde mo
am o
am ed
am orp
am garh
am ti
um ig
ter an
ter penic
ĠS T
ĠS l
ĠS ow
ĠS ir
ĠS ad
ĠS ize
ĠS up
ĠS ep
ĠS aw
ĠS oon
ĠS aint
ĠS TSU
ĠS enescence
ĠS HG
ĠS usp
ĠS ML
ĠS uccessful
ĠS mart
ĠS etting
ĠS iddhar
ial es
th ic
th ane
th argy
th nagar
th reatening
Ġon coming
Ġon board
Ġimp oss
Ġimp airing
ver gence
Ġpre jud
ĠP B
ĠP I
ĠP s
ĠP ut
ĠP ark
ĠP ond
ĠP ension
ĠP udd
ĠP NR
ĠP ris
ĠP rice
ĠP sued
ĠP anat
ĠP leurot
ĠP oland
end ay
end ages
end iture
em atic
em bling
ĠF ace
ĠF urn
ĠF unds
ĠF allen
ĠF ixing
ĠF alse
ĠF ull
ĠF ipronil
ĠF urrow
Ġsp a
Ġsp e
Ġsp un
Ġsp ade
Ġsp ont
Ġsp atter
Ġsp atters
ru chidae
ĠH G
ĠH H
ĠH M
ĠH els
ĠH RI
ĠH ave
ĠH indi
ĠH orse
ĠH NG
ĠH EAR
Ġle ase
Ġle pid
Ġle thargy
ist age
ist les
ist ening
ist ematic
ad ong
ad vis
Ġal arm
Ġal bendazole
ac ing
ac ol
ac ities
ac idae
Ġapp r
Ġapp aren
Ġapp endages
rom onal
ert y
op hop
ition al
ĠHow ard
ĠB NS
ĠB aba
ĠB road
ĠB uyers
ĠB irs
ĠB ruchidae
eas es
Ġvari ants
ore ts
act uron
ec ious
Ġper pet
Ġper imeter
Ġinc idents
Ġcomp ute
Ġag es
Ġag ing
Ġag glom
Ġag ola
Ġres ur
Ġres ides
Ġres ins
Ġres orted
Ġro ses
Ġro cks
and ard
and aul
Ġdis ass
Ġdis agreement
Ġha at
Ġha ats
Ġha wk
Ġseed borne
pt ically
pt ured
ans ha
Ġco al
Ġco urs
Ġco ex
Ġco effici
all ium
ĠIn j
ĠM ec
ĠM ixing
ĠM ylar
ĠM irid
ĠM ottled
ĠM irzapur
Ġk its
Ġk ink
Ġk unj
Ġk raft
Ġte at
Ġca ution
av ach
av oid
hy ids
hy idae
hy groscopic
ĠN I
ĠN eed
ĠN am
ĠN emat
ĠN iro
ĠN CIP
Ġth rip
Ġth istles
Ġth allium
Ġimport ed
ug nant
ĠD amp
ĠD eg
ĠD ried
ĠD rones
ĠD ONER
ĠD PN
ĠD WRB
ract ion
ract ometer
ĠR T
ĠR el
ĠR ap
ĠR ash
ĠR ick
ast ics
ast odes
Ġj et
Ġj ib
Ġj asid
Ġj oining
Ġj assid
Ġj aund
Ġj anata
oc arp
Ġinf ant
Ġqu inalphos
Ġqu itting
Ġqu iver
ren dra
Ġ2 30
Ġ2 80
Ġagricult urist
Ġnot ing
Ġnot able
Ġnot ions
Ġne u
Ġne urot
Ġmet re
Ġmet amorp
ĠO l
ĠO bs
ĠO tt
Ġint ent
Ġint ens
ong est
ĠG G
ĠG W
ĠG ond
ĠG rubs
ĠG omati
ust atorily
so und
so ever
so aked
Ġse aw
Ġse rene
Ġse wing
rib or
up od
up les
up roct
Ġmain field
Ġtrans l
Ġins ulated
ugh ing
ip ant
ip ment
Ġsc um
Ġsc ents
Ġsc iss
Ġsc atter
ĠE ve
ĠE gy
ĠE riop
ĠE ribor
ost rid
Ġcol as
Ġfert igation
ram pur
Ġsh ipped
Ġover la
Ġover heads
Ġover worked
ign ated
00 5
00 00
Ġab road
erv atives
Ġma ple
Ġma ida
Ġho we
Ġho pes
Ġform ulate
Ġcl ips
Ġcl itellum
Ġcl ostrid
mot herapy
ine b
ĠPro c
ĠPro v
ĠPro fit
ĠPro gr
pl ed
pl ot
pl ain
pl astic
pl anned
Ġdam self
ĠL H
ĠL T
ĠL y
ĠL GG
Ġfl ights
Ġfl orets
our nal
Ġass ume
ject ives
Ġcondition er
ĠCom b
ĠCom munity
Ġsub til
Ġinv as
Ġinv ited
Ġinv oking
ĠAd hering
ĠAd dressing
ding s
ake ven
Ġconsum es
Ġsol ving
Ġun iqu
Ġun man
Ġun used
Ġun due
Ġun cooked
Ġun opened
Ġun roasted
Ġun avoid
Ġ3 000
Ġ3 60
Ġ3 75
co arse
ĠK u
ĠK ern
ĠK PH
ĠK has
ĠK endra
ĠK hada
ĠK heri
ĠK abir
ĠK avach
Ġdet ach
Ġspray ers
Ġmon et
Ġbl and
Ġbl istered
ass ignment
Ġhigh land
Ġ5 7
ĠJ T
ĠJ ob
ĠJ AL
ĠJ ournal
Ġunder cooking
Ġunder developed
Ġ4 30
Ġ4 65
Ġ4 42
ĠU ph
oth rine
Ġsign age
ite x
ite ment
Ġavail s
Ġinter depend
Ġcar s
Ġdes criptions
Ġup side
Ġmarket place
Ġob vious
ph on
ph ond
ph acidae
ond az
Ġcre atures
Ġcre xivora
Ġref use
Ġref ined
Ġref illed
Ġref ractometer
Ġsustain s
Ġamount ed
Ġout d
ĠInd emnity
ĠInd ians
Ġmat ches
own ed
Ġrep aired
Ġrep ugnant
ĠSt ick
ĠSt aggered
hol othrine
Ġdist illing
Ġcap rine
Ġcap acities
ruct ing
Ġexp el
Ġexp elling
Ġadd ictions
Ġnecess ity
Ġra g
Ġra pping
Ġra gged
Ġresp ond
Ġenh ancer
ae a
amp usa
Ġwill ow
