{"<s>":0,"<pad>":1,"</s>":2,"<unk>":3,"<mask>":4,"!":5,"\"":6,"#":7,"$":8,"%":9,"&":10,"'":11,"(":12,")":13,"*":14,"+":15,",":16,"-":17,".":18,"/":19,"0":20,"1":21,"2":22,"3":23,"4":24,"5":25,"6":26,"7":27,"8":28,"9":29,":":30,";":31,"<":32,"=":33,">":34,"?":35,"@":36,"A":37,"B":38,"C":39,"D":40,"E":41,"F":42,"G":43,"H":44,"I":45,"J":46,"K":47,"L":48,"M":49,"N":50,"O":51,"P":52,"Q":53,"R":54,"S":55,"T":56,"U":57,"V":58,"W":59,"X":60,"Y":61,"Z":62,"[":63,"\\":64,"]":65,"^":66,"_":67,"`":68,"a":69,"b":70,"c":71,"d":72,"e":73,"f":74,"g":75,"h":76,"i":77,"j":78,"k":79,"l":80,"m":81,"n":82,"o":83,"p":84,"q":85,"r":86,"s":87,"t":88,"u":89,"v":90,"w":91,"x":92,"y":93,"z":94,"{":95,"|":96,"}":97,"~":98,"¡":99,"¢":100,"£":101,"¤":102,"¥":103,"¦":104,"§":105,"¨":106,"©":107,"ª":108,"«":109,"¬":110,"®":111,"¯":112,"°":113,"±":114,"²":115,"³":116,"´":117,"µ":118,"¶":119,"·":120,"¸":121,"¹":122,"º":123,"»":124,"¼":125,"½":126,"¾":127,"¿":128,"À":129,"Á":130,"Â":131,"Ã":132,"Ä":133,"Å":134,"Æ":135,"Ç":136,"È":137,"É":138,"Ê":139,"Ë":140,"Ì":141,"Í":142,"Î":143,"Ï":144,"Ð":145,"Ñ":146,"Ò":147,"Ó":148,"Ô":149,"Õ":150,"Ö":151,"×":152,"Ø":153,"Ù":154,"Ú":155,"Û":156,"Ü":157,"Ý":158,"Þ":159,"ß":160,"à":161,"á":162,"â":163,"ã":164,"ä":165,"å":166,"æ":167,"ç":168,"è":169,"é":170,"ê":171,"ë":172,"ì":173,"í":174,"î":175,"ï":176,"ð":177,"ñ":178,"ò":179,"ó":180,"ô":181,"õ":182,"ö":183,"÷":184,"ø":185,"ù":186,"ú":187,"û":188,"ü":189,"ý":190,"þ":191,"ÿ":192,"Ā":193,"ā":194,"Ă":195,"ă":196,"Ą":197,"ą":198,"Ć":199,"ć":200,"Ĉ":201,"ĉ":202,"Ċ":203,"ċ":204,"Č":205,"č":206,"Ď":207,"ď":208,"Đ":209,"đ":210,"Ē":211,"ē":212,"Ĕ":213,"ĕ":214,"Ė":215,"ė":216,"Ę":217,"ę":218,"Ě":219,"ě":220,"Ĝ":221,"ĝ":222,"Ğ":223,"ğ":224,"Ġ":225,"ġ":226,"Ģ":227,"ģ":228,"Ĥ":229,"ĥ":230,"Ħ":231,"ħ":232,"Ĩ":233,"ĩ":234,"Ī":235,"ī":236,"Ĭ":237,"ĭ":238,"Į":239,"į":240,"İ":241,"ı":242,"Ĳ":243,"ĳ":244,"Ĵ":245,"ĵ":246,"Ķ":247,"ķ":248,"ĸ":249,"Ĺ":250,"ĺ":251,"Ļ":252,"ļ":253,"Ľ":254,"ľ":255,"Ŀ":256,"ŀ":257,"Ł":258,"ł":259,"Ń":260,"Ġt":261,"he":262,"in":263,"Ġa":264,"re":265,"Ġthe":266,"Ġo":267,"at":268,"er":269,"Ġs":270,"Ġc":271,"on":272,"Ġp":273,"an":274,"es":275,"en":276,"Ġf":277,"ro":278,"ing":279,"is":280,"it":281,"Ġof":282,"ed":283,"or":284,"Ġb":285,"Ġan":286,"Ġin":287,"al":288,"ic":289,"ar":290,"ion":291,"Ġand":292,"Ġm":293,"Ġd":294,"Ġto":295,"ct":296,"ent":297,"Ġis":298,"Ġw":299,"il":300,"Ġre":301,"hat":302,"ĠT":303,"le":304,"ĠW":305,"ul":306,"Ġpro":307,"us":308,"Ġfor":309,"ation":310,"as":311,"Ġbe":312,"ur":313,"om":314,"im":315,"et":316,"ve":317,"ho":318,"id":319,"ĠThe":320,"ĠWhat":321,"Ġe":322,"Ġn":323,"Ġcon":324,"Ġl":325,"Ġg":326,"Ġor":327,"Ġare":328,"ly":329,"ut":330,"ant":331,"ra":332,"ow":333,"ure":334,"Ġh":335,"du":336,"ment":337,"un":338,"ers":339,"ce":340,"ir":341,"Ġcan":342,"if":343,"ot":344,"ag":345,"ect":346,"os":347,"ess":348,"ol":349,"Ġsu":350,"ity":351,"ĠI":352,"ab":353,"ri":354,"pp":355,"Ġv":356,"Ġhe":357,"el":358,"ch":359,"arm":360,"Ġst":361,"eed":362,"ain":363,"qu":364,"ult":365,"Ġas":366,"ate":367,"Ġpl":368,"rop":369,"est":370,"ĠA":371,"ĠC":372,"od":373,"ig":374,"iz":375,"Ġit":376,"Ġen":377,"Ġso":378,"ies":379,"gan":380,"Ġim":381,"st":382,"Ġfarm":383,"age":384,"iv":385,"Ġprodu":386,"Ġde":387,"am":388,"um":389,"Ġcont":390,"Ġcrop":391,"ter":392,"Ġus":393,"Ġsho":394,"ĠS":395,"ial":396,"Ġthat":397,"Ġwit":398,"uld":399,"th":400,"Ġon":401,"Ġimp":402,"ver":403,"Ġby":404,"Ġr":405,"Ġpre":406,"ort":407,"ater":408,"ĠP":409,"end":410,"em":411,"Ġcom":412,"ĠF":413,"Ġshould":414,"Ġsp":415,"ru":416,"Ġwith":417,"cess":418,"red":419,"ĠH":420,"ay":421,"Ġle":422,"ist":423,"ad":424,"ff":425,"com":426,"Ġal":427,"ac":428,"Ġex":429,"Ġplant":430,"ive":431,"Ġorgan":432,"Ġsoil":433,"Ġapp":434,"his":435,"row":436,"Ġproduct":437,"rom":438,"Ġad":439,"ert":440,"op":441,"ari":442,"her":443,"ds":444,"se":445,"ition":446,"ĠHow":447,"ĠB":448,"eas":449,"able":450,"Ġvari":451,"ific":452,"Ġfrom":453,"ore":454,"ric":455,"ance":456,"act":457,"ak":458,"ec":459,"Ġper":460,"Ġinc":461,"Ġwater":462,"Ġorganic":463,"hic":464,"Ġcomp":465,"mend":466,"Ġ(":467,"Ġman":468,"Ġag":469,"Ġy":470,"Ġdo":471,"Ġres":472,"ice":473,"Ġro":474,"and":475,"und":476,"Ġat":477,"commend":478,"Ġrecommend":479,"Ġdis":480,"ide":481,"Ġrecommended":482,"Ġha":483,"Ġseed":484,"ĠIt":485,"pt":486,"hich":487,"ĠThis":488,"vel":489,"ated":490,"ans":491,"per":492,"Ġhel":493,"ood":494,"Ġco":495,"all":496,"Ġtheir":497,"ĠIn":498,"ill":499,"uring":500,"Ġprocess":501,"Ġgrow":502,"Ġhelp":503,"ud":504,"ĠM":505,"pos":506,"ical":507,"Ġk":508,"dition":509,"Ġ1":510,"Ġprov":511,"low":512,"ee":513,"Ġte":514,"iel":515,"tain":516,"ry":517,"Ġcons":518,"Ġca":519,"Ġpest":520,"ruit":521,"Ġvariet":522,"hen":523,"Ġused":524,"av":525,"hy":526,"Ġfruit":527,"rol":528,"ĠN":529,"ural":530,"igh":531,"Ġens":532,"ility":533,"Ġac":534,"Ġcrops":535,"Ġth":536,"Ġfarmers":537,"res":538,"Ġimport":539,"orm":540,"ug":541,"les":542,"Ġwhich":543,"ĠD":544,"Ġcontrol":545,"ces":546,"ricult":547,"ffect":548,"Ġsy":549,"ract":550,"Ġfarming":551,"ations":552,"ĠR":553,"Ġch":554,"ast":555,"ire":556,"Ġj":557,"Ġimportant":558,"oc":559,"Ġhave":560,"Ġplants":561,"ield":562,"ally":563,"Ġfood":564,"Ġnut":565,"erm":566,"Ġinf":567,"ents":568,"art":569,"ef":570,"ther":571,"Ġdiseas":572,"Ġqu":573,"ren":574,"Ġdoes":575,"duc":576,"Ġ2":577,"rain":578,"Ġtr":579,"lud":580,"Ġsuch":581,"Ġrequ":582,"Ġpur":583,"Ġspec":584,"Ġinclud":585,"ied":586,"Ġagricult":587,"Ġnot":588,"Ġne":589,"alth":590,"Ġmet":591,"ĠO":592,"Ġhelps":593,"vent":594,"gen":595,"Ġhealth":596,"Ġme":597,"ib":598,"Ġint":599,"Ġensure":600,"ong":601,"Ġgrowth":602,"Ġsow":603,"ions":604,"unt":605,"ĠG":606,"ize":607,"ust":608,"so":609,"hem":610,"Ġappl":611,"Ġpres":612,"Ġnutri":613,"ous":614,"Ġse":615,"ices":616,"ail":617,"rib":618,"Ġpurpos":619,"Ġben":620,"ary":621,"up":622,"ard":623,"velop":624,"ack":625,"Ġmain":626,"Ġtrans":627,"Ġins":628,"ugh":629,"als":630,"Ġother":631,"mo":632,"Ġreg":633,"Ġvarieties":634,"Ġbenef":635,"ip":636,"Ġsc":637,"ments":638,"use":639,"Ġtim":640,"og":641,"Ġduring":642,"ĠE":643,"iliz":644,"ors":645,"ality":646,"ost":647,"are":648,"ome":649,"Ġdevelop":650,"Ġact":651,"ue":652,"one":653,"ating":654,"Ġpurpose":655,"cial":656,"Ġcol":657,"ĠWhy":658,"ling":659,"Ġfert":660,"Ġprovid":661,"ase":662,"ram":663,"Ġsh":664,"Ġalso":665,"Ġmetho":666,"ĠThese":667,"Ġits":668,"Ġcult":669,"ities":670,"yp":671,"ature":672,"Ġmo":673,"Ġover":674,"ge":675,"ign":676,"fe":677,"ens":678,"ia":679,"00":680,"Ġsupp":681,"Ġli":682,"get":683,"Ġab":684,"Ġsowing":685,"PO":686,"Ġproducts":687,"erv":688,"ree":689,"ution":690,"Ġma":691,"ear":692,"stem":693,"ential":694,"Ġav":695,"Ġprevent":696,"Ġho":697,"Ġmay":698,"Ġquality":699,"Ġform":700,"ell":701,"its":702,"Ġcert":703,"Ġmin":704,"Ġund":705,"Ġbet":706,"ark":707,"Ġcl":708,"arv":709,"Ġrice":710,"ap":711,"mot":712,"any":713,"Ġuse":714,"iron":715,"xt":716,"Ġju":717,"Ġthey":718,"ight":719,"ine":720,"Ġtime":721,"Ġpract":722,"ĠPro":723,"pl":724,"Ġimpro":725,"Ġdam":726,"Ġweed":727,"ative":728,"Ġtyp":729,"Ġtre":730,"gar":731,"Ġany":732,"ĠWhen":733,"Ġmanage":734,"Ġproduction":735,"Ġcultiv":736,"Ġspecific":737,"Ġeffect":738,"Ġcomm":739,"viron":740,"Ġpests":741,"ased":742,"ĠL":743,"Ġhas":744,"fter":745,"Ġfl":746,"Ġmaintain":747,"our":748,"Ġass":749,"ject":750,"ici":751,"Ġyield":752,"Ġenviron":753,"Ġpart":754,"ration":755,"Ġcondition":756,"ĠCom":757,"rough":758,"ke":759,"ca":760,"Ġind":761,"cy":762,"Ġenvironment":763,"Ġsub":764,"ence":765,"Ġanim":766,"Ġinv":767,"rig":768,"ĠAd":769,"Ġusing":770,"af":771,"Ġdif":772,"cent":773,"ding":774,"ake":775,"Ġdry":776,"Ġconsum":777,"Ġtea":778,"ays":779,"Ġrate":780,"feren":781,"ray":782,"Ġdamage":783,"Ġpromot":784,"Ġthis":785,"ability":786,"Ġsol":787,"Ġfin":788,"Ġext":789,"ks":790,"Ġdiseases":791,"Ġallow":792,"Ġun":793,"Ġthese":794,"Ġneed":795,"ĠFPO":796,"Ġsus":797,"Ġ3":798,"aves":799,"ired":800,"der":801,"Ġinclude":802,"Ġprovide":803,"ium":804,"co":805,"Ġprot":806,"Ġthem":807,"ber":808,"ĠK":809,"Ġsugar":810,"ish":811,"Ġlevel":812,"ates":813,"Ġmore":814,"Ġmanagement":815,"Ġwe":816,"Ġleaves":817,"ages":818,"ach":819,"Ġrole":820,"'s":821,"ible":822,"Ġinto":823,"Ġcaus":824,"ĠBy":825,"Ġpractices":826,"Ġseeds":827,"Ġconditions":828,"ons":829,"irect":830,"ved":831,"Ġpot":832,"Ġdet":833,"ification":834,"reen":835,"fore":836,"Ġincre":837,"ĠOr":838,"Ġve":839,"Ġspray":840,"Ġjuice":841,"atural":842,"Ġdone":843,"Ġmon":844,"Ġbl":845,"Ġlike":846,"Ġvariety":847,"Ġsystem":848,"Ġmater":849,"Ġmaterial":850,"ass":851,"Ġhigh":852,"Ġafter":853,"Ġagriculture":854,"Ġ5":855,"Ġfertiliz":856,"Ġrequire":857,"Ġwhen":858,"Ġfeed":859,"ress":860,"ĠJ":861,"Ġlead":862,"Ġbeca":863,"ribut":864,"Ġbecause":865,"ĠOrgan":866,"Ġunder":867,"Ġnutrients":868,"Ġ4":869,"ĠU":870,"Ġmark":871,"Ġfruits":872,"oth":873,"lement":874,"Ġnatural":875,"gg":876,"hemical":877,"Ġveget":878,"acter":879,"ĠAddition":880,"Ġthrough":881,"Ġsign":882,"Ġaffect":883,"ction":884,"here":885,"Ġagricultural":886,"ular":887,"we":888,"Ġdevelopment":889,"Ġsome":890,"ĠAdditionally":891,"Ġadv":892,"ite":893,"over":894,"Ġdifferen":895,"Ġinsect":896,"iod":897,"ĠThey":898,"Ġwh":899,"Ġavail":900,"Ġinter":901,"ication":902,"Ġdisease":903,"ace":904,"Ġreduc":905,"redit":906,"Ġcar":907,"ducer":908,"ides":909,"Ġredu":910,"ves":911,"Ġdes":912,"Ġsupport":913,"Ġinvol":914,"aking":915,"Ġprotect":916,"olog":917,"Ġ'":918,"Ġfun":919,"Ġpo":920,"ified":921,"Ġoverall":922,"Ġchemical":923,"ures":924,"ĠProducer":925,"Ġtem":926,"Ġvarious":927,"irst":928,"Ġminim":929,"Ġup":930,"Ġapplied":931,"Ġmarket":932,"rin":933,"ivity":934,"ination":935,"ards":936,"ms":937,"Ġcontribut":938,"Ġtemper":939,"Ġob":940,"ĠComp":941,"ph":942,"Ġinst":943,"ery":944,"Ġresult":945,"Ġproduc":946,"ub":947,"round":948,"Ġmoist":949,"ond":950,"Ġcre":951,"Ġref":952,"ables":953,"Ġsustain":954,"Ġtemperature":955,"ame":956,"oss":957,"mount":958,"Ġamount":959,"Ġanimals":960,"ving":961,"Ġbefore":962,"Ġout":963,"Ġopt":964,"Ġdec":965,"ĠInd":966,"Ġtreat":967,"ances":968,"Ġfield":969,"Ġmat":970,"urs":971,"Ġthere":972,"Ġrel":973,"Ġimpact":974,"Ġkg":975,"Ġris":976,"own":977,"ile":978,"Ġrep":979,"icides":980,"Ġegg":981,"ety":982,"chn":983,"king":984,"Ġlong":985,"Ġmethod":986,"ĠSt":987,"Ġgreen":988,"Ġbenefits":989,"Ġmem":990,"hol":991,"Ġdifferent":992,"ange":993,"ffici":994,"Ġcultivation":995,"itable":996,"Ġdist":997,"Ġrequired":998,"ids":999,"Ġnutrient":1000,"Ġmoisture":1001,"Ġlit":1002,"ization":1003,"Ġcap":1004,"Ġroot":1005,"ectin":1006,"Ġir":1007,"ency":1008,"ruct":1009,"Ġexp":1010,"Ġadd":1011,"Ġlo":1012,"plant":1013,"Ġnecess":1014,"Ġconcent":1015,"Ġdirect":1016,"Ġtext":1017,"Ġabo":1018,"Ġev":1019,"ffee":1020,"Ġnecessary":1021,"ep":1022,"Ġtechn":1023,"ie":1024,"Ġterm":1025,"Ġra":1026,"arvest":1027,"Ġresp":1028,"iness":1029,"Ġenh":1030,"ae":1031,"Ġprep":1032,"ween":1033,"rogen":1034,"Ġbetween":1035,"amp":1036,"eg":1037,"Ġfac":1038,"ĠFPOs":1039,"Ġif":1040,"Ġstand":1041,"ting":1042,"ade":1043,"Ġapplication":1044,"Ġdrying":1045,"Ġmil":1046,"itrogen":1047,"Ġeffective":1048,"Ġpotential":1049,"tic":1050,"lect":1051,"isms":1052,"Ġcolor":1053,"Ġwill":1054,"Ġfact":1055,"veral":1056,"Ġcoffee":1057,"Ġwell":1058,"Ġec":1059,"Ġgrain":1060,"Ġear":1061,"Ġpartic":1062,"ĠFarm":1063,"Ġmeas":1064,"heme":1065,"Ġchar":1066,"),":1067,"io":1068,"Ġhect":1069,"ily":1070,"tern":1071,"Ġyear":1072,"Ġvegetables":1073,"Ġgen":1074,"Ġdep":1075,"Ġperiod":1076,"Ġtransplant":1077,"Ġoff":1078,"Ġmethods":1079,"Ġirrig":1080,"ges":1081,"Ġpe":1082,"hed":1083,"Ġproper":1084,"add":1085,"Ġareas":1086,"Ġsignific":1087,"Ġall":1088,"Ġsuitable":1089,"Ġproduce":1090,"Ġhectare":1091,"let":1092,"Ġadult":1093,"ĠCompany":1094,"Ġremo":1095,"ix":1096,"ane":1097,"ĠFor":1098,"Ġfinan":1099,"Ġharvest":1100,"Ġyo":1101,"Ġseveral":1102,"Ġprocessing":1103,"Ġextract":1104,"Ġval":1105,"Ġcontent":1106,"Ġcaused":1107,"Ġlow":1108,"Ġinform":1109,"Ġcru":1110,"ines":1111,"Ġimplement":1112,"Ġtreatment":1113,"Ġdef":1114,"har":1115,"Ġappro":1116,"Ġess":1117,"Ġbore":1118,"ĠWhich":1119,"overn":1120,"Ġproject":1121,"Ġensures":1122,"addy":1123,"Ġfree":1124,"aste":1125,"Ġessential":1126,"ual":1127,"Ġhy":1128,"come":1129,"cc":1130,"Ġcrucial":1131,"ized":1132,"xim":1133,"ational":1134,"usiness":1135,"ose":1136,"Ġabout":1137,"Ġrot":1138,"Ġdays":1139,"Ġmeet":1140,"gram":1141,"Ġtra":1142,"Ġnitrogen":1143,"Ġleaf":1144,"ĠPO":1145,"ful":1146,"Ġoper":1147,"Ġoptim":1148,"ĠCh":1149,"Ġreducing":1150,"bers":1151,"Ġcontain":1152,"Ġresour":1153,"Ġfol":1154,"ory":1155,"Ġmic":1156,"Ġfinancial":1157,"Ġinfest":1158,"ulation":1159,"Ġcompany":1160,"Ġatt":1161,"ify":1162,"Ġcost":1163,"Ġfactors":1164,"Ġwor":1165,"Ġhig":1166,"Ġmeans":1167,"ention":1168,"Ġsur":1169,"Ġcle":1170,"Ġbetter":1171,"nt":1172,"Ġactiv":1173,"avor":1174,"Ġeggs":1175,"ĠY":1176,"Ġbre":1177,"Ġlarv":1178,"ives":1179,"Ġtype":1180,"ott":1181,"hes":1182,"led":1183,"ash":1184,"Ġsym":1185,"Ġallows":1186,"Ġensuring":1187,"Ġent":1188,"Ġpectin":1189,"hout":1190,"Ġactivities":1191,"Ġproductivity":1192,"ics":1193,"Ġfertilizers":1194,"Ġsustainable":1195,"fficient":1196,"worm":1197,"ields":1198,"Ġ10":1199,"Ġgr":1200,"ĠTo":1201,"mat":1202,"Ġmaterials":1203,"Ġhigher":1204,"hos":1205,"Ġsour":1206,"Ġloss":1207,"Ġlim":1208,"Ġprovides":1209,"Ġrain":1210,"ructure":1211,"Ġgu":1212,"Ġcertification":1213,"Ġcommon":1214,"Ġcontribute":1215,"Ġrele":1216,"Ġpaddy":1217,"Ġbu":1218,"rip":1219,"Ġseas":1220,"Ġborer":1221,"Ġem":1222,"Ġair":1223,"anc":1224,"rate":1225,"Ġimprove":1226,"econd":1227,"ues":1228,"Ġone":1229,"Ġpat":1230,"Ġdue":1231,"AR":1232,"Ġmicro":1233,"Ġpop":1234,"ptom":1235,"AC":1236,"Ġbod":1237,"Ġweeds":1238,"ning":1239,"Ġapply":1240,"ĠAg":1241,"Ġreduce":1242,"Ġmaking":1243,"ident":1244,"Ġland":1245,"Ġloc":1246,"ĠOrganic":1247,"Ġtw":1248,"ared":1249,"Ġequ":1250,"ient":1251,"itor":1252,"int":1253,"Ġresources":1254,"Ġsm":1255,"fer":1256,"Ġacid":1257,"Ġ20":1258,"Ġtransplanting":1259,"Ġsymptom":1260,"ĠV":1261,"Ġ6":1262,"Ġrequirements":1263,"Ġkn":1264,"Ġcharacter":1265,"Ġnurs":1266,"Ġinformation":1267,"Ġest":1268,"itt":1269,"Ġdeterm":1270,"Ġwhere":1271,"Ġgener":1272,"Ġfirst":1273,"Ġrat":1274,"Ġyou":1275,"Ġfo":1276,"Ġbever":1277,"ne":1278,"ically":1279,"Ġacc":1280,"Ġbusiness":1281,"Ġproviding":1282,"Ġsolution":1283,"ection":1284,"Ġrisk":1285,"form":1286,"ĠIf":1287,"cane":1288,"Ġcarb":1289,"Ġmaintaining":1290,"Ġinvolves":1291,"harif":1292,"Ġmembers":1293,"aging":1294,"Ġname":1295,"Ġfung":1296,"ha":1297,"put":1298,"Ġsuc":1299,"ĠIndia":1300,"Ġseason":1301,"Ġbased":1302,"Ġnursery":1303,"Ġirrigation":1304,"uc":1305,"oll":1306,"Ġident":1307,"Ġcredit":1308,"Ġmeasures":1309,"Ġrespons":1310,"Ġshe":1311,"Ġwithin":1312,"Ġsugarcane":1313,"iqu":1314,"abl":1315,"Ġavailable":1316,"organ":1317,"Ġwhile":1318,"Ġmanure":1319,"urance":1320,"Ġstage":1321,"Ġexamp":1322,"Ġfertility":1323,"Ġfollow":1324,"ases":1325,"Ġset":1326,"Ġstandards":1327,"read":1328,"arant":1329,"ital":1330,"izing":1331,"Ġrefers":1332,"Ġcharacterist":1333,"Ġfacil":1334,"Ġsubst":1335,").":1336,"Ġcover":1337,"Ġar":1338,"Ġaddition":1339,"Ġstor":1340,"br":1341,"Ġpreserv":1342,"cept":1343,"iven":1344,"idered":1345,"Ġconsidered":1346,"Ġhealthy":1347,"Ġmaize":1348,"Ġheat":1349,"oid":1350,"Ġmention":1351,"Ġconcentration":1352,"Ġpack":1353,"Ġsmall":1354,"ological":1355,"ym":1356,"Ġel":1357,"Ġhapp":1358,"Ġincluding":1359,"rit":1360,"ivers":1361,"ings":1362,"Ġmade":1363,"Ġgram":1364,"Ġwithout":1365,"ending":1366,"icial":1367,"Ġarea":1368,"Ġmatter":1369,"Ġiss":1370,"Ġfreez":1371,"uch":1372,"hetic":1373,"Ġbeen":1374,"ts":1375,"ĠFarmers":1376,"Ġserv":1377,"ĠAn":1378,"Ġnum":1379,"Ġplanting":1380,"Ġhand":1381,"nthetic":1382,"rad":1383,"overnment":1384,"Ġtwo":1385,"Ġmake":1386,"Ġpress":1387,"Ġthan":1388,"Ġher":1389,"Ġmaxim":1390,"Ġblack":1391,"ob":1392,"oil":1393,"Ġharm":1394,"ging":1395,"Ġmentioned":1396,"Ġappear":1397,"Ġvalue":1398,"istance":1399,"Ġcause":1400,"Ġscheme":1401,"ten":1402,"Ġach":1403,"icide":1404,"ional":1405,"ĠAs":1406,"Ġprovided":1407,"Ġwas":1408,"Ġroots":1409,"ata":1410,"Ġnon":1411,"arantee":1412,"ife":1413,"ĠSome":1414,"li":1415,"Ġachie":1416,"Ġut":1417,"Ġbut":1418,"Ġ7":1419,"Ġgood":1420,"Ġconsumers":1421,"Ġsignificant":1422,"Ġban":1423,"ivid":1424,"Ġclean":1425,"Ġestabl":1426,"ered":1427,"iss":1428,"Ġsynthetic":1429,"count":1430,"Ġprepar":1431,"Ġhum":1432,"hyd":1433,"rated":1434,"Ġstorage":1435,"ick":1436,"ately":1437,"Ġtypes":1438,"ind":1439,"oci":1440,"Ġcharacteristics":1441,"ci":1442,"bs":1443,"Ġinsects":1444,"Ġlimit":1445,"Ġregul":1446,"ĠCan":1447,"Ġmonitor":1448,"Ġavoid":1449,"afety":1450,"Ġ8":1451,"ĠNA":1452,"rown":1453,"Ġgrowing":1454,"ern":1455,"Ġbel":1456,"Ġprop":1457,"Ġseedling":1458,"Ġgrains":1459,"amin":1460,"Ġbeverages":1461,"ever":1462,"ness":1463,"Ġpesticides":1464,"ale":1465,"Ġinfestation":1466,"Ġstructure":1467,"Ġbi":1468,"Ġinstit":1469,"BAR":1470,"BARD":1471,"Ġaccess":1472,"Ġregist":1473,"onom":1474,"ption":1475,"Ġ15":1476,"Ġfarmer":1477,"uth":1478,"Ġvir":1479,"Ġneg":1480,"duct":1481,"Ġstem":1482,"Ġpar":1483,"Ġmuch":1484,"Ġwho":1485,"ider":1486,"ders":1487,"utions":1488,"Ġcontrolling":1489,"Ġenhance":1490,"xy":1491,"Ġinput":1492,"Ġmod":1493,"ung":1494,"uration":1495,"une":1496,"yc":1497,"Ġsize":1498,"urn":1499,"Ġspread":1500,"Ġcater":1501,"oper":1502,"Ġneeds":1503,"ĠNABARD":1504,"Ġground":1505,"Ġbeneficial":1506,"Ġleading":1507,"ultry":1508,"Ġbody":1509,"ĠYes":1510,"resh":1511,"Ġcertain":1512,"Ġhappens":1513,"ystem":1514,"Ġsafety":1515,"Ġprof":1516,"Ġwee":1517,"illar":1518,"Ġtak":1519,"Ġpoultry":1520,"ĠWho":1521,"ants":1522,"Ġindust":1523,"Ġnumber":1524,"val":1525,"ise":1526,"Ġflavor":1527,"Ġincrease":1528,"wn":1529,"Ġprogram":1530,"Ġeach":1531,"mer":1532,"pillar":1533,"Ġnegative":1534,"Ġflow":1535,"orp":1536,"Ġdata":1537,"Ġtransp":1538,"Ġpresent":1539,"Ġherb":1540,"ried":1541,"ised":1542,"Ġformation":1543,"Ġfound":1544,"Ġrece":1545,"Ġlife":1546,"Ġassess":1547,"Ġrec":1548,"otton":1549,"rim":1550,"Ġpul":1551,"ored":1552,"Ġbas":1553,"Ġrange":1554,"ĠFirst":1555,"Ġminimize":1556,"Ġlevels":1557,"crib":1558,"Ġpod":1559,"Ġbacter":1560,"Ġplay":1561,"Ġsymptoms":1562,"Ġlar":1563,"Ġmix":1564,"be":1565,"Ġbr":1566,"face":1567,"Ġgrown":1568,"Ġfertilizer":1569,"Ġ30":1570,"izations":1571,"rict":1572,"Ġcaterpillar":1573,"Ġocc":1574,"Ġless":1575,"Ġexcess":1576,"ĠMan":1577,"Ġcarbon":1578,"mitt":1579,"Ġfam":1580,"Ġdos":1581,"Ġresponsible":1582,"Ġdown":1583,"Ġwhe":1584,"ellow":1585,"Ġanimal":1586,"Ġavailability":1587,"ĠGu":1588,"Ġguid":1589,"aren":1590,"asing":1591,"Ġindivid":1592,"Ġ0":1593,"Ġadded":1594,"Ġsa":1595,"Ġorganisms":1596,"Ġlarvae":1597,"Ġlab":1598,"Ġobtain":1599,"Ġcm":1600,"Ġduration":1601,"Ġenvironmental":1602,"Ġcompost":1603,"Ġchan":1604,"Ġing":1605,"ĠIns":1606,"Ġnew":1607,"ands":1608,"Ġspac":1609,"Ġconsist":1610,"Ġbal":1611,"Ġcal":1612,"Ġcotton":1613,"Ġoil":1614,"Ġcent":1615,"Ġmed":1616,"Ġaccount":1617,"Ġbrown":1618,"ĠFirstly":1619,"air":1620,"Ġresid":1621,"Ġknown":1622,"aly":1623,"Ġrem":1624,"ĠThere":1625,"Ġpresence":1626,"Ġpromoting":1627,"Ġwhite":1628,"hogen":1629,"Ġshare":1630,"ble":1631,"Ġdi":1632,"Ġorder":1633,"compos":1634,"Ġbuil":1635,"urity":1636,"ier":1637,"Ġcreate":1638,"Ġbir":1639,"ails":1640,"Ġexamples":1641,"Ġingred":1642,"Ġmonth":1643,"Ġam":1644,"Ġbeing":1645,"ĠSc":1646,"ough":1647,"Ġeas":1648,"Ġtechnolog":1649,"Ġfreezing":1650,"aid":1651,"tal":1652,"Ġpercent":1653,"cu":1654,"cies":1655,"Ġsoci":1656,"Ġ25":1657,"Ġscient":1658,"ĠUn":1659,"Ġsuccess":1660,"Ġonly":1661,"ĠState":1662,"Ġtechniqu":1663,"ord":1664,"Ġdrain":1665,"Ġphos":1666,"Ġmilk":1667,"oard":1668,"Ġfresh":1669,"Ġseedlings":1670,"Ġphy":1671,"Ġlay":1672,"erve":1673,"Ġpow":1674,"ĠWhere":1675,"Ġyellow":1676,"Ġdocu":1677,"Ġconsider":1678,"Ġpreventing":1679,"Ġrainf":1680,"ĠAgricult":1681,"Ġinputs":1682,"Ġml":1683,"Ġstate":1684,"Ġcompon":1685,"acity":1686,"Ġmany":1687,"Ġcount":1688,"Ġindic":1689,"Ġpromote":1690,"Ġestablish":1691,"Ġpathogen":1692,"Ġagain":1693,"ibility":1694,"Ġfields":1695,"Ġbul":1696,"Ġutiliz":1697,"Ġplan":1698,"oy":1699,"urther":1700,"ĠHowever":1701,"Ġsubstances":1702,"Ġgra":1703,"Ġ50":1704,"Ġcapacity":1705,"Ġoptimal":1706,"Ġleg":1707,"Ġsystems":1708,"Ġappearance":1709,"ually":1710,"ĠNo":1711,"Ġfamily":1712,"par":1713,"unds":1714,"Ġimproved":1715,"Ġtexture":1716,"Ġmonitoring":1717,"pping":1718,"righ":1719,"Ġtake":1720,"Ġgiven":1721,"allen":1722,"Ġdeveloped":1723,"Ġsurface":1724,"ock":1725,"ĠGuarantee":1726,"go":1727,"Ġbenefit":1728,"anies":1729,"Ġjel":1730,"Ġchemicals":1731,"Ġobject":1732,"Ġsociety":1733,"Ġscientific":1734,"ew":1735,"ĠInst":1736,"orpor":1737,"Ġagainst":1738,"hiz":1739,"ian":1740,"Ġgo":1741,"Ġinteg":1742,"Ġadvant":1743,"Ġresulting":1744,"Ġreduced":1745,"Ġattack":1746,"Ġimplementing":1747,"Ġoperations":1748,"Ġbelong":1749,"Ġgerm":1750,"Ġmaximum":1751,"uthor":1752,"ined":1753,"Ġearly":1754,"light":1755,"ropri":1756,"Ġindustry":1757,"ious":1758,"ll":1759,"Ġfil":1760,"Ġcollect":1761,"Ġeffects":1762,"lo":1763,"Ġpig":1764,"Ġsources":1765,"Ġmult":1766,"ĠCo":1767,"Ġeven":1768,"gy":1769,"nut":1770,"Ġcase":1771,"organisms":1772,"Ġeconom":1773,"Ġlocal":1774,"Ġphys":1775,"Ġmoth":1776,"Ġbor":1777,"Ġaltern":1778,"Ġliqu":1779,"Ġboth":1780,"els":1781,"eep":1782,"Ġhot":1783,"Ġjelly":1784,"Ġdecompos":1785,"Ġbug":1786,"asit":1787,"Ġpopulation":1788,"me":1789,"Ġpri":1790,"Ġdel":1791,"Ġtotal":1792,"Ġplays":1793,"Ġspecies":1794,"Ġcapital":1795,"Ġcommonly":1796,"Ġbirds":1797,"mon":1798,"Ġsul":1799,"Ġeffectively":1800,"Ġadditional":1801,"Ġaim":1802,"Ġincome":1803,"iversity":1804,"Ġpreparation":1805,"20":1806,"rition":1807,"Ġcrit":1808,"PC":1809,"Ġsecond":1810,"Ġoften":1811,"Ġbed":1812,"ries":1813,"Ġspraying":1814,"Ġloan":1815,"Ġremain":1816,"Ġer":1817,"osystem":1818,"ially":1819,"Ġincludes":1820,"Ġcommun":1821,"Ġcalc":1822,"han":1823,"elines":1824,"Ġpromotes":1825,"Ġdecis":1826,"Ġdosage":1827,"hip":1828,"Ġtest":1829,"Ġcho":1830,"Ġprocesses":1831,"fact":1832,"ere":1833,"ĠAgen":1834,"FAC":1835,"Ġregular":1836,"ares":1837,"pper":1838,"000":1839,"Ġdesired":1840,"Ġwheat":1841,"Ġinit":1842,"ĠIm":1843,"Ġcomplet":1844,"Ġquant":1845,"Ġsepar":1846,"Ġmicroorganisms":1847,"Ġtill":1848,"Ġtomat":1849,"Ġinfect":1850,"Ġtomato":1851,"Ġpers":1852,"Ġchallen":1853,"PM":1854,"pect":1855,"Ġnature":1856,"Ġvac":1857,"Ġperform":1858,"Ġharmful":1859,"Ġimm":1860,"elf":1861,"Ġappropri":1862,"Ġz":1863,"ins":1864,"Ġmost":1865,"Ġlower":1866,"Ġefficient":1867,"Ġcool":1868,"Ġbacteria":1869,"Ġsal":1870,"ĠKharif":1871,"Ġreduces":1872,"ld":1873,"Ġsown":1874,"Ġmultip":1875,"Ġincreased":1876,"Ġrotation":1877,"Ġpoll":1878,"Ġfer":1879,"Ġterms":1880,"Ġecosystem":1881,"urea":1882,"ĠEx":1883,"inc":1884,"atory":1885,"ĠSecond":1886,"Ġshoot":1887,"Ġallowing":1888,"Ġrisks":1889,"Ġparticles":1890,"Ġactivity":1891,"Ġrelated":1892,"ifying":1893,"Ġpropert":1894,"ĠSFAC":1895,"ventional":1896,"Ġminer":1897,"ients":1898,"holders":1899,"ced":1900,"ral":1901,"chan":1902,"Ġspacing":1903,"Ġbro":1904,"Ġwork":1905,"Ġbeet":1906,"Ġcompet":1907,"Ġdecre":1908,"anced":1909,"Ġtaste":1910,"Ġthen":1911,"Ġtop":1912,"Ġenz":1913,"Ġgro":1914,"quate":1915,"ĠJune":1916,"Ġhybr":1917,"icult":1918,"aged":1919,"ĠReg":1920,"Ġparasit":1921,"phat":1922,"Ġlight":1923,"Ġaw":1924,"ather":1925,"Ġapproach":1926,"raw":1927,"ching":1928,"ĠSp":1929,"Ġorganization":1930,"phor":1931,"Ġproducer":1932,"ĠScheme":1933,"Ġdrin":1934,"Ġwo":1935,"Ġconsumption":1936,"Ġappropriate":1937,"ience":1938,"Ġprim":1939,"Ġdefici":1940,"mati":1941,"Ġvis":1942,"Ġyields":1943,"Ġextraction":1944,"ok":1945,"Ġsun":1946,"Ġtransfer":1947,"Ġlarge":1948,"phorus":1949,"ixt":1950,"Ġjuices":1951,"Ġurea":1952,"ules":1953,"Ġexper":1954,"Ġinvolved":1955,"Ġoxy":1956,"Ġown":1957,"arch":1958,"ĠDuring":1959,"Ġsupply":1960,"Ġharvesting":1961,"Ġfacilit":1962,"ron":1963,"Ġrigh":1964,"ird":1965,"Ġcompared":1966,"Ġabs":1967,"ax":1968,"Ġsan":1969,"Ġcur":1970,"Ġelig":1971,"Ġret":1972,"Ġliv":1973,"Ġcomb":1974,"Ġfeeding":1975,"lor":1976,"ros":1977,"Ġnutrition":1978,"Ġproducers":1979,"Ġaddress":1980,"Ġtaken":1981,"Ġingredients":1982,"ĠSecondly":1983,"ĠRs":1984,"Os":1985,"Ġ-":1986,"ening":1987,"Ġsignificance":1988,"ĠNational":1989,"vers":1990,"Ġsource":1991,"az":1992,"PI":1993,"ĠBas":1994,"Ġapplying":1995,"Ġservices":1996,"being":1997,"aj":1998,"Ġmixt":1999,"ĠTh":2000,"Ġbecome":2001,"Ġsum":2002,"Ġenzym":2003,"phate":2004,"richo":2005,"ink":2006,"Ġimproving":2007,"ea":2008,"ering":2009,"Ġhead":2010,"Ġstep":2011,"Ġyears":2012,"Ġability":2013,"Ġdried":2014,"Ġcontin":2015,"alled":2016,"Ġmid":2017,"Ġsafe":2018,"tle":2019,"ĠAct":2020,"ĠBoard":2021,"ĠDirect":2022,"Ġtypically":2023,"Ġparticular":2024,"Ġmixture":2025,"ured":2026,"Ġstrate":2027,"ĠFPC":2028,"Ġassoci":2029,"Ġconventional":2030,"Ġselect":2031,"Ġearth":2032,"Ġbur":2033,"usa":2034,"Ġsufficient":2035,"Ġdetails":2036,"Ġcyc":2037,"Ġsprayed":2038,"Ġverm":2039,"Ġregulations":2040,"cribe":2041,"Ġguidelines":2042,"Ġliquid":2043,"Ġmach":2044,"Ġgrass":2045,"ĠBasmati":2046,"Ġauthor":2047,"Ġproduced":2048,"Ġmedium":2049,"Ġbeans":2050,"Ġtransport":2051,"Ġassistance":2052,"Ġcomponents":2053,"Ġferment":2054,"ute":2055,"Ġcauses":2056,"Ġoxygen":2057,"Ġfurther":2058,"Ġstart":2059,"Ġdehyd":2060,"Ġshap":2061,"Ġtechnology":2062,"Ġbiod":2063,"Ġrequirement":2064,"Ġtechniques":2065,"Ġgermination":2066,"Ġwould":2067,"equate":2068,"Ġ9":2069,"Ġcell":2070,"ĠAfter":2071,"Ġsk":2072,"Ġpay":2073,"Ġconc":2074,"Ġconduct":2075,"Ġbiological":2076,"lic":2077,"sequ":2078,"Ġgroundnut":2079,"Ġful":2080,"Ġwhat":2081,"Ġsec":2082,"ĠTricho":2083,"lection":2084,"Ġthree":2085,"arb":2086,"Ġexpos":2087,"Ġadop":2088,"Ġrepres":2089,"Ġide":2090,"Ġpup":2091,"ither":2092,"ĠWh":2093,"ĠAre":2094,"Ġdeg":2095,"ĠDe":2096,"Ġshort":2097,"Ġchanges":2098,"Ġperson":2099,"ufact":2100,"Ġmove":2101,"ĠTr":2102,"rup":2103,"Ġgrant":2104,"Ġprotection":2105,"Ġpathogens":2106,"ĠInstit":2107,"Ġcut":2108,"Ġvegetable":2109,"Ġremove":2110,"Ġbreak":2111,"ene":2112,"ĠPusa":2113,"hick":2114,"Ġunders":2115,"Ġissues":2116,"Ġregistered":2117,"Ġvirus":2118,"Ġgovernment":2119,"akes":2120,"Ġke":2121,"Ġfacilities":2122,"inal":2123,"ats":2124,"Ġmust":2125,"ĠCert":2126,"Ġoccur":2127,"Ġaround":2128,"eration":2129,"ergy":2130,"Ġinsurance":2131,"Ġinvest":2132,"Ġweight":2133,"Ġgrams":2134,"Ġphosphorus":2135,"ators":2136,"other":2137,"Ġmechan":2138,"Ġshares":2139,"Ġcultivar":2140,"Ġinstitution":2141,"Ġexcessive":2142,"ĠAgriculture":2143,"50":2144,"ft":2145,"itamin":2146,"very":2147,"rows":2148,"cip":2149,"Ġstress":2150,"Ġplough":2151,"amination":2152,"rus":2153,"Ġtho":2154,"ills":2155,"Ġchallenges":2156,"Ġtrain":2157,"Ġcalled":2158,"Ġdark":2159,"pro":2160,"Ġred":2161,"irc":2162,"Ġmanufact":2163,"ocus":2164,"Ġfocus":2165,"Ġcontrolled":2166,"Ġadvantages":2167,"rant":2168,"Ġanaly":2169,"Ġeither":2170,"ĠAr":2171,"Ġdem":2172,"Ġcompo":2173,"Ġeros":2174,"Ġplace":2175,"Ġalong":2176,"Ġlarva":2177,"term":2178,"Ġimplementation":2179,"Ġ60":2180,"Ġprior":2181,"LI":2182,"aim":2183,"ox":2184,"ĠCrop":2185,"Ġpercentage":2186,"Ġerosion":2187,"ath":2188,"atives":2189,"Ġconst":2190,"ven":2191,"Ġgru":2192,"Ġtrust":2193,"Ġincreasing":2194,"ĠAss":2195,"tand":2196,"Ġenergy":2197,"comes":2198,"Ġsyrup":2199,"Ġfinal":2200,"Ġgeneral":2201,"Ġpressure":2202,"CC":2203,"Ġet":2204,"ĠGovernment":2205,"Ġcertified":2206,"Ġshel":2207,"Ġdrainage":2208,"Ġflav":2209,"Ġrip":2210,"Ġwaste":2211,"Ġrest":2212,"Ġconcern":2213,"sis":2214,"apor":2215,"worms":2216,"Ġkharif":2217,"fficiency":2218,"Ġliter":2219,"vered":2220,"Ġaffected":2221,"Ġrelease":2222,"Ġdetermine":2223,"Ġachieve":2224,"Ġamong":2225,"Ġquantity":2226,"ank":2227,"istant":2228,"Ġlosses":2229,"ĠZ":2230,"alu":2231,"uly":2232,"Ġresidues":2233,"Ġminimum":2234,"Ġratio":2235,"ission":2236,"encies":2237,"Ġcat":2238,"arget":2239,"Ġdate":2240,"Ġsummer":2241,"gi":2242,"Ġfly":2243,"ĠMa":2244,"Ġkil":2245,"Ġgroup":2246,"ext":2247,"ze":2248,"pport":2249,"ribution":2250,"Ġmeeting":2251,"ĠInsurance":2252,"land":2253,"min":2254,"ogram":2255,"Ġmillet":2256,"Ġalternative":2257,"Ġkilogram":2258,"Ġsect":2259,"Ġefficiency":2260,"Ġstages":2261,"ĠRes":2262,"inf":2263,"Ġbar":2264,"Ġbag":2265,"ĠCredit":2266,"soon":2267,"Ġregard":2268,"Ġ40":2269,"Ġlayer":2270,"Ġideal":2271,"gence":2272,"Ġintern":2273,"Ġpea":2274,"avorable":2275,"aries":2276,"Ġdig":2277,"ets":2278,"izes":2279,"ended":2280,"Ġspecifically":2281,"Ġdesign":2282,"Ġcontributes":2283,"Ġequip":2284,"Ġbalance":2285,"Ġdehydration":2286,"SA":2287,"ropping":2288,"ompos":2289,"ĠSu":2290,"Ġcreating":2291,"Ġassociated":2292,"25":2293,"old":2294,"ĠPl":2295,"ĠMem":2296,"Ġspecified":2297,"Ġbuilding":2298,"Ġphysical":2299,"10":2300,"atic":2301,"Ġsim":2302,"Ġfish":2303,"imin":2304,"ender":2305,"ead":2306,"ished":2307,"Ġprev":2308,"Ġminimizing":2309,"con":2310,"jal":2311,"ĠOrganization":2312,"Ġmicrob":2313,"Ġstored":2314,"Ġreceive":2315,"Ġsl":2316,"iform":2317,"Ġadequate":2318,"Ġresistance":2319,"Ġjam":2320,"Ġsustainability":2321,"Ġpackaging":2322,"Ġno":2323,"ĠCommitt":2324,"Ġweather":2325,"rinjal":2326,"ĠIndian":2327,"Ġpods":2328,"ged":2329,"Ġday":2330,"erest":2331,"Ġcompos":2332,"Ġfunction":2333,"Ġstrateg":2334,"based":2335,"ps":2336,"eria":2337,"Ġcry":2338,"Ġdose":2339,"Ġkeep":2340,"Ġ100":2341,"ited":2342,"icompos":2343,"Ġcontamination":2344,"reement":2345,"Ġproperties":2346,"Ġnutritional":2347,"Ġcompounds":2348,"Ġequipment":2349,"Ġarom":2350,"Ġpond":2351,"ites":2352,"Ġbio":2353,"Ġgl":2354,"Ġvol":2355,"Ġprem":2356,"Ġincorpor":2357,"Ġmember":2358,"ĠCommittee":2359,"ira":2360,"ences":2361,"Ġorch":2362,"Ġsoils":2363,"Ġpurch":2364,"Ġimproves":2365,"Ġweek":2366,"Ġherbicides":2367,"Ġtarget":2368,"ots":2369,"Ġdeep":2370,"Ġtreated":2371,"ĠFarmer":2372,"ĠpH":2373,"Ġcontext":2374,"tera":2375,"verage":2376,"Ġrefer":2377,"Ġeconomic":2378,"Ġright":2379,"reg":2380,"edi":2381,"ĠAl":2382,"ortal":2383,"Ġraw":2384,"Ġbo":2385,"Ġimportance":2386,"Ġevalu":2387,"Ġshape":2388,"hib":2389,"oint":2390,"Ġhost":2391,"Ġmonsoon":2392,"Ġremoving":2393,"Ġtraining":2394,"aw":2395,"Ġproble":2396,"Ġlaid":2397,"Ġmean":2398,"ĠELI":2399,"Ġtrees":2400,"Ġeligible":2401,"ner":2402,"Ġcirc":2403,"Ġrese":2404,"idae":2405,"ĠCl":2406,"ĠMay":2407,"Ġbest":2408,"ĠAc":2409,"ĠEC":2410,"Ġhol":2411,"cohol":2412,"ancing":2413,"Ġgel":2414,"Ġmarketing":2415,"operative":2416,"Ġmonths":2417,"Ġ&":2418,"ator":2419,"Ġvitamin":2420,"Ġcovered":2421,"Ġsuccessful":2422,"Ġdecomposition":2423,")?":2424,"Ġed":2425,"Ġsing":2426,"Ġsame":2427,"ording":2428,"Ġeng":2429,"Ġmanaging":2430,"Ġpoint":2431,"Ġfungal":2432,"Ġunderstand":2433,"Ġfix":2434,"Ġ19":2435,"Ġinside":2436,"ĠOrganizations":2437,"Ġfe":2438,"Ġread":2439,"Ġprepared":2440,"ĠPOPI":2441,"Ġindividual":2442,"Ġdeficiency":2443,"Ġturn":2444,"itive":2445,"Ġant":2446,"aring":2447,"ĠOn":2448,"ĠImp":2449,"Ġrural":2450,"Ġprefer":2451,"ortion":2452,"ffe":2453,"Ġorganizations":2454,"Ġadj":2455,"Ġconserv":2456,"Ġhyd":2457,"Ġeasily":2458,"Ġbiodiversity":2459,"nual":2460,"oney":2461,"Ġpractice":2462,"Ġreli":2463,"Ġdepend":2464,"Ġcosts":2465,"ring":2466,"xid":2467,"Ġlast":2468,"gth":2469,"rut":2470,"rast":2471,"sol":2472,"ret":2473,"Ġswe":2474,"Ġunit":2475,"Ġaffects":2476,"Ġhuman":2477,"ov":2478,"Ġvary":2479,"ĠAz":2480,"Ġend":2481,"Ġfacility":2482,"Ġfollowing":2483,"Ġcriteria":2484,"ining":2485,"Ġcor":2486,"Ġfill":2487,"Ġmature":2488,"ulated":2489,"Ġbean":2490,"ĠSh":2491,"Ġdescribe":2492,"Ġharvested":2493,"Ġregistration":2494,"Ġrainfall":2495,"Ġabsor":2496,"jor":2497,"Ġos":2498,"Ġcow":2499,"olic":2500,"ople":2501,"Ġcoll":2502,"Ġmajor":2503,"idence":2504,"Ġstake":2505,"estock":2506,"ived":2507,"Ġusually":2508,"Ġinterest":2509,"ploy":2510,"assium":2511,"Ġamend":2512,"Ġreas":2513,"Ġagency":2514,"Ġneem":2515,"Ġpurposes":2516,"Ġmaturity":2517,"organic":2518,"ymph":2519,"Ġcattle":2520,"YM":2521,"uals":2522,"Ġplac":2523,"Ġdiff":2524,"Ġcontains":2525,"Ġploughing":2526,"lu":2527,"Ġaverage":2528,"arn":2529,"ĠCons":2530,"Ġconsumer":2531,"Ġenhances":2532,"Ġcit":2533,"Ġevery":2534,"rower":2535,"ĠGrant":2536,"Ġdirectly":2537,"Ġoffers":2538,"Ġindividuals":2539,"Ġtoget":2540,"Ġapple":2541,"astic":2542,"Ġallowed":2543,"Ġbeetle":2544,"Ġtogether":2545,"tis":2546,"Ġuniform":2547,"lementing":2548,"Ġprofit":2549,"Ġcommunity":2550,"Ġvacc":2551,"Ġenzymes":2552,"Ġresearch":2553,"ush":2554,"Ġcare":2555,"ĠEqu":2556,"Ġdirectors":2557,"Ġhygi":2558,"Ġsunlight":2559,"BB":2560,"Ġcausing":2561,"Ġexpens":2562,"Ġmixed":2563,"Ġback":2564,"ulations":2565,"Ġdistance":2566,"Ġemer":2567,"Ġpollution":2568,"Ġpass":2569,"ume":2570,"Ġbelongs":2571,"ĠTrust":2572,"Ġdemand":2573,"Ġregarding":2574,"Ġbeh":2575,"pped":2576,"Ġapplic":2577,"Ġlabor":2578,"Ġdocument":2579,"ĠEquity":2580,"ĠAt":2581,"Ġdisinf":2582,"Ġtimely":2583,"garh":2584,"Ġdiet":2585,"Ġdocuments":2586,"Ġhybrid":2587,"hum":2588,"Ġcard":2589,"uster":2590,"ĠIs":2591,"Ġaspect":2592,"Ġalcohol":2593,"Ġthird":2594,"ĠJuly":2595,"Ġissu":2596,"Ġprimary":2597,"Ġsector":2598,"Ġph":2599,"Ġpric":2600,"Ġbrinjal":2601,"Ġroast":2602,"Ġresults":2603,"Ġshelf":2604,"Ġadjust":2605,"ior":2606,"mos":2607,"idity":2608,"eling":2609,"Ġintro":2610,"Ġtemperatures":2611,"Ġreport":2612,"Ġexpert":2613,"Ġvermicompos":2614,"Ġstakeholders":2615,"eon":2616,"vam":2617,"Ġdest":2618,"ĠApp":2619,"Ġspl":2620,"eevam":2621,"Ġwere":2622,"iveness":2623,"Ġpulp":2624,"ĠTherefore":2625,"ĠAgency":2626,"Ġlivestock":2627,"ler":2628,"Ġes":2629,"ĠCon":2630,"Ġclaim":2631,"uble":2632,"30":2633,"eter":2634,"Ġresistant":2635,"Ġreleased":2636,"Ġobtained":2637,"pec":2638,"Ġpost":2639,"Ġpick":2640,"Ġadults":2641,"Ġpowder":2642,"Ġlegal":2643,"ith":2644,"Ġprovis":2645,"avy":2646,"Ġdepending":2647,"Ġcomplete":2648,"Ġdrinks":2649,"Ġnymph":2650,"utes":2651,"Ġhair":2652,"PMA":2653,"ross":2654,"SC":2655,"Ġour":2656,"hattis":2657,"Ġconsequ":2658,"ĠPrad":2659,"Ġparticip":2660,"Ġirrigated":2661,"Ġexample":2662,"rastructure":2663,"hattisgarh":2664,"Ġshed":2665,"ana":2666,"ising":2667,"Ġcompanies":2668,"Ġhow":2669,"motic":2670,"reditation":2671,"Ġfunds":2672,"40":2673,"vant":2674,"Ġ45":2675,"ĠCompanies":2676,"Ġpeople":2677,"Ġperformance":2678,"Ġexperience":2679,"inger":2680,"Ġdil":2681,"Ġoptimum":2682,"Ġrainfed":2683,"Ġearthworms":2684,"Ġfod":2685,"Ġpred":2686,"ores":2687,"Ġbenefici":2688,"ĠChhattisgarh":2689,"mitted":2690,"Ġmultiple":2691,"Ġsanction":2692,"Ġmovement":2693,"Ġstrategies":2694,"ĠImplementing":2695,"Ġsweet":2696,"eevamrut":2697,"Ġpos":2698,"Ġpaste":2699,"urb":2700,"Ġclear":2701,"Ġposs":2702,"esh":2703,"Ġboil":2704,"Ġretain":2705,"Ġcontamin":2706,"Ġspoil":2707,"Ġinfrastructure":2708,"Ġinstitutions":2709,"Ġaims":2710,"Ġfund":2711,"isan":2712,"org":2713,"Ġreach":2714,"abi":2715,"Ġbodies":2716,"Ġlimited":2717,"Ġcryst":2718,"of":2719,"Ġteas":2720,"ĠCO":2721,"rying":2722,"Ġchain":2723,"Ġlitres":2724,"ximately":2725,"Ġworking":2726,"Ġadopt":2727,"ires":2728,"Ġ/":2729,"Ġfavorable":2730,"ĠMo":2731,"ĠNP":2732,"erma":2733,"ĠOne":2734,"Ġsubs":2735,"rips":2736,"Ġemploy":2737,"Ġzinc":2738,"derma":2739,"Ġsand":2740,"Ġagents":2741,"Ġadvised":2742,"Ġdecrease":2743,"ger":2744,"Ġpub":2745,"Ġchange":2746,"Ġmineral":2747,"Ġkey":2748,"ck":2749,"andu":2750,"Ġbecomes":2751,"Ġgre":2752,"Ġcann":2753,"Ġadding":2754,"Ġhealthier":2755,"Ġrespect":2756,"Ġidentify":2757,"Ġaroma":2758,"%.":2759,"Ġways":2760,"ilt":2761,"Ġexist":2762,"Ġactive":2763,"ension":2764,"Ġevapor":2765,"Ġyoung":2766,"Ġbank":2767,"tt":2768,"Ġplastic":2769,"Ġinflu":2770,"Ġincreases":2771,"Ġutilization":2772,"Ġdecision":2773,"Ġrepresent":2774,"Ġexpenses":2775,"Ġstr":2776,"ĠCover":2777,"Ġmango":2778,"Ġsolids":2779,"Ġgenet":2780,"Ġelimin":2781,"gress":2782,"ato":2783,"ilities":2784,"Ġreact":2785,"Ġregion":2786,"Ġsulphate":2787,"Ġsalt":2788,"Ġcontinu":2789,"Ġmicrobial":2790,"DC":2791,"yl":2792,"Ġconf":2793,"ĠPM":2794,"Ġpesticide":2795,"Ġenhancing":2796,"Ġdecisions":2797,"Ġbroad":2798,"CDC":2799,"ying":2800,"Ġthick":2801,"Ġdr":2802,"Ġworm":2803,"roper":2804,"Ġspecial":2805,"Ġdistribution":2806,"Ġintegrated":2807,"mit":2808,"mission":2809,"pr":2810,"to":2811,"Ġprin":2812,"Ġtimes":2813,"ĠLe":2814,"Ġpotassium":2815,"Ġconcentrated":2816,"Ġx":2817,"Ġanother":2818,"ĠCBB":2819,"Ġleast":2820,"Ġcultivated":2821,"Ġimpacts":2822,"Ġconsistency":2823,"Ġcooling":2824,"Ġfermentation":2825,"apt":2826,"Ġsqu":2827,"Ġetc":2828,"Ġconsequences":2829,"Ġfodder":2830,"pid":2831,"illage":2832,"Ġinfection":2833,"Ġleads":2834,"Ġdirector":2835,"oids":2836,"owled":2837,"Ġsuper":2838,"ĠBl":2839,"Ġmanures":2840,"ĠNCDC":2841,"Ġacts":2842,"Ġsusp":2843,"bor":2844,"Ġwide":2845,"Ġsugg":2846,"ĠRabi":2847,"Ġobjectives":2848,"Ġsingle":2849,"Ġsuggest":2850,"Ġfore":2851,"Ġconver":2852,"Ġlending":2853,"Ġvi":2854,"Ġproperly":2855,"Ġbrew":2856,"Ġpreserving":2857,"Ġbulbs":2858,"Ġsteps":2859,"Ġbags":2860,"Ġaph":2861,"Ġmar":2862,"Ġorig":2863,"ceed":2864,"abit":2865,"Ġdisc":2866,"Ġinvolve":2867,"Ġrepro":2868,"Ġliters":2869,"Ġfungi":2870,"Ġparticularly":2871,"FPO":2872,"Ġfall":2873,"rupt":2874,"Ġdissol":2875,"Ġacre":2876,"Ġflu":2877,"Ġattract":2878,"Ġpremium":2879,"Ġway":2880,"endaz":2881,"Ġdetermined":2882,"Ġtransportation":2883,"ĠTrichoderma":2884,"orghum":2885,"Ġop":2886,"Ġsat":2887,"Ġbott":2888,"Ġquick":2889,"ĠGreen":2890,"Ġshade":2891,"Ġsuscept":2892,"Ġobs":2893,"Ġloans":2894,"Ġapproximately":2895,"Ġanalysis":2896,"Ġosmotic":2897,"wards":2898,"Ġprogress":2899,"ĠRice":2900,"Ġprepare":2901,"itu":2902,"ected":2903,"Ġyielding":2904,"ique":2905,"Ġherbicide":2906,"Ġstrong":2907,"Ġu":2908,"duction":2909,"ĠFood":2910,"Ġinstant":2911,"Ġintegr":2912,"pportun":2913,"12":2914,"Ġopportun":2915,"Ġlate":2916,"lying":2917,"Ġrequires":2918,"ĠUs":2919,"Ġbalanced":2920,"Ġcitrus":2921,"Ġfarms":2922,"ĠSoil":2923,"Ġformed":2924,"Ġgenerally":2925,"iation":2926,"Ġpen":2927,"ich":2928,"Ġdung":2929,"istr":2930,"optera":2931,"Ġtransparen":2932,"Ġaspects":2933,"omen":2934,"Ġnet":2935,"ĠAcc":2936,"Ġparts":2937,"Ġprincip":2938,"ole":2939,"iment":2940,"ĠCent":2941,"ĠFin":2942,"ĠFYM":2943,"Ġclar":2944,"Ġunique":2945,"Ġadvis":2946,"Ġpoor":2947,"Ġaccording":2948,"Ġspoilage":2949,"owledge":2950,"ex":2951,"Ġpure":2952,"Ġwet":2953,"Ġwast":2954,"owing":2955,"Ġstraw":2956,"Ġcontact":2957,"ĠPortal":2958,"Ġpopular":2959,"erse":2960,"Ġheavy":2961,"Ġstren":2962,"Ġkill":2963,"Ġselection":2964,"holding":2965,"Ġsecurity":2966,"Ġflavors":2967,"Ġcomposition":2968,"log":2969,"Ġsmo":2970,"Ġmass":2971,"riend":2972,"ecut":2973,"Ġ12":2974,"Ġtakes":2975,"ĠAgencies":2976,"Ġorchard":2977,"Ġur":2978,"requ":2979,"orandu":2980,"Ġmill":2981,"Ġdivers":2982,"aches":2983,"Ġdisrupt":2984,"Ġaccept":2985,"Ġremoved":2986,"Ġprograms":2987,"riendly":2988,"ches":2989,"ses":2990,"Ġrev":2991,"ime":2992,"Ġshow":2993,"Ġadmin":2994,"Ġagencies":2995,"ditional":2996,"Ġeffectiveness":2997,"Ġpromotion":2998,"Ġlonger":2999,"Ġpopulations":3000,"Ġfollowed":3001,"elfare":3002,"Ġespec":3003,"Ġespecially":3004,"cl":3005,"vals":3006,"ilar":3007,"aster":3008,"Ġgovern":3009,"rive":3010,"ĠCarb":3011,"agement":3012,"akh":3013,"aving":3014,"iew":3015,"Ġcleaning":3016,"Ġinitial":3017,"Ġthose":3018,"SR":3019,"de":3020,"ran":3021,"vil":3022,"vere":3023,"ĠSection":3024,"Ġclim":3025,"Ġdifference":3026,"Ġseparate":3027,"Ġpublic":3028,"orandum":3029,"Ġtree":3030,"eth":3031,"Ġhabit":3032,"ĠSw":3033,"ĠBank":3034,"Ġmole":3035,"Ġrelevant":3036,"Ġhandling":3037,"like":3038,"Ġcountries":3039,"dew":3040,"Ġunt":3041,"Ġboll":3042,"Ġvital":3043,"Ġspace":3044,"Ġwaterlog":3045,"Ġfoods":3046,"Ġmeasure":3047,"airy":3048,"Ġaway":3049,"Ġaut":3050,"Ġsens":3051,"Ġcate":3052,"Ġmakes":3053,"Ġsocial":3054,"Ġimage":3055,"ĠLast":3056,"Ġidentifying":3057,"Ġremaining":3058,"aper":3059,"ma":3060,"rid":3061,"xide":3062,"Ġlog":3063,"Ġoffice":3064,"Ġoperation":3065,"Ġcentral":3066,"Ġtillage":3067,"Ġvolume":3068,"ĠLastly":3069,"fly":3070,"Ġsem":3071,"hopper":3072,"Ġexpl":3073,"ĠDo":3074,"Ġblue":3075,"Ġadverse":3076,"Ġabove":3077,"Ġentire":3078,"Ġguarantee":3079,"Ġsorghum":3080,"Ġche":3081,"Ġcases":3082,"Ġwash":3083,"Ġver":3084,"Ġrhiz":3085,"Ġclass":3086,"Ġraised":3087,"Ġbanks":3088,"Ġbasis":3089,"Ġissued":3090,"Ġaction":3091,"Ġvalu":3092,"Ġpreserves":3093,"Ġbutter":3094,"Ġhygiene":3095,"ĠCBBOs":3096,"iological":3097,"Ġsap":3098,"ars":3099,"rich":3100,"Ġdeveloping":3101,"Ġserves":3102,"Ġcombination":3103,"ĠDevelop":3104,"Ġboiling":3105,"15":3106,"Ġsee":3107,"Ġmul":3108,"ĠCE":3109,"Ġappoint":3110,"Ġconsult":3111,"Ġscale":3112,"Ġunderstanding":3113,"Ġobserv":3114,"part":3115,"rates":3116,"Ġcommod":3117,"Ġknowledge":3118,"Ġachieving":3119,"Ġnegatively":3120,"Ġinfected":3121,"Ġpaid":3122,"Ġmanner":3123,"lower":3124,"Ġassist":3125,"Ġneeded":3126,"ternal":3127,"worming":3128,"ĠUnder":3129,"borne":3130,"Ġcust":3131,"Ġcropping":3132,"ister":3133,"iving":3134,"Ġintervals":3135,"Ġenter":3136,"Ġsplit":3137,"line":3138,"ple":3139,"ones":3140,"Ġfrequ":3141,"itation":3142,"Ġget":3143,"Ġclay":3144,"Ġtraditional":3145,"liance":3146,"Ġpriorit":3147,"ĠAssoci":3148,"Ġintegrity":3149,"greg":3150,"la":3151,"rous":3152,"Ġlist":3153,"oting":3154,"Ġstands":3155,"ival":3156,"Ġrun":3157,"Ġincluded":3158,"ĠUtt":3159,"Ġdepth":3160,"Ġhumidity":3161,"Ġminerals":3162,"Ġvitamins":3163,"Ġreasons":3164,"ka":3165,"Ġvery":3166,"Ġcommer":3167,"Ġfilt":3168,"mosp":3169,"ĠDevelopment":3170,"ĠAssociation":3171,"erob":3172,"Ġdid":3173,"Ġproced":3174,"Ġ200":3175,"Ġmeat":3176,"ĠEar":3177,"Ġtransplanted":3178,"Ġremoval":3179,"Ġcycle":3180,"Ġbarri":3181,"erobic":3182,"Ġelect":3183,"orts":3184,"Ġatmosp":3185,"ormal":3186,"ĠDist":3187,"Ġprote":3188,"Ġestablishment":3189,"Ġdeliv":3190,"Ġholding":3191,"Ġready":3192,"SO":3193,"__":3194,"Ġpit":3195,"Ġagreement":3196,"Ġmeters":3197,"Ġsolid":3198,"Ġdetermining":3199,"Ġconsistent":3200,"Ġcollected":3201,"Ġpigeon":3202,"Ġgrubs":3203,"Ġcommercial":3204,"Ġaud":3205,"lex":3206,"Ġstud":3207,"odium":3208,"Ġspots":3209,"Ġsevere":3210,"ĠProject":3211,"Ġenvironmentally":3212,"Ġsupporting":3213,"Ġidentified":3214,"Ġ70":3215,"Ġweevil":3216,"Ġproblems":3217,"ĠUttar":3218,"pea":3219,"inery":3220,"Ġannual":3221,"Ġlack":3222,"Ġenc":3223,"Ġrich":3224,"Ġexternal":3225,"Ġcompliance":3226,"ĠDep":3227,"Ġmaintained":3228,"Ġ500":3229,"Ġundergo":3230,"Ġfilter":3231,"Ġdelay":3232,"Ġvaluable":3233,"yard":3234,"room":3235,"Ġder":3236,"Ġpropos":3237,"Ġlive":3238,"ificate":3239,"ĠRhiz":3240,"Ġbeverage":3241,"Ġcoverage":3242,"Ġimmedi":3243,"Ġmachinery":3244,"ffeine":3245,"Ġbeneficiaries":3246,"inated":3247,"Ġmush":3248,"Ġdio":3249,"ĠBor":3250,"rent":3251,"Ġinterc":3252,"Ġpattern":3253,"Ġprovisions":3254,"Ġhairy":3255,"FPOs":3256,"Ġmushroom":3257,"19":3258,"Ġoxid":3259,"itud":3260,"Ġwil":3261,"utri":3262,"eces":3263,"Ġcould":3264,"rought":3265,"Ġsubject":3266,"Ġcomposting":3267,"Ġabsorb":3268,"Ġcannot":3269,"ĠCor":3270,"Ġregions":3271,"ensive":3272,"ĠJeevamrut":3273,"Ġcarried":3274,"Ġconcentrate":3275,"Ġfacilitate":3276,"Ġdifficult":3277,"pection":3278,"Ġcash":3279,"ani":3280,"Ġdairy":3281,"lements":3282,"ership":3283,"Ġadapt":3284,"Ġresol":3285,"ĠOver":3286,"ĠStand":3287,"Ġ75":3288,"Ġmodified":3289,"Ġskin":3290,"Ġconservation":3291,"Ġdioxide":3292,"app":3293,"ios":3294,"head":3295,"Ġfut":3296,"Ġfram":3297,"Ġtowards":3298,"dule":3299,"Ġexceed":3300,"Ġprocessed":3301,"Ġclo":3302,"Ġpoly":3303,"Ġbreed":3304,"Ġprogramme":3305,"GM":3306,"trol":3307,"Ġult":3308,"Ġsitu":3309,"ense":3310,"alf":3311,"uri":3312,"Ġginger":3313,"ĠFund":3314,"Ġrod":3315,"Ġthrive":3316,"Ġconsume":3317,"Ġfeeds":3318,"Ġinformed":3319,"Ġaccounts":3320,"ĠAgricultural":3321,"Ġcompleted":3322,"Ġhybrids":3323,"iculture":3324,"Ġamendments":3325,"Ġnymphs":3326,"ecutive":3327,"Ġcateg":3328,"ergence":3329,"ork":3330,"emergence":3331,"ĠNe":3332,"Ġhighly":3333,"Ġsupports":3334,"cribed":3335,"Ġgrap":3336,"gin":3337,"ief":3338,"my":3339,"esame":3340,"ĠEn":3341,"holder":3342,"Ġcontainers":3343,"Ġpreservation":3344,"Ġachieved":3345,"Ġpulses":3346,"Ġpurchase":3347,"Ġsmooth":3348,"Ġmolec":3349,"Ġfuture":3350,"uum":3351,"Ġser":3352,"aling":3353,"Ġtoler":3354,"Ġeff":3355,"Ġorange":3356,"ĠInt":3357,"Ġcold":3358,"Ġlook":3359,"Ġoccurs":3360,"Ġprofitability":3361,"Ġsusceptible":3362,"man":3363,"mber":3364,"ohyd":3365,"set":3366,"Ġtub":3367,"Ġaeration":3368,"Ġpr":3369,"Ġportion":3370,"arily":3371,"Ġgard":3372,"Ġpreferen":3373,"ĠMas":3374,"Ġculture":3375,"Ġcloth":3376,"Ġpotato":3377,"Ġcreates":3378,"Ġborrower":3379,"Ġgrub":3380,"Ġgroups":3381,"arna":3382,"Ġpossible":3383,"ĠUsing":3384,"Ġrepl":3385,"Ġrearing":3386,"Ġvent":3387,"ĠSe":3388,"ĠSeed":3389,"Ġrates":3390,"Ġreduction":3391,"Ġraising":3392,"Ġstandard":3393,"areness":3394,"Ġripening":3395,"Ġphase":3396,"Ġdestro":3397,"Ġcontinuous":3398,"ĠDistrict":3399,"lication":3400,"Ġpi":3401,"ilize":3402,"cha":3403,"quality":3404,"Ġpreserve":3405,"Ġhours":3406,"ressing":3407,"Ġtesting":3408,"Ġdegrad":3409,"ĠLevel":3410,"Ġencour":3411,"free":3412,"lop":3413,"wari":3414,"itef":3415,"ords":3416,"Ġaggreg":3417,"artment":3418,"ogn":3419,"Ġminutes":3420,"Ġcluster":3421,"Ġcommitt":3422,"Ġunf":3423,"coze":3424,"obium":3425,"Ġplanning":3426,"Ġpayment":3427,"Ġdigest":3428,"Ġdesigned":3429,"Ġdisinfect":3430,"Ġopportunities":3431,"cozeb":3432,"lig":3433,"Ġbase":3434,"Ġhor":3435,"Ġitem":3436,"Ġaffecting":3437,"Ġoptions":3438,"Ġpreparing":3439,"Ġwhole":3440,"Ġawareness":3441,"Ġeduc":3442,"Ġcustom":3443,"Ġtender":3444,"Ġproc":3445,"usion":3446,"ĠProper":3447,"ĠFS":3448,"ĠFee":3449,"ĠMO":3450,"Ġchill":3451,"Ġchances":3452,"Ġunits":3453,"Ġproducing":3454,"Ġoffer":3455,"Ġcalcium":3456,"ĠWhile":3457,"Ġplaced":3458,"ĠPradesh":3459,"ĠSwarna":3460,"Ġuntil":3461,"Ġpieces":3462,"AM":3463,"bre":3464,"rd":3465,"rect":3466,"Ġinoc":3467,"Ġhoney":3468,"Ġleft":3469,"Ġacids":3470,"Ġholes":3471,"ĠCompos":3472,"Ġconsuming":3473,"cool":3474,"ĠKisan":3475,"Ġalloc":3476,"Ġsurv":3477,"Ġsetting":3478,"Ġrecogn":3479,"Ġresidue":3480,"Ġselecting":3481,"irable":3482,"Ġintroduc":3483,"zing":3484,"Ġrows":3485,"Ġtiss":3486,"rap":3487,"char":3488,"Ġstat":3489,"Ġextend":3490,"Ġecosystems":3491,"Ġconducted":3492,"Ġsimilar":3493,"Ġexisting":3494,"Ġmolecules":3495,"loprid":3496,"CE":3497,"PR":3498,"Ġsn":3499,"Ġheight":3500,"Ġdeworming":3501,"Ġalt":3502,"Ġcompact":3503,"Ġroom":3504,"ĠMon":3505,"ĠOff":3506,"Ġhouse":3507,"Ġclose":3508,"Ġtreating":3509,"Ġflo":3510,"Ġflat":3511,"Ġconsumed":3512,"Ġamounts":3513,"Ġrelations":3514,"Ġacidity":3515,"Ġrats":3516,"Ġrecords":3517,"Ġshareholders":3518,"ĠDirectors":3519,"Ġfrequent":3520,"lies":3521,"ml":3522,"Ġslow":3523,"Ġpaper":3524,"itig":3525,"Ġmitig":3526,"Ġplanted":3527,"Ġagro":3528,"ĠIntern":3529,"Ġ18":3530,"ĠDhan":3531,"hemes":3532,"ailed":3533,"Ġtreatments":3534,"Ġaccur":3535,"Ġtechnique":3536,"Ġiniti":3537,"Ġexposed":3538,"Ġmanufacturing":3539,"endazim":3540,"less":3541,"night":3542,"range":3543,"Ġice":3544,"ley":3545,"Ġfort":3546,"acloprid":3547,"Ġkind":3548,"Ġcaffeine":3549,"ilizers":3550,"Ġsupplement":3551,"Ġforms":3552,"Ġsoluble":3553,"Ġrad":3554,"Ġ80":3555,"Ġeasier":3556,"ĠTrichogram":3557,"Ġrelationship":3558,"ees":3559,"Ġdrop":3560,"Ġtoo":3561,"ĠSystem":3562,"Ġsche":3563,"Ġsubmit":3564,"Ġsubstance":3565,"Ġlarger":3566,"Ġtechnologies":3567,"Ġprimarily":3568,"Ġexposure":3569,"Ġmechanical":3570,"Ġvermicompost":3571,"dra":3572,"hi":3573,"joy":3574,"Ġdrought":3575,"Ġwind":3576,"using":3577,"Ġgas":3578,"Ġenjoy":3579,"Ġschemes":3580,"Ġrelation":3581,"ticles":3582,"Ġsignificantly":3583,"ĠManagement":3584,"Ġinfections":3585,"fur":3586,"oly":3587,"oking":3588,"rif":3589,"Ġwin":3590,"Ġundert":3591,"Ġavoiding":3592,"Ġcountry":3593,"Ġvacuum":3594,"Ġfixed":3595,"Ġapplications":3596,"Ġsuspension":3597,"kra":3598,"ted":3599,"Ġaids":3600,"Ġserve":3601,"Ġheap":3602,"Ġenough":3603,"ĠHy":3604,"Ġcoord":3605,"hyl":3606,"Ġqual":3607,"Ġintervent":3608,"Ġdistrict":3609,"Ġmildew":3610,"Ġbreaking":3611,"Ġliving":3612,"Ġsanctioned":3613,"Ġrespective":3614,"off":3615,"Ġrow":3616,"icing":3617,"imately":3618,"Ġlink":3619,"Ġcane":3620,"osing":3621,"ĠPre":3622,"aya":3623,"ĠBef":3624,"atively":3625,"Ġtrap":3626,"Ġarrange":3627,"Ġestablished":3628,"Ġguidance":3629,"Ġobjective":3630,"Ġinvestment":3631,"Ġkilograms":3632,"Ġroasted":3633,"ĠNeem":3634,"ĠBefore":3635,"CP":3636,"FW":3637,"vis":3638,"vate":3639,"onic":3640,"hood":3641,"ifies":3642,"Ġstability":3643,"Ġexc":3644,"Ġhaving":3645,"rains":3646,"Ġflood":3647,"cyra":3648,"ology":3649,"Ġlitre":3650,"Ġecological":3651,"Ġextracted":3652,"Ġresource":3653,"Ġprofess":3654,"Ġadvantage":3655,"Ġcritical":3656,"ĠZinc":3657,"ĠCorcyra":3658,"aff":3659,"col":3660,"nd":3661,"anching":3662,"idacloprid":3663,"Ġcanning":3664,"ĠChief":3665,"Ġfreeze":3666,"Ġassessment":3667,"Ġfull":3668,"Ġcareful":3669,"60":3670,"vi":3671,"Ġtur":3672,"Ġfed":3673,"Ġfir":3674,"isation":3675,"hog":3676,"Ġhills":3677,"umin":3678,"Ġcome":3679,"Ġappe":3680,"ĠRaj":3681,"Ġtransform":3682,"Ġbulk":3683,"Ġcalculated":3684,"Ġprice":3685,"Ġupt":3686,"DA":3687,"water":3688,"Ġsil":3689,"Ġcast":3690,"ales":3691,"ulating":3692,"ols":3693,"Ġstruct":3694,"amy":3695,"rys":3696,"Ġpotentially":3697,"ĠYo":3698,"Ġestim":3699,"Ġcomponent":3700,"Ġindicates":3701,"Ġregularly":3702,"Ġcompetition":3703,"Ġprevents":3704,"Ġcrystals":3705,"making":3706,"oon":3707,"inary":3708,"ism":3709,"eters":3710,"ope":3711,"ĠDes":3712,"bean":3713,"Ġauthority":3714,"ĠCertification":3715,"ĠMemorandum":3716,"hibit":3717,"Ġinfluence":3718,"Ġgenetically":3719,"Ġworms":3720,"Ġitems":3721,"Ġuptake":3722,"by":3723,"nes":3724,"nov":3725,"Ġtend":3726,"Ġaff":3727,"Ġnational":3728,"Ġvillage":3729,"ĠCard":3730,"Ġnotified":3731,"Ġprotecting":3732,"Ġrapid":3733,"Ġinfestations":3734,"Ġcovering":3735,"Ġretention":3736,"ĠMaize":3737,"Ġsubsid":3738,"ĠCEO":3739,"Ġcommittee":3740,"Ġfortnight":3741,"Ġschedule":3742,"ken":3743,"more":3744,"ength":3745,"icking":3746,"Ġtox":3747,"uted":3748,"Ġran":3749,"ĠProm":3750,"Ġmand":3751,"Ġacqu":3752,"Ġthro":3753,"ensis":3754,"Ġweb":3755,"Ġfungus":3756,"Ġbeds":3757,"Ġfunctioning":3758,"Ġreliance":3759,"Ġclaims":3760,"'?":3761,"Ġfine":3762,"irt":3763,"ĠMal":3764,"ĠDAC":3765,"aily":3766,"Ġprotected":3767,"ĠStates":3768,"Ġbugs":3769,"Ġheads":3770,"ĠInstitution":3771,"Ġsuggested":3772,"Ġbutterfly":3773,"Ġobserved":3774,"Ġprioritize":3775,"ground":3776,"Ġ+":3777,"inct":3778,"Ġpolic":3779,"Ġwelfare":3780,"ĠWater":3781,"asks":3782,"Ġlength":3783,"ĠPant":3784,"ifications":3785,"ĠNPMA":3786,"Ġinterval":3787,"Ġexport":3788,"Ġapproval":3789,"Ġweeks":3790,"Ġbrand":3791,"ĠResear":3792,"Ġmeaning":3793,"Ġpreferred":3794,"ĠNPK":3795,"Ġadvisable":3796,"Ġwashing":3797,"yn":3798,"Ġsodium":3799,"Ġcross":3800,"Ġmold":3801,"ĠTea":3802,"Ġnect":3803,"Ġlakh":3804,"unn":3805,"odes":3806,"ĠFurther":3807,"ĠHe":3808,"ilization":3809,"ensity":3810,"Ġsucking":3811,"Ġshareholder":3812,"Ġefficiently":3813,"Ġmachine":3814,"Ġ90":3815,"Ġrepresents":3816,"Ġopen":3817,"Ġprinciples":3818,"ĠMOP":3819,"11":3820,"Ġtax":3821,"Ġfail":3822,"Ġdaily":3823,"Ġline":3824,"Ġenables":3825,"rowning":3826,"ughout":3827,"Ġspecifications":3828,"Ġextent":3829,"Ġrepay":3830,"Ġlitter":3831,"Ġequity":3832,"ucurb":3833,"Ġmoths":3834,"Ġremains":3835,"Ġimmune":3836,"Ġproperty":3837,"Ġenzyme":3838,"Ġmanufacture":3839,"Ġconcerned":3840,"SAI":3841,"Ġstrength":3842,"Ġthroughout":3843,"ĠResearch":3844,"cing":3845,"fill":3846,"Ġonset":3847,"ĠFruit":3848,"Ġagent":3849,"Ġupon":3850,"rink":3851,"Ġoptimize":3852,"ĠChrys":3853,"Ġbulb":3854,"Ġreturn":3855,"Ġpupa":3856,"Ġviability":3857,"Ġderived":3858,"Ġultimately":3859,"ĠFurthermore":3860,"Ġfriendly":3861,"Ġbelow":3862,"Ġgive":3863,"Ġrid":3864,"Ġalign":3865,"Ġnext":3866,"Ġmob":3867,"Ġsigns":3868,"Ġlime":3869,"Ġequal":3870,"Ġindicate":3871,"Ġgrading":3872,"Ġchoose":3873,"pril":3874,"Ġwastes":3875,"ĠRhizobium":3876,"cooling":3877,"ĠTrichogramma":3878,"fort":3879,"gu":3880,"Ġbud":3881,"Ġnam":3882,"ager":3883,"oli":3884,"amom":3885,"ĠSan":3886,"ĠBoth":3887,"aked":3888,"Ġ11":3889,"yps":3890,"Ġoption":3891,"Ġaccum":3892,"Ġutilized":3893,"ĠExecutive":3894,"ĠDirector":3895,"ĠWhite":3896,"Ġinternational":3897,"Ġbrewing":3898,"ĠAccreditation":3899,"70":3900,"out":3901,"time":3902,"Ġdust":3903,"Ġwomen":3904,"raz":3905,"Ġstre":3906,"Ġdeath":3907,"Ġpreca":3908,"artments":3909,"Ġshall":3910,"Ġinfested":3911,"otted":3912,"Ġrains":3913,"Ġcarbohyd":3914,"Ġingredient":3915,"Ġshoots":3916,"ronutri":3917,"ĠInstitutions":3918,"Ġinternal":3919,"Ġcompletely":3920,"Ġreview":3921,"phos":3922,"te":3923,"roly":3924,"Ġfarmyard":3925,"amb":3926,"ĠSub":3927,"acy":3928,"Ġhaz":3929,"ĠRe":3930,"astra":3931,"Ġtransmission":3932,"ĠEach":3933,"Ġdeter":3934,"Ġupland":3935,"Ġsmaller":3936,"Ġflowering":3937,"arendra":3938,"Ġselected":3939,"Ġfully":3940,"Ġprevious":3941,"ĠCentral":3942,"Ġdestroy":3943,"cos":3944,"Ġchick":3945,"Ġinnov":3946,"icer":3947,"Ġstunt":3948,"ains":3949,"Ġforming":3950,"Ġpotash":3951,"Ġmaturing":3952,"Ġtraps":3953,"loride":3954,"Ġadopting":3955,"ĠAssam":3956,"Ġdissolved":3957,"'.":3958,"itter":3959,"Ġconvers":3960,"ectic":3961,"elling":3962,"ĠMore":3963,"Ġsubmitted":3964,"Ġperiods":3965,"Ġworld":3966,"onomic":3967,"Ġpulse":3968,"Ġcaterpillars":3969,"Ġoils":3970,"Ġdrinking":3971,"Ġauthorized":3972,"Ġcells":3973,"Ġrestrict":3974,"ĠInternational":3975,"mal":3976,"side":3977,"Ġton":3978,"inder":3979,"Ġsesame":3980,"ulate":3981,"hot":3982,"Ġnormal":3983,"Ġlater":3984,"ĠApril":3985,"odo":3986,"stand":3987,"ĠPest":3988,"aks":3989,"Ġresil":3990,"udd":3991,"Ġmarkets":3992,"Ġinstar":3993,"ĠPOs":3994,"Ġbuff":3995,"Ġfilled":3996,"Ġbehav":3997,"Ġoriginal":3998,"SP":3999,"grains":4000,"ober":4001,"Ġiron":4002,"Ġfour":4003,"edic":4004,"Ġheart":4005,"ode":4006,"ĠPaddy":4007,"Ġlemon":4008,"ricts":4009,"ĠMin":4010,"ĠNitrogen":4011,"Ġpreventive":4012,"Ġweeding":4013,"Ġextended":4014,"Ġprojects":4015,"Ġ65":4016,"Ġidentification":4017,"Ġassessing":4018,"Ġmixing":4019,"Ġgoats":4020,"Ġbeetles":4021,"Ġfermented":4022,"sequent":4023,"Ġvaccination":4024,"Ġevaporation":4025,"Ġpenet":4026,"Ġsemi":4027,"Ġchilli":4028,"44":4029,"Ġhat":4030,"Ġfem":4031,"isp":4032,"Ġhard":4033,"Ġster":4034,"Ġstates":4035,"Ġdead":4036,"Ġmanual":4037,"Ġnutrit":4038,"Ġblight":4039,"Ġflower":4040,"Ġkept":4041,"Ġthorough":4042,"Ġfeet":4043,"Ġquickly":4044,"Ġmushrooms":4045,"FO":4046,"gae":4047,"Ġill":4048,"ctions":4049,"duce":4050,"abor":4051,"ĠAll":4052,"gand":4053,"ĠSL":4054,"seud":4055,"Ġtiming":4056,"Ġformal":4057,"Ġdesirable":4058,"ACCP":4059,"Ġmaximize":4060,"Ġpigs":4061,"ĠRegular":4062,"Ġfacilitating":4063,"Ġcurrent":4064,"Ġeligibility":4065,"Ġconcerns":4066,"aws":4067,"Ġparticipation":4068,"Ġprocure":4069,"45":4070,"ai":4071,"bal":4072,"ya":4073,"rel":4074,"Ġsw":4075,"Ġcred":4076,"orth":4077,"Ġgm":4078,"Ġhar":4079,"Ġplat":4080,"ached":4081,"Ġmanaged":4082,"Ġ17":4083,"Ġrefrig":4084,"Ġfoot":4085,"Ġaccreditation":4086,"Ġflowers":4087,"Ġrecord":4088,"Ġcurd":4089,"ĠSugand":4090,"Ġeliminate":4091,"Ġdrum":4092,"Ġwaterlogging":4093,"hain":4094,"ĠQ":4095,"iny":4096,"onas":4097,"omonas":4098,"agg":4099,"ĠSel":4100,"Ġchil":4101,"rence":4102,"Ġinspect":4103,"Ġinsecticides":4104,"Ġcreated":4105,"Ġtrade":4106,"Ġsurround":4107,"haar":4108,"Ġbasal":4109,"Ġparasitoids":4110,"Ġcontaminants":4111,".,":4112,"for":4113,"rs":4114,"Ġside":4115,"Ġbat":4116,"alo":4117,"Ġmash":4118,"Ġdraw":4119,"ura":4120,"etho":4121,"Ġconcept":4122,"Ġround":4123,"Ġdisor":4124,"ĠMe":4125,"ĠNarendra":4126,"Ġsuppress":4127,"Ġexpected":4128,"Ġtechnical":4129,"ĠAgreement":4130,"Ġlocation":4131,"meric":4132,"Ġutilizing":4133,"Ġrights":4134,"Ġconducting":4135,"Ġrhizome":4136,"itude":4137,"ĠOverall":4138,"Ġcarefully":4139,"ius":4140,"kg":4141,"Ġold":4142,"Ġfib":4143,"Ġwall":4144,"adhaar":4145,"ertilizers":4146,"lesh":4147,"Ġfoodgrains":4148,"ilizing":4149,"Ġactions":4150,"Ġhold":4151,"Ġclos":4152,"Ġthereby":4153,"Ġsett":4154,"Ġobtaining":4155,"airs":4156,"Ġgoal":4157,"ĠAccount":4158,"ĠFSSAI":4159,"Ġconversion":4160,"80":4161,"BY":4162,"FBY":4163,"Ġaid":4164,"ĠIC":4165,"ppers":4166,"Ġonion":4167,"Ġcultural":4168,"Ġprevented":4169,"ĠMancozeb":4170,"ĠThird":4171,"Ġcontinue":4172,"Ġdepends":4173,"Ġplatform":4174,"haincha":4175,"St":4176,"rat":4177,"rea":4178,"ener":4179,"Ġface":4180,"Ġreco":4181,"Ġstill":4182,"Ġsoft":4183,"umes":4184,"acco":4185,"rowing":4186,"ĠBan":4187,"Ġcomply":4188,"Ġthrips":4189,"Ġassets":4190,"Ġadvanced":4191,"amples":4192,"Ġcontainer":4193,"Ġfoli":4194,"Ġrainy":4195,"anches":4196,"Ġlocated":4197,"Ġresponsib":4198,"Ġutilize":4199,"Ġbacterial":4200,"Ġcarbonation":4201,"Ġyellowish":4202,"Ġgoals":4203,"Ġcultivars":4204,"Ġpickles":4205,"iltration":4206,"Ġtransparency":4207,"ĠFinally":4208,"ĠMoreover":4209,"bit":4210,"bacco":4211,"sp":4212,"Ġsell":4213,"rob":4214,"itives":4215,"Ġbrowning":4216,"ilation":4217,"ĠWP":4218,"ulif":4219,"Ġelements":4220,"Ġdev":4221,"ĠPhos":4222,"Ġseeding":4223,"ĠDif":4224,"ĠEm":4225,"phur":4226,"Ġdecl":4227,"nthes":4228,"Ġissue":4229,"Ġestablishing":4230,"Ġcollective":4231,"Ġchoice":4232,"Ġzone":4233,"Ġburrows":4234,"Ġfocuses":4235,"Ġkeeping":4236,"Ġfilling":4237,"Ġaphid":4238,"Ġnectar":4239,"uliflower":4240,"sc":4241,"vid":4242,"Ġtobacco":4243,"ctober":4244,"ask":4245,"vey":4246,"Ġlines":4247,"Ġrust":4248,"usters":4249,"Ġitself":4250,"Ġfind":4251,"Ġnaturally":4252,"Ġinstead":4253,"Ġrepe":4254,"Ġmembr":4255,"Ġimplemented":4256,"itoring":4257,"Ġratoon":4258,"Ġpositive":4259,"Ġsandy":4260,"Ġbarrier":4261,"Ġimmediately":4262,"seudomonas":4263,"TU":4264,"then":4265,"inate":4266,"Ġcrus":4267,"Ġpink":4268,"eties":4269,"Ġgrin":4270,"ĠAadhaar":4271,"orting":4272,"Ġincidence":4273,"ĠUrd":4274,"Ġinteract":4275,"Ġpeeling":4276,"Ġlowland":4277,"Ġdefined":4278,"ĠThi":4279,"Ġcollabor":4280,"Ġdiverse":4281,"Ġclimate":4282,"Ġprocedures":4283,"Ġbreeding":4284,"Ġpreferences":4285,"FOAM":4286,"ault":4287,"Ġfew":4288,"rot":4289,"Ġenem":4290,"ĠSSP":4291,"Ġnear":4292,"rade":4293,"operla":4294,"Ġconsists":4295,"Ġfreshness":4296,"Ġviruses":4297,"Ġproblem":4298,"Ġcardamom":4299,"Ġpowdery":4300,"Ġwild":4301,"ĠStandards":4302,"Ġcloud":4303,"Ġmitigate":4304,"Ġstructures":4305,"ĠChrysoperla":4306,"FSC":4307,"GF":4308,"TC":4309,"back":4310,"war":4311,"ories":4312,"Ġhis":4313,"Ġstim":4314,"rug":4315,"istration":4316,"taining":4317,"Ġacross":4318,"Ġsubsequent":4319,"Ġsolutions":4320,"phas":4321,"Ġdefin":4322,"Ġseasons":4323,"Ġemp":4324,"Ġemphas":4325,"Ġhappen":4326,"Ġhumans":4327,"Ġammon":4328,"Ġpower":4329,"Ġparasites":4330,"Ġvermicomposting":4331,"Ġaphids":4332,"ĠDepartment":4333,"Ġintroduced":4334,"Ġnames":4335,"Ġbuffalo":4336,"related":4337,"pm":4338,"rees":4339,"Ġmoney":4340,"Ġgall":4341,"antri":4342,"Ġdemon":4343,"umber":4344,"ĠFac":4345,"Ġspot":4346,"Ġdispos":4347,"Ġweak":4348,"ĠUrea":4349,"Ġadvance":4350,"Ġadditives":4351,"Ġrespir":4352,"Ġcharitable":4353,"Ġgran":4354,"Ġproportion":4355,"Ġgradu":4356,"Ġdecreased":4357,"azole":4358,"Ġsatis":4359,"istrar":4360,"Ġmulching":4361,"Ġstatus":4362,"Ġfirm":4363,"State":4364,"nthesis":4365,"Ġdemonst":4366,"uk":4367,"Ġtil":4368,"Ġtaking":4369,"Ġpectic":4370,"ises":4371,"Ġmites":4372,"odoptera":4373,"Ġprec":4374,"Ġcomprom":4375,"Ġcauliflower":4376,"ĠRural":4377,"Ġclusters":4378,"Ġpartially":4379,"Ġdetailed":4380,"egrated":4381,"Ġofficial":4382,"Ġcharacteristic":4383,"tenance":4384,"lier":4385,"ducts":4386,"Ġwhether":4387,"ĠSpodoptera":4388,"Ġripe":4389,"Ġfiltration":4390,"Ġdegradation":4391,"ĠMonitoring":4392,"rifug":4393,"Ġhazards":4394,"Ġtonnes":4395,"ĠSugandh":4396,"Ġresponsibilities":4397,"IS":4398,"ters":4399,"Ġod":4400,"Ġokra":4401,"Ġpan":4402,"Ġpose":4403,"alt":4404,"ilo":4405,"ĠTe":4406,"ably":4407,"Ġstab":4408,"ĠCCE":4409,"Ġenab":4410,"ateral":4411,"ruction":4412,"Ġreserv":4413,"Ġcooperative":4414,"ĠRed":4415,"Ġinsecticide":4416,"Ġcontributing":4417,"Ġmeetings":4418,"Ġsymb":4419,"Ġdetermines":4420,"Ġregulatory":4421,"Ġincorporated":4422,"ĠConsum":4423,"Ġpredators":4424,"Ġpasteur":4425,"Ġdelayed":4426,"ĠPromoting":4427,"Ġenemies":4428,"wise":4429,"Ġphen":4430,"Ġpast":4431,"Ġphot":4432,"Ġfro":4433,"Ġdrug":4434,"Ġvig":4435,"Ġcocon":4436,"Ġrequest":4437,"ĠGround":4438,"Ġinspection":4439,"Ġothers":4440,"Ġassurance":4441,"Ġparties":4442,"Ġlikely":4443,"Ġcarry":4444,"Ġprotective":4445,"Ġoutbre":4446,"ioxid":4447,"Ġdefault":4448,"Ġreceived":4449,"ĠRegistrar":4450,"Ġcycling":4451,"Ġseek":4452,"Ġprotein":4453,"Ġcastor":4454,"ypsum":4455,"Ġprecautions":4456,"Ġcoconut":4457,"05":4458,"GS":4459,"Ġslight":4460,"Ġcorpor":4461,"Ġdivid":4462,"Ġwings":4463,"Ġconven":4464,"Ġgases":4465,"unc":4466,"cell":4467,"ĠPart":4468,"opy":4469,"ĠBra":4470,"Ġheld":4471,"ĠOctober":4472,"achlor":4473,"Ġaccredit":4474,"Ġsuck":4475,"Ġmodern":4476,"Ġreactions":4477,"ĠBorrower":4478,"Ġbudget":4479,"ĠGroundnut":4480,"MP":4481,"down":4482,"want":4483,"work":4484,"Ġcab":4485,"Ġcucurb":4486,"anes":4487,"Ġmoss":4488,"Ġdiversity":4489,"Ġwa":4490,"uss":4491,"iring":4492,"ĠII":4493,"Ġonce":4494,"opl":4495,"ĠMTU":4496,"Ġ24":4497,"Ġnote":4498,"Ġmaintenance":4499,"Ġsprays":4500,"Ġattribut":4501,"olla":4502,"Ġbanana":4503,"Ġdoses":4504,"Ġsafegu":4505,"Ġcutworm":4506,"Ġglob":4507,"ĠAzolla":4508,"Ġcorrect":4509,"ethrin":4510,"Ġefforts":4511,"ĠMasuri":4512,"Ġaltitude":4513,"reme":4514,"Ġcyl":4515,"Ġfat":4516,"Ġfaster":4517,"orr":4518,"Ġmis":4519,"uls":4520,"idios":4521,"Ġgain":4522,"Ġhist":4523,"Ġste":4524,"ump":4525,"ĠHACCP":4526,"Ġcooking":4527,"Ġchlo":4528,"Ġtrun":4529,"ource":4530,"Ġdiffer":4531,"Ġsold":4532,"Ġinterm":4533,"hold":4534,"Ġsheds":4535,"Ġcentrifug":4536,"Ġeasy":4537,"load":4538,"Ġprivate":4539,"Ġviscos":4540,"ajra":4541,"ĠSupport":4542,"Ġpurchasing":4543,"Ġapplicable":4544,"Ġlogo":4545,"myworm":4546,"idiosis":4547,"NA":4548,"cri":4549,"Ġtall":4550,"enic":4551,"armal":4552,"Ġstore":4553,"ĠHigh":4554,"ĠMain":4555,"ĠGovern":4556,"Ġformulation":4557,"arket":4558,"ressed":4559,"ĠJap":4560,"Ġdescribed":4561,"Ġdistinct":4562,"Ġcontaining":4563,"Ġentry":4564,"ripe":4565,"ĠAnnual":4566,"Ġparam":4567,"Ġbuild":4568,"Ġmechanisms":4569,"Ġexpertise":4570,"istrative":4571,"Ġexplain":4572,"Ġatmosphere":4573,"Ġsituations":4574,"Ġrodent":4575,"ĠIntegrated":4576,"Ġdefinition":4577,"Ġenabling":4578,"Ġviscosity":4579,"65":4580,"pur":4581,"su":4582,"Ġther":4583,"Ġpap":4584,"Ġbon":4585,"Ġbitter":4586,"arc":4587,"Ġmm":4588,"Ġge":4589,"Ġsuit":4590,"ĠPectin":4591,"ĠBusiness":4592,"Ġage":4593,"Ġcocc":4594,"Ġthin":4595,"ugar":4596,"ĠGov":4597,"Ġcollection":4598,"Ġliability":4599,"ferent":4600,"ĠJam":4601,"Ġoutside":4602,"Ġstanding":4603,"Ġrotating":4604,"Ġmicronutri":4605,"Ġbuy":4606,"Ġlocally":4607,"Ġequival":4608,"Ġarticles":4609,"brid":4610,"Ġspaces":4611,"Ġcycles":4612,"ĠMembers":4613,"Ġorchards":4614,"Ġbottom":4615,"Ġintercropping":4616,"Ġcarbohydrates":4617,"ĠThirdly":4618,"ĠDifferent":4619,"wanted":4620,"hap":4621,"miss":4622,"Ġpudd":4623,"oring":4624,"Ġbin":4625,"Ġdom":4626,"ental":4627,"Ġwood":4628,"ula":4629,"urities":4630,"vember":4631,"Ġlat":4632,"Ġsoy":4633,"Ġsoaked":4634,"Ġimbal":4635,"Ġusage":4636,"ĠSoci":4637,"comp":4638,"coming":4639,"ĠMantri":4640,"Ġjell":4641,"Ġmeant":4642,"Ġmealy":4643,"Ġable":4644,"Ġunwanted":4645,"Ġfunctions":4646,"Ġdistricts":4647,"lets":4648,"Ġavoided":4649,"Ġquantities":4650,"Ġfulfill":4651,"Ġtransparent":4652,"Ġappointed":4653,"Ġproposed":4654,"ĠComposite":4655,"ĠDescribe":4656,"ĠQu":4657,"35":4658,"bic":4659,"ned":4660,"ogen":4661,"tho":4662,"Ġtren":4663,"Ġtip":4664,"Ġtray":4665,"Ġcy":4666,"icers":4667,"Ġevent":4668,"Ġplate":4669,"ĠPR":4670,"ĠPe":4671,"ĠPig":4672,"Ġpeel":4673,"ĠPOB":4674,"Ġpatches":4675,"Ġstems":4676,"Ġ250":4677,"Ġphysiological":4678,"Ġdeficiencies":4679,"Ġtransferred":4680,"Ġcowpea":4681,"Ġexperts":4682,"Ġreproduction":4683,"Ġurine":4684,"Ġcommodities":4685,"Ġresolution":4686,"Ġserious":4687,"Ġrepayment":4688,"Ġsafeguard":4689,"harvest":4690,"ii":4691,"Ġaqu":4692,"Ġcere":4693,"ision":4694,"Ġhome":4695,"Ġhyp":4696,"Ġvapor":4697,"ĠFall":4698,"ĠForm":4699,"Ġspores":4700,"Ġextreme":4701,"ĠOrganisation":4702,"Ġinstall":4703,"ĠIndira":4704,"Ġmeets":4705,"ARI":4706,"Ġresponsibility":4707,"Ġchann":4708,"Ġdiam":4709,"Ġbackground":4710,"Ġsquare":4711,"Ġgrape":4712,"iteflies":4713,"visory":4714,"ĠYoj":4715,"Ġrepeated":4716,"bed":4717,"fertilizers":4718,"iot":4719,"rating":4720,"Ġcakes":4721,"onazole":4722,"Ġdirt":4723,"Ġdensity":4724,"uses":4725,"Ġstaff":4726,"Ġrub":4727,"emic":4728,"Ġwatering":4729,"ĠDel":4730,"Ġnotice":4731,"ella":4732,"Ġcarrying":4733,"Ġtermites":4734,"Ġapproved":4735,"Ġapproaches":4736,"ucher":4737,"ready":4738,"ceptions":4739,"ĠAnother":4740,"ĠNovember":4741,"Ġdegrees":4742,"Ġreliable":4743,"Ġabsorption":4744,"ĠPradhan":4745,"Ġclarification":4746,"Ġhabitat":4747,"ĠDoes":4748,"Ġcommodity":4749,"Ġillness":4750,"UT":4751,"day":4752,"green":4753,"Ġsale":4754,"ened":4755,"itace":4756,"ulfur":4757,"etch":4758,"dup":4759,"Ġwithstand":4760,"ĠMet":4761,"Ġtransact":4762,"Ġregister":4763,"Ġdecant":4764,"Ġbuds":4765,"Ġbelie":4766,"ductive":4767,"Ġspreading":4768,"Ġassessed":4769,"Ġbran":4770,"Ġbranches":4771,"Ġborne":4772,"Ġabsence":4773,"ĠCertificate":4774,"Ġevaluation":4775,"Ġreason":4776,"Ġfunding":4777,"ĠNPV":4778,"Ġgenetic":4779,"Ġconfidence":4780,"Ġfluid":4781,"Ġauthen":4782,"Ġprocurement":4783,"Ġtilth":4784,"ĠMaintaining":4785,"uok":4786,"zo":4787,"Ġfails":4788,"alis":4789,"alim":4790,"ils":4791,"ĠWith":4792,"utation":4793,"Ġhort":4794,"elves":4795,"Ġash":4796,"ĠAuthor":4797,"Ġenrol":4798,"ĠFuk":4799,"Ġalready":4800,"Ġseeded":4801,"Ġdamaged":4802,"Ġfaced":4803,"Ġsurvey":4804,"Ġbusinesses":4805,"Ġbasin":4806,"Ġlabel":4807,"Ġcounting":4808,"ĠResource":4809,"Ġengage":4810,"ĠPOPIs":4811,"Ġcollateral":4812,"PMAFSC":4813,"Ġreaction":4814,"Ġeducation":4815,"Ġprofessional":4816,"Ġbatch":4817,"Ġtrunk":4818,"Ġintermedi":4819,"uoka":4820,"ĠFukuoka":4821,"cert":4822,"cking":4823,"selves":4824,"rep":4825,"Ġportal":4826,"anee":4827,"ict":4828,"Ġmyc":4829,"Ġdedic":4830,"uts":4831,"Ġstable":4832,"ĠCGF":4833,"stances":4834,"Ġthemselves":4835,"Ġblanching":4836,"Ġoutcomes":4837,"Ġfactor":4838,"Ġextracts":4839,"ccoli":4840,"Ġworks":4841,"Ġbasic":4842,"Ġbuildup":4843,"Ġphosphate":4844,"Ġbroccoli":4845,"Ġboost":4846,"Ġengaged":4847,"Ġantioxid":4848,"Ġdisinfectants":4849,"Ġradish":4850,"Ġfailure":4851,"Ġbehavior":4852,"DSR":4853,"lorp":4854,"Ġpale":4855,"Ġburn":4856,"Ġhands":4857,"Ġhalf":4858,"unj":4859,"ĠCTC":4860,"Ġuses":4861,"Ġprecip":4862,"ĠPot":4863,"Ġhail":4864,"ĠMith":4865,"Ġkern":4866,"Ġthre":4867,"Ġwebs":4868,"Ġrelatively":4869,"Ġimprovement":4870,"Ġfungicide":4871,"Ġcarbonated":4872,"icultural":4873,"Ġsanitation":4874,"Ġpupation":4875,"ĠZn":4876,"ĠClaim":4877,"ĠPMFBY":4878,"Ġorigin":4879,"Ġpatterns":4880,"Ġframe":4881,"Ġinterventions":4882,"Ġarrangement":4883,"Ġdisorder":4884,"Ġequivalent":4885,"alimar":4886,"lorpy":4887,".-":4888,"75":4889,"VI":4890,"tific":4891,"Ġap":4892,"erous":4893,"Ġflesh":4894,"Ġrely":4895,"ustain":4896,"house":4897,"ĠCal":4898,"ody":4899,"Ġproduces":4900,"istic":4901,"Ġroll":4902,"ups":4903,"cyc":4904,"Ġdistribut":4905,"Ġexpect":4906,"Ġraise":4907,"Ġcharges":4908,"ablab":4909,"Ġcalculation":4910,"Ġgrounds":4911,"Ġtargeted":4912,"Ġreproductive":4913,"Ġadministrative":4914,"Ġdelivery":4915,"ĠHybrid":4916,"Ġinnovative":4917,"Ġparameters":4918,"Ġpapaya":4919,"%)":4920,"och":4921,"pest":4922,"erations":4923,"Ġsin":4924,"ingu":4925,"ishes":4926,"omet":4927,"ĠIFOAM":4928,"eline":4929,"odging":4930,"Ġcontribution":4931,"Ġshown":4932,"Ġrules":4933,"Ġappet":4934,"Ġpermitted":4935,"Ġyeas":4936,"occ":4937,"Ġquint":4938,"Ġcultivating":4939,"Ġextracting":4940,"Ġtraits":4941,"Ġpreservatives":4942,"Ġmultiplication":4943,"Ġmidge":4944,"Ġstrategy":4945,"ĠInstitute":4946,"Ġreferred":4947,"Ġcircum":4948,"Ġcircular":4949,"Ġposition":4950,"Ġclassified":4951,"Ġsupplementation":4952,"Ġstunted":4953,"ĠMinist":4954,"Ġrefriger":4955,"ilooper":4956,"Ġpasteurization":4957,"Ġslightly":4958,"Ġsoybean":4959,"Ġauthentic":4960,"Ġdedicated":4961,"cence":4962,"zen":4963,"ony":4964,"iture":4965,"osy":4966,"Ġstrict":4967,"ĠCels":4968,"ĠSowing":4969,"Ġalgae":4970,"iptera":4971,"Ġscab":4972,"Ġpracticing":4973,"Ġcapable":4974,"Ġaccord":4975,"Ġsheets":4976,"Ġstatements":4977,"Ġfacilitates":4978,"Ġcutting":4979,"venue":4980,"Ġbarley":4981,"Ġfeature":4982,"Ġemergence":4983,"Ġtissue":4984,"ynam":4985,"Ġfemale":4986,"Ġcircumstances":4987,"ĠCelsius":4988,"42":4989,"oo":4990,"inating":4991,"Ġcro":4992,"Ġcra":4993,"Ġpet":4994,"eners":4995,"Ġfur":4996,"Ġfive":4997,"Ġvine":4998,"estic":4999,"Ġcontents":5000,"ĠPunj":5001,"ĠFed":5002,"ĠInc":5003,"hyll":5004,"Ġcertifying":5005,"ineapp":5006,"ĠProgram":5007,"ĠLim":5008,"ĠLending":5009,"Ġfinance":5010,"ĠKCC":5011,"ishing":5012,"Ġminimizes":5013,"Ġoutl":5014,"Ġleafhopper":5015,"Ġoperating":5016,"Ġfollows":5017,"Ġ150":5018,"operation":5019,"Ġprofits":5020,"Ġconsidering":5021,"Ġbroken":5022,"Ġretail":5023,"ĠCluster":5024,"Ġpuree":5025,"Ġreplen":5026,"Ġventilation":5027,"Ġstream":5028,"Ġmembrane":5029,"warf":5030,"Ġphotosy":5031,"Ġattributes":5032,"Ġbinding":5033,"Ġjellies":5034,"ĠPunjab":5035,"37":5036,"Ġsed":5037,"ora":5038,"ĠTar":5039,"Ġgiving":5040,"mental":5041,"ĠAm":5042,"istered":5043,"oph":5044,"activ":5045,"ĠNa":5046,"eful":5047,"Ġmainly":5048,"Ġcolour":5049,"Ġlimits":5050,"Ġmaximizing":5051,"ĠManager":5052,"loanee":5053,"Ġoccurrence":5054,"Ġbehind":5055,"Ġadoption":5056,"ĠSystems":5057,"Ġnutritious":5058,"Ġsatisfact":5059,"orrhiz":5060,"Ġpuddling":5061,"bage":5062,"den":5063,"gn":5064,"ton":5065,"Ġten":5066,"etic":5067,"Ġlact":5068,"Ġgives":5069,"ower":5070,"Ġhinder":5071,"agn":5072,"Ġsole":5073,"Ġsound":5074,"ĠPseudomonas":5075,"Ġproductive":5076,"hering":5077,"heric":5078,"Ġrecommendations":5079,"illus":5080,"orms":5081,"Ġintended":5082,"ĠGener":5083,"Ġsugars":5084,"Ġminimized":5085,"Ġcreamy":5086,"ĠManure":5087,"right":5088,"Ġobjects":5089,"Ġevenly":5090,"Ġsulf":5091,"Ġownership":5092,"Ġpersonal":5093,"Ġevaluating":5094,"ĠShalimar":5095,"Ġamendment":5096,"Ġgreater":5097,"Ġwidely":5098,"Ġbolls":5099,"ĠEarth":5100,"Ġatmospheric":5101,"ĠGovernments":5102,"Ġchannels":5103,"Ġdiameter":5104,"ĠMithun":5105,"Ġappetite":5106,"24":5107,"IN":5108,"aerobic":5109,"lav":5110,"pa":5111,"ina":5112,"erc":5113,"Ġcake":5114,"ilib":5115,"ersion":5116,"Ġveter":5117,"eeds":5118,"ĠSa":5119,"ĠPrat":5120,"Ġmanuring":5121,"Ġcapt":5122,"ĠNumber":5123,"ffective":5124,"ĠGro":5125,"Ġcommit":5126,"Ġdetrim":5127,"Ġcreation":5128,"Ġpeat":5129,"Ġborers":5130,"ĠVari":5131,"Ġmembership":5132,"Ġstoring":5133,"Ġpacking":5134,"Ġlegumes":5135,"Ġcommunities":5136,"Ġadjusting":5137,"Ġdrill":5138,"Ġforest":5139,"Ġoxidation":5140,"Ġchicken":5141,"Ġresilience":5142,"Ġcredibility":5143,"ĠYojana":5144,"ulfuron":5145,"ustainable":5146,"Ġaccordance":5147,"Ġdetrimental":5148,"oor":5149,"ward":5150,"Ġovers":5151,"Ġfair":5152,"oliation":5153,"Ġsoap":5154,"ĠPh":5155,"Ġcomes":5156,"ĠHem":5157,"Ġincl":5158,"ĠLep":5159,"Ġassign":5160,"Ġdepartments":5161,"Ġdefoliation":5162,"Ġacidic":5163,"new":5164,"lihood":5165,"Ġviride":5166,"Ġlabeling":5167,"Ġlayers":5168,"Ġattacks":5169,"Ġchoosing":5170,"Ġinitially":5171,"Ġexperiment":5172,"Ġdemands":5173,"Ġconserving":5174,"Ġprices":5175,"ĠCarbendazim":5176,"Ġstudies":5177,"GMOs":5178,"Ġunfavorable":5179,"Ġaccurate":5180,"Ġaccumulation":5181,"ĠPigeon":5182,"itaceous":5183,"22":5184,"81":5185,"ded":5186,"Ġsix":5187,"Ġppm":5188,"enced":5189,"Ġmut":5190,"Ġmort":5191,"Ġdri":5192,"Ġdense":5193,"Ġwhy":5194,"iling":5195,"ilit":5196,"ulum":5197,"usk":5198,"Ġgum":5199,"raight":5200,"Ġstick":5201,"Ġplans":5202,"Ġsoaking":5203,"Ġimidacloprid":5204,"Ġuseful":5205,"ĠSum":5206,"ĠServ":5207,"ĠSoy":5208,"Ġcompens":5209,"Ġjute":5210,"Ġcertificate":5211,"ĠProcess":5212,"Ġcards":5213,"Ġlitura":5214,"ĠVerm":5215,"Ġviral":5216,"Ġdecomposed":5217,"Ġcommunication":5218,"Ġcompete":5219,"Ġmachines":5220,"Ġanalyzing":5221,"ĠPlant":5222,"Ġpoints":5223,"Ġcrystall":5224,"Ġwaterlogged":5225,"Ġprone":5226,"Ġwebber":5227,"scale":5228,"Ġfrozen":5229,"Ġaccredited":5230,"Ġcabbage":5231,"ineapple":5232,"AP":5233,"sive":5234,"rehen":5235,"Ġself":5236,"anas":5237,"ithout":5238,"Ġinhibit":5239,"Ġreal":5240,"Ġrelying":5241,"Ġforce":5242,"Ġepid":5243,"Ġconical":5244,"Ġgypsum":5245,"ĠAGM":5246,"Ġdepos":5247,"ĠBio":5248,"ecution":5249,"Ġcomprehen":5250,"perm":5251,"Ġhelping":5252,"Ġ120":5253,"Ġflask":5254,"ĠChair":5255,"xyl":5256,"Ġindustries":5257,"Ġseparation":5258,"Ġpollination":5259,"ĠExamples":5260,"ĠSpray":5261,"Ġpayable":5262,"Ġdegree":5263,"ĠTrans":5264,"Ġslug":5265,"Ġincorporating":5266,"Ġedible":5267,"Ġhygienic":5268,"Ġalcoholic":5269,"Ġemployed":5270,"Ġactively":5271,"Ġallocation":5272,"Ġsurvive":5273,"Ġgradually":5274,"Ġcucurbitaceous":5275,"Ġhistory":5276,"Ġbonus":5277,"Ġcomprehensive":5278,"board":5279,"flow":5280,"gal":5281,"gran":5282,"gthen":5283,"Ġvel":5284,"Ġsamp":5285,"ancial":5286,"Ġflex":5287,"Ġmig":5288,"Ġdie":5289,"abilities":5290,"Ġheating":5291,"ster":5292,"umb":5293,"umn":5294,"ĠSo":5295,"ĠHaving":5296,"Ġkodo":5297,"Ġketch":5298,"ĠRat":5299,"Ġcham":5300,"ocer":5301,"Ġseen":5302,"POPI":5303,"ference":5304,"Ġearlier":5305,"Ġofficers":5306,"Ġoptimizing":5307,"Ġmedic":5308,"Ġsulphur":5309,"Ġtested":5310,"Ġtilling":5311,"Ġcurds":5312,"Ġinvestments":5313,"Ġmillets":5314,"Ġevaluate":5315,"Ġcorn":5316,"Ġdisinfection":5317,"Ġprovision":5318,"Ġmargin":5319,"Ġtolerance":5320,"Ġsurvival":5321,"Ġwalls":5322,"Ġaquatic":5323,"tificial":5324,"permethrin":5325,"Ġketchup":5326,"'t":5327,"ban":5328,"ua":5329,"onds":5330,"Ġpome":5331,"Ġanaerobic":5332,"Ġinj":5333,"Ġmagg":5334,"ima":5335,"Ġenable":5336,"emat":5337,"Ġdischar":5338,"ĠMarket":5339,"Ġbenzo":5340,"Ġcertify":5341,"Ġdistingu":5342,"Ġallied":5343,"haust":5344,"ucle":5345,"Ġpackaged":5346,"Ġchanging":5347,"ĠInstead":5348,"Ġseparated":5349,"Ġcompetitive":5350,"Ġvermiculture":5351,"ĠCertain":5352,"ĠConsult":5353,"mosis":5354,"ĠBlack":5355,"Ġbollworm":5356,"Ġprun":5357,"Ġinitiatives":5358,"Ġappealing":5359,"Ġsubsidy":5360,"Ġtoxic":5361,"Ġsurrounding":5362,"Ġara":5363,"Ġsav":5364,"Ġsizes":5365,"ala":5366,"Ġmus":5367,"Ġrevenue":5368,"ĠWithout":5369,"asal":5370,"ĠTheir":5371,"ote":5372,"Ġsuff":5373,"estern":5374,"ĠCR":5375,"izon":5376,"ĠSec":5377,"ember":5378,"Ġspir":5379,"ists":5380,"ades":5381,"Ġexem":5382,"hical":5383,"Ġresign":5384,"Ġjust":5385,"ocon":5386,"Ġmonit":5387,"Ġ400":5388,"Ġoblig":5389,"Ġloose":5390,"Ġevidence":5391,"Ġentering":5392,"obacter":5393,"Ġwashed":5394,"Ġreceiving":5395,"Ġconsideration":5396,"Ġsalts":5397,"Ġgrasshopper":5398,"Ġglass":5399,"Ġvolat":5400,"retary":5401,"ĠAccording":5402,"Ġsplitting":5403,"Ġproteins":5404,"Ġhorizon":5405,"Ġinoculum":5406,"ĠOfficer":5407,"Ġclosely":5408,"Ġturmeric":5409,"Ġfoliage":5410,"Ġdrugs":5411,"Ġsuitability":5412,"Ġphotosynthesis":5413,"Ġsediment":5414,"ĠHemiptera":5415,"ĠLepid":5416,"ĠService":5417,"Ind":5418,"Kisan":5419,"fac":5420,"friendly":5421,"hin":5422,"lands":5423,"mes":5424,"Ġtan":5425,"Ġtail":5426,"reci":5427,"Ġsection":5428,"Ġsorting":5429,"Ġfum":5430,"Ġbhog":5431,"Ġmarmal":5432,"Ġreaches":5433,"ĠTerm":5434,"Ġenrich":5435,"Ġcontract":5436,"tering":5437,"Ġimpurities":5438,"Ġspotted":5439,"ada":5440,"ĠIts":5441,"Ġcoco":5442,"resistant":5443,"ĠRo":5444,"Ġnotification":5445,"Ġinsured":5446,"earing":5447,"Ġhopper":5448,"ĠAdult":5449,"Ġ35":5450,"ression":5451,"Ġupload":5452,"Ġpacked":5453,"Ġpackage":5454,"Ġregulate":5455,"Ġindicators":5456,"eeping":5457,"Ġdigging":5458,"Ġmillilit":5459,"rolysis":5460,"ĠBanks":5461,"ĠTechn":5462,"ĠGovt":5463,"Ġdomestic":5464,"Ġcrore":5465,"Ġsulfate":5466,"33":5467,"Ġapart":5468,"Ġpear":5469,"alin":5470,"icate":5471,"otobacter":5472,"rial":5473,"Ġstraight":5474,"ĠSC":5475,"ĠFig":5476,"Ġsprink":5477,"ĠMil":5478,"ĠMarch":5479,"Ġconserve":5480,"Ġthus":5481,"ĠRC":5482,"Ġtransition":5483,"Ġsubmer":5484,"Ġextension":5485,"Ġwhiteflies":5486,"ructions":5487,"ĠYard":5488,"Ġgenerated":5489,"Ġmoder":5490,"Ġchoices":5491,"Ġcomposite":5492,"Ġcows":5493,"Ġbeneficiary":5494,"Ġdiscuss":5495,"Ġstrengthen":5496,"____":5497,"Ġtissues":5498,"Ġcoordination":5499,"viya":5500,"Ġrapidly":5501,"ĠMalviya":5502,"cription":5503,"Ġchamber":5504,"ĠLepidoptera":5505,"RI":5506,"cast":5507,"mall":5508,"na":5509,"onis":5510,"anal":5511,"Ġbric":5512,"Ġdro":5513,"ctu":5514,"Ġprohib":5515,"Ġnemat":5516,"irrig":5517,"ĠSam":5518,"Ġroles":5519,"andra":5520,"Ġmethyl":5521,"Ġclub":5522,"ĠLMP":5523,"Ġfertilization":5524,"Ġinstructions":5525,"Ġmeasuring":5526,"Ġsheet":5527,"Ġservice":5528,"Ġgoods":5529,"Ġcollecting":5530,"Ġcirculation":5531,"ĠAzotobacter":5532,"Ġinterests":5533,"ĠControl":5534,"Ġbottles":5535,"Ġacceptable":5536,"Ġprocedure":5537,"Ġbarriers":5538,"Ġlivelihood":5539,"Ġmandatory":5540,"Ġridge":5541,"ĠCCEs":5542,"arcity":5543,"13":5544,"43":5545,"pir":5546,"sem":5547,"ty":5548,"wings":5549,"Ġtunn":5550,"Ġaerobic":5551,"Ġcore":5552,"Ġpand":5553,"Ġdip":5554,"urface":5555,"Ġlif":5556,"Ġlodging":5557,"Ġgap":5558,"Ġhad":5559,"rium":5560,"Ġstay":5561,"Ġplains":5562,"umps":5563,"ĠSugar":5564,"Ġpregn":5565,"Ġcomfort":5566,"ĠFree":5567,"Ġspices":5568,"Ġorganizing":5569,"opectin":5570,"Ġcomplex":5571,"Ġrol":5572,"ansion":5573,"Ġ14":5574,"Ġ1000":5575,"avist":5576,"ĠNon":5577,"ĠRep":5578,"Ġscreen":5579,"Ġhousing":5580,"Ġmarks":5581,"othrips":5582,"Ġexpansion":5583,"Ġtermite":5584,"Ġentity":5585,"Ġequilib":5586,"bris":5587,"reshing":5588,"ĠCoffee":5589,"Ġtomatoes":5590,"Ġvisual":5591,"Ġexperi":5592,"Ġstarts":5593,"Ġbreakdown":5594,"Ġroasting":5595,"Ġcontaminate":5596,"Ġgrey":5597,"Ġmarg":5598,"Ġurad":5599,"Ġcheck":5600,"Ġcustomers":5601,"Ġfloor":5602,"Ġwinds":5603,"Ġranging":5604,"Ġpolicies":5605,"granate":5606,"Ġinjur":5607,"Ġpandemic":5608,"Ġequilibrium":5609,"18":5610,"Farm":5611,"Gs":5612,"hwari":5613,"life":5614,"shap":5615,"xam":5616,"yr":5617,"eries":5618,"Ġpicking":5619,"Ġpineapple":5620,"Ġfurn":5621,"ison":5622,"itc":5623,"Ġmos":5624,"Ġmight":5625,"Ġmung":5626,"Ġdon":5627,"Ġwid":5628,"Ġrecyc":5629,"leaf":5630,"Ġlands":5631,"ĠCle":5632,"Ġdebris":5633,"ĠPress":5634,"ĠPoly":5635,"Ġexhaust":5636,"ĠBac":5637,"Ġagr":5638,"Ġ16":5639,"Ġmetab":5640,"iae":5641,"Ġprevention":5642,"Ġpartn":5643,"Ġblood":5644,"Ġouter":5645,"Ġmatters":5646,"ectinization":5647,"Ġentities":5648,"Ġcharacterized":5649,"Ġcarbendazim":5650,"Ġsheath":5651,"Ġnumerous":5652,"rimary":5653,"Ġfamil":5654,"ĠInspection":5655,"Ġsecondary":5656,"Ġconstant":5657,"ĠMember":5658,"Ġprinciple":5659,"Ġrodents":5660,"ĠSeveral":5661,"Ġquintals":5662,"ĠMinistry":5663,"Ġpomegranate":5664,"shaped":5665,"AS":5666,"can":5667,"draw":5668,"hal":5669,"Ġtons":5670,"Ġtasks":5671,"Ġput":5672,"Ġbid":5673,"iced":5674,"Ġmasks":5675,"Ġrenew":5676,"ĠTable":5677,"ĠWelfare":5678,"Ġprol":5679,"asm":5680,"urse":5681,"urated":5682,"Ġeat":5683,"Ġconn":5684,"rag":5685,"Ġcanes":5686,"ota":5687,"ĠIr":5688,"Ġstrip":5689,"ultiv":5690,"rophyll":5691,"Ġdeca":5692,"ĠFasal":5693,"Ġspro":5694,"ĠBima":5695,"Ġdisb":5696,"Ġdisput":5697,"ptember":5698,"Ġcovers":5699,"ĠNorth":5700,"ĠDis":5701,"ipes":5702,"Ġscre":5703,"Ġscarcity":5704,"Ġactual":5705,"ĠAdequate":5706,"Ġadvances":5707,"ĠStem":5708,"Ġtrack":5709,"Ġrather":5710,"Ġherbs":5711,"Ġyellowing":5712,"Ġsales":5713,"ĠExcess":5714,"eau":5715,"Ġskills":5716,"Ġincorporation":5717,"Ġbound":5718,"Ġsuspended":5719,"Ġconvert":5720,"Ġconsultation":5721,"Ġgetting":5722,"itefly":5723,"Ġappeal":5724,"Ġreserves":5725,"Ġoutbreaks":5726,"anese":5727,"Ġcoccidiosis":5728,"ĠSocieties":5729,"Ġcommitment":5730,"avistin":5731,"Ġwidth":5732,"Ġdecaffe":5733,"90":5734,"bendaz":5735,"liness":5736,"heat":5737,"ang":5738,"eness":5739,"Ġmor":5740,"lease":5741,"used":5742,"Ġbegin":5743,"oluble":5744,"ĠIARI":5745,"Ġstock":5746,"igence":5747,"Ġdeb":5748,"Ġwithdraw":5749,"Ġapples":5750,"romones":5751,"Ġadds":5752,"ugust":5753,"ĠDhaincha":5754,"ĠRSA":5755,"ĠLo":5756,"Ġreputation":5757,"Ġgreenish":5758,"Ġdisturb":5759,"Ġoperate":5760,"ucose":5761,"Ġ85":5762,"Ġbring":5763,"Ġlabels":5764,"Ġchallenging":5765,"Ġperformed":5766,"Ġdecreases":5767,"Ġstarting":5768,"Ġstarted":5769,"Ġgranted":5770,"Ġglucose":5771,"Ġsingly":5772,"ĠCOVI":5773,"Ġadopted":5774,"Ġgreat":5775,"Ġcategory":5776,"Ġrecognized":5777,"Ġgrinding":5778,"Ġammonia":5779,"ĠFacility":5780,"uncil":5781,"missible":5782,"Ġsinensis":5783,"ĠProgramme":5784,"Ġfumig":5785,"irrigated":5786,"bendazole":5787,"ĠCOVID":5788,"85":5789,"cap":5790,"yster":5791,"Ġtrough":5792,"inning":5793,"Ġsite":5794,"Ġchic":5795,"Ġfever":5796,"ali":5797,"Ġmol":5798,"ĠTax":5799,"hoppers":5800,"cember":5801,"eli":5802,"ĠCorpor":5803,"ĠBajra":5804,"ĠDeep":5805,"Ġmouth":5806,"ĠAdvisory":5807,"Ġfinding":5808,"Ġextensive":5809,"ĠUT":5810,"Ġearhead":5811,"Ġmeasured":5812,"Ġdeplet":5813,"Ġreleasing":5814,"intensive":5815,"Ġarbit":5816,"Ġcleaned":5817,"Ġprofile":5818,"Ġnewly":5819,"Ġpowders":5820,"Ġalternate":5821,"meal":5822,"Ġsanit":5823,"Ġaddressing":5824,"Ġreadily":5825,"Ġhairs":5826,"Ġspecialized":5827,"ĠFinancial":5828,"Ġhabitats":5829,"Ġverified":5830,"Ġrunoff":5831,"Ġimmediate":5832,"Ġwilting":5833,"ethoxam":5834,"Ġvigor":5835,"ĠJapanese":5836,"Ġmycorrhiz":5837,"ynamic":5838,"Ġpruning":5839,"ĠBacillus":5840,"200":5841,"cm":5842,"vity":5843,"ways":5844,"Ġfa":5845,"Ġbunds":5846,"Ġinactiv":5847,"icip":5848,"icrob":5849,"Ġdressing":5850,"Ġdwarf":5851,"Ġtools":5852,"Ġforking":5853,"uran":5854,"raj":5855,"agi":5856,"Ġstub":5857,"ĠCA":5858,"Ġexcept":5859,"Ġexerc":5860,"ĠIncome":5861,"ĠNap":5862,"ĠNew":5863,"Ġinfiltration":5864,"Ġabd":5865,"Ġcultivate":5866,"Ġrelies":5867,"planting":5868,"ĠChlorpy":5869,"Ġattention":5870,"Ġfungicides":5871,"Ġhandle":5872,"Ġbird":5873,"ĠImidacloprid":5874,"verse":5875,"Ġshaped":5876,"Ġinstitutional":5877,"Ġdesignated":5878,"ĠPlan":5879,"Ġcryogen":5880,"ĠOnce":5881,"Ġdiffusion":5882,"Ġpassing":5883,"Ġdiligence":5884,"Ġemployment":5885,"Ġthickness":5886,"clim":5887,"Ġautom":5888,"Ġmulch":5889,"Ġframew":5890,"Ġundertake":5891,"Ġranges":5892,"Ġclosed":5893,"Ġrecover":5894,"Ġdisposal":5895,"Ġcorporate":5896,"Ġsolely":5897,"Ġmortality":5898,"MD":5899,"SU":5900,"dish":5901,"mod":5902,"phen":5903,"wa":5904,"Ġtu":5905,"Ġce":5906,"Ġber":5907,"Ġmills":5908,"Ġwr":5909,"Ġreject":5910,"ĠTrade":5911,"imes":5912,"ĠIPM":5913,"thal":5914,"arium":5915,"rical":5916,"ĠGood":5917,"ĠGhan":5918,"ĠProvid":5919,"Ġflour":5920,"Ġfinished":5921,"aching":5922,"ĠUS":5923,"Ġmilch":5924,"Ġguarant":5925,"Ġreleases":5926,"Ġgenerations":5927,"Ġsheep":5928,"Ġherbal":5929,"Ġpowers":5930,"ĠSpin":5931,"ĠDecember":5932,"products":5933,"ĠMah":5934,"Ġsimpl":5935,"Ġbiofertilizers":5936,"ĠAltern":5937,"Ġplacing":5938,"Ġemerging":5939,"Ġdocumentation":5940,"Ġadjusted":5941,"ofuran":5942,"Ġforeign":5943,"Ġtransformation":5944,"Ġrespiratory":5945,"Ġchlorophyll":5946,"ometimes":5947,"ocontrol":5948,"Ġobligations":5949,"Ġframework":5950,"ĠProviding":5951,"FYM":5952,"farm":5953,"nial":5954,"pho":5955,"Ġselling":5956,"orl":5957,"Ġgather":5958,"osad":5959,"Ġstal":5960,"ĠAugust":5961,"Ġleaving":5962,"Ġkanal":5963,"ĠDAP":5964,"Ġsequ":5965,"ribusiness":5966,"Ġshad":5967,"Ġformat":5968,"ights":5969,"Ġtypical":5970,"Ġextending":5971,"Ġpeels":5972,"ACS":5973,"ĠVitamin":5974,"ritical":5975,"ĠAny":5976,"Ġvisible":5977,"Ġauthorities":5978,"Ġski":5979,"Ġreddish":5980,"ĠArmyworm":5981,"regular":5982,"Ġbook":5983,"Ġpassed":5984,"Ġsplits":5985,"Ġcanned":5986,"Ġadvisory":5987,"Ġdiversification":5988,"Ġclimatic":5989,"Ġrunning":5990,"Ġaudit":5991,"Ġundergoes":5992,"Ġfrequently":5993,"Ġpenetrate":5994,"ĠICAR":5995,"Ġconvenient":5996,"Ġillnesses":5997,"Ġtransactions":5998,"itchen":5999,"Ġfamilies":6000,"02":6001,"96":6002,"June":6003,"dle":6004,"drying":6005,"eper":6006,"orous":6007,"zian":6008,"Ġcr":6009,"Ġfan":6010,"rose":6011,"Ġba":6012,"Ġbig":6013,"icover":6014,"Ġdim":6015,"ĠTam":6016,"ett":6017,"Ġgour":6018,"Ġgunn":6019,"olution":6020,"ppings":6021,"ropical":6022,"emics":6023,"ĠHort":6024,"acc":6025,"arian":6026,"ĠBe":6027,"ĠBucher":6028,"andom":6029,"illing":6030,"ĠNatural":6031,"ĠDet":6032,"Ġchloride":6033,"Ġseal":6034,"Ġsched":6035,"ograp":6036,"ensions":6037,"Ġdamp":6038,"ĠLong":6039,"Ġdecid":6040,"Ġirregular":6041,"Ġexpend":6042,"Ġexpand":6043,"Ġcleanliness":6044,"indrical":6045,"Ġburning":6046,"Ġintroduction":6047,"Ġrepresentatives":6048,"Ġconverted":6049,"Ġnetwork":6050,"Ġcommercially":6051,"Ġcustomer":6052,"Ġwinter":6053,"Ġintervention":6054,"Ġexcret":6055,"Ġpolicy":6056,"ispy":6057,"Ġthoroughly":6058,"Ġharzian":6059,"Ġsymbol":6060,"Ġsteam":6061,"Ġantioxidants":6062,"pesticides":6063,"Ġfeatures":6064,"Ġsticky":6065,"icoverpa":6066,"Ġgourd":6067,"Ġharzianum":6068,"IR":6069,"In":6070,"ched":6071,"effective":6072,"lied":6073,"ufficient":6074,"Ġcamp":6075,"root":6076,"orn":6077,"Ġboard":6078,"Ġdiv":6079,"Ġdors":6080,"Ġpromin":6081,"Ġnerv":6082,"Ġlaw":6083,"Ġhind":6084,"dua":6085,"Ġcans":6086,"change":6087,"ested":6088,"ĠCocc":6089,"Ġdeeper":6090,"amell":6091,"ĠSho":6092,"ĠFe":6093,"Ġalways":6094,"ĠNut":6095,"ĠOther":6096,"elled":6097,"Ġcarne":6098,"Ġdescription":6099,"Ġgreengram":6100,"Ġlittle":6101,"Ġloamy":6102,"Ġfinancing":6103,"Ġvalues":6104,"Ġdefect":6105,"ĠChlor":6106,"Ġsurfac":6107,"ĠAnim":6108,"Ġbelonging":6109,"Ġeconomy":6110,"Ġeconomically":6111,"oked":6112,"ronage":6113,"Ġsumm":6114,"Ġburst":6115,"produc":6116,"ĠAcid":6117,"Ġholistic":6118,"Ġdiscol":6119,"Ġgovernance":6120,"Ġexceeding":6121,"Ġcloves":6122,"Ġcategories":6123,"Ġaggregates":6124,"ligible":6125,"Ġsnow":6126,"Ġenjoyable":6127,"Ġbulky":6128,"Ġdeterior":6129,"Ġcollaboration":6130,"Ġcylindrical":6131,"Ġlatest":6132,"Ġbelieve":6133,"Ġintermediate":6134,"Ġyeast":6135,"Ġvinegar":6136,"ĠPratap":6137,"reciation":6138,"ispyrib":6139,"Ġcarnea":6140,"Ġsurfaces":6141,"95":6142,"PE":6143,"crow":6144,"cens":6145,"ming":6146,"wide":6147,"held":6148,"Ġpy":6149,"ĠTom":6150,"Ġbecoming":6151,"Ġlaws":6152,"aint":6153,"ĠPur":6154,"rub":6155,"Ġlet":6156,"acchar":6157,"ively":6158,"Ġyour":6159,"Ġseedbed":6160,"Ġkitchen":6161,"Ġchance":6162,"Ġchart":6163,"ocking":6164,"rennial":6165,"rained":6166,"Ġneigh":6167,"ĠGram":6168,"Ġsolub":6169,"Ġblast":6170,"Ġadvoc":6171,"Ġload":6172,"Ġoperational":6173,"riphos":6174,"Ġartificial":6175,"Ġbiocontrol":6176,"athion":6177,"Ġconstruction":6178,"Ġslope":6179,"hibits":6180,"Ġdiluted":6181,"Ġsensory":6182,"Ġabsorbed":6183,"Ġtolerant":6184,"Ġencourage":6185,"Ġexclud":6186,"Ġchilonis":6187,"Ġdivided":6188,"Ġglobal":6189,"Ġmicronutrient":6190,"Ġoversee":6191,"Ġepidemics":6192,"Ġnematodes":6193,"Ġnervous":6194,"amellia":6195,"ispyribac":6196,"ĠTomato":6197,"14":6198,"16":6199,"lim":6200,"ras":6201,"ye":6202,"year":6203,"inds":6204,"Ġoval":6205,"anges":6206,"anob":6207,"orter":6208,"arrow":6209,"ilip":6210,"Ġforces":6211,"Ġgrad":6212,"unity":6213,"Ġheated":6214,"chloride":6215,"ĠCultiv":6216,"ĠSustainable":6217,"Ġrandom":6218,"Ġpreval":6219,"ĠHel":6220,"Ġplantation":6221,"illed":6222,"Ġfruiting":6223,"rene":6224,"ĠGard":6225,"Ġseg":6226,"Ġshorter":6227,"Ġpromoted":6228,"Ġprotopectin":6229,"Ġloos":6230,"egrad":6231,"ĠChina":6232,"Ġpectins":6233,"ĠAgri":6234,"Ġgenerate":6235,"Ġsets":6236,"Ġpreserved":6237,"Ġsaw":6238,"ĠInsured":6239,"Ġalternatives":6240,"Ġsulfur":6241,"Ġparasitised":6242,"ajeevamrut":6243,"ĠArhar":6244,"ĠShare":6245,"Ġvaccinated":6246,"Ġsuperior":6247,"Ġfalling":6248,"Ġattractive":6249,"Ġsemilooper":6250,"ĠStandard":6251,"Ġsituation":6252,"ĠMasanob":6253,"ĠSeptember":6254,"ĠOffice":6255,"olytic":6256,"colored":6257,"ĠSanction":6258,"razine":6259,"ĠAccountant":6260,"Ġcrush":6261,"Ġcloudy":6262,"Ġgranules":6263,"Ġeventually":6264,"Ġwebsite":6265,"ĠGroups":6266,"Ġmigration":6267,"Ġmonitored":6268,"Ġhorizontal":6269,"Ġbricks":6270,"Ġagronomic":6271,"ĠIrrig":6272,"icipatory":6273,"icrobial":6274,"ĠMasanobu":6275,"64":6276,"CI":6277,"FS":6278,"IC":6279,"ipt":6280,"ni":6281,"Ġtap":6282,"reating":6283,"Ġponds":6284,"ancy":6285,"Ġfinger":6286,"rots":6287,"icacy":6288,"arin":6289,"ionally":6290,"Ġproof":6291,"rading":6292,"unter":6293,"oty":6294,"ĠPar":6295,"Ġexchange":6296,"opies":6297,"hern":6298,"ĠBord":6299,"Ġperceptions":6300,"Ġteam":6301,"Ġinsights":6302,"Ġdryer":6303,"Ġ300":6304,"Ġdecline":6305,"Ġrelative":6306,"ĠStation":6307,"Ġdepreciation":6308,"Ġlarval":6309,"Ġsmell":6310,"Ġappears":6311,"Ġbanking":6312,"Ġbananas":6313,"ĠInsect":6314,"Ġindicus":6315,"Ġmiddle":6316,"Ġgranting":6317,"Ġconstit":6318,"Ġplaces":6319,"Ġemerge":6320,"Ġparticipate":6321,"eshwari":6322,"ĠMoA":6323,"Ġproposal":6324,"Ġgrapes":6325,"Ġgarden":6326,"Ġtoxins":6327,"Ġinspections":6328,"ĠPhosphorus":6329,"Ġemphasizes":6330,"Ġgeograp":6331,"Ġkernels":6332,"Ġthreat":6333,"ĠZnSO":6334,"ĠChairman":6335,"Ġsavings":6336,"India":6337,"ĠRCM":6338,"Ġprominent":6339,"ĠPurple":6340,"',":6341,"DT":6342,"KCC":6343,"LCC":6344,"PH":6345,"ave":6346,"bles":6347,"pers":6348,"ui":6349,"Ġtable":6350,"Ġtract":6351,"Ġoyster":6352,"erated":6353,"Ġcas":6354,"Ġpits":6355,"Ġparen":6356,"arter":6357,"Ġdra":6358,"ulner":6359,"iments":6360,"Ġnom":6361,"Ġnucle":6362,"Ġlice":6363,"antran":6364,"owar":6365,"Ġhill":6366,"Ġvert":6367,"Ġprecooling":6368,"ĠHex":6369,"Ġalk":6370,"ĠInf":6371,"ĠNag":6372,"ĠDrying":6373,"Ġjar":6374,"Ġmeter":6375,"Ġsolar":6376,"Ġdetect":6377,"Ġblend":6378,"ĠJan":6379,"Ġupd":6380,"Ġmemorandum":6381,"Ġenhanced":6382,"adequate":6383,"ĠYield":6384,"Ġpatronage":6385,"Ġ600":6386,"Ġarm":6387,"Ġpreparations":6388,"Ġ800":6389,"Ġvirid":6390,"ĠUnit":6391,"Ġdrainp":6392,"Ġconsiderations":6393,"Ġliquids":6394,"ronic":6395,"Ġmechanism":6396,"atories":6397,"ĠAzad":6398,"Ġcitric":6399,"Ġsaturated":6400,"Ġshows":6401,"clos":6402,"Ġsensitive":6403,"Ġadaptability":6404,"Ġpotatoes":6405,"Ġdigestive":6406,"Ġreturns":6407,"Ġworldwide":6408,"Ġcompromise":6409,"Ġtrays":6410,"ĠAuthority":6411,"Ġfurrow":6412,"Ġveterinary":6413,"Ġmusc":6414,"Ġprohibited":6415,"Ġclubs":6416,"Ġpregnant":6417,"Ġcomfortable":6418,"Ġtroughs":6419,"Ġdimensions":6420,"antranilip":6421,"ĠHexac":6422,"17":6423,"dox":6424,"laws":6425,"most":6426,"oA":6427,"port":6428,"spec":6429,"Ġsized":6430,"Ġsometimes":6431,"Ġfee":6432,"ingle":6433,"Ġmal":6434,"Ġmite":6435,"Ġmale":6436,"Ġwarm":6437,"ĠWestern":6438,"ulic":6439,"lyb":6440,"raulic":6441,"iri":6442,"Ġcanopy":6443,"Ġstores":6444,"Ġplow":6445,"ĠCy":6446,"ĠCut":6447,"odal":6448,"Ġimproper":6449,"ĠPer":6450,"Ġexcl":6451,"Ġadhere":6452,"Ġperfor":6453,"Ġcompuls":6454,"Ġconsent":6455,"Ġaccom":6456,"Ġthuring":6457,"reshold":6458,"ĠDSR":6459,"Ġscales":6460,"Ġdamages":6461,"Ġenvironments":6462,"causing":6463,"Ġsigned":6464,"Ġrainwater":6465,"ney":6466,"ycin":6467,"Ġfoundation":6468,"Ġimmers":6469,"Ġvisit":6470,"Ġpayments":6471,"Ġsuccessfully":6472,"Ġhydraulic":6473,"ĠTrusts":6474,"ĠApplying":6475,"Ġsusceptibility":6476,"Ġdeliver":6477,"Ġexceeds":6478,"ĠSeeded":6479,"Ġdigestion":6480,"Ġlinked":6481,"Ġlinkages":6482,"Ġpenetration":6483,"Ġhatch":6484,"Ġphenolic":6485,"Ġthermal":6486,"Ġimbalances":6487,"thodox":6488,"Ġhorticultural":6489,"ĠLimited":6490,"Ġcrystallization":6491,"Ġmorning":6492,"Ġchicks":6493,"ĠSpinosad":6494,"ĠNutrition":6495,"ĠIrrigation":6496,"55":6497,"800":6498,"AW":6499,"Gu":6500,"NR":6501,"Us":6502,"bi":6503,"cks":6504,"iw":6505,"kn":6506,"rane":6507,"hest":6508,"isition":6509,"Ġbright":6510,"arse":6511,"Ġment":6512,"Ġmac":6513,"Ġdrip":6514,"Ġwilt":6515,"omace":6516,"Ġnit":6517,"Ġlose":6518,"Ġvulner":6519,"aining":6520,"Ġplum":6521,"Ġones":6522,"ĠPri":6523,"ĠPACS":6524,"ĠFl":6525,"Ġalter":6526,"opat":6527,"hers":6528,"ĠBa":6529,"ĠBut":6530,"ĠBlight":6531,"Ġdoing":6532,"Ġrob":6533,"lowing":6534,"ava":6535,"ribal":6536,"Ġtransmit":6537,"Ġfertile":6538,"Ġmould":6539,"Ġformula":6540,"ĠJS":6541,"Ġcarrots":6542,"Ġoperates":6543,"Ġhighest":6544,"Ġgeneration":6545,"everages":6546,"Ġreceives":6547,"Ġlegumin":6548,"Ġfilm":6549,"Ġboron":6550,"Ġtilled":6551,"Ġcooled":6552,"Ġcellul":6553,"Ġmustard":6554,"proved":6555,"Ġmanufactured":6556,"Ġsectors":6557,"ĠSuper":6558,"Ġincorporate":6559,"Ġantib":6560,"Ġosmosis":6561,"Ġsweeteners":6562,"ĠMove":6563,"Ġsquash":6564,"Ġopportunity":6565,"Ġwastage":6566,"Ġaccepted":6567,"Ġassists":6568,"Ġenterpr":6569,"Ġaudited":6570,"Ġsubmitting":6571,"Ġarrangements":6572,"Ġdestroyed":6573,"Ġchild":6574,"Ġodor":6575,"ĠBracon":6576,"reprene":6577,"Ġdistributed":6578,"Ġexpectations":6579,"ĠFederation":6580,"ĠGeneral":6581,"ĠSoybean":6582,"ĠConsultative":6583,"ĠClean":6584,"ĠExcessive":6585,"cape":6586,"ĠHexaconazole":6587,"100":6588,"BC":6589,"GA":6590,"IPM":6591,"RSA":6592,"bl":6593,"gent":6594,"erui":6595,"Ġfif":6596,"ara":6597,"arial":6598,"Ġmel":6599,"Ġremot":6600,"ulates":6601,"usarium":6602,"Ġled":6603,"ĠAch":6604,"ĠAPE":6605,"ĠCa":6606,"ĠCSC":6607,"ĠSelf":6608,"Ġprey":6609,"Ġspeed":6610,"opt":6611,"ĠBrinjal":6612,"Ġpercol":6613,"Ġpermissible":6614,"ĠDub":6615,"ĠRani":6616,"ĠOper":6617,"ailing":6618,"Ġscor":6619,"ĠEligible":6620,"Ġcolon":6621,"Ġcolumn":6622,"Ġmethoxyl":6623,"Ġminor":6624,"ĠCommon":6625,"Ġextra":6626,"Ġprotects":6627,"epend":6628,"ĠChart":6629,"Ġpressing":6630,"liers":6631,"Ġpropag":6632,"Ġaccessing":6633,"ĠUniversity":6634,"Ġstatement":6635,"Ġattacked":6636,"ĠCooperative":6637,"Ġdecompose":6638,"ĠRegional":6639,"Ġvisits":6640,"Ġvisually":6641,"Ġowner":6642,"Ġearthing":6643,"ĠArticles":6644,"Ġconstruct":6645,"Ġjams":6646,"Ġhydro":6647,"Ġbehalf":6648,"Ġpossess":6649,"Ġeliminating":6650,"ĠLeaf":6651,"Ġaccordingly":6652,"Ġmasses":6653,"Ġseeking":6654,"Ġfilters":6655,"ĠEarhead":6656,"Ġabdomen":6657,"ĠGhanajeevamrut":6658,"Ġgunny":6659,"ĠShoot":6660,"ĠChlorantranilip":6661,"Ġrobust":6662,"ĠAPEDA":6663,"ĠDubraj":6664,"ĠRanik":6665,"72":6666,"ELI":6667,"Pro":6668,"VK":6669,"YV":6670,"aic":6671,"brown":6672,"dent":6673,"limin":6674,"oug":6675,"oks":6676,"picking":6677,"wh":6678,"with":6679,"Ġter":6680,"het":6681,"inations":6682,"Ġcode":6683,"Ġpal":6684,"Ġpil":6685,"isal":6686,"ason":6687,"asite":6688,"Ġoranges":6689,"raisal":6690,"Ġploug":6691,"ĠApart":6692,"ĠChemical":6693,"ĠSmall":6694,"Ġbyproducts":6695,"emia":6696,"Ġexcell":6697,"ĠBhog":6698,"Ġincent":6699,"ĠNot":6700,"Ġnuts":6701,"Ġ21":6702,"Ġmetal":6703,"Ġintake":6704,"ĠGV":6705,"Ġlik":6706,"ĠKodo":6707,"Ġ55":6708,"Ġevol":6709,"ARK":6710,"hah":6711,"Ġsettle":6712,"Ġarise":6713,"Ġpresses":6714,"Ġindustrial":6715,"ĠUnders":6716,"ĠInstant":6717,"Ġphysically":6718,"Ġborrow":6719,"Ġcombined":6720,"Ġassociation":6721,"Ġstrategic":6722,"ĠApplication":6723,"Ġdilution":6724,"Ġinfluenced":6725,"Ġstudy":6726,"Ġhorse":6727,"Ġintroducing":6728,"Ġsilken":6729,"Ġmandarin":6730,"robin":6731,"ĠSugandhit":6732,"ĠParticipatory":6733,"Ġprecipitation":6734,"Ġauthenticity":6735,"Ġreplenish":6736,"Ġinclusion":6737,"Ġcompensation":6738,"ĠAGMARK":6739,"Ġmaggot":6740,"Ġexempt":6741,"Ġresignation":6742,"eaux":6743,"Ġfumigation":6744,"ĠBordeaux":6745,"Ġremote":6746,"Ġploughed":6747,"21":6748,"HB":6749,"cium":6750,"drained":6751,"hm":6752,"hand":6753,"rass":6754,"seed":6755,"such":6756,"uarial":6757,"Ġtight":6758,"hel":6759,"Ġsick":6760,"Ġcup":6761,"Ġphe":6762,"Ġfrag":6763,"orange":6764,"Ġbred":6765,"Ġprom":6766,"imeth":6767,"una":6768,"Ġplowing":6769,"estment":6770,"ĠCol":6771,"ĠCamellia":6772,"Ġsoon":6773,"ĠSim":6774,"Ġprelimin":6775,"ĠPink":6776,"endimeth":6777,"ads":6778,"Ġexhibit":6779,"Ġperman":6780,"Ġincur":6781,"Ġcoated":6782,"ĠInv":6783,"ĠDig":6784,"ilized":6785,"Ġovercome":6786,"Ġabund":6787,"Ġhole":6788,"Ġundes":6789,"Ġcla":6790,"ĠLand":6791,"Ġuns":6792,"Ġmarketed":6793,"Ġpean":6794,"ĠVacc":6795,"radiation":6796,"Ġbaseline":6797,"Ġcentre":6798,"Ġshareholding":6799,"Ġcompetit":6800,"Ġaware":6801,"Ġbiodynamic":6802,"Ġpupates":6803,"inalphos":6804,"Ġsimple":6805,"Ġmicrobes":6806,"Ġpremises":6807,"Ġweekly":6808,"Ġtargets":6809,"Ġhydration":6810,"Ġbrewed":6811,"Ġkilling":6812,"ĠCarbofuran":6813,"Ġverification":6814,"amba":6815,"Ġfiber":6816,"Ġoutlines":6817,"ĠVariety":6818,"Ġflexibility":6819,"ĠSecretary":6820,"Ġrecycling":6821,"Ġpartnership":6822,"Ġperforated":6823,"Ġleguminous":6824,"Ġchildren":6825,"Ġexcellent":6826,"Ġpreliminary":6827,"/-":6828,"MS":6829,"No":6830,"made":6831,"nel":6832,"sacchar":6833,"toph":6834,"uce":6835,"att":6836,"Ġinver":6837,"Ġreference":6838,"Ġforced":6839,"idelines":6840,"Ġele":6841,"Ġelection":6842,"Ġgets":6843,"Ġvaries":6844,"chus":6845,"ĠPrimary":6846,"ĠFusarium":6847,"Ġspring":6848,"Ġexact":6849,"Ġorganized":6850,"ophos":6851,"season":6852,"ĠBo":6853,"ĠBiological":6854,"aken":6855,"Ġdiseased":6856,"rench":6857,"Ġ22":6858,"POP":6859,"Ġmaintains":6860,"Ġ48":6861,"Ġcontributed":6862,"Ġtemperate":6863,"Ġrespon":6864,"Ġvalid":6865,"Ġtravel":6866,"Ġattached":6867,"Ġtwice":6868,"itten":6869,"itted":6870,"Ġidentity":6871,"Ġsubstrate":6872,"Ġaccountability":6873,"Ġremed":6874,"Ġgoing":6875,"Ġpersons":6876,"Ġworkers":6877,"Ġdrink":6878,"Ġbiodegrad":6879,"Ġsecure":6880,"ĠWhitefly":6881,"tanding":6882,"Ġdissolve":6883,"ĠBorax":6884,"Ġcontinuously":6885,"Ġaggregation":6886,"Ġqualifications":6887,"Ġestimated":6888,"ĠHealth":6889,"Ġmanufacturers":6890,"Ġfourth":6891,"Ġbuyers":6892,"Ġcereals":6893,"ĠAlternatively":6894,"Ġskipper":6895,"ĠUnderstanding":6896,"endimethalin":6897,"%,":6898,"48":6899,"CA":6900,"Cl":6901,"HM":6902,"RO":6903,"cio":6904,"dro":6905,"gm":6906,"ky":6907,"mem":6908,"uary":6909,"aters":6910,"Ġpun":6911,"Ġfract":6912,"Ġmot":6913,"Ġwine":6914,"Ġwearing":6915,"Ġrecent":6916,"Ġconve":6917,"Ġgly":6918,"Ġhorm":6919,"ĠIdent":6920,"Ġvill":6921,"Ġstaking":6922,"odown":6923,"Ġsocio":6924,"ĠSand":6925,"ĠSign":6926,"opic":6927,"Ġperce":6928,"Ġmanip":6929,"ĠMul":6930,"ĠRem":6931,"ocks":6932,"Ġprescribed":6933,"ĠLablab":6934,"Ġindepend":6935,"Ġadvice":6936,"Ġoutput":6937,"Ġdistances":6938,"Ġloam":6939,"Ġecology":6940,"ĠAgni":6941,"iversities":6942,"Ġparasite":6943,"Ġmodel":6944,"Ġindicating":6945,"Ġmultiply":6946,"ĠExper":6947,"Ġcontinues":6948,"Ġgrasshoppers":6949,"Ġexposing":6950,"ĠArka":6951,"ĠReserve":6952,"Ġprevailing":6953,"Ġturnip":6954,"Ġdependence":6955,"Ġlaboratories":6956,"Ġissuing":6957,"Ġpickling":6958,"Ġforewings":6959,"Ġviable":6960,"Ġadministration":6961,"Ġmeasurement":6962,"Ġcategor":6963,"Ġtube":6964,"Ġinoculation":6965,"Ġfloures":6966,"Ġafford":6967,"Ġrespiration":6968,"Ġcereal":6969,"Ġhypoch":6970,"ĠDelhi":6971,"POPIs":6972,"ĠMarketing":6973,"Ġvolatile":6974,"Ġmarmalade":6975,"Ġmilliliters":6976,"Ġmycorrhiza":6977,"Ġexercise":6978,"ĠJanuary":6979,"ĠSimilar":6980,"56":6981,"HGs":6982,"SB":6983,"carb":6984,"has":6985,"rance":6986,"yer":6987,"Ġ@":6988,"Ġchos":6989,"isher":6990,"Ġbispyribac":6991,"illy":6992,"ilated":6993,"Ġreached":6994,"ĠTra":6995,"ĠWG":6996,"asant":6997,"osis":6998,"Ġplain":6999,"iger":7000,"ĠPA":7001,"ĠPal":7002,"ĠHa":7003,"Ġexit":7004,"ĠBast":7005,"ĠBody":7006,"ĠBeverages":7007,"Ġvariable":7008,"Ġmanually":7009,"Ġyard":7010,"ĠMel":7011,"ĠNG":7012,"ĠNutri":7013,"Ġchamp":7014,"ocity":7015,"Ġquest":7016,"Ġ23":7017,"raining":7018,"Ġpurple":7019,"gener":7020,"Ġcolored":7021,"Ġliabilities":7022,"Ġavoids":7023,"aponic":7024,"ĠProducts":7025,"Ġparty":7026,"Ġindirect":7027,"Ġsubmission":7028,"Ġsignifies":7029,"Ġcarp":7030,"ĠIndust":7031,"Ġevents":7032,"Ġwilling":7033,"Ġofficer":7034,"Ġperennial":7035,"ception":7036,"Ġblackgram":7037,"Ġbiop":7038,"Ġreceipt":7039,"Ġrecall":7040,"Ġdrained":7041,"ĠCopper":7042,"ĠCovid":7043,"ĠCooperation":7044,"ront":7045,"Ġsecret":7046,"Ġfocused":7047,"Ġcompound":7048,"Ġfees":7049,"Ġdestruction":7050,"Ġopening":7051,"Ġadministered":7052,"Ġsensing":7053,"Ġadversely":7054,"Ġverify":7055,"Ġpreference":7056,"Ġqualities":7057,"Ġprofession":7058,"Ġresilient":7059,"aggery":7060,"ĠConsumers":7061,"ĠBrahm":7062,"Ġdecanters":7063,"Ġrollers":7064,"Ġsatisfactory":7065,"ĠProcessing":7066,"ĠVermicompos":7067,"ĠCertainly":7068,"Ġmarginal":7069,"Ġscrew":7070,"Guyer":7071,"ĠChartered":7072,"Ġprompt":7073,"Ġchosen":7074,"Ġchampion":7075,"ĠBrahmastra":7076,"86":7077,"BI":7078,"BW":7079,"SS":7080,"equ":7081,"por":7082,"rans":7083,"td":7084,"yond":7085,"zed":7086,"hew":7087,"Ġsaves":7088,"Ġsaving":7089,"esides":7090,"roten":7091,"isopl":7092,"Ġoffe":7093,"Ġble":7094,"Ġinadequate":7095,"Ġdhaincha":7096,"Ġwing":7097,"Ġrehyd":7098,"ĠWeeds":7099,"Ġbeyond":7100,"ĠThen":7101,"Ġlies":7102,"Ġlost":7103,"Ġgrade":7104,"Ġgodown":7105,"uting":7106,"oti":7107,"ĠCirc":7108,"ĠSafety":7109,"ortium":7110,"Ġleave":7111,"advant":7112,"ĠBi":7113,"ĠBall":7114,"Ġinches":7115,"Ġroaster":7116,"Ġdisadvant":7117,"pta":7118,"illa":7119,"ĠDry":7120,"ĠGM":7121,"soil":7122,"Ġshared":7123,"Ġmoong":7124,"ensing":7125,"Ġclumps":7126,"vironment":7127,"ĠLate":7128,"ĠLtd":7129,"ĠKVK":7130,"Ġweigh":7131,"Ġblending":7132,"asses":7133,"ubation":7134,"Ġoutcome":7135,"Ġdecay":7136,"Ġimpacting":7137,"ĠSte":7138,"Ġterminal":7139,"Ġcharge":7140,"Ġremoves":7141,"Ġentit":7142,"Ġnurseries":7143,"Ġfoam":7144,"Ġbelts":7145,"ĠManaging":7146,"ĠGuidelines":7147,"Ġcentim":7148,"Ġlegally":7149,"Ġscientifically":7150,"ĠCouncil":7151,"Ġseparating":7152,"Ġseparately":7153,"Ġcombat":7154,"Ġreports":7155,"Ġcontaminated":7156,"Ġexistence":7157,"Ġfluores":7158,"Ġgovernments":7159,"Ġclassification":7160,"Ġgardens":7161,"Ġencourages":7162,"Ġrecognition":7163,"Ġfederations":7164,"ĠYou":7165,"ĠMalathion":7166,"ĠFruits":7167,"Ġridges":7168,"ĠSanwa":7169,"ĠWhiteg":7170,"ĠRev":7171,"Ġrestricted":7172,"Ġrecovery":7173,"Ġgrind":7174,"Ġprecise":7175,"ĠQuinalphos":7176,"Ġbranch":7177,"certified":7178,"ĠPotash":7179,"ĠNadu":7180,"Ġvelocity":7181,"Ġspirit":7182,"Ġdroppings":7183,"Ġlivelihoods":7184,"Ġmosaic":7185,"Ġwritten":7186,"Ġbait":7187,"ĠTamil":7188,"Ġexpenditure":7189,"Ġscorch":7190,"ĠInvestment":7191,"Ġelev":7192,"aponicum":7193,"isopliae":7194,"Ġoffered":7195,"23":7196,"National":7197,"RH":7198,"aign":7199,"cakes":7200,"gam":7201,"ipped":7202,"pan":7203,"tin":7204,"wor":7205,"reed":7206,"rest":7207,"Ġcall":7208,"Ġple":7209,"Ġfeas":7210,"Ġfallen":7211,"Ġbavistin":7212,"Ġmer":7213,"ently":7214,"Ġwider":7215,"ĠTet":7216,"astern":7217,"imb":7218,"Ġnight":7219,"Ġlic":7220,"Ġlablab":7221,"utants":7222,"Ġham":7223,"Ġhusk":7224,"Ġvit":7225,"Ġvar":7226,"Ġvoting":7227,"Ġheav":7228,"Ġstink":7229,"ĠCotton":7230,"strobin":7231,"amethoxam":7232,"Ġconting":7233,"ĠSesame":7234,"ĠHYV":7235,"Ġalumin":7236,"sec":7237,"Ġcompare":7238,"Ġjud":7239,"ĠGrowing":7240,"upation":7241,"Ġscra":7242,"arehouse":7243,"Ġsuppliers":7244,"Ġjuicing":7245,"plus":7246,"ĠJM":7247,"Ġoffering":7248,"matic":7249,"Ġpreservative":7250,"Ġinstitutes":7251,"xystrobin":7252,"compost":7253,"Ġcalculate":7254,"Ġpollutants":7255,"Ġdeficient":7256,"Ġdigit":7257,"Ġfixation":7258,"ĠOnly":7259,"Ġreaching":7260,"Ġelectric":7261,"iosks":7262,"Ġcompacted":7263,"ĠNeemastra":7264,"ĠHeat":7265,"Ġrestrictions":7266,"ĠSLCC":7267,"ĠMealy":7268,"Ġwildlife":7269,"ĠConsuming":7270,"Ġrubber":7271,"Ġfluidized":7272,"ĠClaims":7273,"Ġ1509":7274,"denum":7275,"ĠEarthworms":7276,"Ġbenzoate":7277,"Ġcocoon":7278,"ĠMilk":7279,"Ġdispute":7280,"Ġbeginning":7281,"elihood":7282,"Ġcampaign":7283,"Ġsummary":7284,"Ġdrainpipes":7285,"specific":7286,"lybdenum":7287,"Ġmentions":7288,"Ġenterprise":7289,"Ġlikelihood":7290,"Ġincurred":7291,"members":7292,"FPC":7293,"II":7294,"PU":7295,"SLCC":7296,"uz":7297,"iner":7298,"Ġsilt":7299,"isk":7300,"orax":7301,"Ġanisopliae":7302,"arhiz":7303,"Ġmud":7304,"Ġmating":7305,"Ġmalt":7306,"Ġdy":7307,"ĠTier":7308,"ĠTreating":7309,"Ġbear":7310,"omes":7311,"Ġgarb":7312,"utable":7313,"celer":7314,"Ġcand":7315,"ĠIR":7316,"ĠIPU":7317,"ĠAmeric":7318,"ĠCap":7319,"ĠSol":7320,"Ġonto":7321,"ĠPy":7322,"ĠPhy":7323,"ĠPGS":7324,"Ġlec":7325,"ĠBh":7326,"ease":7327,"ificates":7328,"economic":7329,"Ġperme":7330,"Ġrecommendation":7331,"ptic":7332,"Ġkin":7333,"ĠND":7334,"Ġacceler":7335,"ocal":7336,"Ġfoodborne":7337,"Ġquarter":7338,"ĠOkra":7339,"Ġculturing":7340,"Ġpartial":7341,"Ġunable":7342,"ĠKash":7343,"Ġblister":7344,"Ġhighlight":7345,"ĠJal":7346,"Ġinterp":7347,"Ġlongitud":7348,"Ġdistancing":7349,"Ġmild":7350,"Ġsurplus":7351,"Ġbuying":7352,"Ġequation":7353,"ĠVal":7354,"Ġaccessible":7355,"riction":7356,"Ġcenter":7357,"Ġtests":7358,"Ġcompetent":7359,"ĠRegistration":7360,"ĠThrough":7361,"ĠThrips":7362,"Ġtransported":7363,"Ġ95":7364,"Ġslop":7365,"Ġvarying":7366,"ĠConsortium":7367,"Ġuniformly":7368,"Ġpasses":7369,"Ġintroduce":7370,"Ġreporting":7371,"Ġmangoes":7372,"Ġfluctu":7373,"Ġclarity":7374,"Ġappointment":7375,"Ġsubjected":7376,"ĠRajeshwari":7377,"Ġacquiring":7378,"ĠRelease":7379,"Ġplatforms":7380,"Ġfoliar":7381,"Ġinteraction":7382,"Ġcylinder":7383,"Ġmicronutrients":7384,"Ġcypermethrin":7385,"ĠMetarhiz":7386,"Ġenroll":7387,"Ġhailst":7388,"ĠSpraying":7389,"oceros":7390,"hinoceros":7391,"Ġmoderately":7392,"Ġrolling":7393,"Ġsealed":7394,"Ġarmiger":7395,"ĠMovements":7396,"repreneurs":7397,"ĠDigital":7398,"Ġresponse":7399,"Ġvillages":7400,"ĠSignature":7401,"ĠWhitegrub":7402,"Ġgarbage":7403,"ĠMetarhizium":7404,"Ġarmigera":7405,"98":7406,"CBB":7407,"ISA":7408,"PGS":7409,"cons":7410,"eous":7411,"iensis":7412,"mark":7413,"mium":7414,"Ġtribal":7415,"ince":7416,"Ġsaf":7417,"Ġport":7418,"Ġpomace":7419,"Ġbox":7420,"Ġdeed":7421,"ĠTw":7422,"Ġlender":7423,"irus":7424,"rix":7425,"Ġstocking":7426,"ĠCritical":7427,"ĠShe":7428,"emper":7429,"Ġspore":7430,"ĠHim":7431,"Ġexecution":7432,"ivek":7433,"Ġadhering":7434,"akka":7435,"Ġcompressed":7436,"Ġcoating":7437,"Ġcounter":7438,"illary":7439,"ĠRate":7440,"Ġquen":7441,"Ġ2000":7442,"Ġspecify":7443,"ously":7444,"Ġscience":7445,"Ġscrap":7446,"Ġsuppressing":7447,"Ġpreventative":7448,"Ġformats":7449,"ellite":7450,"ĠProduct":7451,"ĠLem":7452,"Ġblock":7453,"Ġ42":7454,"Ġ44":7455,"othrin":7456,"Ġdifferences":7457,"Ġcarrot":7458,"Ġmaturation":7459,"Ġirradiation":7460,"Ġdirections":7461,"iece":7462,"ixing":7463,"nings":7464,"ĠVivek":7465,"Ġarmyworm":7466,"Ġarrest":7467,"ĠAnaly":7468,"Ġnumbers":7469,"Ġbiom":7470,"Ġ1500":7471,"Ġprogrammes":7472,"Ġsauce":7473,"ĠUnion":7474,"Ġfreshly":7475,"Ġborrowing":7476,"Ġdecomposing":7477,"Ġerad":7478,"Ġtillers":7479,"Ġimmunity":7480,"Ġburnt":7481,"Ġpersonnel":7482,"Ġanti":7483,"Ġuniformity":7484,"Ġchains":7485,"Ġupper":7486,"Ġcompositions":7487,"ĠEarly":7488,"Ġweevils":7489,"Ġslowly":7490,"uminants":7491,"Ġacquisition":7492,"Ġnutritive":7493,"Ġdevices":7494,"Ġempan":7495,"Ġammonium":7496,"Ġdemonstrate":7497,"Ġprecision":7498,"Ġcorporates":7499,"Ġsteel":7500,"Ġprecipit":7501,"ĠRatua":7502,"Ġsubmergence":7503,"halothrin":7504,"Ġdeterioration":7505,"crowding":7506,"Ġprevalent":7507,"ĠHelicoverpa":7508,"Ġthuringiensis":7509,"Ġdeliverables":7510,"Ġantibiot":7511,"saccharides":7512,"ĠPalam":7513,"EC":7514,"HR":7515,"RB":7516,"ST":7517,"WP":7518,"bh":7519,"dressing":7520,"sulfuron":7521,"Ġri":7522,"reated":7523,"Ġcity":7524,"Ġcum":7525,"Ġcopy":7526,"esions":7527,"role":7528,"ito":7529,"oration":7530,"aland":7531,"ĠWill":7532,"Ġbees":7533,"urt":7534,"uron":7535,"imicrobial":7536,"Ġnarrow":7537,"Ġlesions":7538,"olf":7539,"abh":7540,"Ġvines":7541,"Ġvote":7542,"chin":7543,"ĠCSR":7544,"izer":7545,"Ġenfor":7546,"Ġonions":7547,"endra":7548,"Ġsports":7549,"ĠHead":7550,"Ġleaching":7551,"Ġalone":7552,"Ġvariations":7553,"Ġagreed":7554,"Ġcopper":7555,"efram":7556,"Ġ29":7557,"Ġmetals":7558,"Ġinsoluble":7559,"Ġtimefram":7560,"Ġshif":7561,"Ġcertifications":7562,"Ġsolvent":7563,"Ġ31":7564,"Ġincremental":7565,"ublic":7566,"Ġreflect":7567,"Ġrefreshing":7568,"Ġpectinase":7569,"nex":7570,"formation":7571,"Ġbrine":7572,"Ġbrands":7573,"Ġbuilt":7574,"Ġgravity":7575,"Ġevening":7576,"Ġinfectious":7577,"Ġperforming":7578,"Ġparasitoid":7579,"Ġwool":7580,"Ġtransferring":7581,"ĠFPCs":7582,"Ġcellular":7583,"Ġshelter":7584,"Ġripeness":7585,"ĠAlbendazole":7586,"Ġengaging":7587,"Ġlasts":7588,"Ġadjustments":7589,"Ġsanctioning":7590,"Ġretaining":7591,"ĠBlue":7592,"Ġsatellite":7593,"121":7594,"Ġexplore":7595,"party":7596,"Ġoxidative":7597,"Ġaccuracy":7598,"rifos":7599,"Ġsilage":7600,"Ġtends":7601,"ĠPests":7602,"Ġdeclared":7603,"Ġstabilizing":7604,"umping":7605,"Ġrefrigerator":7606,"Ġlactic":7607,"Ġcapture":7608,"Ġassigned":7609,"Ġsampling":7610,"ĠTechnical":7611,"Ġinjury":7612,"ursement":7613,"Ġmolds":7614,"Ġtuber":7615,"Ġstalks":7616,"Ġcolonies":7617,"Ġprofessionals":7618,"ĠSteiner":7619,"ĠSLCCCI":7620,"Ġlecani":7621,"Ġinterpret":7622,"26":7623,"FT":7624,"KISA":7625,"WM":7626,"WS":7627,"band":7628,"da":7629,"dered":7630,"ey":7631,"fers":7632,"mu":7633,"rine":7634,"yield":7635,"Ġtart":7636,"Ġol":7637,"Ġpel":7638,"Ġfast":7639,"Ġbone":7640,"ĠTer":7641,"ĠWS":7642,"ĠWe":7643,"ulphur":7644,"asth":7645,"Ġnow":7646,"Ġnative":7647,"Ġglo":7648,"eeding":7649,"ĠAph":7650,"ĠAWS":7651,"ĠCod":7652,"ĠCry":7653,"Ġimplements":7654,"Ġexecutive":7655,"ĠBul":7656,"ĠBud":7657,"Ġmancozeb":7658,"Ġcooked":7659,"Ġcoarse":7660,"ĠRod":7661,"Ġjob":7662,"luding":7663,"ĠOs":7664,"Ġsea":7665,"ught":7666,"Ġscen":7667,"Ġscope":7668,"Ġabn":7669,"Ġformulated":7670,"Ġclod":7671,"aparn":7672,"Ġdamaging":7673,"Ġflock":7674,"Ġassim":7675,"Ġindig":7676,"Ġsolute":7677,"Ġprotoc":7678,"berry":7679,"ĠKarn":7680,"Ġavailing":7681,"Ġcaps":7682,"Ġexpressed":7683,"Ġtransplantation":7684,"Ġtrapped":7685,"Ġgrants":7686,"Ġharmon":7687,"Ġbelt":7688,"Ġmode":7689,"Ġbrings":7690,"Ġresidual":7691,"Ġdiagn":7692,"Ġpowdered":7693,"Ġintegration":7694,"Ġfiled":7695,"Ġeconomies":7696,"Ġtillering":7697,"Ġimmature":7698,"Ġferrous":7699,"ĠExecution":7700,"Ġearthworm":7701,"Ġvermi":7702,"Ġundersurface":7703,"Ġethyl":7704,"Ġdigital":7705,"Ġpremature":7706,"Ġbooks":7707,"Ġantimicrobial":7708,"Ġpreferably":7709,"Ġretains":7710,"Ġeliminates":7711,"Ġgoverning":7712,"Ġbreeds":7713,"Ġgardening":7714,"Ġhousehold":7715,"Ġlinkage":7716,"Ġaffairs":7717,"Ġsubsidies":7718,"Ġsterilization":7719,"Ġsettled":7720,"Ġcollectively":7721,"Ġpanic":7722,"Ġoutbreak":7723,"ĠJammu":7724,"bica":7725,"Ġtrends":7726,"Ġcyhalothrin":7727,"Ġhorticulture":7728,"Ġpetals":7729,"ĠTarun":7730,"Ġmutual":7731,"Ġsample":7732,"Ġdischarge":7733,"Ġsuffer":7734,"Ġmetabolic":7735,"Ġdepletion":7736,"Ġstubble":7737,"ettlement":7738,"ĠDetailed":7739,"ĠAnimals":7740,"Ġletter":7741,"Ġcrushing":7742,"Ġgeographical":7743,"Ġcashew":7744,"Ġmuscle":7745,"ĠCSCs":7746,"Ġabundant":7747,"ĠBastar":7748,"Ġvitality":7749,"ĠAnalysis":7750,"Ġtimeframe":7751,"KISAN":7752,"ĠCodex":7753,"aparni":7754,"49":7755,"500":7756,"Based":7757,"bing":7758,"dom":7759,"eing":7760,"filtration":7761,"gest":7762,"hada":7763,"kes":7764,"lt":7765,"Ġtin":7766,"Ġtiny":7767,"hever":7768,"Ġsamples":7769,"anch":7770,"Ġfos":7771,"Ġbund":7772,"Ġbajra":7773,"Ġants":7774,"Ġinhibits":7775,"Ġwhic":7776,"Ġwax":7777,"Ġreverse":7778,"ĠTime":7779,"ĠTSS":7780,"ĠWor":7781,"ĠWinds":7782,"usive":7783,"usband":7784,"iders":7785,"Ġgender":7786,"otox":7787,"olid":7788,"Ġview":7789,"arma":7790,"Ġstead":7791,"ĠCar":7792,"ĠCash":7793,"terrane":7794,"ĠSure":7795,"thra":7796,"ĠPract":7797,"ĠPoint":7798,"Ġexamin":7799,"Ġexecut":7800,"ĠBandra":7801,"action":7802,"ecurity":7803,"Ġpermission":7804,"udolf":7805,"ĠMakka":7806,"ĠRudolf":7807,"Ġjoint":7808,"Ġnearb":7809,"Ġintensity":7810,"Ġsever":7811,"Ġinsert":7812,"Ġotherwise":7813,"Ġsharing":7814,"ĠLE":7815,"ĠLog":7816,"ĠLead":7817,"Ġflies":7818,"ĠKarma":7819,"ĠOrange":7820,"ĠUP":7821,"Ġsomeone":7822,"Ġsupported":7823,"Ġinvolving":7824,"Ġtempor":7825,"Ġrise":7826,"Ġragi":7827,"Ġrack":7828,"Ġhectares":7829,"Ġdefine":7830,"Ġrotations":7831,"Ġpectinases":7832,"Ġguide":7833,"ĠAgro":7834,"Ġequipped":7835,"Ġshell":7836,"Ġsubstant":7837,"Ġelong":7838,"Ġsocieties":7839,"ĠUniversities":7840,"Ġcounted":7841,"Ġutilizes":7842,"Ġgrazing":7843,"going":7844,"ĠImproved":7845,"Ġchallenge":7846,"ĠSpec":7847,"Ġorganizational":7848,"ĠThreshold":7849,"Ġconstriction":7850,"Ġflavored":7851,"Ġaromatic":7852,"Ġgelling":7853,"Ġdietary":7854,"Ġparticipating":7855,"Ġpredatory":7856,"Ġboiled":7857,"Ġpubl":7858,"Ġcontinued":7859,"Ġbroadcast":7860,"prone":7861,"ĠCBBO":7862,"Ġsquares":7863,"ĠUsar":7864,"ĠCentre":7865,"Ġlogging":7866,"ĠEng":7867,"Ġseries":7868,"Ġreplac":7869,"CEO":7870,"Ġ1850":7871,"Ġaccurately":7872,"Ġundertaking":7873,"Ġundertaken":7874,"ĠPrevent":7875,"vipos":7876,"ĠRajasth":7877,"Ġbranding":7878,"Ġsurroundings":7879,"Ġcloser":7880,"ĠThiram":7881,"Ġfewer":7882,"Ġempower":7883,"Ġconvenience":7884,"ĠIIHR":7885,"Ġdecanter":7886,"ĠPotassium":7887,"Ġroller":7888,"Ġtenure":7889,"ĠSouth":7890,"Ġprolong":7891,"Ġguarantees":7892,"phorous":7893,"Ġdecided":7894,"Ġdrawn":7895,"Ġsolarisation":7896,"closure":7897,"Ġaccommod":7898,"ĠPrivate":7899,"ĠButachlor":7900,"ĠOperational":7901,"ĠRanikhet":7902,"ĠNGOs":7903,"ĠNutrient":7904,"Ġcentimeters":7905,"Ġfluorescens":7906,"CBBOs":7907,"Ġbiomass":7908,"Ġwhichever":7909,"ĠWindsor":7910,"terranean":7911,"Ġnearby":7912,"ĠRajasthan":7913,"./":7914,"27":7915,"61":7916,"ET":7917,"FC":7918,"KV":7919,"aired":7920,"cission":7921,"copic":7922,"eff":7923,"gros":7924,"hs":7925,"mic":7926,"till":7927,"ware":7928,"Ġai":7929,"Ġpeas":7930,"enes":7931,"roke":7932,"isite":7933,"Ġann":7934,"Ġantic":7935,"icid":7936,"arj":7937,"arr":7938,"Ġwra":7939,"Ġproceed":7940,"idney":7941,"Ġeating":7942,"Ġerect":7943,"Ġconduc":7944,"Ġla":7945,"Ġorthodox":7946,"agar":7947,"Ġvo":7948,"Ġstring":7949,"ĠAoA":7950,"Ġdeem":7951,"ĠSamba":7952,"ĠSettlement":7953,"Ġbye":7954,"ĠPres":7955,"ĠPublic":7956,"ĠFrom":7957,"ĠField":7958,"rubs":7959,"Ġappraisal":7960,"ĠBar":7961,"ĠBIS":7962,"Ġdisk":7963,"ĠInter":7964,"Ġgrows":7965,"ĠMust":7966,"Ġkiw":7967,"resp":7968,"Ġcontrols":7969,"ĠRid":7970,"ĠRot":7971,"Ġjowar":7972,"Ġinfl":7973,"Ġtrash":7974,"Ġnotation":7975,"ventionally":7976,"lings":7977,"POs":7978,"erves":7979,"reements":7980,"Ġinversion":7981,"Ġveins":7982,"Ġpoison":7983,"Ġminimal":7984,"Ġparticle":7985,"Ġdepartment":7986,"Ġrotated":7987,"Ġfolder":7988,"Ġword":7989,"heshwari":7990,"Ġenters":7991,"Ġentered":7992,"ĠVe":7993,"ucking":7994,"Ġpacks":7995,"Ġhandled":7996,"Ġhandholding":7997,"Ġbios":7998,"Ġdiarr":7999,"Ġgerminate":8000,"Ġdelicate":8001,"Ġerro":8002,"Ġmultiplying":8003,"Ġabscission":8004,"Ġburied":8005,"Ġshortage":8006,"ĠMaheshwari":8007,"control":8008,"Ġemerged":8009,"Ġlaboratory":8010,"ĠAppro":8011,"Ġpickle":8012,"Ġsweetness":8013,"ĠMoong":8014,"Ġsuggests":8015,"Ġconverting":8016,"Ġattracted":8017,"Ġacceptance":8018,"akhand":8019,"dehyd":8020,"arson":8021,"Ġelected":8022,"ĠUttarakhand":8023,"Ġadapted":8024,"Ġdestroying":8025,"Ġencouraging":8026,"Ġeducational":8027,"Ġsnap":8028,"Ġsnails":8029,"Ġradical":8030,"Ġmobile":8031,"thene":8032,"backs":8033,"Ġstimulating":8034,"Ġcompromised":8035,"Ġapric":8036,"Ġfurniture":8037,"Ġstripes":8038,"Ġsprouts":8039,"ĠCorporates":8040,"Ġarbitration":8041,"Ġberries":8042,"Ġbigger":8043,"Ġpyrolysis":8044,"ĠCypermethrin":8045,"ĠChlorantraniliprole":8046,"Ġundesirable":8047,"Ġentitled":8048,"Ġfluctuations":8049,"ĠTwo":8050,"Ġquenching":8051,"nexure":8052,"Ġgloves":8053,"Ġscenari":8054,"groscopic":8055,"icidal":8056,"Ġconducive":8057,"ĠMustard":8058,"150":8059,"36":8060,"47":8061,"BPH":8062,"fl":8063,"gaining":8064,"hthal":8065,"kan":8066,"lin":8067,"oured":8068,"sy":8069,"trans":8070,"Ġ%":8071,"Ġovipos":8072,"erate":8073,"Ġsod":8074,"Ġpiece":8075,"anging":8076,"itis":8077,"edible":8078,"Ġdut":8079,"ilting":8080,"ilachlor":8081,"ĠTender":8082,"hop":8083,"Ġconventionally":8084,"dubi":8085,"olong":8086,"Ġhepta":8087,"Ġstri":8088,"Ġstorms":8089,"Ġstroke":8090,"ĠAra":8091,"ĠCC":8092,"Ġenric":8093,"stit":8094,"Ġdealing":8095,"amectin":8096,"ĠSince":8097,"ĠFAW":8098,"Ġspiny":8099,"ĠHaz":8100,"comfort":8101,"Ġalmost":8102,"acre":8103,"Ġexchan":8104,"Ġadhe":8105,"ĠBC":8106,"ĠBen":8107,"Ġperf":8108,"ĠMaster":8109,"Ġ13":8110,"Ġchlor":8111,"Ġtranc":8112,"Ġsex":8113,"ĠEth":8114,"covered":8115,"ĠKa":8116,"Ġleveling":8117,"ĠJh":8118,"ĠUV":8119,"Ġdevelopmental":8120,"Ġwhorl":8121,"Ġavailed":8122,"Ġrepair":8123,"Ġmilking":8124,"added":8125,"ashing":8126,"Ġlandholding":8127,"Ġseasonality":8128,"Ġarising":8129,"Ġbutton":8130,"issions":8131,"Ġhumus":8132,"hydrate":8133,"Ġwhose":8134,"Ġwholes":8135,"Ġsave":8136,"Ġmedia":8137,"Ġplanned":8138,"iana":8139,"ĠRegulation":8140,"ĠSpring":8141,"Ġcombining":8142,"lorite":8143,"Ġbreaks":8144,"Ġconstitu":8145,"Ġflavour":8146,"Ġbargaining":8147,"ĠAcetic":8148,"Ġfixing":8149,"Ġ1956":8150,"ofix":8151,"Ġrepresentation":8152,"aptan":8153,"Ġdisrupts":8154,"ĠCarbon":8155,"Ġpolythene":8156,"Ġrelationships":8157,"Ġtendon":8158,"Ġacquire":8159,"razos":8160,"amboo":8161,"Ġhatching":8162,"Ġrefrigeration":8163,"Ġdrawing":8164,"ĠPhosphate":8165,"Ġdividend":8166,"NAA":8167,"Ġreasonable":8168,"Ġkernel":8169,"Ġthreats":8170,"ĠTarai":8171,"Ġsatisfaction":8172,"ĠUTs":8173,"ĠNaphthal":8174,"ĠPlanofix":8175,"Ġschedul":8176,"ĠCoccidiosis":8177,"ĠCultivation":8178,"ĠNagaland":8179,"Ġplums":8180,"Ġborrowers":8181,"seeded":8182,"Ġtightly":8183,"ĠHealthy":8184,"Ġaffordable":8185,"Ġhypochlorite":8186,"ĠSimilarly":8187,"Ġgodowns":8188,"ĠRevolution":8189,"ĠJaldubi":8190,"Ġenrollment":8191,"Ġantibiotics":8192,"Ġlecanii":8193,"Ġseverity":8194,"efficacy":8195,"ĠVeget":8196,"Ġheptahydrate":8197,"Ġtranche":8198,"ĠNaphthalene":8199,"28":8200,"99":8201,"CSC":8202,"TP":8203,"au":8204,"aemia":8205,"bling":8206,"dri":8207,"gone":8208,"iors":8209,"kharif":8210,"keeping":8211,"power":8212,"wheat":8213,"Ġtank":8214,"ini":8215,"inet":8216,"inity":8217,"Ġcodes":8218,"Ġpore":8219,"Ġpedic":8220,"esban":8221,"oral":8222,"Ġinvent":8223,"Ġdup":8224,"Ġdates":8225,"urges":8226,"ida":8227,"idhi":8228,"Ġnour":8229,"Ġcond":8230,"Ġconv":8231,"Ġconform":8232,"Ġgut":8233,"irds":8234,"agnes":8235,"rie":8236,"rief":8237,"Ġvess":8238,"arming":8239,"ĠAerobic":8240,"ĠCucurb":8241,"Ġsooty":8242,"Ġongoing":8243,"orted":8244,"orthern":8245,"ĠFol":8246,"Ġexits":8247,"ĠBand":8248,"Ġperception":8249,"Ġyards":8250,"Ġdoor":8251,"Ġdouble":8252,"Ġresist":8253,"Ġreserve":8254,"Ġrough":8255,"Ġrosem":8256,"Ġdissem":8257,"ptions":8258,"ĠMar":8259,"ĠNPOP":8260,"Ġthi":8261,"ĠDurges":8262,"Ġsynthesis":8263,"ĠRO":8264,"raints":8265,"ĠOxy":8266,"Ġsealing":8267,"Ġscent":8268,"ĠEc":8269,"ensus":8270,"Ġhouses":8271,"ĠLocal":8272,"Ġpromoters":8273,"ishn":8274,"Ġundergone":8275,"Ġsignature":8276,"ursed":8277,"Ġvalidity":8278,"ĠChandra":8279,"Ġemissions":8280,"Ġimprovements":8281,"ĠAgribusiness":8282,"Ġhumid":8283,"Ġregulating":8284,"Ġmedication":8285,"ĠUnlike":8286,"Ġindicated":8287,"Ġalternating":8288,"Ġjellying":8289,"Ġmostly":8290,"Ġoxychloride":8291,"rosis":8292,"Ġaddressed":8293,"lications":8294,"Ġredgram":8295,"Ġconstraints":8296,"olden":8297,"cont":8298,"ĠAlm":8299,"Ġholds":8300,"Ġengagement":8301,"Ġconserves":8302,"Ġhydrop":8303,"Ġcollar":8304,"Ġexpensive":8305,"Ġdilute":8306,"Ġbroadleaf":8307,"Ġbottle":8308,"Ġelectronic":8309,"Ġintercrop":8310,"ohydrate":8311,"Ġventure":8312,"Ġcompaction":8313,"Ġpaperwork":8314,"ĠPremium":8315,"Ġflooding":8316,"Ġestimates":8317,"Ġmoldboard":8318,"Ġbehaviors":8319,"Ġsoftware":8320,"Ġcrushed":8321,"Ġinteractions":8322,"ĠThiamethoxam":8323,"Ġvigorous":8324,"Ġwait":8325,"ĠJapan":8326,"Ġenrolment":8327,"ooks":8328,"ĠIncre":8329,"Ġoutlined":8330,"Ġdriving":8331,"Ġvelv":8332,"Ġmedicine":8333,"Ġbenzoic":8334,"Ġpearl":8335,"Ġgreyish":8336,"Ġfauna":8337,"ĠChlorpyriphos":8338,"climatic":8339,"Ġexcreta":8340,"ĠGarden":8341,"Ġsegment":8342,"Ġvertical":8343,"ĠCutting":8344,"Ġimmersing":8345,"8002":8346,"Ġvulnerable":8347,"Ġbiopest":8348,"Ġdykes":8349,"ĠAmerican":8350,"Ġempanelled":8351,"yielding":8352,"ĠOsmotic":8353,"Ġabnormal":8354,"Ġclods":8355,"usbandry":8356,"Ġtemporary":8357,"Ġpublished":8358,"Ġbiosecurity":8359,"driven":8360,"agnesium":8361,"Ġrosemary":8362,"ĠDurgeshwari":8363,"%),":8364,"87":8365,"DPR":8366,"Es":8367,"Im":8368,"even":8369,"ouring":8370,"rust":8371,"tropical":8372,"urop":8373,"uff":8374,"uish":8375,"ymatic":8376,"Ġtast":8377,"hea":8378,"erating":8379,"Ġsides":8380,"Ġcul":8381,"onkan":8382,"Ġpendimethalin":8383,"encing":8384,"Ġfle":8385,"itim":8386,"orbic":8387,"Ġbold":8388,"Ġbrief":8389,"aric":8390,"Ġwrit":8391,"Ġreimb":8392,"Ġbeer":8393,"hool":8394,"Ġep":8395,"Ġlays":8396,"owl":8397,"iry":8398,"otal":8399,"osed":8400,"ĠISO":8401,"abad":8402,"Ġstarch":8403,"estible":8404,"ĠAri":8405,"ĠCub":8406,"igs":8407,"igold":8408,"Ġdeal":8409,"amities":8410,"ĠSN":8411,"ĠSn":8412,"ĠSodium":8413,"adh":8414,"Ġmanpower":8415,"Ġresem":8416,"Ġhaze":8417,"Ġcohes":8418,"Ġcoffe":8419,"Ġconsolid":8420,"ĠDPR":8421,"ĠRain":8422,"Ġmetric":8423,"Ġinsufficient":8424,"ĠEurop":8425,"Ġcolors":8426,"Ġhoeing":8427,"Ġcertificates":8428,"Ġasset":8429,"Ġsubterranean":8430,"ĠKrant":8431,"ĠKonkan":8432,"Ġmonohydrate":8433,"Ġbluish":8434,"hemicals":8435,"Ġvegetation":8436,"ologically":8437,"Ġdecide":8438,"Ġtermination":8439,"ticle":8440,"ĠChlo":8441,"Ġentrepreneurs":8442,"Ġtwinning":8443,"Ġpackages":8444,"Ġmodels":8445,"Ġmonthly":8446,"Ġgoes":8447,"loa":8448,"Ġaimed":8449,"Ġcompletion":8450,"Ġmultiplied":8451,"ĠRegion":8452,"Ġgroundnuts":8453,"Ġpupae":8454,"Ġregardless":8455,"ĠPlants":8456,"Ġdependency":8457,"andua":8458,"Ġrepresented":8459,"Ġinvolvement":8460,"Ġreproduce":8461,"Ġmillion":8462,"Ġchecking":8463,"Ġresolutions":8464,"Ġpolysaccharides":8465,"uriate":8466,"ĠInterest":8467,"Ġhoneydew":8468,"Ġallocated":8469,"Ġrespectively":8470,"ĠRajendra":8471,"Ġmobilization":8472,"Ġdusty":8473,"Ġshallow":8474,"Ġcarbohydrate":8475,"ronutrients":8476,"phosphate":8477,"Ġdeclar":8478,"Ġempow":8479,"ĠPOBs":8480,"Ġlabeled":8481,"ochloa":8482,"Ġinhibiting":8483,"Ġuploaded":8484,"ĠReport":8485,"Ġgreatly":8486,"Ġdivision":8487,"Ġneighbor":8488,"Ġtractor":8489,"Ġnitrate":8490,"gamot":8491,"Ġlongitudinal":8492,"emperature":8493,"ĠTimely":8494,"Ġsubstantial":8495,"Ġdeemed":8496,"Ġdiarrhea":8497,"dehyde":8498,"ĠCuba":8499,"ĠEurope":8500,"Food":8501,"KR":8502,"RG":8503,"aur":8504,"cif":8505,"di":8506,"dinary":8507,"fit":8508,"fixing":8509,"lar":8510,"nose":8511,"oin":8512,"rator":8513,"tol":8514,"ule":8515,"Ġ\"":8516,"heart":8517,"ino":8518,"erant":8519,"Ġsie":8520,"Ġcig":8521,"Ġpseudomonas":8522,"Ġfar":8523,"Ġfats":8524,"rocc":8525,"aline":8526,"Ġmuc":8527,"Ġduly":8528,"Ġwaters":8529,"ilus":8530,"Ġren":8531,"Ġregener":8532,"leting":8533,"Ġproxim":8534,"imetho":8535,"eting":8536,"Ġeco":8537,"Ġnec":8538,"Ġnations":8539,"Ġlying":8540,"Ġlamb":8541,"irm":8542,"chi":8543,"ultural":8544,"ĠAnt":8545,"Ġsoak":8546,"Ġusual":8547,"ĠSem":8548,"Ġwithering":8549,"thing":8550,"Ġpreced":8551,"ĠPox":8552,"ĠPolic":8553,"Ġcoming":8554,"ĠHKR":8555,"Ġalle":8556,"Ġalert":8557,"sei":8558,"orer":8559,"Ġcobs":8560,"illium":8561,"ĠMIS":8562,"Ġkandua":8563,"ĠNodal":8564,"Ġthreshing":8565,"ĠDash":8566,"ĠDHM":8567,"ĠDimetho":8568,"ffected":8569,"Ġchrocc":8570,"Ġjaggery":8571,"Ġ28":8572,"Ġrequiring":8573,"Ġrequisite":8574,"Ġregulation":8575,"Ġscare":8576,"Ġtimelines":8577,"ogas":8578,"Ġmoving":8579,"Ġmaps":8580,"Ġformulations":8581,"Ġcultivators":8582,"ĠLight":8583,"ĠCommer":8584,"ĠAdv":8585,"Ġsystematic":8586,"Ġwhit":8587,"Ġmarketable":8588,"Ġmatching":8589,"Ġgreenhouse":8590,"Ġcapsu":8591,"Ġgenu":8592,"Ġdepectinization":8593,"Ġpeak":8594,"Ġtrading":8595,"wormed":8596,"Ġguava":8597,"Ġfoul":8598,"Ġserving":8599,"Ġserved":8600,"ĠAnnexure":8601,"Ġlimitations":8602,"Ġmodify":8603,"wns":8604,"Ġpresented":8605,"Ġdownsei":8606,"Ġcenters":8607,"Ġbrownish":8608,"Ġamino":8609,"Ġborax":8610,"Ġparasitic":8611,"rosion":8612,"ĠArticle":8613,"Ġslender":8614,"Ġhydrolysis":8615,"solids":8616,"Ġmatures":8617,"Ġpickled":8618,"Ġclearly":8619,"Ġemployees":8620,"Ġinfluences":8621,"Ġshowing":8622,"Ġelectroly":8623,"Ġtubers":8624,"Ġaggregating":8625,"Ġunfit":8626,"Ġprocuring":8627,"Ġstructural":8628,"ĠPromot":8629,"Ġpreviously":8630,"Ġstunting":8631,"Ġfemales":8632,"Ġfibr":8633,"Ġsettling":8634,"Ġcloudiness":8635,"Ġcorrectly":8636,"Ġwooden":8637,"ĠSociety":8638,"company":8639,"Ġregistering":8640,"Ġantioxidant":8641,"ĠFederations":8642,"ĠGenerally":8643,"Ġgummy":8644,"Ġmoderate":8645,"Ġtunnel":8646,"Ġprolif":8647,"Ġsimpler":8648,"Ġsequence":8649,"ĠHorticultural":8650,"mingling":8651,"Ġparent":8652,"Ġpropagules":8653,"Producer":8654,"Ġclause":8655,"Ġinvert":8656,"ĠMulching":8657,"Ġindependent":8658,"ĠIndustry":8659,"Ġwingless":8660,"ĠCircular":8661,"Ġhammer":8662,"ĠLema":8663,"ĠFollowing":8664,"ĠSemilooper":8665,"Ġchroccum":8666,"Ġcapsule":8667,"400":8668,"DF":8669,"LM":8670,"Man":8671,"amental":8672,"affected":8673,"cer":8674,"iary":8675,"men":8676,"rations":8677,"sized":8678,"sugar":8679,"uous":8680,"ww":8681,"Ġspp":8682,"Ġsund":8683,"Ġsites":8684,"Ġcuc":8685,"Ġcope":8686,"onal":8687,"Ġpol":8688,"Ġpump":8689,"ese":8690,"isations":8691,"Ġbill":8692,"Ġbesides":8693,"arlic":8694,"Ġdimin":8695,"Ġtool":8696,"Ġtough":8697,"ĠWarehouse":8698,"ulants":8699,"oman":8700,"etes":8701,"Ġgarlic":8702,"utral":8703,"due":8704,"otic":8705,"ĠID":8706,"abhar":8707,"Ġstone":8708,"ĠCast":8709,"ĠSy":8710,"ĠSank":8711,"Ġruminants":8712,"ĠPul":8713,"ĠPBW":8714,"ĠHary":8715,"Ġexceptions":8716,"aria":8717,"ĠBads":8718,"illation":8719,"illard":8720,"ĠMic":8721,"ĠMod":8722,"ĠMumb":8723,"ĠMadh":8724,"Ġking":8725,"ĠDec":8726,"ĠDIN":8727,"Ġdoesn":8728,"ventilated":8729,"ĠExt":8730,"ypes":8731,"Ġmolybdenum":8732,"Ġovercrowding":8733,"Ġsupplier":8734,"Ġpracticed":8735,"ĠProduction":8736,"Ġ370":8737,"ĠKn":8738,"Ġvect":8739,"Ġblocks":8740,"Ġsigning":8741,"Ġupro":8742,"Ġecologically":8743,"Ġdepression":8744,"Ġhygroscopic":8745,"Ġtrace":8746,"ĠVishn":8747,"ucing":8748,"Ġarran":8749,"ĠAndro":8750,"Ġpressed":8751,"Ġbands":8752,"Ġcalculating":8753,"Ġworked":8754,"Ġenzymatic":8755,"Ġcurl":8756,"Ġmidrib":8757,"Ġidea":8758,"Ġpupal":8759,"Ġpupate":8760,"ĠCertifying":8761,"Ġfocusing":8762,"Ġsyrups":8763,"ĠMaillard":8764,"Ġslur":8765,"ĠAltho":8766,"ĠShastra":8767,"ĠBlanching":8768,"Ġmarigold":8769,"Ġdelivering":8770,"Ġauditor":8771,"ĠEns":8772,"Ġtubes":8773,"Ġgardeners":8774,"Ġreplace":8775,"Ġdisinfectant":8776,"Ġenjoyed":8777,"Ġheaps":8778,"Ġestimation":8779,"Ġcredential":8780,"Ġdisorders":8781,"leshwari":8782,"Ġdevast":8783,"Ġstabilizers":8784,"ĠPeople":8785,"iotic":8786,"ĠWithin":8787,"Ġstrictly":8788,"Ġretailers":8789,"Ġtann":8790,"Ġtailored":8791,"ĠSamleshwari":8792,"Ġdonations":8793,"ĠLoan":8794,"Ġinactivate":8795,"ĠNapier":8796,"ĠChlorpyrifos":8797,"Ġshading":8798,"ĠHorticulture":8799,"Ġexclus":8800,"Ġcompulsory":8801,"ELIs":8802,"white":8803,"Ġpheromones":8804,"Ġpeanut":8805,"Ġcompetitiveness":8806,"Ġfractions":8807,"ĠSandy":8808,"ĠVermicompost":8809,"Ġdisadvantages":8810,"Ġpleasant":8811,"Ġcontingency":8812,"Ġaluminium":8813,"ĠHazard":8814,"Ġconstituents":8815,"esbania":8816,"Ġwriting":8817,"ĠHaryana":8818,"ĠBadshah":8819,"ĠMumbai":8820,"ĠVishnu":8821,"ĠAndroid":8822,"ĠAlthough":8823,"09":8824,"AI":8825,"Business":8826,"CO":8827,"PL":8828,"came":8829,"fan":8830,"fed":8831,"gers":8832,"ois":8833,"pite":8834,"rish":8835,"vable":8836,"Ġi":8837,"Ġtropical":8838,"heries":8839,"inking":8840,"Ġams":8841,"rema":8842,"ero":8843,"Ġsay":8844,"Ġcort":8845,"anical":8846,"encha":8847,"Ġfu":8848,"isheries":8849,"itting":8850,"Ġbiform":8851,"alse":8852,"icella":8853,"Ġmen":8854,"Ġmam":8855,"Ġwant":8856,"Ġwire":8857,"Ġrent":8858,"ĠTest":8859,"ĠTraining":8860,"asia":8861,"Ġbecame":8862,"omil":8863,"etothrips":8864,"Ġordinary":8865,"unch":8866,"otanical":8867,"Ġsto":8868,"Ġstripe":8869,"quito":8870,"ĠAb":8871,"ĠAut":8872,"ĠApro":8873,"ganate":8874,"ĠSamp":8875,"Ġwitness":8876,"ĠPanch":8877,"ĠFung":8878,"ĠFHB":8879,"Ġadequ":8880,"ĠBased":8881,"ĠBran":8882,"active":8883,"Ġaged":8884,"Ġagribusiness":8885,"Ġatrazine":8886,"Ġdiscip":8887,"Ġdiscomfort":8888,"perial":8889,"ĠMZ":8890,"Ġconsiders":8891,"Ġacar":8892,"uge":8893,"ĠRG":8894,"ĠRBI":8895,"ocasia":8896,"renew":8897,"Ġspecially":8898,"Ġnoticed":8899,"ĠOlig":8900,"Ġsows":8901,"enses":8902,"ensils":8903,"Ġmapping":8904,"ĠLiqu":8905,"ĠLime":8906,"Ġflora":8907,"Ġfloral":8908,"Ġdryers":8909,"Ġuneven":8910,"ĠKhap":8911,"ishable":8912,"Ġ581":8913,"Ġvegetative":8914,"Ġinterference":8915,"Ġupright":8916,"Ġmarketability":8917,"Ġoutline":8918,"Ġrepel":8919,"ĠStre":8920,"ĠStencha":8921,"Ġlitchi":8922,"Ġrab":8923,"aerema":8924,"Ġpeaches":8925,"ripening":8926,"Ġmicrosc":8927,"ptomycin":8928,"Ġutensils":8929,"indust":8930,"Ġmodicella":8931,"Ġcalamities":8932,"ĠUnited":8933,"Ġsuccession":8934,"ordial":8935,"ĠNoctu":8936,"Ġtextured":8937,"Ġeconomical":8938,"ĠImperial":8939,"Ġcombine":8940,"Ġcombines":8941,"ĠActuarial":8942,"Ġgrasses":8943,"Ġauthorised":8944,"ĠCrops":8945,"Ġtrusts":8946,"Ġethical":8947,"Ġdesigning":8948,"ĠPlains":8949,"Ġaromas":8950,"irach":8951,"ĠAlgae":8952,"Ġturns":8953,"Ġreliability":8954,"Ġcollap":8955,"Ġvaccine":8956,"ĠAtrazine":8957,"ĠConventional":8958,"urban":8959,"Ġfundamental":8960,"Ġevaporate":8961,"Ġsupervis":8962,"Ġsuperphosphate":8963,"Ġfalls":8964,"Ġopin":8965,"Ġobserve":8966,"Ġintegrating":8967,"Ġnetwor":8968,"Ġpopularity":8969,"Ġdisrupting":8970,"Ġcentralized":8971,"Ġrhizobium":8972,"Ġrhizomes":8973,"Ġfrequency":8974,"Ġtolerate":8975,"Ġclothing":8976,"Ġdegraded":8977,"Ġdigestible":8978,"Ġextends":8979,"Ġcoordinating":8980,"malocer":8981,"Ġharder":8982,"Ġswab":8983,"ĠEmmalocer":8984,"Ġmembranes":8985,"Ġsymbiotic":8986,"oplank":8987,"Ġimbalance":8988,"Ġtrend":8989,"Ġintermediaries":8990,"ĠCalcium":8991,"Ġyeasts":8992,"onychus":8993,"ĠPhase":8994,"ĠTransplanting":8995,"Ġaraban":8996,"Ġcocoons":8997,"Ġdiscussed":8998,"Ġtunnels":8999,"Ġlifes":9000,"Ġrolled":9001,"Ġexperienced":9002,"Ġinjuries":9003,"Ġdisbursement":9004,"Ġdecaffeinated":9005,"Ġdebt":9006,"Ġfindings":9007,"Ġceiling":9008,"Ġdamping":9009,"producing":9010,"producers":9011,"Ġoverseeing":9012,"Ġsuperiority":9013,"Ġviridi":9014,"Ġcellulose":9015,"Ġpermanganate":9016,"rotene":9017,"Ġrehydration":9018,"ĠWillmes":9019,"ĠAphid":9020,"otoxaemia":9021,"ĠLogo":9022,"Ġprolonged":9023,"Ġkiwi":9024,"arsonem":9025,"Ġscenario":9026,"Ġduties":9027,"ĠAlmond":9028,"itimus":9029,"Ġneighboring":9030,"Ġregenerative":9031,"ĠPolicy":9032,"ĠDimethoate":9033,"Ġgenuine":9034,"ĠCastor":9035,"Ġuprooting":9036,"Ġamsl":9037,"Ġcortex":9038,"Ġbiformis":9039,"ĠAproaerema":9040,"ĠPanchay":9041,"ĠBranch":9042,"ĠOligonychus":9043,"ĠKhapra":9044,"ĠStenchaetothrips":9045,"ĠNoctuidae":9046,"ĠEmmalocera":9047,"04":9048,"82":9049,"Ad":9050,"Dhan":9051,"May":9052,"ON":9053,"TAC":9054,"VC":9055,"bru":9056,"cropping":9057,"cnose":9058,"efficient":9059,"flower":9060,"nity":9061,"oving":9062,"ooplank":9063,"serve":9064,"the":9065,"target":9066,"view":9067,"Ġrig":9068,"Ġtri":9069,"erb":9070,"ont":9071,"Ġped":9072,"Ġpadd":9073,"Ġpores":9074,"Ġpairs":9075,"Ġfavor":9076,"itra":9077,"orily":9078,"icit":9079,"icul":9080,"icota":9081,"arning":9082,"Ġmagnesium":9083,"Ġdries":9084,"Ġforth":9085,"uraj":9086,"hough":9087,"Ġcanopies":9088,"agous":9089,"rivel":9090,"Ġvers":9091,"chins":9092,"ĠAud":9093,"umois":9094,"ĠSab":9095,"ĠSwe":9096,"Ġonline":9097,"Ġimpart":9098,"ĠPra":9099,"ĠProp":9100,"ĠPick":9101,"ĠPyr":9102,"ĠPVC":9103,"Ġspons":9104,"Ġwithheld":9105,"ĠHD":9106,"ĠHarvest":9107,"ady":9108,"adiri":9109,"Ġalbic":9110,"arius":9111,"herical":9112,"ĠBt":9113,"Ġcompl":9114,"ĠMut":9115,"ĠMult":9116,"Ġkills":9117,"Ġkiosks":9118,"avi":9119,"Ġthri":9120,"Ġthorax":9121,"ĠRagi":9122,"ocrot":9123,"Ġneutral":9124,"ĠOros":9125,"ĠGyps":9126,"ĠGypsum":9127,"ĠGrading":9128,"ouse":9129,"aryl":9130,"arer":9131,"Ġacting":9132,"Ġshrivel":9133,"erving":9134,"ĠLaw":9135,"icious":9136,"Ġ32":9137,"Ġ33":9138,"ĠKadiri":9139,"Ġdetected":9140,"Ġfertilizing":9141,"Ġsignboard":9142,"Ġporous":9143,"Ġinstru":9144,"Ġmethodology":9145,"Ġcapability":9146,"Ġcapabilities":9147,"Ġconcentrates":9148,"Ġconcentrating":9149,"Ġcoloring":9150,"Ġfactory":9151,"Ġdefoli":9152,"Ġlimon":9153,"Ġemitted":9154,"ĠVi":9155,"Ġgenerating":9156,"brids":9157,"Ġelse":9158,"ĠAngo":9159,"Ġregulated":9160,"Ġvirt":9161,"Ġprofitable":9162,"Ġpulled":9163,"Ġpodfly":9164,"ĠInsufficient":9165,"Ġdipping":9166,"Ġphytoph":9167,"Ġloanee":9168,"PMFBY":9169,"Ġzero":9170,"ĠSpotted":9171,"Ġsunflower":9172,"Ġdehydrating":9173,"Ġ99":9174,"Ġmechanization":9175,"Ġmicrobiological":9176,"ĠClub":9177,"coholic":9178,"ĠOnion":9179,"Ġdisinfected":9180,"Ġdilutable":9181,"Ġpredator":9182,"ĠMoist":9183,"Ġeliminated":9184,"Ġpenalt":9185,"Ġcustody":9186,"ĠDepartments":9187,"Ġderiv":9188,"Ġeffort":9189,"Ġdegrade":9190,"Ġencouraged":9191,"Ġhorned":9192,"ĠFSS":9193,"Ġalthough":9194,"Ġinitiate":9195,"Ġfiring":9196,"inctus":9197,"phosate":9198,"Ġdrawbacks":9199,"ĠMeeting":9200,"ĠEmamectin":9201,"Ġcollaborate":9202,"Ġdemonstrates":9203,"ĠReducing":9204,"Ġcentrifuge":9205,"Ġcentrifugation":9206,"Ġtherm":9207,"Ġinstallments":9208,"UTs":9209,"Ġbelieved":9210,"Ġcracking":9211,"Ġveterin":9212,"ĠSoya":9213,"Ġmarmalades":9214,"Ġmilliliter":9215,"Ġlandscape":9216,"Ġconnect":9217,"Ġarbitrator":9218,"Ġcryogens":9219,"phenol":9220,"Ġrejected":9221,"ĠUSDA":9222,"Ġloosening":9223,"ĠNutritional":9224,"Ġpercolation":9225,"Ġterra":9226,"Ġincentive":9227,"Ġmotiv":9228,"ĠIdentification":9229,"Ġperceived":9230,"ĠRemoving":9231,"ĠExperiments":9232,"Ġcategorized":9233,"carbon":9234,"Ġscraps":9235,"Ġelectricity":9236,"ĠCapital":9237,"consum":9238,"thracnose":9239,"Ġnourish":9240,"ĠKranti":9241,"Ġproximity":9242,"ĠDashaparni":9243,"Ġproliferation":9244,"Ġslurry":9245,"Ġstopped":9246,"Ġlifespan":9247,"bruary":9248,"Ġalbicinctus":9249,"ocrotophos":9250,"ĠOrosius":9251,"ĠGypsy":9252,"ĠAngoumois":9253,"Ġphytophagous":9254,"38":9255,"46":9256,"AO":9257,"East":9258,"July":9259,"NPMA":9260,"bour":9261,"eeling":9262,"hbh":9263,"kar":9264,"oC":9265,"po":9266,"tam":9267,"upt":9268,"vic":9269,"ĠX":9270,"Ġtying":9271,"Ġsq":9272,"Ġsli":9273,"Ġpist":9274,"Ġfront":9275,"Ġbones":9276,"Ġbotanical":9277,"alian":9278,"icks":9279,"icted":9280,"Ġmesh":9281,"Ġdat":9282,"Ġisol":9283,"ĠTSU":9284,"ull":9285,"ulant":9286,"ationally":9287,"ometh":9288,"imate":9289,"Ġease":9290,"Ġeight":9291,"Ġnic":9292,"Ġnorth":9293,"Ġlives":9294,"utious":9295,"Ġhusbandry":9296,"untain":9297,"Ġcank":9298,"ĠIUs":9299,"Ġvib":9300,"ĠAff":9301,"ĠCFT":9302,"state":9303,"ĠSon":9304,"ĠSorghum":9305,"third":9306,"Ġimposed":9307,"veri":9308,"aterpillar":9309,"ĠFowl":9310,"ĠHar":9311,"istics":9312,"Ġexam":9313,"Ġorganism":9314,"opro":9315,"Ġcompr":9316,"ĠItalian":9317,"Ġcooperation":9318,"ĠInput":9319,"Ġgrowers":9320,"Ġhelpful":9321,"hendi":9322,"ĠNidhi":9323,"Ġackn":9324,"resella":9325,"ĠRet":9326,"Ġchlorpy":9327,"Ġinflow":9328,"Ġ27":9329,"Ġintensive":9330,"Ġscrut":9331,"Ġscout":9332,"ĠEst":9333,"ĠEvery":9334,"Ġdevelops":9335,"gered":9336,"ĠProt":9337,"Ġcultivable":9338,"ĠLess":9339,"ĠLoss":9340,"Ġpromotional":9341,"Ġuncert":9342,"ĠJu":9343,"Ġ450":9344,"ĠUlt":9345,"Ġsignals":9346,"Ġcream":9347,"Ġdistillation":9348,"Ġdepresella":9349,"Ġirrigations":9350,"Ġvalley":9351,"Ġprojections":9352,"Ġcostly":9353,"Ġclearing":9354,"ĠVL":9355,"ĠVert":9356,"ĠVillage":9357,"uck":9358,"ĠAnar":9359,"indi":9360,"Ġlimiting":9361,"Ġproport":9362,"Ġrecip":9363,"Ġbranching":9364,"Ġdipped":9365,"Ġcollectives":9366,"monsoon":9367,"204":9368,"Ġinitiation":9369,"Ġzooplank":9370,"Ġpollen":9371,"Ġbeetroot":9372,"Ġtopsoil":9373,"Ġtopdressing":9374,"Ġaddresses":9375,"Ġburying":9376,"Ġtrustee":9377,"Ġrestaur":9378,"ĠZaid":9379,"Ġbuildings":9380,"Ġtargeting":9381,"Ġevaluated":9382,"Ġmatured":9383,"Ġphases":9384,"Ġsubscrib":9385,"Ġrepresentative":9386,"ĠCovering":9387,"ylar":9388,"Ġconflic":9389,"Ġspecialization":9390,"Ġviol":9391,"Ġclayey":9392,"ĠEnvironment":9393,"Ġstandardized":9394,"Ġturg":9395,"Ġturning":9396,"Ġaligns":9397,"standing":9398,"Ġhatched":9399,"Ġrecorded":9400,"Ġfibers":9401,"Ġpinkish":9402,"Ġfatig":9403,"Ġfurrows":9404,"ĠAmras":9405,"ĠSahbh":9406,"ĠVarious":9407,"Ġflexible":9408,"Ġmaggots":9409,"Ġsprinkled":9410,"ĠSamman":9411,"Ġexperiences":9412,"Ġrenewal":9413,"Ġconnection":9414,"Ġstubbles":9415,"Ġschedules":9416,"Ġdorsal":9417,"Ġdefective":9418,"Ġfingerling":9419,"RSAs":9420,"Ġquestion":9421,"Ġfeasibility":9422,"Ġheavily":9423,"chinochloa":9424,"Ġolder":9425,"Ġsteady":9426,"arjeeling":9427,"Ġoviposition":9428,"Ġenriches":9429,"Ġadherence":9430,"ĠKaveri":9431,"Ġlambda":9432,"Ġfibrils":9433,"Ġcucumber":9434,"Ġdevastans":9435,"Ġdiscipline":9436,"ĠPyrilla":9437,"tamethrin":9438,"Ġpiston":9439,"omething":9440,"ĠCFTRI":9441,"ĠAmrasca":9442,"ĠSahbhagi":9443,"ER":9444,"IFOAM":9445,"OH":9446,"cro":9447,"date":9448,"dist":9449,"flav":9450,"iant":9451,"loc":9452,"mel":9453,"oxystrobin":9454,"pus":9455,"rany":9456,"tight":9457,"tie":9458,"Ġurban":9459,"inators":9460,"reat":9461,"atable":9462,"atak":9463,"eral":9464,"Ġsizing":9465,"Ġsense":9466,"Ġsomething":9467,"Ġcage":9468,"onents":9469,"Ġpin":9470,"anpur":9471,"ropped":9472,"icum":9473,"arind":9474,"ione":9475,"Ġdhan":9476,"Ġtoday":9477,"enty":9478,"Ġwww":9479,"Ġwoman":9480,"iles":9481,"ilent":9482,"ĠWad":9483,"urning":9484,"omin":9485,"Ġlint":9486,"oses":9487,"Ġstap":9488,"Ġase":9489,"Ġaspir":9490,"ĠAir":9491,"igher":9492,"ĠSun":9493,"ĠSHGs":9494,"Ġimplications":9495,"Ġrating":9496,"ĠPet":9497,"ĠPack":9498,"ĠPupation":9499,"emnity":9500,"ĠFly":9501,"ĠFact":9502,"Ġspark":9503,"Ġspinning":9504,"ĠHum":9505,"ĠHouse":9506,"ĠHigher":9507,"Ġlem":9508,"isting":9509,"ĠBon":9510,"ĠBacter":9511,"Ġcompat":9512,"Ġcomput":9513,"Ġyet":9514,"Ġdoors":9515,"Ġrock":9516,"ĠInformation":9517,"ĠMany":9518,"ditions":9519,"Ġcautious":9520,"hybrids":9521,"ĠDarjeeling":9522,"racts":9523,"ĠRan":9524,"ĠRPC":9525,"Ġjumping":9526,"ĠGerui":9527,"Ġsearch":9528,"ribuz":9529,"acks":9530,"Ġregional":9531,"Ġshrubs":9532,"Ġoverflow":9533,"Ġoverdue":9534,"feel":9535,"aprop":9536,"ĠLow":9537,"Ġflash":9538,"Ġfinisher":9539,"berries":9540,"Ġdetection":9541,"ĠAdditional":9542,"Ġinterfe":9543,"Ġsustained":9544,"Ġdistress":9545,"Ġcapillary":9546,"ructose":9547,"Ġdirection":9548,"Ġdirectives":9549,"Ġcharged":9550,"Ġallotted":9551,"Ġoperated":9552,"Ġoperator":9553,"Ġfinancials":9554,"Ġfinancially":9555,"Ġworth":9556,"Ġbodily":9557,"Ġlock":9558,"Ġsetup":9559,"obia":9560,"cious":9561,"Ġviridae":9562,"operatives":9563,"Ġoccup":9564,"ĠMani":9565,"Ġguiding":9566,"Ġchanged":9567,"Ġscientists":9568,"Ġphosph":9569,"Ġmilky":9570,"Ġlayout":9571,"Ġcompeting":9572,"Ġparasitized":9573,"Ġfacilitators":9574,"rones":9575,"aja":9576,"Ġsky":9577,"ĠArea":9578,"Ġtrainings":9579,"oxaprop":9580,"CCEs":9581,"ĠELIs":9582,"ĠClay":9583,"ĠAzoxystrobin":9584,"Ġcorresp":9585,"Ġreported":9586,"Ġescape":9587,"Ġspecialty":9588,"ĠBlock":9589,"Ġclarify":9590,"Ġadminister":9591,"Ġconsistently":9592,"ĠRhizome":9593,"Ġintercropped":9594,"Ġoxidase":9595,"Ġsubjecting":9596,"Ġdifficulties":9597,"Ġtubular":9598,"Ġallocate":9599,"Ġqualify":9600,"ĠPrepar":9601,"Ġadvantageous":9602,"Ġtaxes":9603,"Ġprecaution":9604,"ĠPesticides":9605,"Ġhardening":9606,"Ġcurrently":9607,"Ġstimulate":9608,"Ġadvancements":9609,"Ġgradual":9610,"Ġsatisf":9611,"Ġodors":9612,"Ġdistinctive":9613,"Ġbuyer":9614,"Ġsafeguarding":9615,"Ġhomeopat":9616,"Ġextremely":9617,"Ġtransaction":9618,"Ġrefrigerated":9619,"ĠGroup":9620,"Ġsedimentation":9621,"Ġuploading":9622,"Ġpears":9623,"Ġsubmerged":9624,"ĠSugarcane":9625,"Ġmargins":9626,"Ġmosquito":9627,"Ġmetabol":9628,"Ġdisputes":9629,"ĠDisease":9630,"Ġbursts":9631,"ĠParasit":9632,"Ġblends":9633,"Ġfifth":9634,"ĠVaccination":9635,"Ġremedial":9636,"Ġhormones":9637,"Ġreceipts":9638,"Ġpromptly":9639,"ĠGMOs":9640,"ĠTetrany":9641,"Ġslopes":9642,"Ġenforce":9643,"Ġinterpretation":9644,"ĠKarnatak":9645,"ĠWorld":9646,"Ġwrapping":9647,"Ġvoucher":9648,"ĠIntercropping":9649,"Ġapricots":9650,"razosulfuron":9651,"contamination":9652,"ĠIncreasing":9653,"ĠCommercial":9654,"ĠEnsuring":9655,"Ġcredentials":9656,"Ġadequately":9657,"irachtin":9658,"Ġvirtual":9659,"Ġdatab":9660,"ĠLesser":9661,"croppers":9662,"ĠRPCD":9663,"ĠKarnataka":9664,"120":9665,"74":9666,"As":9667,"BR":9668,"Co":9669,"KU":9670,"NS":9671,"NAM":9672,"OD":9673,"SFAC":9674,"cid":9675,"ez":9676,"gl":9677,"gas":9678,"ioc":9679,"jay":9680,"nag":9681,"oors":9682,"pack":9683,"rum":9684,"spect":9685,"vile":9686,"ream":9687,"Ġopp":9688,"athe":9689,"atin":9690,"Ġsac":9691,"Ġcordial":9692,"isl":9693,"orac":9694,"Ġbus":9695,"Ġband":9696,"Ġblow":9697,"Ġbamboo":9698,"Ġang":9699,"Ġanthracnose":9700,"Ġinner":9701,"Ġrect":9702,"ĠTho":9703,"ĠWell":9704,"usand":9705,"houses":9706,"Ġlend":9707,"Ġluc":9708,"cel":9709,"otonic":9710,"agon":9711,"aggered":9712,"ĠICP":9713,"aber":9714,"Ġstack":9715,"Ġstagn":9716,"ĠCur":9717,"ĠCow":9718,"ĠCrow":9719,"izers":9720,"Ġencomp":9721,"ĠSRI":9722,"ĠSoluble":9723,"ĠSKU":9724,"Ġrupt":9725,"Ġpret":9726,"ĠPKV":9727,"ĠFresh":9728,"ĠFlower":9729,"adka":9730,"acarb":9731,"ĠBal":9732,"ĠBund":9733,"ĠBGA":9734,"Ġattain":9735,"Ġcoat":9736,"Ġcoales":9737,"ĠMung":9738,"Ġ125":9739,"avail":9740,"avour":9741,"ĠNymph":9742,"ĠNorthern":9743,"Ġacute":9744,"Ġthread":9745,"ormally":9746,"Ġmetribuz":9747,"Ġensured":9748,"Ġbengal":9749,"Ġtimeline":9750,"ĠEastern":9751,"Ġmoves":9752,"Ġsupplied":9753,"ĠProduc":9754,"ĠLakh":9755,"Ġassured":9756,"Ġindication":9757,"Ġsublim":9758,"Ġunirrigated":9759,"ĠKH":9760,"ĠUPR":9761,"Ġmarkings":9762,"ĠIndox":9763,"ĠStink":9764,"ructive":9765,"Ġtechnological":9766,"lete":9767,"Ġdefines":9768,"Ġprojected":9769,"ĠYellow":9770,"Ġlocations":9771,"Ġ2013":9772,"Ġknives":9773,"uconazole":9774,"Ġherd":9775,"ĠAsh":9776,"Ġ750":9777,"Ġaccessibility":9778,"Ġnegoti":9779,"Ġmodification":9780,"Ġgroundwater":9781,"Ġflavorful":9782,"Ġrecon":9783,"Ġplayed":9784,"Ġdowny":9785,"Ġ01":9786,"oughing":9787,"Ġlaying":9788,"Ġlegs":9789,"Ġlegume":9790,"lla":9791,"Ġchocol":9792,"Ġlowering":9793,"Ġpollinators":9794,"ralized":9795,"Ġparasitism":9796,"ĠSpiny":9797,"Ġexperiments":9798,"Ġselectively":9799,"ĠWhiteflies":9800,"Ġmovements":9801,"profit":9802,"Ġanalyze":9803,"ĠArgin":9804,"oxid":9805,"Ġflavon":9806,"aluka":9807,"Ġinternationally":9808,"ĠPlain":9809,"ĠAliment":9810,"ĠAlcid":9811,"Ġhosts":9812,"Ġcorrosion":9813,"Ġdiffers":9814,"Ġissuance":9815,"Ġpricing":9816,"ĠCont":9817,"Ġcrystal":9818,"Ġemploying":9819,"Ġstronger":9820,"ĠFinance":9821,"Ġuntreated":9822,"Ġappoints":9823,"Ġobserving":9824,"parts":9825,"Ġprioritizing":9826,"Ġoxidized":9827,"appropri":9828,"ĠMonocrotophos":9829,"Ġmitigating":9830,"Ġcoordinate":9831,"viations":9832,"Ġaffaber":9833,"ĠHeavy":9834,"Ġinnovation":9835,"ispa":9836,"Ġsterility":9837,"Ġsterilized":9838,"Ġbatches":9839,"Ġsettlement":9840,"Ġprecurs":9841,"Ġsuckers":9842,"Ġbudgetary":9843,"Ġcabinet":9844,"Ġcucurbits":9845,"Ġwave":9846,"ulsion":9847,"Ġplateau":9848,"ĠFormation":9849,"Ġcracks":9850,"Ġtenant":9851,"ĠPhadka":9852,"ĠPigeonpea":9853,"Ġcompensate":9854,"Ġdistinguish":9855,"Ġdistinguishing":9856,"Ġarable":9857,"Ġspirits":9858,"Ġexemption":9859,"ĠFigure":9860,"AST":9861,"Ġdisbursed":9862,"Ġmouthfeel":9863,"Ġbergamot":9864,"Ġgathering":9865,"ĠBeet":9866,"ornis":9867,"ĠFebruary":9868,"Ġdiscoloration":9869,"Ġsolubility":9870,"Ġsegments":9871,"Ġnuclei":9872,"Ġupdated":9873,"Ġtransmitting":9874,"Ġfifte":9875,"ĠCaffeine":9876,"Ġbiodegradation":9877,"Ġbiodegradable":9878,"Ġpunct":9879,"Ġglyphosate":9880,"Ġcandied":9881,"ĠPyrazosulfuron":9882,"Ġeradication":9883,"Ġpellets":9884,"Ġprotocols":9885,"Ġreplaced":9886,"ĠPreventing":9887,"ĠRidomil":9888,"ĠVegetables":9889,"Ġpedicel":9890,"Ġdeclaration":9891,"tolerant":9892,"Ġpreceding":9893,"Ġwhitish":9894,"Ġarranged":9895,"ĠLiquid":9896,"Ġcollapse":9897,"ĠPanchayat":9898,"Ġpaddles":9899,"ĠMoisture":9900,"vicornis":9901,"Ġfatigue":9902,"ĠSKUAST":9903,"avourable":9904,"ĠIndoxacarb":9905,"Ġchocolate":9906,"ĠArgina":9907,"ĠAlimentarius":9908,"ĠAlcidodes":9909,".)":9910,"51":9911,"88":9912,"Dep":9913,"DIN":9914,"MT":9915,"Ma":9916,"NC":9917,"OP":9918,"PT":9919,"TSU":9920,"Village":9921,"bug":9922,"caterpillar":9923,"flies":9924,"ja":9925,"lab":9926,"meg":9927,"natural":9928,"pace":9929,"ris":9930,"ritor":9931,"sowing":9932,"tes":9933,"table":9934,"uil":9935,"win":9936,"way":9937,"Ġtie":9938,"Ġoolong":9939,"atox":9940,"erium":9941,"Ġcel":9942,"Ġcopies":9943,"onav":9944,"enure":9945,"Ġfen":9946,"rod":9947,"isons":9948,"Ġbind":9949,"Ġbrought":9950,"Ġanten":9951,"Ġinae":9952,"icy":9953,"Ġdug":9954,"Ġdrive":9955,"Ġreared":9956,"ĠTemperature":9957,"level":9958,"ĠWeed":9959,"Ġproth":9960,"Ġpropping":9961,"omethoxam":9962,"omycin":9963,"etida":9964,"idia":9965,"Ġeug":9966,"Ġnodal":9967,"raph":9968,"Ġhom":9969,"ifi":9970,"abul":9971,"Ġhem":9972,"Ġstorm":9973,"Ġstip":9974,"qualis":9975,"Ġplenty":9976,"ester":9977,"ĠCho":9978,"ĠCost":9979,"ige":9980,"terra":9981,"ĠSci":9982,"ĠShan":9983,"ĠPost":9984,"ĠFer":9985,"ĠFil":9986,"Ġspent":9987,"ĠHand":9988,"ĠHPR":9989,"istical":9990,"Ġexig":9991,"romone":9992,"seen":9993,"ĠBag":9994,"ĠBrown":9995,"ĠBPT":9996,"ecal":9997,"ecosystem":9998,"Ġincubation":9999,"Ġdishes":10000,"Ġheliot":10001,"Ġcouncil":10002,"Ġprocessors":10003,"udr":10004,"ĠMy":10005,"ĠMost":10006,"Ġ145":10007,"Ġ1121":10008,"ĠNature":10009,"Ġsyn":10010,"ĠRec":10011,"ocu":10012,"Ġpurging":10013,"ustic":10014,"soft":10015,"ips":10016,"Ġscal":10017,"ogical":10018,"ĠEffective":10019,"ĠEudr":10020,"arett":10021,"Ġcolocasia":10022,"Ġshrink":10023,"Ġmount":10024,"ensification":10025,"Ġformulating":10026,"ells":10027,"aps":10028,"ĠLIN":10029,"kelet":10030,"Ġsubm":10031,"ĠAdding":10032,"Ġ38":10033,"forest":10034,"foreseen":10035,"Ġfeeders":10036,"ĠJy":10037,"ĠOrganisations":10038,"Ġinterior":10039,"Ġpoisons":10040,"Ġuproot":10041,"phag":10042,"Ġoutflow":10043,"Ġexpress":10044,"ĠFarming":10045,"Ġperiodic":10046,"overning":10047,"Ġtracking":10048,"Ġoperators":10049,"Ġwords":10050,"Ġclearer":10051,"ructured":10052,"Ġempt":10053,"Ġairtight":10054,"Ġknow":10055,"Ġknee":10056,"Ġknife":10057,"Ġratios":10058,"Ġfoetida":10059,"nevil":10060,"Ġnamely":10061,"Ġarid":10062,"Ġhumic":10063,"Ġbrisk":10064,"ĠManip":10065,"Ġcarbonate":10066,"Ġsharecroppers":10067,"Ġphosphat":10068,"Ġpathogenic":10069,"pected":10070,"ĠExp":10071,"Ġdecreasing":10072,"ronically":10073,"Ġselective":10074,"Ġdehydrated":10075,"Ġoccurring":10076,"process":10077,"termedi":10078,"Ġsyrupy":10079,"Ġrestore":10080,"Ġcomposed":10081,"Ġpurchased":10082,"Ġresearc":10083,"ĠAceria":10084,"Ġ1981":10085,"Ġhydroly":10086,"solid":10087,"Ġcoronav":10088,"ĠShort":10089,"ĠApple":10090,"Ġparticipatory":10091,"Ġpredict":10092,"Ġconfirm":10093,"Ġpenal":10094,"Ġwetting":10095,"Ġkilled":10096,"Ġcatechins":10097,"Ġlacks":10098,"ĠIntensification":10099,"Ġventral":10100,"Ġdroplets":10101,"Ġfloods":10102,"Ġheadspace":10103,"Ġnectars":10104,"Ġchickpea":10105,"Ġoilseed":10106,"Ġformalin":10107,"Ġfirmness":10108,"Ġhistor":10109,"criptions":10110,"ĠQuality":10111,"ĠPeat":10112,"ĠAuthorized":10113,"ĠLimit":10114,"ĠEarthing":10115,"Ġfairness":10116,"usky":10117,"Ġdeposits":10118,"Ġenriching":10119,"ĠTechnology":10120,"alinity":10121,"ĠControlling":10122,"ĠFreeze":10123,"Ġsheaths":10124,"canut":10125,"Ġbidding":10126,"Ġscreens":10127,"Ġbringing":10128,"Ġstalk":10129,"Ġhindwings":10130,"Ġdiscolored":10131,"Ġsolubilizing":10132,"ĠGardens":10133,"person":10134,"Ġcompulsorily":10135,"Ġrobusta":10136,"withheld":10137,"Ġincentives":10138,"Ġevolving":10139,"Ġmanipulation":10140,"ĠKVKs":10141,"Ġpermeability":10142,"ĠKashi":10143,"Ġshift":10144,"Ġtartaric":10145,"Ġassimilation":10146,"Ġcapsicum":10147,"Ġerrors":10148,"ĠApproximately":10149,"Ġperfect":10150,"Ġscheduling":10151,"Ġhydroponic":10152,"Ġintercrops":10153,"ĠRainfed":10154,"Ġcigarett":10155,"Ġalertness":10156,"ĠPromotion":10157,"ĠPulses":10158,"rishi":10159,"Ġfuel":10160,"Ġacaricide":10161,"renewable":10162,"Ġsponsoring":10163,"ĠAffairs":10164,"Ġscouting":10165,"ĠEstabl":10166,"Ġturgidity":10167,"tiered":10168,"ĠFactors":10169,"ĠBonnevil":10170,"ĠBundel":10171,"mega":10172,"Ġinaequalis":10173,"ĠShankar":10174,"Ġheliothis":10175,"ĠLINAC":10176,"Ġresearchers":10177,"Ġcoronavirus":10178,"Ġcigarette":10179,"ĠBonneville":10180,"%).":10181,"AT":10182,"Gerui":10183,"Governing":10184,"Hel":10185,"HACCP":10186,"MA":10187,"MV":10188,"Market":10189,"bient":10190,"cal":10191,"cular":10192,"critical":10193,"hus":10194,"iet":10195,"maj":10196,"meter":10197,"not":10198,"pectinization":10199,"rances":10200,"section":10201,"worth":10202,"yes":10203,"Ġtricho":10204,"Ġtaper":10205,"rection":10206,"Ġslower":10207,"onate":10208,"Ġpage":10209,"Ġfrass":10210,"Ġfrench":10211,"Ġfalse":10212,"itox":10213,"orrect":10214,"Ġbrain":10215,"Ġbub":10216,"Ġbids":10217,"Ġbills":10218,"Ġinduc":10219,"Ġinorganic":10220,"Ġinduce":10221,"arasit":10222,"Ġmask":10223,"Ġmylar":10224,"Ġdynam":10225,"ctive":10226,"ctop":10227,"Ġwavy":10228,"Ġforward":10229,"aser":10230,"ashes":10231,"Ġeye":10232,"Ġeyes":10233,"Ġnurt":10234,"Ġcone":10235,"Ġlot":10236,"Ġgolden":10237,"Ġarecanut":10238,"utory":10239,"rafiltration":10240,"Ġhanging":10241,"otypes":10242,"otarsonem":10243,"agious":10244,"essing":10245,"ĠIB":10246,"Ġsteep":10247,"ultane":10248,"Ġplus":10249,"ĠAure":10250,"ĠArom":10251,"ĠColl":10252,"Ġsought":10253,"Ġcontagious":10254,"ĠSov":10255,"Ġrpm":10256,"ĠPret":10257,"ĠPoor":10258,"Ġlever":10259,"advisory":10260,"Ġexec":10261,"Ġexhibits":10262,"Ġorganize":10263,"herb":10264,"ĠBre":10265,"ĠBrix":10266,"Ġincorrect":10267,"ptoc":10268,"Ġcole":10269,"ĠInit":10270,"ĠMission":10271,"ĠMetho":10272,"Ġcaustic":10273,"ĠNE":10274,"Ġaccompany":10275,"resent":10276,"ĠDi":10277,"ĠRules":10278,"ĠROs":10279,"ĠRyn":10280,"Ġ240":10281,"Ġpurity":10282,"Ġnotify":10283,"Ġschool":10284,"Ġtimings":10285,"ĠEven":10286,"Ġliable":10287,"Ġabbre":10288,"ellul":10289,"Ġmint":10290,"ĠProf":10291,"ĠLet":10292,"Ġsolutes":10293,"Ġfiner":10294,"Ġunless":10295,"Ġunforeseen":10296,"Ġ36":10297,"Ġ37":10298,"covers":10299,"Ġ4000":10300,"Ġdesi":10301,"Ġpool":10302,"Ġinstars":10303,"ubig":10304,"Ġoutstanding":10305,"Ġoptional":10306,"holds":10307,"Ġdistilled":10308,"Ġirrit":10309,"Ġlooper":10310,"Ġlooking":10311,"Ġterminated":10312,"lecting":10313,"Ġearn":10314,"ĠFarmyard":10315,"Ġfreely":10316,"Ġtrapping":10317,"Ġtrailing":10318,"Ġfolded":10319,"Ġentom":10320,"idental":10321,"Ġsmart":10322,"Ġwhereas":10323,"Ġsucrose":10324,"Ġfreezer":10325,"overnmental":10326,"Ġharmony":10327,"Ġestablishes":10328,"Ġbiology":10329,"bey":10330,"ĠScale":10331,"Ġlegisl":10332,"Ġbenefiting":10333,"Ġjelmeter":10334,"Ġgoat":10335,"Ġgerms":10336,"Ġlocalized":10337,"Ġprivile":10338,"hanol":10339,"Ġchopped":10340,"Ġpersist":10341,"Ġvacant":10342,"ĠExport":10343,"Ġsunn":10344,"Ġheadcovers":10345,"Ġparticulars":10346,"Ġbury":10347,"Ġgrassy":10348,"Ġ96":10349,"Ġdegrading":10350,"ĠArmy":10351,"Ġtrusted":10352,"Ġsimultane":10353,"Ġevaluates":10354,"Ġturned":10355,"Ġturnover":10356,"Ġrelief":10357,"Ġescal":10358,"Ġsubscribed":10359,"Ġconfined":10360,"ĠBlitox":10361,"Ġdissolving":10362,"Ġattracting":10363,"Ġclarified":10364,"Ġsocially":10365,"Ġlisted":10366,"Ġefficacy":10367,"charge":10368,"Ġstatutory":10369,"ĠTrichogrammaj":10370,"Ġtrapez":10371,"Ġtransformed":10372,"Ġsilk":10373,"Ġmobility":10374,"Ġ1140":10375,"Ġaccumulate":10376,"Ġreviews":10377,"aksh":10378,"Ġdeadheart":10379,"Ġharrows":10380,"ĠMechan":10381,"Ġsettlor":10382,"Ġemphasize":10383,"ĠFacilities":10384,"Ġgranular":10385,"Ġrequested":10386,"NABARD":10387,"Ġlatus":10388,"Ġinstalling":10389,"ĠDeltamethrin":10390,"iction":10391,"ĠIncubation":10392,"ĠSaiss":10393,"Ġforestry":10394,"Ġdriven":10395,"ĠTransaction":10396,"Ġmedications":10397,"Ġdischarged":10398,"ĠRound":10399,"________":10400,"piration":10401,"ĠFreezing":10402,"Farmers":10403,"ĠPolyphenol":10404,"ĠPolyphag":10405,"asmia":10406,"Ġdisturbance":10407,"Ġfaecal":10408,"Ġdorsalis":10409,"ĠAnimal":10410,"Ġadvocate":10411,"Ġexcluded":10412,"Ġsawfly":10413,"Ġconstructing":10414,"Ġevolved":10415,"Ġflouresence":10416,"hasini":10417,"Ġbleaching":10418,"ĠValue":10419,"Ġexamining":10420,"Ġaccommodate":10421,"ĠMarasmia":10422,"ĠChandrahasini":10423,"Import":10424,"ointing":10425,"Ġneck":10426,"ĠMadhuraj":10427,"Ġnetworks":10428,"ĠHarvesting":10429,"ĠMutent":10430,"Ġlimonin":10431,"Ġpenalties":10432,"Ġvibrant":10433,"Ġdatabase":10434,"Ġlucern":10435,"ritories":10436,"Ġfenoxaprop":10437,"Ġhistorical":10438,"Help":10439,"Ġdynamics":10440,"otarsonemus":10441,"ĠSoviet":10442,"Ġexecute":10443,"ĠRynax":10444,"ĠTrichogrammajaponicum":10445,"Ġtrapezalis":10446,"ĠPolyphagotarsonemus":10447,"115":10448,"39":10449,"AL":10450,"DM":10451,"HS":10452,"KE":10453,"MZ":10454,"MIS":10455,"Muriate":10456,"Rabi":10457,"SI":10458,"SPI":10459,"SHGs":10460,"Tenure":10461,"aqu":10462,"ben":10463,"books":10464,"corn":10465,"corbic":10466,"door":10467,"fin":10468,"fall":10469,"ften":10470,"hra":10471,"hane":10472,"kee":10473,"khand":10474,"lers":10475,"lite":10476,"mg":10477,"mix":10478,"nii":10479,"ooly":10480,"pread":10481,"uation":10482,"zle":10483,"Ġtab":10484,"Ġtru":10485,"Ġtact":10486,"herent":10487,"inee":10488,"atus":10489,"Ġcumb":10490,"Ġpush":10491,"anus":10492,"angu":10493,"enous":10494,"eniae":10495,"Ġfing":10496,"Ġfog":10497,"Ġbab":10498,"Ġbending":10499,"Ġbhendi":10500,"Ġbracts":10501,"Ġanal":10502,"ica":10503,"Ġdur":10504,"Ġdrones":10505,"Ġwon":10506,"Ġware":10507,"ĠTil":10508,"leg":10509,"ĠWorm":10510,"ĠWheat":10511,"ĠWooly":10512,"asse":10513,"ascular":10514,"Ġbeli":10515,"Ġbears":10516,"ometer":10517,"imsulfuron":10518,"veget":10519,"hod":10520,"holes":10521,"Ġconsec":10522,"Ġlots":10523,"Ġlaser":10524,"antes":10525,"owder":10526,"irum":10527,"Ġcancell":10528,"otrop":10529,"olving":10530,"Ġstom":10531,"quart":10532,"Ġascorbic":10533,"ĠCaptan":10534,"oded":10535,"igure":10536,"Ġsoften":10537,"Ġdeploy":10538,"ĠSorting":10539,"thora":10540,"Ġonwards":10541,"Ġprefers":10542,"ĠPectic":10543,"ĠPSB":10544,"ĠPowder":10545,"ĠFertilizers":10546,"ĠFIC":10547,"Ġshoulders":10548,"Ġspong":10549,"Ġspherical":10550,"ĠHP":10551,"Ġleak":10552,"Ġlecan":10553,"Ġlearning":10554,"ading":10555,"admin":10556,"aci":10557,"Ġorgans":10558,"Ġadmiss":10559,"ĠBha":10560,"ĠBirds":10561,"Ġperlite":10562,"Ġroof":10563,"undhi":10564,"Ġdispl":10565,"perg":10566,"Ġhelicoverpa":10567,"allabh":10568,"ĠMand":10569,"ĠMoring":10570,"pose":10571,"Ġackee":10572,"ĠRhinoceros":10573,"Ġtranches":10574,"Ġneonate":10575,"Ġmethane":10576,"Ġmeal":10577,"ibbling":10578,"Ġintention":10579,"hemp":10580,"Ġseven":10581,"upees":10582,"ypyr":10583,"Ġoverwin":10584,"enser":10585,"Ġunderm":10586,"ĠProced":10587,"Ġcommission":10588,"ĠLal":10589,"Ġindemnity":10590,"Ġindoors":10591,"aflav":10592,"Ġunp":10593,"Ġ350":10594,"cooking":10595,"ĠKing":10596,"achment":10597,"Ġblot":10598,"Ġfeedback":10599,"Ġunderground":10600,"Ġ47":10601,"Ġsignify":10602,"Ġwhitefly":10603,"idespread":10604,"Ġdesk":10605,"ĠComplex":10606,"Ġinstalled":10607,"Ġrefund":10608,"Ġsustaining":10609,"Ġsustainably":10610,"Ġoutlet":10611,"etyl":10612,"Ġparticulates":10613,"Ġextractor":10614,"Ġdeficit":10615,"Ġleaflets":10616,"Ġentrances":10617,"Ġ2011":10618,"uccess":10619,"ollworm":10620,"Ġsubstit":10621,"Ġarhar":10622,"Ġfreezers":10623,"tened":10624,"Ġregulators":10625,"Ġbiota":10626,"ycline":10627,"Ġaccounting":10628,"Ġambient":10629,"ĠUnits":10630,"Ġdraining":10631,"Ġphosphorous":10632,"Ġmulti":10633,"Ġdelays":10634,"Ġcritics":10635,"erect":10636,"Ġcooler":10637,"Ġferterra":10638,"Ġtops":10639,"Ġvision":10640,"Ġsupplying":10641,"Ġskins":10642,"Ġshortages":10643,"Ġunderside":10644,"Ġinvestors":10645,"Ġdarker":10646,"Ġethanol":10647,"ĠMadua":10648,"Ġcirculate":10649,"Ġgelatin":10650,"ĠImproper":10651,"Ġhydrogen":10652,"Ġhydrated":10653,"asticity":10654,"Ġpassage":10655,"Ġfodders":10656,"Ġsquee":10657,"Ġgoverned":10658,"Ġpublicity":10659,"Ġrhizobia":10660,"Ġconsultant":10661,"Ġpolyhed":10662,"Ġinoculated":10663,"ĠCompost":10664,"Ġflattened":10665,"ĠHyd":10666,"Ġexporting":10667,"Ġmanufacturer":10668,"filling":10669,"Ġmobilizing":10670,"Ġnamed":10671,"amomile":10672,"Ġaccumulated":10673,"ĠDirectorate":10674,"razin":10675,"ĠSubabul":10676,"Ġchickens":10677,"Ġoilseeds":10678,"ĠBangal":10679,"ĠThiomethoxam":10680,"backed":10681,"Ġweakness":10682,"Ġphenomen":10683,"ĠSupporting":10684,"ĠGovind":10685,"ĠDelay":10686,"Ġforests":10687,"Ġgummosis":10688,"ĠProcessed":10689,"Ġdeposition":10690,"Ġvolatilization":10691,"Ġsprinkling":10692,"Ġgaps":10693,"Ġbidder":10694,"ĠCorporation":10695,"Ġcryogenic":10696,"Ġautomated":10697,"Ġdeciding":10698,"IRD":10699,"ainties":10700,"Ġgradient":10701,"ĠSanctioning":10702,"Ġalkaline":10703,"ĠPerrine":10704,"Ġimmersed":10705,"ĠFlour":10706,"ĠCleaning":10707,"Ġpercolators":10708,"Ġhydrocooling":10709,"Ġpilot":10710,"Ġexempted":10711,"tophthora":10712,"Ġconvection":10713,"Ġconvective":10714,"Ġindirectly":10715,"Ġelevation":10716,"FPCs":10717,"ĠPhytophthora":10718,"Ġsafer":10719,"Ġpanicles":10720,"ĠPoints":10721,"Ġexecuting":10722,"Ġelongated":10723,"Ġempowerment":10724,"FCs":10725,"enescence":10726,"Ġresistances":10727,"ĠSnow":10728,"ĠSynthetic":10729,"ĠMicro":10730,"ĠAphididae":10731,"Ġtrials":10732,"carbonated":10733,"Ġuncertainties":10734,"Ġzooplankton":10735,"Ġrestaurants":10736,"Ġviolation":10737,"Ġaseptic":10738,"Ġinterfere":10739,"ĠICPL":10740,"Ġencompasses":10741,"Ġsublimation":10742,"uilding":10743,"Ġeugeniae":10744,"ĠFilter":10745,"ĠEudrilus":10746,"Ġmounted":10747,"Ġempty":10748,"ĠBundelkhand":10749,"Ġtrichoderma":10750,"ctoparasit":10751,"ĠPretilachlor":10752,"ptocycline":10753,"Ġprivileges":10754,"Ġescalation":10755,"ĠRynaxypyr":10756,"Ġtabaci":10757,"Ġtrue":10758,"Ġcumbu":10759,"Ġfingers":10760,"Ġbelief":10761,"Ġconsecut":10762,"ĠPowdery":10763,"Ġlecannii":10764,"Ġadmissibility":10765,"ĠMoringa":10766,"ĠBangalore":10767,"ĠPerrineal":10768,"5204":10769,"97":10770,"Ag":10771,"Ch":10772,"Ds":10773,"Form":10774,"Forms":10775,"FMS":10776,"IWM":10777,"ION":10778,"Kur":10779,"NO":10780,"NP":10781,"Pl":10782,"Small":10783,"ahar":10784,"buconazole":10785,"cation":10786,"fruit":10787,"front":10788,"grad":10789,"ht":10790,"iidae":10791,"iothrips":10792,"jar":10793,"just":10794,"lit":10795,"mir":10796,"oir":10797,"oot":10798,"phis":10799,"raria":10800,"sw":10801,"vos":10802,"wing":10803,"yalt":10804,"zzle":10805,"Ġrib":10806,"Ġting":10807,"Ġtick":10808,"inates":10809,"Ġaz":10810,"Ġthear":10811,"Ġoats":10812,"erg":10813,"erion":10814,"Ġsent":10815,"Ġcos":10816,"Ġcher":10817,"Ġcart":10818,"Ġcrib":10819,"Ġcrink":10820,"oned":10821,"Ġpaw":10822,"Ġfit":10823,"Ġfans":10824,"isions":10825,"isins":10826,"itures":10827,"edium":10828,"oris":10829,"Ġbad":10830,"Ġbunch":10831,"Ġinject":10832,"Ġincomp":10833,"icem":10834,"arp":10835,"Ġmy":10836,"Ġtoot":10837,"cture":10838,"Ġwate":10839,"Ġwestern":10840,"Ġwidespread":10841,"ĠTilling":10842,"ĠWBPH":10843,"ĠWashing":10844,"uled":10845,"Ġproactive":10846,"Ġprospect":10847,"usc":10848,"asy":10849,"Ġbeare":10850,"imuron":10851,"hole":10852,"idial":10853,"Ġlip":10854,"Ġlumps":10855,"Ġgun":10856,"Ġgently":10857,"mentation":10858,"unction":10859,"iration":10860,"otment":10861,"ags":10862,"abits":10863,"elig":10864,"chari":10865,"Ġsty":10866,"Ġstain":10867,"Ġstrain":10868,"Ġstrains":10869,"Ġstaggered":10870,"Ġplot":10871,"Ġplucking":10872,"esta":10873,"ĠAv":10874,"ĠCMS":10875,"izz":10876,"ivestock":10877,"Ġdext":10878,"Ġdeactiv":10879,"amaya":10880,"terior":10881,"ĠSR":10882,"ĠSingle":10883,"Ġwither":10884,"ĠPo":10885,"ĠPred":10886,"ĠPatory":10887,"emis":10888,"emoc":10889,"Ġlearn":10890,"Ġlecture":10891,"arians":10892,"selection":10893,"ĠBer":10894,"ĠBollworm":10895,"actic":10896,"Ġcompar":10897,"Ġcompression":10898,"Ġmanif":10899,"Ġmanager":10900,"Ġroad":10901,"Ġdisp":10902,"illum":10903,"ĠMeg":10904,"ĠMyc":10905,"ĠMyn":10906,"ĠMesta":10907,"aved":10908,"avig":10909,"ĠNucle":10910,"ĠDich":10911,"ĠRaksh":10912,"ĠRicem":10913,"Ġspecifies":10914,"Ġmetsulfuron":10915,"ĠOoty":10916,"untal":10917,"ĠGo":10918,"arded":10919,"Ġtransit":10920,"Ġtransmitted":10921,"Ġinsure":10922,"Ġinsulation":10923,"ogly":10924,"ĠEp":10925,"ĠEnt":10926,"Ġactuarial":10927,"Ġmap":10928,"Ġcertifies":10929,"Ġjuicy":10930,"Ġpractical":10931,"ĠLab":10932,"carotene":10933,"Ġfinally":10934,"Ġallowances":10935,"Ġ386":10936,"cooked":10937,"ĠKG":10938,"ĠKg":10939,"ĠKo":10940,"ĠKat":10941,"ĠKidney":10942,"Ġvehic":10943,"Ġwhenever":10944,"ĠJowar":10945,"Ġ46":10946,"ĠUp":10947,"Ġvegetarian":10948,"Ġdesire":10949,"Ġupfront":10950,"Ġtherefore":10951,"Ġrelating":10952,"Ġrelie":10953,"Ġdifferenti":10954,"Ġloyalt":10955,"Ġfacing":10956,"Ġwellbeing":10957,"Ġearnings":10958,"Ġoffsp":10959,"Ġirrigate":10960,"Ġharvesters":10961,"Ġcrucif":10962,"Ġapprove":10963,"Ġrotten":10964,"Ġtraces":10965,"ĠYMV":10966,"Ġenthus":10967,"Ġemb":10968,"ĠVir":10969,"Ġester":10970,"Ġmaximizes":10971,"Ġutmost":10972,"Ġcleaner":10973,"ĠNAA":10974,"Ġaccessed":10975,"Ġvirions":10976,"Ġmodes":10977,"valu":10978,"Ġflavoring":10979,"Ġlesser":10980,"ĠGujar":10981,"Ġmedical":10982,"hogenic":10983,"ordination":10984,"ĠCoordination":10985,"Ġcriterion":10986,"Ġcommunicate":10987,"pperiness":10988,"lorvos":10989,"Ġmidlands":10990,"Ġassociations":10991,"Ġgrassland":10992,"Ġsecretary":10993,"Ġinvesting":10994,"product":10995,"ĠArtificial":10996,"Ġfinalizing":10997,"Ġflavoured":10998,"ĠSuitable":10999,"ĠPlume":11000,"Ġnoise":11001,"Ġfunctional":11002,"Ġbioherb":11003,"Ġdeeply":11004,"Ġ1950":11005,"Ġfeel":11006,"Ġmajority":11007,"Ġamended":11008,"Ġvaccinations":11009,"ĠConcent":11010,"Ġevaporates":11011,"Ġbroader":11012,"Ġthicker":11013,"Ġsquashes":11014,"Ġquicker":11015,"Ġstrawberries":11016,"Ġsmoother":11017,"ĠSwarming":11018,"Ġverifying":11019,"Ġmulches":11020,"Ġelectronically":11021,"Ġpigeonpea":11022,"Ġstudying":11023,"ĠBoron":11024,"ĠEnz":11025,"Ġaggregate":11026,"Ġunfavourable":11027,"Ġrecognize":11028,"Ġrecognizes":11029,"Ġfloors":11030,"Ġinitiated":11031,"Ġsubsidiary":11032,"Ġwebbing":11033,"ĠInstitutional":11034,"Ġexporters":11035,"Ġreviewing":11036,"Ġsterilizing":11037,"Ġ1718":11038,"Ġinspecting":11039,"Ġrounded":11040,"Ġstimulant":11041,"Ġemphasized":11042,"Ġreservoir":11043,"Ġfrost":11044,"Ġaccrediting":11045,"Ġgained":11046,"ĠCaliothrips":11047,"cycle":11048,"Ġsince":11049,"occidial":11050,"Ġquintal":11051,"Ġpositions":11052,"Ġreplenished":11053,"Ġcapturing":11054,"Ġexperimentation":11055,"Ġdeposit":11056,"ĠChairperson":11057,"Ġarabica":11058,"Ġtanks":11059,"Ġstrengthening":11060,"Ġdebts":11061,"phenols":11062,"Ġrejects":11063,"ĠMahamaya":11064,"Ġcrisp":11065,"Ġneighbour":11066,"Ġexcluding":11067,"Ġconstituted":11068,"Ġmacronutrients":11069,"opathogenic":11070,"ĠBahar":11071,"blast":11072,"helmin":11073,"Ġpheromone":11074,"Ġpeanuts":11075,"Ġcompetitors":11076,"ĠRemote":11077,"ĠExperiment":11078,"Ġweighs":11079,"Ġweighing":11080,"Ġlicense":11081,"ĠPhys":11082,"ĠNDR":11083,"ĠKashmir":11084,"Ġhailstorm":11085,"Ġportions":11086,"ĠHeaded":11087,"ĠTerai":11088,"Ġethylene":11089,"hadaan":11090,"Ġfoster":11091,"ĠBarani":11092,"ĠArabica":11093,"Ġexchanges":11094,"Ġchlorimuron":11095,"ĠEthyl":11096,"Ġdividends":11097,"ĠBandicota":11098,"Ġtastes":11099,"Ġflea":11100,"Ġelectrolytes":11101,"Ġkingdom":11102,"Ġvector":11103,"ĠSampada":11104,"ĠStreptomycin":11105,"Ġrabbit":11106,"Ġsupervision":11107,"Ġderivatives":11108,"poas":11109,"Ġslipperiness":11110,"ĠVertic":11111,"Ġphosphide":11112,"Ġmetabolism":11113,"Ġvouchers":11114,"Ġbengalensis":11115,"ĠBeetle":11116,"Ġfifteen":11117,"Ġhemisp":11118,"ĠEstablishing":11119,"Ġleveraging":11120,"ĠLetter":11121,"Ġbaby":11122,"vegetarian":11123,"Ġcancellation":11124,"ĠProcedure":11125,"Kurla":11126,"Ġthearubig":11127,"Ġcribraria":11128,"Ġtoothed":11129,"Ġbearers":11130,"eligible":11131,"Ġdextrose":11132,"ĠMycorrhiz":11133,"ĠMyna":11134,"ĠDichlorvos":11135,"ĠRicemoth":11136,"Ġloyalty":11137,"Ġoffspring":11138,"Ġenthusi":11139,"ĠGujarat":11140,"Ġneighbourhood":11141,"29":11142,"AD":11143,"CGF":11144,"DSC":11145,"FAW":11146,"GRO":11147,"OI":11148,"RY":11149,"Rs":11150,"Red":11151,"ba":11152,"bish":11153,"cost":11154,"dec":11155,"dust":11156,"dden":11157,"evity":11158,"gir":11159,"ji":11160,"jit":11161,"jam":11162,"khol":11163,"mant":11164,"oom":11165,"pre":11166,"pis":11167,"rhinoceros":11168,"ti":11169,"vance":11170,"yan":11171,"Ġtrig":11172,"hee":11173,"Ġtheaflav":11174,"atically":11175,"Ġsorg":11176,"Ġcrow":11177,"Ġpipes":11178,"esam":11179,"environment":11180,"Ġfost":11181,"Ġfight":11182,"rotic":11183,"Ġbit":11184,"Ġbass":11185,"Ġmg":11186,"Ġdal":11187,"Ġdrough":11188,"ilic":11189,"Ġremitt":11190,"ĠTur":11191,"ĠTel":11192,"ĠTillage":11193,"ĠTuss":11194,"ĠTotal":11195,"Ġproxy":11196,"asp":11197,"omer":11198,"eta":11199,"Ġectoparasit":11200,"Ġlac":11201,"Ġghee":11202,"Ġareca":11203,"uthern":11204,"Ġhars":11205,"Ġhabits":11206,"Ġcancer":11207,"Ġcancel":11208,"iflo":11209,"agers":11210,"ospir":11211,"Ġsudden":11212,"ĠIX":11213,"ĠIMD":11214,"elly":11215,"chad":11216,"ĠAA":11217,"ĠAGRO":11218,"ĠCDT":11219,"ĠCensus":11220,"Ġenclos":11221,"Ġsouthern":11222,"stable":11223,"ĠSold":11224,"ĠSesbania":11225,"Ġimperv":11226,"veria":11227,"emination":11228,"ĠFert":11229,"ĠFish":11230,"ĠHI":11231,"ĠHav":11232,"Ġleverage":11233,"Ġexotic":11234,"Ġplantations":11235,"Ġappointing":11236,"erture":11237,"ertonic":11238,"ĠBr":11239,"ĠBeau":11240,"ĠBaja":11241,"ĠBemis":11242,"ricyc":11243,"ecyc":11244,"Ġperishable":11245,"Ġincub":11246,"Ġagar":11247,"Ġrout":11248,"Ġrods":11249,"Ġatom":11250,"Ġdismant":11251,"Ġhaemoc":11252,"Ġcooperatives":11253,"ĠMarmal":11254,"ĠMicrobial":11255,"Ġkee":11256,"Ġproven":11257,"Ġtele":11258,"iella":11259,"roller":11260,"ĠNS":11261,"ĠNil":11262,"Ġthings":11263,"asting":11264,"Ġspecim":11265,"Ġnotifying":11266,"Ġneerium":11267,"Ġsowed":11268,"ĠGur":11269,"Ġapplies":11270,"Ġtransfers":11271,"Ġoverhe":11272,"Ġhour":11273,"Ġhoppers":11274,"ellidae":11275,"Ġmind":11276,"arkhand":11277,"ĠProduce":11278,"Ġanything":11279,"ĠLi":11280,"Ġindex":11281,"Ġsuspected":11282,"Ġ34":11283,"ĠKand":11284,"ĠKeeping":11285,"ĠOrthodox":11286,"Ġbloom":11287,"Ġ58":11288,"ĠJelly":11289,"ĠUF":11290,"Ġsupportive":11291,"Ġpounds":11292,"Ġinstance":11293,"Ġdecides":11294,"Ġrepell":11295,"Ġlongevity":11296,"Ġexpiry":11297,"Ġloud":11298,"Ġcoloration":11299,"Ġbores":11300,"Ġleafy":11301,"ĠChilling":11302,"Ġattend":11303,"Ġairflow":11304,"ientific":11305,"Ġ625":11306,"Ġgenerates":11307,"Ġseasonal":11308,"Ġhandw":11309,"Ġbasmati":11310,"Ġoccupation":11311,"Ġdownwards":11312,"ĠInsemination":11313,"Ġspaced":11314,"Ġcalib":11315,"composed":11316,"ĠScirt":11317,"ordinary":11318,"Ġindicative":11319,"Ġfiling":11320,"Ġdecomposes":11321,"month":11322,"Ġquantum":11323,"Ġsalary":11324,"Ġsalaries":11325,"Ġowned":11326,"Ġsanctions":11327,"Ġcurling":11328,"Ġcombinations":11329,"Ġsecurities":11330,"ĠTriflo":11331,"Ġplacement":11332,"oxide":11333,"ĠAssessing":11334,"Ġrestricts":11335,"ĠPloughing":11336,"conventional":11337,"ĠClass":11338,"Ġedges":11339,"Ġantagon":11340,"Ġdependent":11341,"ĠShield":11342,"Ġvaccines":11343,"Ġvaccinating":11344,"Ġpredomin":11345,"Ġretained":11346,"ĠMoU":11347,"Ġemployee":11348,"ĠPMH":11349,"Ġconvergence":11350,"Ġprogresses":11351,"ĠCentres":11352,"Ġstrawberry":11353,"Ġrevised":11354,"Ġrevolving":11355,"Ġcheese":11356,"Ġsapota":11357,"Ġobservations":11358,"Ġassisting":11359,"Ġfiltered":11360,"Ġ2006":11361,"SORY":11362,"Ġaudience":11363,"Ġadapting":11364,"Ġpolyphenols":11365,"ĠMOU":11366,"Ġleftover":11367,"Ġinitiative":11368,"Ġwindow":11369,"Ġqualification":11370,"Ġtransforming":11371,"Ġaligning":11372,"cosp":11373,"Ġswine":11374,"ĠICs":11375,"ĠEmpoas":11376,"Ġrepeat":11377,"Ġdisposed":11378,"Ġdemonstrating":11379,"Ġofficials":11380,"Ġodour":11381,"Ġglobular":11382,"orrh":11383,"Ġgaining":11384,"Ġcentrifugal":11385,"Ġrodenticides":11386,"suited":11387,"Ġfulfilling":11388,"ARIF":11389,"Ġrubbish":11390,"Ġreasonably":11391,"Ġworkshop":11392,"VISORY":11393,"Ġapex":11394,"Ġaperture":11395,"Ġdistribute":11396,"ophilic":11397,"Ġinclusive":11398,"Ġmutually":11399,"alaxyl":11400,"Ġmuslin":11401,"Ġmonitors":11402,"Ġdiscussions":11403,"castle":11404,"Ġmethylene":11405,"Ġlifecyc":11406,"Ġrenewable":11407,"ĠDisinf":11408,"Ġdecaffeination":11409,"Ġsanitizers":11410,"Ġmycorrhizae":11411,"2008":11412,"climate":11413,"Ġautomatic":11414,"Ġcement":11415,"Ġexpanding":11416,"FSSAI":11417,"ĠInsects":11418,"Ġnominated":11419,"ĠNagar":11420,"Ġmalle":11421,"ĠAchchad":11422,"Ġextraordinary":11423,"Ġconstructed":11424,"Ġclauses":11425,"ĠIdentifying":11426,"Ġperceive":11427,"Ġoutputs":11428,"Ġflourescens":11429,"security":11430,"ĠBhabhar":11431,"Ġaccelerate":11432,"Ġhighlights":11433,"Ġsafener":11434,"Ġboxes":11435,"ĠSheath":11436,"Ġreflects":11437,"ĠWeather":11438,"Ġindigenous":11439,"Ġpanicle":11440,"Ġfostering":11441,"Ġradicals":11442,"transplanting":11443,"ĠJharkhand":11444,"Ġvessel":11445,"Ġscented":11446,"ĠEconomic":11447,"Ġvelvety":11448,"Ġbiopesticide":11449,"Ġculinary":11450,"Ġdealership":11451,"Ġresemble":11452,"Ġcoffees":11453,"Ġconsolidation":11454,"ĠEuropean":11455,"Manager":11456,"Ġexclusions":11457,"ĠAbout":11458,"Ġmicroscope":11459,"Ġpedunc":11460,"Ġversat":11461,"Ġterraced":11462,"Ġnicos":11463,"ĠInputs":11464,"melon":11465,"reatment":11466,"ĠTetranychus":11467,"Ġsacchari":11468,"Ġblown":11469,"ĠKHARIF":11470,"caterpillars":11471,"ifiers":11472,"ĠChoosing":11473,"ĠScience":11474,"keleton":11475,"Ġsubmersion":11476,"Ġbubbles":11477,"Ġsimultaneously":11478,"Ġwarehouses":11479,"ĠBhawar":11480,"etylene":11481,"Ġphenomenon":11482,"Ġincomplete":11483,"ADVISORY":11484,"Ġbassiana":11485,"Ġdroughts":11486,"Ġremittance":11487,"ĠTussock":11488,"Ġharsh":11489,"ospirillum":11490,"ĠSoldier":11491,"Ġimpervious":11492,"ĠHavana":11493,"ĠBeauveria":11494,"ĠBemisia":11495,"Ġkeeper":11496,"ĠScirtothrips":11497,"ĠTrifloxystrobin":11498,"Ġpredominant":11499,"ĠAchchadan":11500,")'":11501,"..":11502,"215":11503,"34":11504,"94":11505,"Az":11506,"BG":11507,"DAC":11508,"Eastern":11509,"GN":11510,"KC":11511,"MC":11512,"RD":11513,"RT":11514,"bred":11515,"borer":11516,"crop":11517,"cher":11518,"dem":11519,"fric":11520,"fund":11521,"fts":11522,"iper":11523,"ippings":11524,"kka":11525,"mol":11526,"map":11527,"munity":11528,"noon":11529,"prin":11530,"pectin":11531,"tra":11532,"uv":11533,"vine":11534,"vascular":11535,"yz":11536,"yellow":11537,"Ġram":11538,"Ġii":11539,"hered":11540,"intermedi":11541,"reared":11542,"erala":11543,"Ġsess":11544,"Ġcub":11545,"Ġcame":11546,"onics":11547,"Ġpert":11548,"Ġpile":11549,"Ġfake":11550,"Ġfetch":11551,"Ġfishes":11552,"Ġfisher":11553,"Ġfisheries":11554,"orage":11555,"Ġball":11556,"Ġbark":11557,"Ġanc":11558,"Ġinefficient":11559,"Ġineligible":11560,"alcoholic":11561,"ionidae":11562,"Ġmission":11563,"Ġdated":11564,"Ġdusky":11565,"Ġwise":11566,"leoptera":11567,"ulatory":11568,"Ġprohibit":11569,"aspur":11570,"Ġbee":11571,"Ġbeings":11572,"ury":11573,"Ġconvey":11574,"Ġlinking":11575,"Ġharb":11576,"Ġhiring":11577,"ectolytic":11578,"ĠIT":11579,"ĠIron":11580,"ĠIWM":11581,"pperm":11582,"Ġvend":11583,"Ġheter":11584,"Ġstated":11585,"Ġstamp":11586,"Ġask":11587,"Ġplots":11588,"esty":11589,"estinal":11590,"ĠAfric":11591,"odend":11592,"Ġimmo":11593,"Ġdewormed":11594,"ĠSensing":11595,"ĠSOP":11596,"Ġwithered":11597,"Ġrational":11598,"endar":11599,"ĠFMD":11600,"ĠFrench":11601,"Ġspi":11602,"Ġspin":11603,"Ġspines":11604,"Ġsparrow":11605,"ruption":11606,"ĠHarm":11607,"ĠHoney":11608,"Ġalachlor":11609,"Ġadhes":11610,"opened":11611,"ĠBavistin":11612,"aker":11613,"ecic":11614,"Ġagreements":11615,"Ġdisast":11616,"allic":11617,"ĠMH":11618,"icalcium":11619,"Ġkidney":11620,"Ġtebuconazole":11621,"Ġconscious":11622,"ĠNantes":11623,"Ġthirt":11624,"ĠDS":11625,"ĠDKC":11626,"Ġsyring":11627,"astitis":11628,"Ġquarant":11629,"rents":11630,"Ġtrim":11631,"ĠOut":11632,"gency":11633,"ĠGiant":11634,"ĠEvalu":11635,"Ġcolony":11636,"Ġshield":11637,"Ġcultured":11638,"Ġoverview":11639,"ignment":11640,"Ġmadua":11641,"ellus":11642,"Ġmining":11643,"Ġclosing":11644,"Ġclippings":11645,"xtail":11646,"ĠLTP":11647,"ĠLivestock":11648,"oury":11649,"Ġassum":11650,"ĠAdmin":11651,"ĠAdjust":11652,"ĠKRH":11653,"ĠKerala":11654,"Ġblind":11655,"Ġblended":11656,"Ġafternoon":11657,"ĠJoint":11658,"Ġleadership":11659,"Ġ445":11660,"ĠUt":11661,"weight":11662,"Ġdesilting":11663,"Ġdespite":11664,"Ġuplands":11665,"Ġrepairs":11666,"Ġexports":11667,"Ġevac":11668,"Ġraisins":11669,"Ġfactories":11670,"ioben":11671,"iovascular":11672,"Ġoffices":11673,"Ġadulterated":11674,"Ġdefining":11675,"Ġdefense":11676,"Ġapproves":11677,"Ġapproxim":11678,"Ġrotate":11679,"Ġtradem":11680,"Ġoptimized":11681,"ĠChitra":11682,"Ġ105":11683,"Ġgrid":11684,"Ġsourced":11685,"ĠAgents":11686,"Ġ2014":11687,"ĠVallabh":11688,"Ġ67":11689,"Ġfungicidal":11690,"ĠAnmol":11691,"obhog":11692,"ĠAsperg":11693,"onomous":11694,"Ġstemborer":11695,"Ġmoderation":11696,"Ġmodifications":11697,"Ġflows":11698,"Ġreceiv":11699,"Ġlargest":11700,"Ġaccountable":11701,"ĠStatements":11702,"Ġconsiderable":11703,"ianecic":11704,"ĠColeoptera":11705,"Ġborder":11706,"Ġdelicious":11707,"Ġsulph":11708,"Ġbrood":11709,"Ġcompetence":11710,"ĠRegulations":11711,"Ġfermentable":11712,"licate":11713,"ĠDeworming":11714,"ĠDeobhog":11715,"ruping":11716,"Ġtrained":11717,"Ġanalyzed":11718,"ĠMaxim":11719,"concent":11720,"Ġslip":11721,"Ġfunctionality":11722,"Ġkeeps":11723,"ĠConsider":11724,"Ġeveryone":11725,"Ġbackyard":11726,"Ġcardiovascular":11727,"Ġpulpy":11728,"Ġconsequence":11729,"Ġposes":11730,"Ġsubscriptions":11731,"Ġevaporating":11732,"Ġreacts":11733,"Ġthickening":11734,"Ġsupercritical":11735,"Ġfallow":11736,"Ġnetting":11737,"Ġurination":11738,"Ġshowc":11739,"Ġclimates":11740,"Ġexploring":11741,"Ġbutterflies":11742,"Ġsaplings":11743,"Ġconsultancy":11744,"Ġprioritizes":11745,"Ġaudits":11746,"ĠDepectinization":11747,"Ġundergoing":11748,"Ġfiltering":11749,"Ġstandardization":11750,"Ġhouseholds":11751,"Ġslows":11752,"ĠInternode":11753,"ĠHydro":11754,"Ġcoordinates":11755,"Ġfederation":11756,"ĠMalavi":11757,"Ġexported":11758,"Ġopened":11759,"Ġtaxation":11760,"fortified":11761,"7074":11762,"outs":11763,"teins":11764,"airomones":11765,"Ġsuppression":11766,"Ġweakened":11767,"Ġcompromising":11768,"unched":11769,"Ġsucker":11770,"Ġwaxy":11771,"ĠIII":11772,"Ġcentrifuging":11773,"Ġgeomet":11774,"Ġimbalanced":11775,"Ġaqueous":11776,"Ġinstallation":11777,"Ġinstallment":11778,"Ġdirty":11779,"ĠSummer":11780,"ĠVermiculture":11781,"Ġrealized":11782,"Ġdeposited":11783,"Ġdischarging":11784,"Ġsedimentable":11785,"ĠRoC":11786,"ĠFreez":11787,"Ġeaten":11788,"ĠRSAs":11789,"Ġmolasses":11790,"ĠMahas":11791,"Ġcrumb":11792,"ĠTamarind":11793,"Ġexpenditures":11794,"Ġsymbolizes":11795,"Ġdefects":11796,"Ġprevalence":11797,"ĠHelp":11798,"ĠShareholders":11799,"Ġparents":11800,"Ġnominal":11801,"Ġwarmer":11802,"ĠCutworm":11803,"Ġexclusion":11804,"Ġaccompl":11805,"NRE":11806,"Ġalteration":11807,"whorl":11808,"Ġpiles":11809,"Ġfragments":11810,"ĠTraditional":11811,"ĠPAN":11812,"ĠBallabh":11813,"Ġfeasible":11814,"Ġheavier":11815,"markets":11816,"ĠBulky":11817,"Ġindigestible":11818,"Ġexecuted":11819,"ĠSpecial":11820,"Ġlaunched":11821,"syruping":11822,"Ġflavours":11823,"ĠArize":11824,"Ġmucus":11825,"Ġrender":11826,"ĠAdvanced":11827,"Ġpolit":11828,"Ġmammal":11829,"ĠRGC":11830,"Ġopinion":11831,"Ġ9981":11832,"Ġveterinarians":11833,"Ġacknowled":11834,"Ġchlorpyriphos":11835,"ĠJuice":11836,"Ġsubscribers":11837,"Ġconflicts":11838,"Ġsparkling":11839,"Ġcompatibility":11840,"Ġrocky":11841,"ĠProducers":11842,"Department":11843,"Ġexigua":11844,"ĠJyoti":11845,"Ġbriskness":11846,"worthiness":11847,"Ġtapering":11848,"ĠAureomycin":11849,"Ġfoggers":11850,"hododend":11851,"Ġundermine":11852,"Ġsubstitute":11853,"ĠMicroorganisms":11854,"Ġconsecutive":11855,"Ġstainless":11856,"Ġmanagerial":11857,"Ġvehicles":11858,"ĠEnzym":11859,"Ġthearubigins":11860,"Ġdisasters":11861,"iobencarb":11862,"Ġtrademark":11863,"ĠMalaviya":11864,"01":11865,"130":11866,"343":11867,"52":11868,"Bl":11869,"BGA":11870,"FI":11871,"Fed":11872,"Flav":11873,"GV":11874,"HT":11875,"OR":11876,"Res":11877,"Single":11878,"Un":11879,"ah":11880,"afe":11881,"cul":11882,"cur":11883,"cine":11884,"duration":11885,"gage":11886,"gue":11887,"grown":11888,"high":11889,"hiana":11890,"ipping":11891,"jeevamrut":11892,"mi":11893,"mun":11894,"nic":11895,"nected":11896,"oct":11897,"oag":11898,"ozo":11899,"pat":11900,"pire":11901,"saving":11902,"tally":11903,"Ġid":11904,"Ġions":11905,"Ġign":11906,"Ġtal":11907,"Ġtar":11908,"heology":11909,"inco":11910,"Ġoxide":11911,"Ġsenescence":11912,"Ġceas":11913,"ona":11914,"onia":11915,"onding":11916,"Ġpens":11917,"Ġpict":11918,"anwa":11919,"rovers":11920,"isol":11921,"orph":11922,"Ġbits":11923,"Ġinch":11924,"alle":11925,"icad":11926,"icating":11927,"Ġmist":11928,"Ġmastitis":11929,"Ġded":11930,"Ġdren":11931,"Ġdues":11932,"Ġdicalcium":11933,"Ġtouch":11934,"Ġwaves":11935,"Ġrecharge":11936,"ĠTa":11937,"ĠTrom":11938,"ĠTAC":11939,"ĠWhis":11940,"usable":11941,"Ġfork":11942,"oma":11943,"omorph":11944,"imal":11945,"ethyl":11946,"Ġeart":11947,"Ġechinochloa":11948,"Ġnormally":11949,"Ġlosing":11950,"Ġloses":11951,"Ġgn":11952,"Ġhuge":11953,"agic":11954,"agraph":11955,"ecting":11956,"osia":11957,"Ġsuited":11958,"ĠIPI":11959,"ĠIFSC":11960,"ĠINC":11961,"abetes":11962,"Ġhealing":11963,"elve":11964,"Ġstrips":11965,"Ġstout":11966,"Ġsteeping":11967,"ulture":11968,"esting":11969,"ĠAjay":11970,"ĠCab":11971,"ĠCate":11972,"ĠCode":11973,"ĠCicad":11974,"stream":11975,"structured":11976,"iver":11977,"Ġdecent":11978,"Ġusers":11979,"ĠSur":11980,"ĠSpl":11981,"ĠSym":11982,"ĠSTAC":11983,"Ġric":11984,"Ġrum":11985,"ĠPr":11986,"ĠPerm":11987,"ĠPPR":11988,"ĠPhyll":11989,"ĠPendimethalin":11990,"ĠFen":11991,"ĠFOR":11992,"Ġspells":11993,"ĠHam":11994,"ĠHilly":11995,"ĠHMT":11996,"ayan":11997,"ayment":11998,"Ġleather":11999,"acin":12000,"acerb":12001,"Ġexert":12002,"Ġexacerb":12003,"oping":12004,"ĠBare":12005,"ĠBurea":12006,"ĠBurning":12007,"ĠBIRD":12008,"rice":12009,"Ġcomplement":12010,"Ġcomparing":12011,"Ġcompartments":12012,"Ġagend":12013,"Ġroset":12014,"Ġrecommends":12015,"Ġdisint":12016,"Ġdisapp":12017,"Ġdisruption":12018,"perme":12019,"Ġcourse":12020,"udhiana":12021,"ĠMor":12022,"ĠMid":12023,"ĠMedium":12024,"Ġker":12025,"ĠNR":12026,"Ġacetylene":12027,"Ġthreshold":12028,"Ġthiobencarb":12029,"ĠDM":12030,"ĠDiversity":12031,"ĠRisk":12032,"Ġchair":12033,"Ġchaff":12034,"Ġchronic":12035,"Ġchaired":12036,"asts":12037,"ermination":12038,"Ġinfer":12039,"Ġ260":12040,"vention":12041,"Ġintact":12042,"unting":12043,"ĠGrub":12044,"veloped":12045,"oget":12046,"ĠEgg":12047,"Ġshaking":12048,"Ġshiny":12049,"ype":12050,"Ġmodule":12051,"igned":12052,"Ġsupplementing":12053,"Ġsupplements":12054,"Ġlie":12055,"Ġminute":12056,"Ġbeta":12057,"plasm":12058,"ĠLudhiana":12059,"Ġflame":12060,"Ġflint":12061,"Ġindoor":12062,"Ġunint":12063,"Ġunsu":12064,"Ġprotozo":12065,"ĠKiosks":12066,"ĠKrishi":12067,"achal":12068,"onsider":12069,"Ġ53":12070,"ĠJP":12071,"ĠJaw":12072,"Ġ420":12073,"ĠUrad":12074,"Ġsomew":12075,"Ġinterface":12076,"Ġintercon":12077,"Ġdesert":12078,"phone":12079,"Ġcreative":12080,"Ġdecades":12081,"ursery":12082,"Ġreputed":12083,"ĠStud":12084,"Ġdistorted":12085,"planted":12086,"Ġconcentrations":12087,"terness":12088,"Ġdepicted":12089,"Ġperiodically":12090,"Ġapproving":12091,"Ġbreathe":12092,"anched":12093,"Ġmicroclimate":12094,"Ġtwelve":12095,"forming":12096,"Ġsucceed":12097,"organization":12098,"Ġblackish":12099,"Ġ72":12100,"Ġ76":12101,"Ġlimitation":12102,"Ġregulator":12103,"Ġbiogas":12104,"Ġmodifying":12105,"ungam":12106,"Ġassesses":12107,"Ġassessments":12108,"Ġreconsider":12109,"Ġbasins":12110,"ĠManufact":12111,"Ġsaanwa":12112,"Ġoilcakes":12113,"Ġdiabetes":12114,"Ġample":12115,"Ġsuccessors":12116,"Ġindicator":12117,"Ġbull":12118,"Ġgermplasm":12119,"Ġliquor":12120,"Ġdelib":12121,"Ġbedding":12122,"Ġperspect":12123,"Ġcools":12124,"Ġsalination":12125,"Ġlightly":12126,"Ġtransporting":12127,"Ġskill":12128,"Ġconcl":12129,"Ġseconds":12130,"ĠCertified":12131,"Ġthough":12132,"proving":12133,"Ġalongside":12134,"Ġripen":12135,"Ġresting":12136,"ĠZinco":12137,"Ġbagasse":12138,"Ġengine":12139,"Ġsweating":12140,"ĠAzospirillum":12141,"ĠShri":12142,"luid":12143,"Ġemerges":12144,"Ġpharm":12145,"Ġdestination":12146,"ĠConditions":12147,"Ġpicked":12148,"Ġpossib":12149,"Ġpossibility":12150,"Ġevaporators":12151,"Ġevaporator":12152,"Ġdrone":12153,"Ġdrills":12154,"Ġsupermarkets":12155,"Ġconverged":12156,"Ġmaritimus":12157,"Ġdiscrep":12158,"Ġclarifications":12159,"Ġdiversifying":12160,"ĠCarbaryl":12161,"Ġautumn":12162,"Ġlogin":12163,"1500":12164,"Ġstudents":12165,"Ġ50000":12166,"Ġproposals":12167,"ĠRhizoct":12168,"Ġintercultural":12169,"itudes":12170,"Ġresolve":12171,"appro":12172,"Ġultrafiltration":12173,"ĠEnter":12174,"ĠSeeds":12175,"Ġreductionist":12176,"Ġmitigation":12177,"Ġsupplemented":12178,"hii":12179,"Ġsilvery":12180,"Ġestimate":12181,"Ġestimating":12182,"Ġacquired":12183,"Ġdeterrents":12184,"ĠPeste":12185,"Ġ656":12186,"Ġblights":12187,"ĠMeat":12188,"Ġstimulates":12189,"Ġstabilize":12190,"Ġdefaulted":12191,"Ġfatty":12192,"Ġmiscell":12193,"Ġchlorosis":12194,"Ġmealybug":12195,"Ġtrench":12196,"Ġtrenches":12197,"Ġrepeatedly":12198,"pests":12199,"ĠAmong":12200,"Ġlactone":12201,"ĠPhule":12202,"Ġmortgage":12203,"ĠRatnag":12204,"Ġsuffoc":12205,"Ġhorizontally":12206,"Ġtransitioning":12207,"Ġpregnancy":12208,"ĠReports":12209,"ĠRepresent":12210,"Ġexperiencing":12211,"Farmer":12212,"Ġrecycled":12213,"Ġpartners":12214,"907":12215,"Ġdisturbances":12216,"Ġearheads":12217,"Ġsanitizer":12218,"Ġinactivated":12219,"Ġexceptional":12220,"ĠNewcastle":12221,"Ġtuft":12222,"Ġguaranteed":12223,"Ġshady":12224,"Ġbaits":12225,"Ġcampus":12226,"Ġdivert":12227,"Ġbursting":12228,"Ġcharts":12229,"Ġconstitution":12230,"Ġtablets":12231,"Ġupdates":12232,"Ġbrightness":12233,"Ġvulnerability":12234,"option":12235,"ĠChlorantranilipore":12236,"Ġpermanent":12237,"Ġunsustainable":12238,"Ġhormone":12239,"ĠPAT":12240,"ĠMelan":12241,"Ġquestions":12242,"Ġwillingness":12243,"ĠVermicomposting":12244,"rotenoids":12245,"Ġdigitization":12246,"ĠSolids":12247,"ĠBhindi":12248,"Ġquarterly":12249,"ĠHimachal":12250,"Ġprecipitating":12251,"Ġriver":12252,"ĠBulk":12253,"ĠBudget":12254,"ĠRodent":12255,"Ġcapsules":12256,"ĠCarrot":12257,"Ġexamined":12258,"Ġstringy":12259,"Ġstringent":12260,"Ġsoda":12261,"Ġduplication":12262,"Ġduplicate":12263,"Ġvessels":12264,"ĠCucurbits":12265,"Ġroughage":12266,"Ġthiram":12267,"Ġvelvet":12268,"Ġbiopesticides":12269,"Ġepianecic":12270,"ĠAriomorph":12271,"PLFS":12272,"iculite":12273,"ĠSweet":12274,"Ġcankerous":12275,"Ġscrutin":12276,"Ġproportions":12277,"ĠHumus":12278,"Ġlemons":12279,"ĠBacterial":12280,"Ġcomputer":12281,"Ġcorresponding":12282,"Ġrectang":12283,"ĠCowpea":12284,"Ġcoalesce":12285,"igeic":12286,"Ġphosphates":12287,"ĠInitially":12288,"ĠMethod":12289,"ĠMechanical":12290,"quarters":12291,"Ġsponge":12292,"Ġoverwintering":12293,"Ġcherries":12294,"Ġmanifest":12295,"ĠRakshak":12296,"ĠLabelling":12297,"ĠKatrain":12298,"Ġbioherbicides":12299,"giris":12300,"Ġtheaflavins":12301,"Ġsorghii":12302,"Ġbitterness":12303,"Ġroutine":12304,"ĠNilgiris":12305,"ĠLiability":12306,"ĠKandava":12307,"Ġhandwashing":12308,"ĠEmpoasca":12309,"orrhagic":12310,"Ġmalleable":12311,"Ġevacuation":12312,"ĠAspergillus":12313,"Ġreceivables":12314,"ĠConsidering":12315,"hododendron":12316,"Flavoury":12317,"Ġpicture":12318,"roversies":12319,"allel":12320,"ĠTrombey":12321,"Ġearthen":12322,"ĠCicadellidae":12323,"ĠBureau":12324,"Ġrosette":12325,"permeable":12326,"Ġflinty":12327,"Ġunsuitable":12328,"Ġinterconnected":12329,"ĠRhizoctonia":12330,"ĠRatnagiri":12331,"ĠAriomorpha":12332,"41":12333,"66":12334,"73":12335,"76":12336,"83":12337,"84":12338,"?'":12339,"Bo":12340,"Brix":12341,"Credit":12342,"Captan":12343,"DE":12344,"DG":12345,"DS":12346,"FAO":12347,"Governmental":12348,"HG":12349,"LTC":12350,"Na":12351,"NPOP":12352,"PP":12353,"SD":12354,"So":12355,"aes":12356,"bo":12357,"care":12358,"een":12359,"eop":12360,"gery":12361,"iol":12362,"iance":12363,"japonicum":12364,"kin":12365,"lore":12366,"lip":12367,"mals":12368,"ng":12369,"nce":12370,"pe":12371,"pri":12372,"pup":12373,"rhododendron":12374,"sens":12375,"surface":12376,"single":12377,"sulphur":12378,"sacks":12379,"tim":12380,"uis":12381,"viation":12382,"Ġticks":12383,"inite":12384,"release":12385,"rella":12386,"Ġtherap":12387,"Ġsle":12388,"Ġskeleton":12389,"Ġcant":12390,"Ġcrown":12391,"Ġpectolytic":12392,"Ġfire":12393,"Ġfring":12394,"Ġfigure":12395,"rof":12396,"isd":12397,"isco":12398,"orget":12399,"Ġansw":12400,"Ġinert":12401,"alayan":12402,"ico":12403,"aris":12404,"ionts":12405,"Ġmental":12406,"Ġtowns":12407,"Ġwear":12408,"ilia":12409,"ilaspur":12410,"ĠTK":12411,"ĠTeas":12412,"ĠTaluka":12413,"leaved":12414,"ĠWet":12415,"ĠWRB":12416,"Ġprove":12417,"user":12418,"Ġbegan":12419,"uries":12420,"urisd":12421,"omyc":12422,"ete":12423,"etor":12424,"idav":12425,"idhan":12426,"Ġnor":12427,"Ġnig":12428,"Ġnerve":12429,"Ġcongen":12430,"Ġlining":12431,"Ġlye":12432,"Ġlangu":12433,"Ġgate":12434,"anteshwari":12435,"raft":12436,"Ġhim":12437,"Ġhid":12438,"Ġhive":12439,"dung":12440,"agricult":12441,"osem":12442,"Ġsupers":12443,"ĠIET":12444,"Ġvic":12445,"Ġvial":12446,"Ġvap":12447,"Ġstop":12448,"Ġstew":12449,"Ġstones":12450,"quiry":12451,"Ġplug":12452,"ĠADT":12453,"ĠAphis":12454,"ĠCreating":12455,"igyan":12456,"Ġends":12457,"Ġenco":12458,"Ġenquiry":12459,"Ġfarmland":12460,"ivora":12461,"Ġdece":12462,"Ġdebit":12463,"Ġdeviations":12464,"Ġcontour":12465,"Ġcontrast":12466,"Ġuser":12467,"Ġshot":12468,"ĠSales":12469,"ĠSulphur":12470,"Ġimpaired":12471,"Ġrinds":12472,"Ġrheology":12473,"ĠPS":12474,"ĠFinger":12475,"ĠFormal":12476,"ĠFeeding":12477,"redict":12478,"ĠHer":12479,"ĠHot":12480,"ĠHairy":12481,"ĠHalf":12482,"Ġleached":12483,"addition":12484,"adder":12485,"Ġaltering":12486,"Ġexamination":12487,"Ġorganop":12488,"Ġappreci":12489,"opted":12490,"ĠBD":12491,"ĠBesides":12492,"ĠBisco":12493,"ĠBilaspur":12494,"Ġorganically":12495,"Ġcomputation":12496,"Ġmanages":12497,"Ġagit":12498,"Ġagri":12499,"Ġdoub":12500,"Ġrouted":12501,"Ġ130":12502,"Ġcaught":12503,"rological":12504,"ĠNx":12505,"ĠNursery":12506,"Ġthaw":12507,"ĠDil":12508,"ĠDDT":12509,"ĠDBR":12510,"ĠDanteshwari":12511,"ractive":12512,"ĠRosem":12513,"Ġjeop":12514,"Ġjurisd":12515,"ocoris":12516,"efruit":12517,"efinite":12518,"thermal":12519,"Ġquite":12520,"rens":12521,"Ġtruly":12522,"Ġnoted":12523,"Ġmetallic":12524,"ĠOmega":12525,"Ġhealthcare":12526,"Ġmeals":12527,"ĠGen":12528,"ĠGites":12529,"ĠEr":12530,"ilizer":12531,"ostic":12532,"Ġactually":12533,"Ġshut":12534,"Ġsharp":12535,"Ġabras":12536,"ĠLCC":12537,"ĠLady":12538,"Ġindefinite":12539,"encement":12540,"ĠAdd":12541,"Ġpromoter":12542,"Ġunne":12543,"Ġuniversity":12544,"Ġunlike":12545,"achlore":12546,"Ġblade":12547,"ĠJRO":12548,"acteric":12549,"Ġinsecticidal":12550,"Ġwhom":12551,"Ġcarries":12552,"Ġchemically":12553,"rinking":12554,"Ġobst":12555,"phal":12556,"Ġresulted":12557,"Ġrelig":12558,"Ġdistortion":12559,"Ġexpelled":12560,"Ġdirected":12561,"Ġfaces":12562,"Ġdepri":12563,"Ġpeach":12564,"aneous":12565,"Ġharvester":12566,"Ġlowers":12567,"inese":12568,"Ġapprovals":12569,"Ġrotting":12570,"Ġleafhoppers":12571,"fulla":12572,"Ġoptimization":12573,"ĠChinese":12574,"Ġinfests":12575,"Ġattending":12576,"Ġattachment":12577,"Ġbrevicornis":12578,"Ġbuck":12579,"Ġemail":12580,"Ġemulsion":12581,"Ġtwigs":12582,"inted":12583,"Ġ209":12584,"ĠVeter":12585,"ĠVirus":12586,"ĠVigyan":12587,"Ġfoxtail":12588,"Ġcarbofuran":12589,"Ġidentifies":12590,"Ġargent":12591,"Ġfreezes":12592,"ĠAnant":12593,"Ġpressures":12594,"ĠCanning":12595,"Ġparagraph":12596,"Ġparallel":12597,"Ġspreads":12598,"Ġprofen":12599,"value":12600,"Ġfounded":12601,"Ġrecur":12602,"riming":12603,"Ġbasil":12604,"Ġplayer":12605,"Ġbrid":12606,"Ġoccas":12607,"Ġindividually":12608,"Ġingested":12609,"Ġdrains":12610,"Ġphospho":12611,"Ġcounts":12612,"loving":12613,"ĠCoated":12614,"Ġmothas":12615,"monium":12616,"hips":12617,"ĠImproving":12618,"PMU":12619,"Ġzones":12620,"Ġtopic":12621,"ĠRegulatory":12622,"Ġsafely":12623,"ĠDirections":12624,"Ġburden":12625,"Ġshaping":12626,"Ġconducts":12627,"Ġmechanized":12628,"Ġploughings":12629,"producer":12630,"Ġmanufactures":12631,"Ġcataly":12632,"Ġvolunt":12633,"Ġvolumes":12634,"Ġpurchases":12635,"Ġreferring":12636,"Ġgelation":12637,"Ġeders":12638,"Ġedge":12639,"Ġ1961":12640,"Ġreadiness":12641,"retion":12642,"Ġdocumentary":12643,"ĠAtt":12644,"Ġhybridization":12645,"Ġadjustment":12646,"Ġdestructive":12647,"ĠAppert":12648,"ĠContin":12649,"orescence":12650,"ĠMountain":12651,"Ġforecast":12652,"Ġdiscour":12653,"129":12654,"Ġpurees":12655,"Ġwasted":12656,"Ġ127":12657,"Ġdiversify":12658,"Ġdisrupted":12659,"Ġshowers":12660,"ĠCarbox":12661,"Ġchest":12662,"Ġcheap":12663,"Ġcheaper":12664,"Ġvalued":12665,"ĠCEOs":12666,"ĠCERT":12667,"Ġenterotoxaemia":12668,"ĠDepending":12669,"Ġabsorbing":12670,"Ġresolved":12671,"Ġresolving":12672,"Ġ75000":12673,"Ġsituated":12674,"Ġgrapefruit":12675,"Ġefferves":12676,"Ġclustering":12677,"Ġeducating":12678,"ĠComposting":12679,"Ġfloating":12680,"Ġagroc":12681,"Ġwinding":12682,"DAP":12683,"watering":12684,"Ġfailures":12685,"filled":12686,"ĠSanba":12687,"Ġinnovations":12688,"Ġlateral":12689,"Ġsterilize":12690,"Ġformaldehyde":12691,"Ġswim":12692,"Ġswarming":12693,"Ġharrow":12694,"Ġharness":12695,"Ġfootprin":12696,"ĠSugandha":12697,"Ġaiding":12698,"Ġdevice":12699,"Ġdeclare":12700,"Ġdeclaring":12701,"Ġcrushers":12702,"Ġsubsequently":12703,"Ġgalls":12704,"Ġdispose":12705,"Ġdemonstrated":12706,"ĠRedgram":12707,"Ġphenol":12708,"Ġphenyl":12709,"Ġpasting":12710,"ioxidants":12711,"Ġmisuse":12712,"umpy":12713,"NAU":12714,"Ġgeorget":12715,"ĠPectinase":12716,"Ġcoccidia":12717,"Ġpuddled":12718,"Ġcyan":12719,"Ġpeeled":12720,"Ġhypertonic":12721,"ĠYojna":12722,"ĠMetalaxyl":12723,"ĠAuthorities":12724,"certification":12725,"Ġboosting":12726,"Ġauthenticated":12727,"ĠIncorpor":12728,"ĠIncluding":12729,"Ġgums":12730,"Ġrealization":12731,"ĠTerms":12732,"Ġbrick":12733,"Ġdropped":12734,"Ġsprout":12735,"ĠCAU":12736,"Ġsequential":12737,"Ġskipped":12738,"Ġfannings":12739,"ettia":12740,"ĠBeing":12741,"ĠCoccus":12742,"ĠFebendazole":12743,"ĠCultivating":12744,"ĠShareholder":12745,"Ġdraft":12746,"Ġviridis":12747,"ĠRanikht":12748,"Ġsickness":12749,"Ġfragrance":12750,"Ġunsafe":12751,"attered":12752,"Ġmotion":12753,"ĠMulch":12754,"Ġcalling":12755,"ĠHYVs":12756,"ĠValley":12757,"Ġhailstorms":12758,"ĠHimalayan":12759,"Ġpellet":12760,"ĠCrypt":12761,"ĠRodale":12762,"Ġprotocol":12763,"Ġharmonious":12764,"Ġdiagnostic":12765,"Ġshells":12766,"Ġannually":12767,"flatox":12768,"Ġexchanger":12769,"Ġbuttoning":12770,"Ġwholesome":12771,"Ġinvented":12772,"Ġculled":12773,"Ġcohesive":12774,"Ġcoffeae":12775,"ĠChloro":12776,"Ġempowers":12777,"Ġsieves":12778,"ĠAntioxidants":12779,"Ġsundaes":12780,"ĠSankul":12781,"Ġtraceability":12782,"industries":12783,"Ġrigorous":12784,"ĠSabour":12785,"ĠPrafulla":12786,"ĠMulti":12787,"Ġthriving":12788,"Ġnourishment":12789,"Ġexamines":12790,"oproteins":12791,"ĠWadi":12792,"ĠRanjit":12793,"Ġlockdown":12794,"Ġadministering":12795,"ĠPreparation":12796,"Ġsatisfied":12797,"Ġmetribuzin":12798,"Ġreconstit":12799,"Ġflavonoids":12800,"Ġcelosia":12801,"Ġprothorax":12802,"Ġstipulated":12803,"Ġscalding":12804,"Ġshrinkage":12805,"Ġnurturing":12806,"ĠSaissettia":12807,"Ġdisplay":12808,"Ġunpredict":12809,"Ġtinge":12810,"Ġazimsulfuron":12811,"Ġcosmic":12812,"Ġlipids":12813,"helmintic":12814,"ĠMycorrhizae":12815,"Ġenthusiasts":12816,"ĠBrand":12817,"ĠBajaura":12818,"Ġspecimen":12819,"Ġoverheating":12820,"Ġcubic":12821,"Ġpertaining":12822,"ppermint":12823,"Ġheterotrop":12824,"Ġrationale":12825,"Ġthirty":12826,"Ġquarantine":12827,"Ġapproximate":12828,"ĠHydrocooling":12829,"Ġgeometry":12830,"Ġaccomplished":12831,"current":12832,"Ġtalc":12833,"Ġdecentralized":12834,"ĠBareilly":12835,"Ġdisappear":12836,"Ġsomewhat":12837,"ĠEnterotoxaemia":12838,"BoDs":12839,"lipid":12840,"sulphuron":12841,"Ġcantaf":12842,"omycetes":12843,"idavit":12844,"ĠRosemary":12845,"Ġjeopard":12846,"ĠGitesh":12847,"Ġindefinitely":12848,"Ġunnecess":12849,"Ġargentina":12850,"ĠContinuous":12851,"Ġgeorgette":12852,"Ġunpredictable":12853,")/":12854,"06":12855,"030":12856,"119":12857,"233":12858,"31":12859,"300":12860,"335":12861,"AoA":12862,"BA":12863,"Ban":12864,"Bas":12865,"Compos":12866,"Ex":12867,"Mand":12868,"Pack":12869,"Pusa":12870,"PPR":12871,"Reg":12872,"SIR":12873,"TS":12874,"bearing":12875,"cil":12876,"dis":12877,"dried":12878,"docu":12879,"eath":12880,"fish":12881,"gment":12882,"gol":12883,"ki":12884,"kash":12885,"long":12886,"mm":12887,"mishes":12888,"nat":12889,"nowing":12890,"ply":12891,"pher":12892,"ruth":12893,"san":12894,"tometer":12895,"village":12896,"ytometer":12897,"Ġtet":12898,"inous":12899,"Ġaflatox":12900,"rely":12901,"Ġox":12902,"atom":12903,"atch":12904,"atter":12905,"aturated":12906,"Ġcms":12907,"oning":12908,"Ġpho":12909,"Ġfles":12910,"Ġfitted":12911,"itative":12912,"Ġbh":12913,"Ġbored":12914,"Ġinhib":12915,"Ġinedible":12916,"Ġinherent":12917,"ĠmL":12918,"Ġmess":12919,"Ġmice":12920,"Ġmales":12921,"Ġmagn":12922,"Ġdorm":12923,"enthi":12924,"Ġwarehouse":12925,"Ġreuse":12926,"ĠTrap":12927,"lea":12928,"ĠWaters":12929,"ĠWDG":12930,"usp":12931,"Ġforum":12932,"ominal":12933,"eterm":12934,"hocy":12935,"idis":12936,"idach":12937,"ĠTher":12938,"Ġnod":12939,"Ġnib":12940,"Ġlod":12941,"Ġlamp":12942,"Ġgase":12943,"Ġgray":12944,"Ġgains":12945,"anting":12946,"anthem":12947,"Ġhon":12948,"irid":12949,"irpus":12950,"ections":12951,"osa":12952,"osure":12953,"Ġhemic":12954,"chron":12955,"Ġstall":12956,"Ġsticking":12957,"ĠCit":12958,"ĠCamomile":12959,"Ġenact":12960,"Ġdeleg":12961,"amali":12962,"terous":12963,"ĠSal":12964,"ĠSul":12965,"ĠShy":12966,"ĠSph":12967,"ĠSilent":12968,"Ġimply":12969,"Ġrhy":12970,"Ġrupees":12971,"ĠPhe":12972,"ĠFive":12973,"ĠFour":12974,"ĠFrance":12975,"Ġspan":12976,"ĠHere":12977,"ĠHCl":12978,"adirachtin":12979,"Ġplanter":12980,"Ġadmissible":12981,"ĠBispyribac":12982,"ĠBPH":12983,"Ġvariables":12984,"orea":12985,"ricting":12986,"actog":12987,"Ġperches":12988,"Ġperoxid":12989,"Ġincidental":12990,"Ġcomplying":12991,"Ġdoct":12992,"Ġdispers":12993,"ansi":12994,"Ġcoars":12995,"ĠMA":12996,"ĠMare":12997,"ĠMusk":12998,"Ġkhas":12999,"Ġkhada":13000,"Ġ110":13001,"Ġ140":13002,"Ġteeth":13003,"Ġcaj":13004,"henyl":13005,"aven":13006,"ĠNW":13007,"ĠName":13008,"resso":13009,"uges":13010,"ĠDue":13011,"ĠDairy":13012,"ĠDwarf":13013,"ĠDIR":13014,"ĠDBW":13015,"Ġinfused":13016,"efined":13017,"Ġquiz":13018,"Ġ26":13019,"Ġpurification":13020,"Ġnever":13021,"ibha":13022,"ĠGNR":13023,"ĠGundhi":13024,"Ġsew":13025,"Ġbeneath":13026,"Ġscaven":13027,"ĠElect":13028,"arest":13029,"Ġshred":13030,"Ġmovable":13031,"Ġoverl":13032,"Ġovernight":13033,"Ġovercoming":13034,"iaz":13035,"Ġsupplies":13036,"Ġmaidis":13037,"Ġformally":13038,"Ġbetel":13039,"Ġclog":13040,"Ġcommin":13041,"iciously":13042,"ĠAdoption":13043,"Ġsolani":13044,"Ġfinitimus":13045,"Ġextrane":13046,"Ġunatt":13047,"Ġunavail":13048,"ĠKush":13049,"ĠKang":13050,"ĠKorea":13051,"Ġmono":13052,"Ġmonoc":13053,"Ġblanched":13054,"assing":13055,"Ġcarri":13056,"Ġpouring":13057,"Ġpoorer":13058,"rincip":13059,"phus":13060,"ondents":13061,"Ġrefuges":13062,"Ġoutcomp":13063,"ĠIndivid":13064,"Ġthereof":13065,"Ġrelate":13066,"ĠStraw":13067,"Ġtextural":13068,"Ġrarely":13069,"Ġmilest":13070,"Ġearned":13071,"iole":13072,"Ġyearly":13073,"Ġgenus":13074,"Ġdepleting":13075,"Ġirrigating":13076,"Ġfinanci":13077,"Ġextractors":13078,"Ġlowlands":13079,"Ġboreholes":13080,"Ġrots":13081,"Ġrotor":13082,"Ġfolds":13083,"Ġbread":13084,"Ġentang":13085,"Ġsourcing":13086,"ARM":13087,"ARGs":13088,"Ġequitable":13089,"Ġsmuts":13090,"ĠVol":13091,"Ġdetermination":13092,"ucer":13093,"Ġcreditworthiness":13094,"Ġargue":13095,"Ġpackets":13096,"oiling":13097,"Ġharming":13098,"Ġwasp":13099,"Ġregulates":13100,"Ġprophyl":13101,"Ġbiotypes":13102,"Ġprofiles":13103,"Ġflavorings":13104,"Ġbacterium":13105,"Ġcarbonic":13106,"Ġsaucer":13107,"ĠScientific":13108,"Ġscientist":13109,"Ġplanet":13110,"uthorized":13111,"Ġborders":13112,"2019":13113,"Ġcommunic":13114,"ĠImidach":13115,"Ġappropriations":13116,"incorpor":13117,"including":13118,"Ġowners":13119,"Ġcurved":13120,"ĠActs":13121,"Ġsecured":13122,"Ġexposes":13123,"ĠInstitutes":13124,"Ġcuts":13125,"Ġinvested":13126,"508":13127,"Ġthousand":13128,"project":13129,"Ġtrustees":13130,"Ġincreasingly":13131,"Ġripens":13132,"Ġinternet":13133,"Ġinternode":13134,"Ġsimulation":13135,"Ġsimply":13136,"registered":13137,"Ġ190":13138,"Ġ1990":13139,"Ġpreferable":13140,"Ġsweat":13141,"Ġabsorbs":13142,"Ġeverything":13143,"ĠTrustees":13144,"Ġdocumented":13145,"ĠAtactog":13146,"Ġphone":13147,"ĠAppraisal":13148,"Ġpredation":13149,"Ġposing":13150,"ofung":13151,"ĠMolybdenum":13152,"Ġsubsurface":13153,"Ġevaporative":13154,"Ġplasticity":13155,"Ġcontinuance":13156,"Ġdiscretion":13157,"Ġdissolution":13158,"Ġdissolves":13159,"Ġfluids":13160,"Ġwetland":13161,"Ġsmoke":13162,"Ġmilled":13163,"Ġgoverns":13164,"Ġauto":13165,"Ġseverely":13166,"Ġderive":13167,"ĠJeevamrutha":13168,"ĠEnergy":13169,"Ġsmoothly":13170,"management":13171,"ĠSevere":13172,"ĠSelecting":13173,"Ġchillies":13174,"ĠComposites":13175,"Ġallocating":13176,"Ġstatistical":13177,"Ġradishes":13178,"ĠNeemark":13179,"Ġexcre":13180,"Ġtransforms":13181,"DAS":13182,"Ġaffinity":13183,"Ġfinely":13184,"ĠChrysanthem":13185,"Ġstreak":13186,"Ġhazard":13187,"Ġdeterrent":13188,"sequently":13189,"spouts":13190,"ĠPhosphorous":13191,"ĠEmploy":13192,"Ġratooning":13193,"Ġpositively":13194,"Ġreserved":13195,"cellular":13196,"Ġattributed":13197,"Ġglobe":13198,"Ġcorrective":13199,"Ġmiscon":13200,"Ġjellied":13201,"Ġtips":13202,"ĠPeppermint":13203,"itaceae":13204,"Ġsurveys":13205,"ĠZnSo":13206,"Ġrefrigerant":13207,"Ġlactating":13208,"Ġhindering":13209,"ĠSahar":13210,"ĠPratibha":13211,"Ġassigning":13212,"ĠPlanthopper":13213,"Ġslugs":13214,"Ġmedicines":13215,"Ġdistinguished":13216,"Ġtoxicity":13217,"Ġloosely":13218,"Ġtangy":13219,"ĠTermites":13220,"Ġcontracts":13221,"ĠRoot":13222,"Ġsprinkler":13223,"Ġnematode":13224,"Ġmethylated":13225,"Ġlifesty":13226,"Ġexhausting":13227,"asmine":13228,"Ġconnected":13229,"Ġboundaries":13230,"ĠLook":13231,"Ġdepleted":13232,"Ġabdominal":13233,"ĠAlternative":13234,"Ġauditors":13235,"962":13236,"Input":13237,"ĠFeSO":13238,"Ġadvocacy":13239,"Ġloosen":13240,"Ġtapioc":13241,"Ġgeographic":13242,"Ġalkalinity":13243,"ĠYielding":13244,"Ġthuringensis":13245,"Ġmoulds":13246,"Ġmelon":13247,"seedlings":13248,"help":13249,"Ġundesired":13250,"Ġfraction":13251,"Ġsecretion":13252,"Ġblemishes":13253,"Ġelevated":13254,"Ġmerione":13255,"Ġlicenses":13256,"Ġcontingencies":13257,"Ġaluminum":13258,"Ġjudiciously":13259,"Ġscraped":13260,"Ġprecipitate":13261,"STSU":13262,"ĠKarnal":13263,"Ġharmonization":13264,"Ġjointly":13265,"Ġinserting":13266,"Ġelongate":13267,"Ġbroadcasting":13268,"ĠEngland":13269,"ETL":13270,"Ġannum":13271,"Ġanticoag":13272,"Ġinflorescence":13273,"Ġpoisoning":13274,"Ġerror":13275,"flavor":13276,"synthetic":13277,"ĠJhansi":13278,"Ġwhorls":13279,"Ġwholesale":13280,"ĠCucurbitaceae":13281,"uffs":13282,"Ġempowering":13283,"Ġmucoproteins":13284,"ĠSankar":13285,"Ġtannins":13286,"ĠAudit":13287,"ĠSabha":13288,"ĠPrakash":13289,"Ġcomplaint":13290,"Ġthrives":13291,"Ġdefoliate":13292,"ĠHarit":13293,"ĠProtopectin":13294,"Ġhomeopathy":13295,"Ġmosquitoes":13296,"ĠParasitoids":13297,"Ġbushes":13298,"Ġstagnation":13299,"ĠCurcul":13300,"Ġpretreatment":13301,"ĠMungeli":13302,"Ġprecursors":13303,"Ġhomogen":13304,"ĠFermentation":13305,"Ġsynchron":13306,"Ġuprooted":13307,"processing":13308,"Ġinduced":13309,"Ġaccompanying":13310,"Ġabbreviation":13311,"Ġentomopathogenic":13312,"Ġlegislation":13313,"Ġdurations":13314,"ĠHydrop":13315,"NPV":13316,"ĠPredatory":13317,"Ġdifferentiate":13318,"ĠPhysical":13319,"Ġfosters":13320,"Ġectoparasites":13321,"Ġenclosed":13322,"cospora":13323,"Ġpredominantly":13324,"uvants":13325,"Ġfishermen":13326,"Ġharbor":13327,"Ġimmovable":13328,"ĠEvaluate":13329,"ĠMaximum":13330,"ĠEnzymes":13331,"munication":13332,"Ġideas":13333,"Ġgnaw":13334,"ĠSymptom":13335,"ĠPhyllody":13336,"Ġagenda":13337,"Ġdisinteg":13338,"Ġreconsideration":13339,"ĠManufacturing":13340,"approved":13341,"Ġmiscellaneous":13342,"ĠRepresentatives":13343,"ĠErgol":13344,"Ġbucket":13345,"Ġfootprint":13346,"Ġunnecessary":13347,"Mandi":13348,"Packaging":13349,"Ġphoto":13350,"Ġfleshy":13351,"enthiuron":13352,"ĠWatershed":13353,"etermined":13354,"hocyan":13355,"Ġnodules":13356,"Ġgaseous":13357,"Ġhemicellul":13358,"ĠShyamali":13359,"Ġrhyth":13360,"Ġkhasi":13361,"Ġextraneous":13362,"ĠKangra":13363,"ĠAtactogaster":13364,"ĠChrysanthemum":13365,"Ġtapioca":13366,"ĠCurculionidae":13367,"ĠErgolis":13368,"125":13369,"600":13370,"APR":13371,"BFCs":13372,"CU":13373,"DW":13374,"GG":13375,"GP":13376,"IARI":13377,"ML":13378,"NH":13379,"Nitrogen":13380,"PS":13381,"RL":13382,"Sc":13383,"Silent":13384,"UAT":13385,"VAL":13386,"WBPH":13387,"aut":13388,"bod":13389,"bits":13390,"bacter":13391,"business":13392,"bitter":13393,"cuss":13394,"div":13395,"drinking":13396,"eut":13397,"eres":13398,"gs":13399,"growing":13400,"hort":13401,"had":13402,"iatic":13403,"late":13404,"link":13405,"living":13406,"oce":13407,"pert":13408,"peas":13409,"paren":13410,"pudd":13411,"rase":13412,"rison":13413,"she":13414,"sul":13415,"sodium":13416,"silting":13417,"tons":13418,"vents":13419,"west":13420,"Ġ________":13421,"hether":13422,"heaps":13423,"inell":13424,"Ġax":13425,"Ġaer":13426,"Ġaug":13427,"Ġoch":13428,"Ġoily":13429,"atis":13430,"atellus":13431,"erative":13432,"Ġsure":13433,"Ġchis":13434,"Ġcensus":13435,"onla":13436,"Ġpover":13437,"anion":13438,"enoc":13439,"Ġfide":13440,"Ġfear":13441,"Ġfoss":13442,"Ġfructose":13443,"isen":13444,"itz":13445,"edge":13446,"edti":13447,"orption":13448,"Ġbins":13449,"Ġbath":13450,"Ġanch":13451,"Ġanterior":13452,"Ġinh":13453,"Ġincomes":13454,"arches":13455,"Ġmutation":13456,"Ġdies":13457,"Ġtown":13458,"entatom":13459,"Ġwand":13460,"Ġwants":13461,"Ġwrap":13462,"ilk":13463,"ilate":13464,"Ġreusable":13465,"ĠTop":13466,"ĠTricyc":13467,"ĠWeeding":13468,"ulas":13469,"ulph":13470,"asid":13471,"urit":13472,"urable":13473,"omy":13474,"omal":13475,"hou":13476,"how":13477,"Ġnorms":13478,"Ġcongest":13479,"Ġlamin":13480,"Ġlady":13481,"Ġgels":13482,"Ġorders":13483,"Ġoryz":13484,"Ġhilly":13485,"ift":13486,"otations":13487,"otassium":13488,"ector":13489,"aba":13490,"Ġvorac":13491,"chmark":13492,"Ġsticks":13493,"ulty":13494,"Ġplag":13495,"Ġplume":13496,"ĠAst":13497,"ĠARG":13498,"ĠCH":13499,"ĠCu":13500,"ĠCrit":13501,"ĠClo":13502,"ĠCold":13503,"ĠCocon":13504,"izophos":13505,"ganese":13506,"step":13507,"stedti":13508,"Ġusable":13509,"ĠSI":13510,"ĠSak":13511,"ĠSout":13512,"ĠShah":13513,"thirds":13514,"Ġimprison":13515,"Ġbyproduct":13516,"ĠPat":13517,"ĠPay":13518,"ĠPop":13519,"ĠPHB":13520,"ĠPentatom":13521,"Ġcomestible":13522,"ĠFlav":13523,"ĠFAO":13524,"ĠFARM":13525,"Ġspect":13526,"Ġspend":13527,"ĠHard":13528,"ĠHier":13529,"ĠHerb":13530,"Ġlev":13531,"Ġlean":13532,"acuum":13533,"opting":13534,"ĠBay":13535,"ĠBiod":13536,"ĠBraz":13537,"ĠBabhar":13538,"ĠBoiling":13539,"Ġvariation":13540,"akers":13541,"Ġperpus":13542,"Ġwatermelon":13543,"Ġcompress":13544,"ptical":13545,"Ġcogn":13546,"Ġconsignment":13547,"Ġcarotenoids":13548,"avings":13549,"hyme":13550,"ĠNTSU":13551,"igha":13552,"Ġthrust":13553,"Ġimporting":13554,"ĠDx":13555,"ĠDeed":13556,"ĠDay":13557,"ĠDNA":13558,"ĠDiptera":13559,"ĠRRB":13560,"Ġchips":13561,"Ġjhum":13562,"Ġjars":13563,"Ġjasmine":13564,"ochemical":13565,"Ġinfusc":13566,"Ġneither":13567,"Ġnearest":13568,"ĠOolong":13569,"generation":13570,"Ġintim":13571,"Ġintend":13572,"untze":13573,"ĠGre":13574,"ĠGon":13575,"ĠGerm":13576,"Ġbenchmark":13577,"arya":13578,"ipe":13579,"iped":13580,"Ġscene":13581,"Ġscirpus":13582,"ĠEVAL":13583,"ramp":13584,"Ġshipping":13585,"Ġshavings":13586,
[...]
